const unsigned char model[] __attribute__((aligned(4))) = {
  0x1c, 0x00, 0x00, 0x00, 0x54, 0x46, 0x4c, 0x33, 0x00, 0x00, 0x12, 0x00,
  0x1c, 0x00, 0x04, 0x00, 0x08, 0x00, 0x0c, 0x00, 0x10, 0x00, 0x14, 0x00,
  0x00, 0x00, 0x18, 0x00, 0x12, 0x00, 0x00, 0x00, 0x03, 0x00, 0x00, 0x00,
  0x14, 0x00, 0x00, 0x00, 0x28, 0x00, 0x00, 0x00, 0xd0, 0x00, 0x00, 0x00,
  0x28, 0x00, 0x00, 0x00, 0x78, 0x00, 0x00, 0x00, 0x05, 0x00, 0x00, 0x00,
  0x48, 0x07, 0x00, 0x00, 0x5c, 0x06, 0x00, 0x00, 0x7c, 0x03, 0x00, 0x00,
  0xc8, 0x02, 0x00, 0x00, 0xa8, 0x01, 0x00, 0x00, 0x01, 0x00, 0x00, 0x00,
  0xcc, 0x00, 0x00, 0x00, 0x14, 0x00, 0x00, 0x00, 0xc8, 0x25, 0x00, 0x00,
  0xc4, 0x25, 0x00, 0x00, 0x9c, 0x24, 0x00, 0x00, 0x18, 0x24, 0x00, 0x00,
  0x98, 0x23, 0x00, 0x00, 0x10, 0x23, 0x00, 0x00, 0xa0, 0x22, 0x00, 0x00,
  0x48, 0x0a, 0x00, 0x00, 0x30, 0x09, 0x00, 0x00, 0xac, 0x08, 0x00, 0x00,
  0x10, 0x08, 0x00, 0x00, 0x9c, 0x25, 0x00, 0x00, 0x98, 0x25, 0x00, 0x00,
  0x94, 0x25, 0x00, 0x00, 0x90, 0x25, 0x00, 0x00, 0x8c, 0x25, 0x00, 0x00,
  0x88, 0x25, 0x00, 0x00, 0x84, 0x25, 0x00, 0x00, 0x80, 0x25, 0x00, 0x00,
  0x38, 0x00, 0x00, 0x00, 0x01, 0x00, 0x00, 0x00, 0x0c, 0x00, 0x00, 0x00,
  0x08, 0x00, 0x0c, 0x00, 0x04, 0x00, 0x08, 0x00, 0x08, 0x00, 0x00, 0x00,
  0x08, 0x00, 0x00, 0x00, 0x13, 0x00, 0x00, 0x00, 0x13, 0x00, 0x00, 0x00,
  0x6d, 0x69, 0x6e, 0x5f, 0x72, 0x75, 0x6e, 0x74, 0x69, 0x6d, 0x65, 0x5f,
  0x76, 0x65, 0x72, 0x73, 0x69, 0x6f, 0x6e, 0x00, 0xe6, 0xdb, 0xff, 0xff,
  0x04, 0x00, 0x00, 0x00, 0x10, 0x00, 0x00, 0x00, 0x31, 0x2e, 0x35, 0x2e,
  0x30, 0x00, 0x00, 0x00, 0x00, 0x00, 0x00, 0x00, 0x00, 0x00, 0x00, 0x00,
  0x0f, 0x00, 0x00, 0x00, 0x4d, 0x4c, 0x49, 0x52, 0x20, 0x43, 0x6f, 0x6e,
  0x76, 0x65, 0x72, 0x74, 0x65, 0x64, 0x2e, 0x00, 0x00, 0x00, 0x0e, 0x00,
  0x18, 0x00, 0x04, 0x00, 0x08, 0x00, 0x0c, 0x00, 0x10, 0x00, 0x14, 0x00,
  0x0e, 0x00, 0x00, 0x00, 0x14, 0x00, 0x00, 0x00, 0x5c, 0x00, 0x00, 0x00,
  0x60, 0x00, 0x00, 0x00, 0x64, 0x00, 0x00, 0x00, 0x84, 0x00, 0x00, 0x00,
  0x12, 0x00, 0x00, 0x00, 0x90, 0x24, 0x00, 0x00, 0x1c, 0x24, 0x00, 0x00,
  0x54, 0x23, 0x00, 0x00, 0xd0, 0x22, 0x00, 0x00, 0x50, 0x22, 0x00, 0x00,
  0xe8, 0x21, 0x00, 0x00, 0x78, 0x21, 0x00, 0x00, 0x20, 0x09, 0x00, 0x00,
  0xf4, 0x07, 0x00, 0x00, 0x70, 0x07, 0x00, 0x00, 0x2c, 0x06, 0x00, 0x00,
  0x40, 0x05, 0x00, 0x00, 0xcc, 0x03, 0x00, 0x00, 0x08, 0x03, 0x00, 0x00,
  0x58, 0x02, 0x00, 0x00, 0xa4, 0x01, 0x00, 0x00, 0xfc, 0x00, 0x00, 0x00,
  0x80, 0x00, 0x00, 0x00, 0x01, 0x00, 0x00, 0x00, 0x00, 0x00, 0x00, 0x00,
  0x01, 0x00, 0x00, 0x00, 0x11, 0x00, 0x00, 0x00, 0x08, 0x00, 0x00, 0x00,
  0x90, 0x05, 0x00, 0x00, 0xb0, 0x04, 0x00, 0x00, 0x58, 0x03, 0x00, 0x00,
  0x94, 0x02, 0x00, 0x00, 0xf4, 0x01, 0x00, 0x00, 0x24, 0x01, 0x00, 0x00,
  0x94, 0x00, 0x00, 0x00, 0x10, 0x00, 0x00, 0x00, 0x04, 0x00, 0x00, 0x00,
  0x6d, 0x61, 0x69, 0x6e, 0x00, 0x00, 0x00, 0x00, 0x9a, 0xfd, 0xff, 0xff,
  0x00, 0x00, 0x00, 0x09, 0x04, 0x00, 0x00, 0x00, 0x1c, 0x00, 0x00, 0x00,
  0x10, 0x00, 0x00, 0x00, 0x04, 0x00, 0x00, 0x00, 0xe2, 0xdc, 0xff, 0xff,
  0x00, 0x00, 0x80, 0x3f, 0x01, 0x00, 0x00, 0x00, 0x11, 0x00, 0x00, 0x00,
  0x01, 0x00, 0x00, 0x00, 0x10, 0x00, 0x00, 0x00, 0x7a, 0xfa, 0xff, 0xff,
  0x00, 0x00, 0x00, 0x19, 0x01, 0x00, 0x00, 0x00, 0x48, 0xdc, 0xff, 0xff,
  0x14, 0x00, 0x00, 0x00, 0x12, 0x00, 0x00, 0x00, 0x18, 0x00, 0x00, 0x00,
  0x30, 0x00, 0x00, 0x00, 0x20, 0x00, 0x00, 0x00, 0x02, 0x00, 0x00, 0x00,
  0x01, 0x00, 0x00, 0x00, 0x03, 0x00, 0x00, 0x00, 0x08, 0x00, 0x00, 0x00,
  0x49, 0x64, 0x65, 0x6e, 0x74, 0x69, 0x74, 0x79, 0x00, 0x00, 0x00, 0x00,
  0x02, 0x00, 0x00, 0x00, 0xff, 0xff, 0xff, 0xff, 0x03, 0x00, 0x00, 0x00,
  0x20, 0xdc, 0xff, 0xff, 0x1a, 0xfe, 0xff, 0xff, 0x00, 0x00, 0x00, 0x08,
  0x03, 0x00, 0x00, 0x00, 0x18, 0x00, 0x00, 0x00, 0x0c, 0x00, 0x00, 0x00,
  0x04, 0x00, 0x00, 0x00, 0x3c, 0xdc, 0xff, 0xff, 0x01, 0x00, 0x00, 0x00,
  0x10, 0x00, 0x00, 0x00, 0x03, 0x00, 0x00, 0x00, 0x0f, 0x00, 0x00, 0x00,
  0x07, 0x00, 0x00, 0x00, 0x02, 0x00, 0x00, 0x00, 0xc0, 0xdc, 0xff, 0xff,
  0x14, 0x00, 0x00, 0x00, 0x11, 0x00, 0x00, 0x00, 0x18, 0x00, 0x00, 0x00,
  0x44, 0x00, 0x00, 0x00, 0x34, 0x00, 0x00, 0x00, 0x02, 0x00, 0x00, 0x00,
  0x01, 0x00, 0x00, 0x00, 0x03, 0x00, 0x00, 0x00, 0x1e, 0x00, 0x00, 0x00,
  0x73, 0x65, 0x71, 0x75, 0x65, 0x6e, 0x74, 0x69, 0x61, 0x6c, 0x5f, 0x32,
  0x37, 0x2f, 0x64, 0x65, 0x6e, 0x73, 0x65, 0x5f, 0x35, 0x31, 0x2f, 0x42,
  0x69, 0x61, 0x73, 0x41, 0x64, 0x64, 0x00, 0x00, 0x02, 0x00, 0x00, 0x00,
  0xff, 0xff, 0xff, 0xff, 0x03, 0x00, 0x00, 0x00, 0xac, 0xdc, 0xff, 0xff,
  0x92, 0xfc, 0xff, 0xff, 0x00, 0x00, 0x00, 0x08, 0x03, 0x00, 0x00, 0x00,
  0x24, 0x00, 0x00, 0x00, 0x18, 0x00, 0x00, 0x00, 0x0c, 0x00, 0x00, 0x00,
  0x00, 0x00, 0x06, 0x00, 0x08, 0x00, 0x07, 0x00, 0x06, 0x00, 0x00, 0x00,
  0x00, 0x00, 0x00, 0x01, 0x01, 0x00, 0x00, 0x00, 0x0f, 0x00, 0x00, 0x00,
  0x03, 0x00, 0x00, 0x00, 0x0e, 0x00, 0x00, 0x00, 0x06, 0x00, 0x00, 0x00,
  0x01, 0x00, 0x00, 0x00, 0x96, 0xfb, 0xff, 0xff, 0x00, 0x00, 0x00, 0x09,
  0x01, 0x00, 0x00, 0x00, 0x64, 0xdd, 0xff, 0xff, 0x14, 0x00, 0x00, 0x00,
  0x10, 0x00, 0x00, 0x00, 0x18, 0x00, 0x00, 0x00, 0x60, 0x00, 0x00, 0x00,
  0x50, 0x00, 0x00, 0x00, 0x02, 0x00, 0x00, 0x00, 0x01, 0x00, 0x00, 0x00,
  0x10, 0x00, 0x00, 0x00, 0x3a, 0x00, 0x00, 0x00, 0x73, 0x65, 0x71, 0x75,
  0x65, 0x6e, 0x74, 0x69, 0x61, 0x6c, 0x5f, 0x32, 0x37, 0x2f, 0x64, 0x65,
  0x6e, 0x73, 0x65, 0x5f, 0x35, 0x30, 0x2f, 0x52, 0x65, 0x6c, 0x75, 0x3b,
  0x73, 0x65, 0x71, 0x75, 0x65, 0x6e, 0x74, 0x69, 0x61, 0x6c, 0x5f, 0x32,
  0x37, 0x2f, 0x64, 0x65, 0x6e, 0x73, 0x65, 0x5f, 0x35, 0x30, 0x2f, 0x42,
  0x69, 0x61, 0x73, 0x41, 0x64, 0x64, 0x00, 0x00, 0x02, 0x00, 0x00, 0x00,
  0xff, 0xff, 0xff, 0xff, 0x10, 0x00, 0x00, 0x00, 0x9c, 0xde, 0xff, 0xff,
  0x00, 0x00, 0x0a, 0x00, 0x10, 0x00, 0x04, 0x00, 0x08, 0x00, 0x0c, 0x00,
  0x0a, 0x00, 0x00, 0x00, 0x02, 0x00, 0x00, 0x00, 0x10, 0x00, 0x00, 0x00,
  0x04, 0x00, 0x00, 0x00, 0x01, 0x00, 0x00, 0x00, 0x0e, 0x00, 0x00, 0x00,
  0x02, 0x00, 0x00, 0x00, 0x0d, 0x00, 0x00, 0x00, 0x05, 0x00, 0x00, 0x00,
  0x46, 0xfc, 0xff, 0xff, 0x00, 0x00, 0x00, 0x16, 0x01, 0x00, 0x00, 0x00,
  0x14, 0xde, 0xff, 0xff, 0x14, 0x00, 0x00, 0x00, 0x0f, 0x00, 0x00, 0x00,
  0x18, 0x00, 0x00, 0x00, 0x48, 0x00, 0x00, 0x00, 0x38, 0x00, 0x00, 0x00,
  0x02, 0x00, 0x00, 0x00, 0x01, 0x00, 0x00, 0x00, 0x60, 0x00, 0x00, 0x00,
  0x20, 0x00, 0x00, 0x00, 0x73, 0x65, 0x71, 0x75, 0x65, 0x6e, 0x74, 0x69,
  0x61, 0x6c, 0x5f, 0x32, 0x37, 0x2f, 0x66, 0x6c, 0x61, 0x74, 0x74, 0x65,
  0x6e, 0x5f, 0x32, 0x35, 0x2f, 0x52, 0x65, 0x73, 0x68, 0x61, 0x70, 0x65,
  0x00, 0x00, 0x00, 0x00, 0x02, 0x00, 0x00, 0x00, 0xff, 0xff, 0xff, 0xff,
  0x60, 0x00, 0x00, 0x00, 0x34, 0xdf, 0xff, 0xff, 0x00, 0x00, 0x0e, 0x00,
  0x18, 0x00, 0x08, 0x00, 0x0c, 0x00, 0x10, 0x00, 0x07, 0x00, 0x14, 0x00,
  0x0e, 0x00, 0x00, 0x00, 0x00, 0x00, 0x00, 0x05, 0x01, 0x00, 0x00, 0x00,
  0x2c, 0x00, 0x00, 0x00, 0x20, 0x00, 0x00, 0x00, 0x04, 0x00, 0x00, 0x00,
  0xea, 0xfd, 0xff, 0xff, 0x03, 0x00, 0x00, 0x00, 0x01, 0x00, 0x00, 0x00,
  0x03, 0x00, 0x00, 0x00, 0x01, 0x00, 0x00, 0x00, 0x00, 0x00, 0x00, 0x01,
  0x01, 0x00, 0x00, 0x00, 0x0d, 0x00, 0x00, 0x00, 0x01, 0x00, 0x00, 0x00,
  0x0c, 0x00, 0x00, 0x00, 0xc0, 0xde, 0xff, 0xff, 0x14, 0x00, 0x00, 0x00,
  0x0e, 0x00, 0x00, 0x00, 0x20, 0x00, 0x00, 0x00, 0x5c, 0x00, 0x00, 0x00,
  0x44, 0x00, 0x00, 0x00, 0x04, 0x00, 0x00, 0x00, 0x01, 0x00, 0x00, 0x00,
  0x08, 0x00, 0x00, 0x00, 0x03, 0x00, 0x00, 0x00, 0x04, 0x00, 0x00, 0x00,
  0x26, 0x00, 0x00, 0x00, 0x73, 0x65, 0x71, 0x75, 0x65, 0x6e, 0x74, 0x69,
  0x61, 0x6c, 0x5f, 0x32, 0x37, 0x2f, 0x6d, 0x61, 0x78, 0x5f, 0x70, 0x6f,
  0x6f, 0x6c, 0x69, 0x6e, 0x67, 0x32, 0x64, 0x5f, 0x35, 0x31, 0x2f, 0x4d,
  0x61, 0x78, 0x50, 0x6f, 0x6f, 0x6c, 0x00, 0x00, 0x04, 0x00, 0x00, 0x00,
  0xff, 0xff, 0xff, 0xff, 0x08, 0x00, 0x00, 0x00, 0x03, 0x00, 0x00, 0x00,
  0x04, 0x00, 0x00, 0x00, 0xf4, 0xdf, 0xff, 0xff, 0x00, 0x00, 0x0e, 0x00,
  0x14, 0x00, 0x00, 0x00, 0x08, 0x00, 0x0c, 0x00, 0x07, 0x00, 0x10, 0x00,
  0x0e, 0x00, 0x00, 0x00, 0x00, 0x00, 0x00, 0x02, 0x28, 0x00, 0x00, 0x00,
  0x1c, 0x00, 0x00, 0x00, 0x04, 0x00, 0x00, 0x00, 0xce, 0xfd, 0xff, 0xff,
  0x02, 0x00, 0x00, 0x00, 0x01, 0x00, 0x00, 0x00, 0x01, 0x00, 0x00, 0x00,
  0x00, 0x00, 0x01, 0x01, 0x01, 0x00, 0x00, 0x00, 0x0c, 0x00, 0x00, 0x00,
  0x03, 0x00, 0x00, 0x00, 0x0b, 0x00, 0x00, 0x00, 0x09, 0x00, 0x00, 0x00,
  0x04, 0x00, 0x00, 0x00, 0x80, 0xdf, 0xff, 0xff, 0x14, 0x00, 0x00, 0x00,
  0x0d, 0x00, 0x00, 0x00, 0x20, 0x00, 0x00, 0x00, 0xf0, 0x00, 0x00, 0x00,
  0xd8, 0x00, 0x00, 0x00, 0x04, 0x00, 0x00, 0x00, 0x01, 0x00, 0x00, 0x00,
  0x18, 0x00, 0x00, 0x00, 0x03, 0x00, 0x00, 0x00, 0x04, 0x00, 0x00, 0x00,
  0xba, 0x00, 0x00, 0x00, 0x73, 0x65, 0x71, 0x75, 0x65, 0x6e, 0x74, 0x69,
  0x61, 0x6c, 0x5f, 0x32, 0x37, 0x2f, 0x64, 0x65, 0x70, 0x74, 0x68, 0x77,
  0x69, 0x73, 0x65, 0x5f, 0x63, 0x6f, 0x6e, 0x76, 0x32, 0x64, 0x5f, 0x35,
  0x2f, 0x52, 0x65, 0x6c, 0x75, 0x3b, 0x73, 0x65, 0x71, 0x75, 0x65, 0x6e,
  0x74, 0x69, 0x61, 0x6c, 0x5f, 0x32, 0x37, 0x2f, 0x64, 0x65, 0x70, 0x74,
  0x68, 0x77, 0x69, 0x73, 0x65, 0x5f, 0x63, 0x6f, 0x6e, 0x76, 0x32, 0x64,
  0x5f, 0x35, 0x2f, 0x42, 0x69, 0x61, 0x73, 0x41, 0x64, 0x64, 0x3b, 0x73,
  0x65, 0x71, 0x75, 0x65, 0x6e, 0x74, 0x69, 0x61, 0x6c, 0x5f, 0x32, 0x37,
  0x2f, 0x64, 0x65, 0x70, 0x74, 0x68, 0x77, 0x69, 0x73, 0x65, 0x5f, 0x63,
  0x6f, 0x6e, 0x76, 0x32, 0x64, 0x5f, 0x35, 0x2f, 0x64, 0x65, 0x70, 0x74,
  0x68, 0x77, 0x69, 0x73, 0x65, 0x3b, 0x73, 0x65, 0x71, 0x75, 0x65, 0x6e,
  0x74, 0x69, 0x61, 0x6c, 0x5f, 0x32, 0x37, 0x2f, 0x64, 0x65, 0x70, 0x74,
  0x68, 0x77, 0x69, 0x73, 0x65, 0x5f, 0x63, 0x6f, 0x6e, 0x76, 0x32, 0x64,
  0x5f, 0x35, 0x2f, 0x42, 0x69, 0x61, 0x73, 0x41, 0x64, 0x64, 0x2f, 0x52,
  0x65, 0x61, 0x64, 0x56, 0x61, 0x72, 0x69, 0x61, 0x62, 0x6c, 0x65, 0x4f,
  0x70, 0x2f, 0x72, 0x65, 0x73, 0x6f, 0x75, 0x72, 0x63, 0x65, 0x00, 0x00,
  0x04, 0x00, 0x00, 0x00, 0xff, 0xff, 0xff, 0xff, 0x18, 0x00, 0x00, 0x00,
  0x03, 0x00, 0x00, 0x00, 0x04, 0x00, 0x00, 0x00, 0x48, 0xe1, 0xff, 0xff,
  0x00, 0x00, 0x0e, 0x00, 0x1a, 0x00, 0x08, 0x00, 0x0c, 0x00, 0x10, 0x00,
  0x07, 0x00, 0x14, 0x00, 0x0e, 0x00, 0x00, 0x00, 0x00, 0x00, 0x00, 0x05,
  0x01, 0x00, 0x00, 0x00, 0x3c, 0x00, 0x00, 0x00, 0x30, 0x00, 0x00, 0x00,
  0x14, 0x00, 0x00, 0x00, 0x00, 0x00, 0x0e, 0x00, 0x18, 0x00, 0x17, 0x00,
  0x10, 0x00, 0x0c, 0x00, 0x08, 0x00, 0x04, 0x00, 0x0e, 0x00, 0x00, 0x00,
  0x03, 0x00, 0x00, 0x00, 0x01, 0x00, 0x00, 0x00, 0x03, 0x00, 0x00, 0x00,
  0x01, 0x00, 0x00, 0x00, 0x00, 0x00, 0x00, 0x01, 0x01, 0x00, 0x00, 0x00,
  0x0b, 0x00, 0x00, 0x00, 0x01, 0x00, 0x00, 0x00, 0x0a, 0x00, 0x00, 0x00,
  0x22, 0xff, 0xff, 0xff, 0x00, 0x00, 0x00, 0x11, 0x01, 0x00, 0x00, 0x00,
  0xf0, 0xe0, 0xff, 0xff, 0x14, 0x00, 0x00, 0x00, 0x0c, 0x00, 0x00, 0x00,
  0x20, 0x00, 0x00, 0x00, 0x5c, 0x00, 0x00, 0x00, 0x44, 0x00, 0x00, 0x00,
  0x04, 0x00, 0x00, 0x00, 0x01, 0x00, 0x00, 0x00, 0x1a, 0x00, 0x00, 0x00,
  0x03, 0x00, 0x00, 0x00, 0x02, 0x00, 0x00, 0x00, 0x26, 0x00, 0x00, 0x00,
  0x73, 0x65, 0x71, 0x75, 0x65, 0x6e, 0x74, 0x69, 0x61, 0x6c, 0x5f, 0x32,
  0x37, 0x2f, 0x6d, 0x61, 0x78, 0x5f, 0x70, 0x6f, 0x6f, 0x6c, 0x69, 0x6e,
  0x67, 0x32, 0x64, 0x5f, 0x35, 0x30, 0x2f, 0x4d, 0x61, 0x78, 0x50, 0x6f,
  0x6f, 0x6c, 0x00, 0x00, 0x04, 0x00, 0x00, 0x00, 0xff, 0xff, 0xff, 0xff,
  0x1a, 0x00, 0x00, 0x00, 0x03, 0x00, 0x00, 0x00, 0x02, 0x00, 0x00, 0x00,
  0x24, 0xe2, 0xff, 0xff, 0x00, 0x00, 0x0e, 0x00, 0x16, 0x00, 0x00, 0x00,
  0x08, 0x00, 0x0c, 0x00, 0x07, 0x00, 0x10, 0x00, 0x0e, 0x00, 0x00, 0x00,
  0x00, 0x00, 0x00, 0x02, 0x38, 0x00, 0x00, 0x00, 0x2c, 0x00, 0x00, 0x00,
  0x14, 0x00, 0x00, 0x00, 0x00, 0x00, 0x0e, 0x00, 0x14, 0x00, 0x12, 0x00,
  0x08, 0x00, 0x0c, 0x00, 0x04, 0x00, 0x13, 0x00, 0x0e, 0x00, 0x00, 0x00,
  0x02, 0x00, 0x00, 0x00, 0x01, 0x00, 0x00, 0x00, 0x01, 0x00, 0x00, 0x00,
  0x00, 0x00, 0x01, 0x01, 0x01, 0x00, 0x00, 0x00, 0x0a, 0x00, 0x00, 0x00,
  0x03, 0x00, 0x00, 0x00, 0x00, 0x00, 0x00, 0x00, 0x08, 0x00, 0x00, 0x00,
  0x03, 0x00, 0x00, 0x00, 0x00, 0x00, 0x0a, 0x00, 0x0c, 0x00, 0x07, 0x00,
  0x00, 0x00, 0x08, 0x00, 0x0a, 0x00, 0x00, 0x00, 0x00, 0x00, 0x00, 0x04,
  0x01, 0x00, 0x00, 0x00, 0xd8, 0xe1, 0xff, 0xff, 0x14, 0x00, 0x00, 0x00,
  0x0b, 0x00, 0x00, 0x00, 0x20, 0x00, 0x00, 0x00, 0xf0, 0x00, 0x00, 0x00,
  0xd8, 0x00, 0x00, 0x00, 0x04, 0x00, 0x00, 0x00, 0x01, 0x00, 0x00, 0x00,
  0x4e, 0x00, 0x00, 0x00, 0x03, 0x00, 0x00, 0x00, 0x02, 0x00, 0x00, 0x00,
  0xba, 0x00, 0x00, 0x00, 0x73, 0x65, 0x71, 0x75, 0x65, 0x6e, 0x74, 0x69,
  0x61, 0x6c, 0x5f, 0x32, 0x37, 0x2f, 0x64, 0x65, 0x70, 0x74, 0x68, 0x77,
  0x69, 0x73, 0x65, 0x5f, 0x63, 0x6f, 0x6e, 0x76, 0x32, 0x64, 0x5f, 0x34,
  0x2f, 0x52, 0x65, 0x6c, 0x75, 0x3b, 0x73, 0x65, 0x71, 0x75, 0x65, 0x6e,
  0x74, 0x69, 0x61, 0x6c, 0x5f, 0x32, 0x37, 0x2f, 0x64, 0x65, 0x70, 0x74,
  0x68, 0x77, 0x69, 0x73, 0x65, 0x5f, 0x63, 0x6f, 0x6e, 0x76, 0x32, 0x64,
  0x5f, 0x34, 0x2f, 0x42, 0x69, 0x61, 0x73, 0x41, 0x64, 0x64, 0x3b, 0x73,
  0x65, 0x71, 0x75, 0x65, 0x6e, 0x74, 0x69, 0x61, 0x6c, 0x5f, 0x32, 0x37,
  0x2f, 0x64, 0x65, 0x70, 0x74, 0x68, 0x77, 0x69, 0x73, 0x65, 0x5f, 0x63,
  0x6f, 0x6e, 0x76, 0x32, 0x64, 0x5f, 0x34, 0x2f, 0x64, 0x65, 0x70, 0x74,
  0x68, 0x77, 0x69, 0x73, 0x65, 0x3b, 0x73, 0x65, 0x71, 0x75, 0x65, 0x6e,
  0x74, 0x69, 0x61, 0x6c, 0x5f, 0x32, 0x37, 0x2f, 0x64, 0x65, 0x70, 0x74,
  0x68, 0x77, 0x69, 0x73, 0x65, 0x5f, 0x63, 0x6f, 0x6e, 0x76, 0x32, 0x64,
  0x5f, 0x34, 0x2f, 0x42, 0x69, 0x61, 0x73, 0x41, 0x64, 0x64, 0x2f, 0x52,
  0x65, 0x61, 0x64, 0x56, 0x61, 0x72, 0x69, 0x61, 0x62, 0x6c, 0x65, 0x4f,
  0x70, 0x2f, 0x72, 0x65, 0x73, 0x6f, 0x75, 0x72, 0x63, 0x65, 0x00, 0x00,
  0x04, 0x00, 0x00, 0x00, 0xff, 0xff, 0xff, 0xff, 0x4e, 0x00, 0x00, 0x00,
  0x03, 0x00, 0x00, 0x00, 0x02, 0x00, 0x00, 0x00, 0x70, 0xe2, 0xff, 0xff,
  0x9a, 0xe3, 0xff, 0xff, 0x04, 0x00, 0x00, 0x00, 0x30, 0x00, 0x00, 0x00,
  0x98, 0x14, 0x02, 0xbe, 0x80, 0x28, 0x44, 0x3f, 0xda, 0x8e, 0x0b, 0xbf,
  0x0e, 0x7c, 0x74, 0x3f, 0x51, 0xe9, 0x47, 0x3f, 0xe1, 0xf6, 0x71, 0x3d,
  0x8a, 0x38, 0x03, 0xbf, 0x8c, 0xe5, 0x9f, 0x3e, 0x66, 0xf2, 0x13, 0x3e,
  0x9a, 0x20, 0xd5, 0x3d, 0x8f, 0x14, 0x04, 0x3b, 0xeb, 0xba, 0x0e, 0x3f,
  0x82, 0xe3, 0xff, 0xff, 0x10, 0x00, 0x00, 0x00, 0x0a, 0x00, 0x00, 0x00,
  0x1c, 0x00, 0x00, 0x00, 0x48, 0x00, 0x00, 0x00, 0x04, 0x00, 0x00, 0x00,
  0x01, 0x00, 0x00, 0x00, 0x03, 0x00, 0x00, 0x00, 0x01, 0x00, 0x00, 0x00,
  0x04, 0x00, 0x00, 0x00, 0x2a, 0x00, 0x00, 0x00, 0x73, 0x65, 0x71, 0x75,
  0x65, 0x6e, 0x74, 0x69, 0x61, 0x6c, 0x5f, 0x32, 0x37, 0x2f, 0x64, 0x65,
  0x70, 0x74, 0x68, 0x77, 0x69, 0x73, 0x65, 0x5f, 0x63, 0x6f, 0x6e, 0x76,
  0x32, 0x64, 0x5f, 0x35, 0x2f, 0x64, 0x65, 0x70, 0x74, 0x68, 0x77, 0x69,
  0x73, 0x65, 0x00, 0x00, 0x08, 0xe3, 0xff, 0xff, 0x32, 0xe4, 0xff, 0xff,
  0x04, 0x00, 0x00, 0x00, 0x18, 0x00, 0x00, 0x00, 0x2e, 0x3f, 0x66, 0x3f,
  0x69, 0xca, 0x32, 0x3f, 0xa9, 0x8a, 0x4f, 0xbf, 0x90, 0x56, 0x99, 0x3f,
  0x14, 0x89, 0x4f, 0xbe, 0xbd, 0x7e, 0x1c, 0x3f, 0x02, 0xe4, 0xff, 0xff,
  0x10, 0x00, 0x00, 0x00, 0x09, 0x00, 0x00, 0x00, 0x1c, 0x00, 0x00, 0x00,
  0x48, 0x00, 0x00, 0x00, 0x04, 0x00, 0x00, 0x00, 0x01, 0x00, 0x00, 0x00,
  0x03, 0x00, 0x00, 0x00, 0x01, 0x00, 0x00, 0x00, 0x02, 0x00, 0x00, 0x00,
  0x2a, 0x00, 0x00, 0x00, 0x73, 0x65, 0x71, 0x75, 0x65, 0x6e, 0x74, 0x69,
  0x61, 0x6c, 0x5f, 0x32, 0x37, 0x2f, 0x64, 0x65, 0x70, 0x74, 0x68, 0x77,
  0x69, 0x73, 0x65, 0x5f, 0x63, 0x6f, 0x6e, 0x76, 0x32, 0x64, 0x5f, 0x34,
  0x2f, 0x64, 0x65, 0x70, 0x74, 0x68, 0x77, 0x69, 0x73, 0x65, 0x00, 0x00,
  0x88, 0xe3, 0xff, 0xff, 0xb2, 0xe4, 0xff, 0xff, 0x04, 0x00, 0x00, 0x00,
  0xc0, 0x00, 0x00, 0x00, 0xd9, 0x09, 0xf5, 0xbe, 0xad, 0xdc, 0x10, 0xbf,
  0xab, 0xd7, 0x02, 0x3f, 0x8e, 0x4a, 0x3f, 0x3f, 0x54, 0x7a, 0xe6, 0xbe,
  0xf5, 0x73, 0xd4, 0xbe, 0x90, 0x7a, 0x1e, 0x3f, 0xd6, 0x4c, 0xf2, 0xbe,
  0x0f, 0x26, 0x3f, 0xbf, 0xb8, 0x65, 0x28, 0x3d, 0x23, 0xb6, 0xa6, 0xbe,
  0xc6, 0x9f, 0x27, 0x3f, 0xc9, 0x47, 0x9d, 0xbf, 0x28, 0xd4, 0xd4, 0xbd,
  0x8e, 0xf9, 0x31, 0x3f, 0x10, 0x40, 0xa3, 0xbe, 0xbb, 0x82, 0x8b, 0x3e,
  0x83, 0x69, 0x1a, 0x3e, 0x35, 0x22, 0x1e, 0xbf, 0xd6, 0x74, 0xa5, 0x3e,
  0x32, 0x3c, 0x29, 0xbf, 0x26, 0x4b, 0xdc, 0xbe, 0x8e, 0x90, 0x3a, 0xbe,
  0xcb, 0xd9, 0x66, 0xbe, 0x6e, 0x1e, 0xfc, 0xbe, 0xa8, 0xf8, 0xc2, 0x3d,
  0xdd, 0xe8, 0x8f, 0x3e, 0xcc, 0xbe, 0x0b, 0xbf, 0x62, 0xf9, 0x09, 0x3e,
  0xcf, 0xc4, 0x40, 0x3f, 0x40, 0x2e, 0x58, 0xbe, 0x1b, 0xcd, 0x60, 0x3e,
  0x81, 0xc9, 0x9d, 0xbe, 0x98, 0x61, 0x94, 0x3e, 0x6b, 0xd8, 0x2e, 0xbf,
  0x3e, 0xcb, 0x8d, 0xbf, 0xb1, 0x57, 0x93, 0x3f, 0x66, 0x3b, 0x37, 0x3f,
  0xd6, 0x98, 0x0c, 0xbf, 0x5f, 0xcc, 0xba, 0x3e, 0xa8, 0x03, 0x32, 0x3f,
  0x0e, 0xd0, 0xc2, 0xbf, 0x6d, 0xaa, 0xb3, 0x3e, 0x0b, 0x73, 0xad, 0x3f,
  0xbe, 0x23, 0x46, 0x3f, 0x42, 0xb0, 0x6d, 0xbf, 0xe1, 0x0c, 0x8a, 0xbe,
  0x7f, 0xd5, 0xdc, 0xbe, 0x2a, 0xe5, 0xff, 0xff, 0x10, 0x00, 0x00, 0x00,
  0x08, 0x00, 0x00, 0x00, 0x14, 0x00, 0x00, 0x00, 0x34, 0x00, 0x00, 0x00,
  0x02, 0x00, 0x00, 0x00, 0x03, 0x00, 0x00, 0x00, 0x10, 0x00, 0x00, 0x00,
  0x1d, 0x00, 0x00, 0x00, 0x73, 0x65, 0x71, 0x75, 0x65, 0x6e, 0x74, 0x69,
  0x61, 0x6c, 0x5f, 0x32, 0x37, 0x2f, 0x64, 0x65, 0x6e, 0x73, 0x65, 0x5f,
  0x35, 0x31, 0x2f, 0x4d, 0x61, 0x74, 0x4d, 0x75, 0x6c, 0x00, 0x00, 0x00,
  0x9c, 0xe4, 0xff, 0xff, 0xc6, 0xe5, 0xff, 0xff, 0x04, 0x00, 0x00, 0x00,
  0x00, 0x18, 0x00, 0x00, 0xe3, 0xd3, 0x10, 0x3f, 0xc7, 0x0a, 0x2d, 0xbf,
  0xf2, 0x91, 0x5e, 0xbe, 0x20, 0xa4, 0x28, 0xbf, 0xfa, 0x46, 0x57, 0x3f,
  0xd0, 0x69, 0x06, 0xbf, 0xe1, 0x3a, 0xa9, 0x3c, 0xf9, 0x73, 0x12, 0xbf,
  0xf5, 0xed, 0x91, 0x3f, 0x71, 0x69, 0x11, 0x3f, 0xd7, 0x5e, 0xb3, 0xbd,
  0xca, 0x96, 0xd5, 0xbd, 0x4b, 0xca, 0xa6, 0xbe, 0xe5, 0xf2, 0x4d, 0xbf,
  0x27, 0x4c, 0x49, 0xbe, 0x7f, 0x56, 0x18, 0xbf, 0x48, 0xf1, 0xcc, 0xbe,
  0x42, 0x80, 0x43, 0xbf, 0xaf, 0x4d, 0x5c, 0xbe, 0x03, 0xc2, 0xdf, 0xbe,
  0x38, 0x40, 0x24, 0xbe, 0xb8, 0x24, 0xe2, 0xbe, 0x6b, 0x7f, 0x68, 0x3e,
  0x88, 0x49, 0x50, 0xbf, 0x78, 0x1d, 0x99, 0xbd, 0x07, 0x5d, 0x92, 0xbd,
  0x6c, 0xbb, 0x06, 0x3e, 0x42, 0x04, 0x61, 0x3e, 0xaf, 0xa8, 0x11, 0x3c,
  0x69, 0xe2, 0x95, 0x3c, 0x85, 0x55, 0xe3, 0xbd, 0xd6, 0xfa, 0x68, 0x3e,
  0x16, 0x3d, 0x5d, 0x3d, 0x5e, 0x94, 0xb1, 0xbd, 0xc8, 0xcb, 0x18, 0xbe,
  0x69, 0x60, 0xdc, 0xbe, 0x5b, 0x35, 0x40, 0x3c, 0xcb, 0x24, 0x91, 0x3e,
  0x05, 0xa3, 0x93, 0x3c, 0x2e, 0x0a, 0x61, 0x3e, 0x48, 0x06, 0x66, 0x3e,
  0x39, 0x79, 0xc3, 0x3e, 0xa5, 0xf4, 0x02, 0x3e, 0x56, 0x0d, 0xd2, 0x3e,
  0xb6, 0x92, 0x16, 0xbe, 0x8b, 0x08, 0xec, 0xbd, 0xda, 0xdf, 0xf3, 0x3d,
  0x2c, 0xd8, 0x08, 0xbc, 0x52, 0x2a, 0x0d, 0x3e, 0xa5, 0x1e, 0xa2, 0x3e,
  0xb9, 0x4b, 0xf0, 0xba, 0xd8, 0x6e, 0xbd, 0x3e, 0x30, 0xf0, 0x8c, 0x3e,
  0x68, 0x32, 0xb4, 0x3e, 0x24, 0x7f, 0x53, 0xbe, 0x14, 0x9c, 0xee, 0x3e,
  0x05, 0xc6, 0x4b, 0xbe, 0x5d, 0x90, 0xb2, 0xbc, 0xd9, 0xf6, 0x51, 0xbc,
  0xd5, 0xa7, 0x00, 0x3e, 0x8f, 0x07, 0x81, 0x3e, 0xd2, 0xe1, 0x98, 0x3e,
  0x16, 0x44, 0x0e, 0x3e, 0x8b, 0xc5, 0x89, 0x3e, 0x40, 0xb9, 0x31, 0x3e,
  0x96, 0x1a, 0x3c, 0x3e, 0x91, 0x88, 0x2c, 0xbe, 0x1f, 0x17, 0x2d, 0x3e,
  0x34, 0x9b, 0x13, 0x3d, 0x5e, 0xc5, 0x5c, 0x3e, 0x2f, 0xb5, 0x76, 0xbd,
  0x43, 0x2c, 0x02, 0x3f, 0xda, 0x6d, 0xae, 0xbd, 0x5a, 0xc3, 0x22, 0xbd,
  0x92, 0x5f, 0x96, 0xbb, 0x1f, 0x7e, 0x28, 0xbe, 0xbc, 0x3b, 0x02, 0xbe,
  0x2a, 0x74, 0x52, 0xbb, 0xe8, 0xce, 0x20, 0x3e, 0xa9, 0x09, 0x7a, 0xbe,
  0x88, 0x3b, 0xcb, 0x3d, 0xd2, 0x45, 0x5a, 0x3e, 0x24, 0xa9, 0x0b, 0x3e,
  0x72, 0x18, 0x21, 0x3f, 0x4f, 0x75, 0xc1, 0xbe, 0x94, 0xc1, 0xa5, 0xbe,
  0x5a, 0xe0, 0x1a, 0x3e, 0x35, 0xf6, 0xfd, 0xbe, 0x78, 0x73, 0xdd, 0xbe,
  0x6d, 0xb2, 0xef, 0xbe, 0xb3, 0xc9, 0xf7, 0x3c, 0xff, 0xf7, 0x18, 0xbf,
  0xfb, 0x1f, 0xa8, 0xbe, 0xcd, 0x13, 0x4f, 0xbe, 0xbb, 0x59, 0xed, 0x3b,
  0xef, 0x85, 0x01, 0xbd, 0x7f, 0xb2, 0xf2, 0x3e, 0xd1, 0xc4, 0x0c, 0x3f,
  0x3a, 0x4a, 0x11, 0x3e, 0xc0, 0x45, 0x9b, 0x3f, 0x21, 0x1b, 0x9f, 0x3d,
  0x98, 0x6e, 0x05, 0x3f, 0x3c, 0x83, 0xb2, 0xbd, 0xda, 0x65, 0x81, 0x3f,
  0x46, 0x6a, 0x90, 0x3e, 0xdc, 0xda, 0x94, 0x3f, 0x31, 0x93, 0x36, 0xbe,
  0x7f, 0x10, 0xa3, 0x3f, 0xc1, 0xd7, 0x07, 0x3c, 0x67, 0x38, 0xdd, 0xbd,
  0x09, 0x02, 0x80, 0xbd, 0x69, 0x11, 0x84, 0x3e, 0x4e, 0xe3, 0x1e, 0xbd,
  0x80, 0x01, 0x49, 0xbd, 0x70, 0x04, 0xde, 0x3d, 0x62, 0xcb, 0xa7, 0x3e,
  0xbd, 0x28, 0x4e, 0x3d, 0x8b, 0x76, 0x8c, 0x3d, 0xde, 0x77, 0x46, 0x3e,
  0x77, 0x72, 0x7e, 0x3e, 0x75, 0x80, 0x14, 0x3d, 0xd4, 0xce, 0xa3, 0x3e,
  0xd8, 0x3f, 0x1b, 0x3d, 0x57, 0x78, 0x85, 0x3e, 0xa7, 0x88, 0xcb, 0xbc,
  0x2b, 0xdc, 0xcb, 0x3e, 0xdf, 0x81, 0x24, 0x3e, 0x11, 0x5b, 0x1c, 0x3e,
  0x9c, 0xd5, 0x00, 0x3d, 0x6b, 0x00, 0xfc, 0x3d, 0x79, 0x9c, 0x0f, 0x3e,
  0x89, 0x2f, 0xbc, 0x3e, 0xe0, 0x13, 0x2b, 0xbd, 0x8c, 0x4d, 0xba, 0x3d,
  0xa8, 0x46, 0xa0, 0x3d, 0xaf, 0xc1, 0x6c, 0x3e, 0xb4, 0x49, 0x98, 0xbc,
  0x31, 0xbc, 0x89, 0x3d, 0xc0, 0x5e, 0x04, 0xbd, 0x04, 0x37, 0x0c, 0x3e,
  0x46, 0xb5, 0x46, 0xbc, 0xae, 0x98, 0x8d, 0x3b, 0x40, 0xa6, 0x38, 0xbd,
  0xff, 0x43, 0xb5, 0x3e, 0x26, 0x22, 0x27, 0xbe, 0x12, 0x02, 0xa8, 0x3c,
  0x30, 0xff, 0x4a, 0xbe, 0xc9, 0x85, 0xc6, 0x3d, 0x7d, 0x9f, 0x89, 0xbe,
  0xe6, 0xb8, 0x00, 0xbe, 0x97, 0x23, 0xda, 0xbd, 0x45, 0xba, 0x87, 0x3b,
  0x66, 0x82, 0x3f, 0xbd, 0xee, 0xa4, 0xa0, 0x3d, 0xe3, 0x75, 0x64, 0xbe,
  0x7c, 0x89, 0x6d, 0x3e, 0xb6, 0x9b, 0x59, 0xbe, 0x40, 0x5c, 0xcb, 0xbd,
  0x28, 0xcb, 0x35, 0x3e, 0x93, 0x66, 0x62, 0xbb, 0xf6, 0xb2, 0xa8, 0xbe,
  0xa6, 0x80, 0x8d, 0xbe, 0xd0, 0xf2, 0xa0, 0xbc, 0xa4, 0xd7, 0x2d, 0x3d,
  0x8e, 0xf2, 0xe2, 0xbd, 0x7c, 0xdf, 0x84, 0xbd, 0xc0, 0x89, 0xea, 0xbd,
  0xb5, 0xd4, 0xd2, 0x3d, 0xf1, 0x23, 0x04, 0xbe, 0x6c, 0xa5, 0xc3, 0xbd,
  0xa5, 0x38, 0x44, 0xbe, 0x9d, 0xfc, 0xff, 0x3d, 0xf8, 0x08, 0xbb, 0xbe,
  0xf8, 0x79, 0x0d, 0xbe, 0x12, 0xe4, 0x10, 0xbe, 0xbd, 0xcc, 0x77, 0x3e,
  0xf0, 0xa3, 0x0f, 0xbe, 0x14, 0xc6, 0x97, 0xbd, 0x18, 0x3c, 0x67, 0xbd,
  0xd0, 0x10, 0x24, 0x3e, 0x1e, 0xd9, 0xa5, 0xbe, 0x06, 0x18, 0x40, 0xbe,
  0xe7, 0xac, 0x26, 0xbd, 0x95, 0x76, 0x99, 0x3e, 0x73, 0x00, 0xfe, 0xbe,
  0x2e, 0xff, 0xcc, 0xbe, 0xd1, 0x28, 0xdf, 0x3d, 0x6f, 0xf9, 0xf0, 0x3d,
  0xb0, 0x7c, 0x9c, 0xbe, 0x31, 0x6d, 0x50, 0xbe, 0xfa, 0xc8, 0x24, 0xbe,
  0xbc, 0x8d, 0x87, 0x3e, 0x2b, 0x6c, 0x41, 0x3f, 0x3d, 0x83, 0x8a, 0x3f,
  0xd2, 0x14, 0x66, 0xbe, 0x50, 0x65, 0x87, 0x3f, 0x32, 0x31, 0x64, 0x3f,
  0xeb, 0x68, 0x8f, 0x3f, 0x7c, 0x1d, 0x2f, 0x3e, 0x56, 0x80, 0x87, 0x3f,
  0x75, 0xda, 0xa4, 0xbd, 0x09, 0x94, 0xcd, 0x3f, 0x32, 0x1d, 0x62, 0x3e,
  0x43, 0xab, 0xd9, 0x3e, 0x2c, 0x63, 0x2e, 0xbf, 0xd2, 0xa3, 0x36, 0xbf,
  0x8c, 0xd5, 0x5f, 0xbd, 0x50, 0x46, 0x86, 0x3d, 0x45, 0xd4, 0xcb, 0xbe,
  0x7f, 0x6e, 0x17, 0xbf, 0x00, 0xa1, 0x86, 0xbd, 0xfe, 0xc7, 0x81, 0x3e,
  0x80, 0x01, 0x07, 0xc0, 0x56, 0xfc, 0x43, 0xc0, 0xe0, 0x99, 0x3e, 0xbe,
  0xf2, 0x7f, 0x0b, 0xbf, 0x3e, 0x3a, 0x63, 0xbf, 0x2c, 0xeb, 0x66, 0xbf,
  0xab, 0xe8, 0x58, 0xbe, 0x85, 0x77, 0x13, 0x3d, 0xf0, 0x64, 0x32, 0xbf,
  0xa9, 0x29, 0x47, 0xbf, 0x2c, 0xdd, 0x6c, 0xbd, 0x2c, 0x1d, 0x28, 0xbc,
  0x42, 0x6d, 0x14, 0xc0, 0x46, 0x7f, 0x2a, 0xc0, 0x70, 0xb4, 0xec, 0x3c,
  0x58, 0x97, 0xec, 0x3c, 0x66, 0x4a, 0x76, 0xbe, 0x06, 0x04, 0x72, 0xbd,
  0x7e, 0x69, 0xa5, 0xbc, 0x35, 0x7e, 0xc4, 0x3c, 0xf1, 0xe3, 0x8e, 0xbe,
  0xac, 0xd6, 0xfe, 0xbd, 0x04, 0xd1, 0x23, 0xbe, 0x30, 0x13, 0xc3, 0xbc,
  0x1c, 0x49, 0xe7, 0xbe, 0xb8, 0x3b, 0x8c, 0xbd, 0xd8, 0x44, 0xe3, 0x3d,
  0xd0, 0x93, 0xf2, 0x3e, 0x8f, 0xec, 0xa1, 0xbc, 0x69, 0x73, 0xaa, 0x3d,
  0xdc, 0x5f, 0x26, 0x3e, 0x7e, 0xe7, 0x10, 0xbd, 0x85, 0x79, 0x17, 0xbd,
  0x3c, 0x34, 0xc2, 0x3d, 0xf8, 0xef, 0xbb, 0xbc, 0x50, 0xd4, 0xad, 0xbc,
  0x51, 0x53, 0xcf, 0x3c, 0xfa, 0xcf, 0xab, 0x3e, 0xf0, 0xf8, 0x5f, 0x3c,
  0xe7, 0x59, 0xe1, 0x3e, 0xa9, 0x52, 0x27, 0x3d, 0x97, 0x46, 0x2b, 0x3d,
  0x67, 0xd6, 0x72, 0xbd, 0xd6, 0x37, 0x01, 0x3d, 0xce, 0x57, 0x6a, 0x3d,
  0x55, 0xe2, 0x0d, 0x3d, 0x00, 0x6b, 0x29, 0x3b, 0x62, 0x2f, 0x27, 0xbc,
  0xb1, 0x67, 0x1f, 0x3e, 0x04, 0xdc, 0x4e, 0x3e, 0xf0, 0xbd, 0x10, 0x3d,
  0x0e, 0x8e, 0x93, 0x3e, 0xda, 0x12, 0x7e, 0x3a, 0x40, 0xbe, 0xa7, 0xbc,
  0xb0, 0x29, 0x2e, 0x3d, 0x0b, 0x16, 0xb9, 0xbc, 0xfb, 0x91, 0x76, 0x3d,
  0xb8, 0x66, 0x39, 0x3c, 0x19, 0xa3, 0x23, 0x3e, 0x8b, 0x8d, 0x8a, 0xbd,
  0x79, 0xdf, 0xa6, 0x3d, 0xba, 0x07, 0xb1, 0xbc, 0x4a, 0x0d, 0x12, 0xbe,
  0x59, 0xd0, 0xa5, 0xbc, 0x8a, 0x10, 0x13, 0x3e, 0xc3, 0x8c, 0x0d, 0x3e,
  0x57, 0x2d, 0x62, 0x3e, 0xc6, 0xd3, 0x46, 0xbc, 0x6e, 0xf8, 0x1a, 0x3e,
  0x10, 0xd6, 0x03, 0x3e, 0x11, 0xc4, 0xeb, 0xbd, 0xa0, 0x97, 0x17, 0x3d,
  0xd3, 0xcb, 0x40, 0x3e, 0xc2, 0x91, 0x9e, 0x3c, 0x9d, 0x65, 0x21, 0xbc,
  0x81, 0xc7, 0xb6, 0xbc, 0xfb, 0x9f, 0x94, 0xbf, 0x4c, 0xd7, 0x9f, 0xbf,
  0x06, 0x4a, 0xd0, 0x3d, 0xb2, 0x58, 0xa8, 0xbf, 0x91, 0x80, 0xae, 0xbf,
  0xf2, 0xb0, 0xa7, 0xbf, 0xfb, 0x41, 0x1f, 0xbe, 0xd4, 0x10, 0xb8, 0xbf,
  0xf6, 0xce, 0xff, 0xbe, 0x73, 0x76, 0xe5, 0xbe, 0xf4, 0x32, 0x01, 0x3e,
  0xd6, 0xc8, 0x9a, 0xbe, 0xc0, 0xe4, 0x62, 0xbe, 0xf3, 0xb4, 0x52, 0xbf,
  0xc3, 0x6b, 0x68, 0xbc, 0x26, 0x30, 0xd2, 0xbe, 0x00, 0xf9, 0x61, 0xbe,
  0xba, 0x73, 0x34, 0xbf, 0xb7, 0x04, 0xa3, 0xbd, 0xd5, 0x90, 0xcb, 0xbe,
  0x8e, 0x54, 0x06, 0x3e, 0x8d, 0x14, 0x68, 0x3d, 0x90, 0xb5, 0xc6, 0xbd,
  0x8f, 0x9c, 0x22, 0x3e, 0xa9, 0x2b, 0xa9, 0x3d, 0x78, 0x10, 0x18, 0x3e,
  0x03, 0x23, 0x2d, 0xbe, 0x37, 0xe6, 0xec, 0x3d, 0xce, 0xa3, 0x04, 0x3e,
  0xc1, 0x87, 0x0a, 0x3e, 0x20, 0x7c, 0xf6, 0x3d, 0xca, 0x56, 0x2c, 0x3e,
  0x7e, 0x41, 0x2f, 0x3e, 0xfc, 0x1b, 0xa9, 0x3e, 0x22, 0x31, 0x07, 0x3e,
  0x3f, 0x35, 0xe6, 0x3d, 0x0f, 0x19, 0x67, 0x3e, 0x32, 0x96, 0x91, 0x3e,
  0xd7, 0x76, 0x16, 0x3d, 0x6a, 0x5b, 0x65, 0x3e, 0x89, 0x66, 0x5c, 0x3e,
  0x47, 0x49, 0xe2, 0x3e, 0x26, 0xc7, 0xac, 0x3c, 0xa0, 0xcc, 0x8e, 0x3e,
  0xd5, 0xdf, 0x8b, 0x3e, 0xfd, 0x6b, 0xba, 0x3e, 0x0b, 0xb1, 0xf5, 0x3c,
  0x67, 0x31, 0x6c, 0x3d, 0x8d, 0x43, 0xbe, 0x3e, 0xe7, 0xf8, 0xc3, 0x3e,
  0x2a, 0x0c, 0x67, 0x3e, 0x06, 0xcb, 0x8b, 0x3e, 0x7a, 0xd0, 0x9f, 0x3e,
  0xeb, 0xb0, 0xcb, 0x3e, 0x2c, 0x53, 0x64, 0x3e, 0xec, 0x68, 0x4a, 0x3e,
  0xc8, 0x9f, 0x9d, 0x3e, 0x9e, 0xac, 0xca, 0x3e, 0x45, 0x24, 0xea, 0x3d,
  0x18, 0x4f, 0xb9, 0x3d, 0xb7, 0x45, 0x7f, 0x3e, 0x20, 0x15, 0xb1, 0x3e,
  0xf3, 0x36, 0x1a, 0xbe, 0x40, 0x9f, 0x10, 0x3e, 0xe3, 0x39, 0x6c, 0x3e,
  0xa2, 0xdb, 0xc7, 0x3e, 0x96, 0x66, 0xb7, 0xbc, 0x22, 0x13, 0xdf, 0x3d,
  0x05, 0x8e, 0xe1, 0x3d, 0xdd, 0xb6, 0x2e, 0x3e, 0x79, 0xbc, 0x29, 0x3e,
  0x38, 0xfa, 0x5a, 0xbd, 0x78, 0x47, 0xee, 0x3d, 0x29, 0xc4, 0x74, 0x3e,
  0xd6, 0x02, 0xf7, 0x3d, 0x77, 0x50, 0xe9, 0x3d, 0x5d, 0xce, 0xcd, 0x3d,
  0xf5, 0xf1, 0x73, 0x3e, 0x86, 0xeb, 0xaf, 0xbd, 0xdc, 0xd1, 0x5b, 0x3e,
  0xef, 0x0a, 0x9d, 0xbd, 0x8e, 0xdd, 0x94, 0xbd, 0x01, 0xe3, 0x2e, 0x3e,
  0x06, 0x73, 0x54, 0xbe, 0x01, 0xf6, 0xbe, 0xbb, 0xf8, 0x48, 0x38, 0xbb,
  0x81, 0x5c, 0x53, 0x3e, 0x54, 0x6b, 0x0d, 0xbe, 0x6e, 0xbb, 0xbc, 0x3c,
  0x0b, 0xd2, 0x08, 0xbd, 0xc5, 0x24, 0x2a, 0x3e, 0xe1, 0x4f, 0x11, 0xbe,
  0x4f, 0x8a, 0x09, 0xbe, 0xd3, 0xad, 0x35, 0xbe, 0x6d, 0x76, 0x44, 0x3e,
  0x91, 0xaa, 0x74, 0xbe, 0xe3, 0x2b, 0x8c, 0x3e, 0x85, 0x4a, 0xe7, 0x3d,
  0xf9, 0x88, 0x91, 0xbd, 0xd0, 0x72, 0x58, 0xbf, 0x21, 0x1a, 0xe2, 0x3d,
  0x41, 0x64, 0x9d, 0x3e, 0xb5, 0xcf, 0x5d, 0xbd, 0x0d, 0xd4, 0xa7, 0x3e,
  0x74, 0x7a, 0x56, 0x3e, 0x8d, 0xdc, 0xb8, 0x3e, 0x6f, 0x3d, 0x04, 0xbe,
  0x53, 0x8b, 0xca, 0x3e, 0xa9, 0xb1, 0x70, 0xbe, 0x12, 0x80, 0x4d, 0xbd,
  0x72, 0x39, 0x6f, 0x3b, 0xaa, 0xa5, 0x67, 0xc0, 0x68, 0xc6, 0x8a, 0x3d,
  0x47, 0x08, 0x0f, 0x3e, 0xda, 0xbc, 0x9d, 0xbd, 0xee, 0xa9, 0x62, 0xbe,
  0x0e, 0x3d, 0x93, 0xbc, 0x87, 0x54, 0x62, 0x3d, 0x6b, 0xe1, 0x4e, 0xbc,
  0x14, 0x7b, 0xf5, 0xbd, 0x2f, 0x72, 0xf9, 0xbd, 0x09, 0x1b, 0x2a, 0x3e,
  0xa8, 0x10, 0x53, 0x3d, 0xca, 0x2c, 0x49, 0xc0, 0xc8, 0x30, 0x08, 0x3e,
  0xc6, 0xa0, 0x0f, 0x3e, 0x93, 0xbb, 0x15, 0xbc, 0x68, 0xa0, 0xa4, 0xbe,
  0x47, 0x70, 0x37, 0x3d, 0x38, 0x42, 0x40, 0x3e, 0x7a, 0x38, 0x17, 0x3e,
  0x16, 0x38, 0x12, 0xbe, 0xb1, 0xdf, 0x46, 0xbe, 0xda, 0xd3, 0xbf, 0x3d,
  0xa9, 0x97, 0x8f, 0x3d, 0x61, 0xbd, 0x72, 0xc0, 0x6b, 0xaa, 0xb2, 0x3d,
  0x81, 0x78, 0xbf, 0x3d, 0x24, 0x84, 0x36, 0xbd, 0x2a, 0xeb, 0x8d, 0xbe,
  0x73, 0x1d, 0xef, 0x3d, 0x42, 0x51, 0x5c, 0x3e, 0x65, 0x9d, 0xda, 0xbc,
  0x49, 0xc0, 0x0c, 0xbe, 0x70, 0x0c, 0x12, 0xbd, 0x2a, 0xd0, 0x82, 0x3e,
  0x22, 0xdf, 0x23, 0xbe, 0x3b, 0xfc, 0x76, 0xc0, 0xbf, 0xdf, 0x08, 0x3e,
  0xe1, 0x5d, 0xf4, 0x3d, 0x98, 0x44, 0xa1, 0x3d, 0x7b, 0x74, 0x7b, 0xbe,
  0x3a, 0x2c, 0x98, 0x3d, 0x5b, 0xef, 0x8c, 0x3d, 0x00, 0xd9, 0x3f, 0xbe,
  0x44, 0x4e, 0xae, 0xbe, 0x4a, 0xa5, 0x5c, 0xbe, 0xa7, 0x18, 0xce, 0x3e,
  0xdb, 0xab, 0x0a, 0x3e, 0xc5, 0x88, 0x72, 0xc0, 0x91, 0xd0, 0x0c, 0x3e,
  0xd2, 0x5c, 0xfa, 0x3d, 0x6d, 0xf8, 0x32, 0x3e, 0x02, 0x5f, 0x8d, 0xbe,
  0xe4, 0xab, 0x45, 0x3d, 0x0e, 0xb3, 0x2b, 0x3e, 0x08, 0xf7, 0xaa, 0x3d,
  0x5e, 0x76, 0x63, 0xbe, 0x71, 0x35, 0x63, 0xbe, 0x01, 0xff, 0xa3, 0x3e,
  0x64, 0x97, 0xf4, 0x3d, 0xa0, 0xf0, 0x60, 0xc0, 0x47, 0xd9, 0xcc, 0x3d,
  0x7f, 0xcd, 0x09, 0x3e, 0x3c, 0x31, 0xfa, 0xbc, 0x10, 0x03, 0xaf, 0xbe,
  0x4e, 0xe2, 0xa8, 0x3d, 0x79, 0x23, 0x18, 0x3e, 0x73, 0x81, 0x84, 0xbd,
  0x73, 0x79, 0x4e, 0xbe, 0xd9, 0x94, 0x90, 0xbe, 0x08, 0x19, 0x03, 0x3d,
  0x1b, 0xd6, 0x5a, 0xbe, 0x94, 0x38, 0x9e, 0xc0, 0xe5, 0x56, 0xe7, 0x3c,
  0x18, 0x49, 0x25, 0x3e, 0x16, 0x16, 0x4d, 0x3e, 0x10, 0x6b, 0xe6, 0xbe,
  0x7f, 0x4c, 0xb4, 0xbc, 0x64, 0x37, 0x6f, 0x3d, 0x30, 0xfd, 0x8f, 0xbd,
  0x48, 0x89, 0x96, 0xbe, 0x64, 0x04, 0x6a, 0x3e, 0xaa, 0x17, 0x18, 0x3f,
  0xfd, 0x38, 0x33, 0x3e, 0xed, 0xea, 0x39, 0x3e, 0x18, 0xfc, 0x51, 0xbe,
  0xc4, 0x58, 0xb5, 0x3e, 0x4a, 0xe8, 0xb6, 0xbd, 0x6b, 0xe0, 0xa1, 0x3e,
  0xb0, 0x51, 0x6a, 0x3e, 0x37, 0x80, 0xa0, 0x3e, 0xfa, 0x92, 0x12, 0xbc,
  0xcf, 0x05, 0x94, 0x3e, 0x87, 0xa9, 0x6f, 0x3e, 0x16, 0xe3, 0x57, 0x3e,
  0x2c, 0xdd, 0x22, 0x3e, 0x73, 0xe2, 0xbb, 0xbe, 0xe4, 0x74, 0xf3, 0xbd,
  0xc7, 0xac, 0xaf, 0x3c, 0x9a, 0xe5, 0x04, 0xbe, 0xd7, 0x95, 0xc4, 0xbe,
  0xa7, 0x0e, 0x13, 0x3d, 0x49, 0x11, 0x53, 0x3e, 0x81, 0x36, 0xfd, 0xbc,
  0xe6, 0x03, 0x6d, 0xbd, 0xc4, 0x0c, 0x9c, 0x3e, 0xc9, 0x00, 0xb1, 0x3e,
  0x0a, 0x04, 0xae, 0x3c, 0x1d, 0xd7, 0x8b, 0xbe, 0x13, 0x42, 0xbf, 0x3d,
  0x9a, 0x0a, 0x43, 0x3e, 0x25, 0xdf, 0xff, 0x3d, 0xf6, 0x30, 0xa2, 0xbe,
  0x8a, 0x61, 0x19, 0x3d, 0xa4, 0xd4, 0x86, 0x3e, 0xb8, 0xd8, 0x0b, 0xbe,
  0x28, 0xf4, 0x10, 0xbe, 0x28, 0xb4, 0xb7, 0x3e, 0x89, 0xd2, 0xbd, 0x3e,
  0x03, 0xc1, 0x5f, 0xbe, 0xc7, 0x23, 0x90, 0xbe, 0xc7, 0xfa, 0xe2, 0x3c,
  0x6d, 0xb5, 0x5a, 0x3e, 0xcf, 0x5a, 0x8b, 0x3d, 0x18, 0x4f, 0xa0, 0xbe,
  0xb3, 0xa8, 0xb4, 0x3d, 0xe1, 0x79, 0x30, 0x3e, 0x7c, 0x32, 0xae, 0x3d,
  0xc8, 0x14, 0x26, 0xbe, 0x3f, 0xfd, 0xc4, 0x3e, 0x9d, 0xb3, 0xa8, 0x3e,
  0x70, 0xbf, 0xac, 0xbd, 0x3c, 0x06, 0x9f, 0xbe, 0x1e, 0xa4, 0xa3, 0x3d,
  0xfd, 0xba, 0x28, 0x3e, 0xba, 0x5a, 0xdc, 0xbc, 0xa3, 0x59, 0xbd, 0xbe,
  0x1e, 0xc5, 0xef, 0x3d, 0xf3, 0x55, 0x59, 0x3e, 0xb9, 0x4e, 0x10, 0xbd,
  0xab, 0xda, 0x45, 0xbe, 0x2a, 0xef, 0xcf, 0x3e, 0x66, 0x9c, 0xec, 0x3e,
  0xf8, 0x78, 0x5e, 0x3d, 0xb2, 0x40, 0xb2, 0xbe, 0xd3, 0xb8, 0x01, 0x3d,
  0xdc, 0x4c, 0x56, 0x3e, 0x36, 0x0a, 0x94, 0xbd, 0x05, 0x4d, 0xa5, 0xbe,
  0x26, 0x8f, 0x30, 0x3d, 0x88, 0xaf, 0x3e, 0x3e, 0xd9, 0x83, 0x2e, 0xbe,
  0xcb, 0x49, 0x3d, 0xbe, 0xd2, 0x4e, 0xbc, 0x3e, 0xbe, 0x8a, 0x91, 0x3e,
  0x52, 0x27, 0x00, 0xbe, 0x9f, 0x00, 0xd2, 0xbe, 0x80, 0x47, 0x51, 0x3d,
  0x26, 0x21, 0x2d, 0x3e, 0xfb, 0xbd, 0x49, 0xbe, 0x0e, 0x34, 0xd5, 0xbe,
  0x45, 0x4c, 0x04, 0x3e, 0xd0, 0x39, 0xb9, 0x3d, 0xe2, 0x3a, 0x12, 0xbe,
  0x84, 0x4d, 0xfd, 0xbd, 0x97, 0x57, 0xc2, 0x3e, 0xee, 0xc4, 0xf1, 0x3e,
  0xc8, 0x4d, 0x0a, 0xbe, 0x75, 0x6a, 0x40, 0xbf, 0x8a, 0x9d, 0xa1, 0xbc,
  0xd2, 0xcb, 0x6a, 0x3e, 0xfb, 0xca, 0xa5, 0x3d, 0xf9, 0xfc, 0x81, 0xbf,
  0x87, 0xcc, 0x5a, 0x3e, 0xce, 0xb9, 0x8e, 0x3e, 0x78, 0x70, 0x53, 0x3e,
  0x5a, 0xb6, 0xc8, 0xbe, 0xf0, 0xce, 0x78, 0x3d, 0x70, 0xff, 0xfb, 0xbe,
  0x81, 0xb6, 0x36, 0x3e, 0x61, 0xaa, 0x03, 0x3b, 0xb6, 0xd9, 0x60, 0x3e,
  0xf2, 0x8b, 0xc2, 0xbe, 0x93, 0x34, 0xa3, 0xbd, 0x6c, 0x17, 0x8e, 0xbd,
  0x39, 0x6d, 0x37, 0x3f, 0x1d, 0x5b, 0x05, 0xbf, 0xdf, 0x64, 0x31, 0xbe,
  0x4c, 0xa5, 0x94, 0x3e, 0x4f, 0x0c, 0xfd, 0x3e, 0x72, 0xdd, 0xe7, 0x3e,
  0x86, 0x6c, 0xdb, 0x3d, 0xad, 0x9f, 0x27, 0x3e, 0xd4, 0xc9, 0xe6, 0x3e,
  0x01, 0x8c, 0xe4, 0x3e, 0xe4, 0xee, 0x2e, 0x3d, 0x80, 0x76, 0xc4, 0x3d,
  0x2f, 0xa6, 0x41, 0x3f, 0x1e, 0x07, 0x71, 0x3f, 0x5f, 0x2b, 0x43, 0xbe,
  0xe2, 0x76, 0x43, 0x3f, 0x9d, 0x58, 0xae, 0x3e, 0x23, 0x67, 0x72, 0x3e,
  0x1b, 0xb7, 0x19, 0x3e, 0x9d, 0xc9, 0x4c, 0x3e, 0xdc, 0xc7, 0xdc, 0x3e,
  0xa3, 0xd0, 0xd6, 0x3e, 0x25, 0xdf, 0x85, 0xbd, 0x21, 0x10, 0x56, 0x3e,
  0x40, 0x21, 0x96, 0x3d, 0x7d, 0x71, 0x10, 0x3d, 0xe0, 0x2f, 0xbe, 0x3d,
  0xe3, 0x4d, 0x9c, 0xbe, 0xcb, 0xa6, 0x09, 0x3e, 0x31, 0xb6, 0x2c, 0x3e,
  0x76, 0xa1, 0x26, 0x3e, 0x2a, 0x1e, 0x0a, 0x3e, 0xbb, 0x7c, 0x49, 0x3e,
  0x63, 0xe5, 0x33, 0x3e, 0x5e, 0xf6, 0x5f, 0x3e, 0x9d, 0x7e, 0x6b, 0x3e,
  0xfc, 0xcd, 0xe0, 0xbe, 0x6a, 0xb7, 0x09, 0xbf, 0x65, 0xe1, 0xb9, 0x3d,
  0x77, 0x3b, 0x32, 0xbf, 0x21, 0x23, 0x96, 0xbd, 0x91, 0xb6, 0x60, 0xbd,
  0x53, 0x06, 0x54, 0x3d, 0xba, 0x06, 0x58, 0x3c, 0x92, 0xed, 0x91, 0x3d,
  0x3f, 0x96, 0x5f, 0xbc, 0x21, 0xe0, 0x61, 0xbe, 0x52, 0xe2, 0x0d, 0x3e,
  0xbb, 0xe0, 0xea, 0xbe, 0x91, 0x93, 0x19, 0xbf, 0x27, 0x6d, 0x1e, 0x3e,
  0x35, 0xd9, 0x1c, 0xbf, 0xa2, 0xcb, 0xbe, 0xbd, 0x94, 0xfc, 0x08, 0x3c,
  0xc8, 0xb4, 0xdc, 0xbd, 0xc2, 0x2a, 0x9c, 0xbc, 0x6f, 0x04, 0xb6, 0xbd,
  0x79, 0xc7, 0x87, 0xbd, 0x12, 0xa1, 0x21, 0x3e, 0x98, 0xac, 0x49, 0x3d,
  0x01, 0xae, 0x16, 0xbf, 0x4b, 0x4a, 0x18, 0xbf, 0xff, 0x3e, 0xa9, 0xbd,
  0xd0, 0xee, 0x23, 0xbf, 0xef, 0x5f, 0xf7, 0xbd, 0x66, 0xbf, 0x60, 0xbe,
  0x1e, 0x41, 0x48, 0xbe, 0x28, 0x41, 0x70, 0xbe, 0xef, 0x8e, 0x22, 0xbe,
  0x31, 0xae, 0x86, 0xbe, 0x65, 0xcd, 0x75, 0x3d, 0x52, 0x11, 0x79, 0xbe,
  0xb4, 0x2b, 0x48, 0xbe, 0x60, 0xa6, 0xd1, 0xbe, 0x02, 0x32, 0xd8, 0x38,
  0x0b, 0xb1, 0xd4, 0xbe, 0xa0, 0xd2, 0x8c, 0xbd, 0x48, 0x58, 0x12, 0xbe,
  0x2b, 0xbc, 0x56, 0xbd, 0x45, 0x71, 0xc5, 0xbc, 0x39, 0x70, 0x09, 0xbe,
  0x63, 0x59, 0x4f, 0xbe, 0xae, 0x84, 0xa1, 0xbd, 0x30, 0xbf, 0x07, 0xbe,
  0x44, 0x1e, 0xa2, 0x3e, 0xbf, 0x17, 0x96, 0x3e, 0x23, 0x0b, 0xa6, 0x3a,
  0x9c, 0xd2, 0xf0, 0x3e, 0x9f, 0x0a, 0x8f, 0x3e, 0x17, 0x74, 0x06, 0x3f,
  0x3b, 0x51, 0x9f, 0x3c, 0x8c, 0xc8, 0x20, 0x3f, 0x3c, 0x6d, 0x87, 0x3f,
  0x10, 0x95, 0x74, 0x3f, 0x61, 0x98, 0x85, 0xbd, 0x83, 0xf2, 0x08, 0x3f,
  0x8a, 0x1e, 0x52, 0xbd, 0x0a, 0xa7, 0xdd, 0x3c, 0x7d, 0xd9, 0x40, 0x3e,
  0xf3, 0xce, 0x44, 0x3e, 0x0a, 0x5b, 0x86, 0xbd, 0x2f, 0x00, 0x30, 0xbe,
  0x88, 0xd0, 0xc6, 0xbd, 0x53, 0x31, 0xcd, 0x3c, 0xee, 0xee, 0xa5, 0x3e,
  0x6a, 0x90, 0x8d, 0x3e, 0x6f, 0x1f, 0x86, 0x3c, 0x42, 0xdc, 0x7f, 0xbd,
  0x30, 0x48, 0x09, 0x3e, 0x1e, 0xb8, 0xef, 0xbd, 0x03, 0x67, 0x9f, 0xbd,
  0xa6, 0x41, 0xb5, 0x3d, 0x9d, 0xbd, 0xa6, 0xbd, 0x2a, 0x7b, 0x1f, 0xbe,
  0xb3, 0x8c, 0xe3, 0x3c, 0xae, 0x7f, 0xbc, 0x3d, 0xde, 0xe7, 0x94, 0x3e,
  0xe7, 0x30, 0xd9, 0x3d, 0x55, 0xd9, 0xef, 0x3d, 0x20, 0x8c, 0x33, 0x3d,
  0x31, 0xc3, 0x9d, 0x3d, 0x5d, 0x08, 0x37, 0xbd, 0x3c, 0xcf, 0xdd, 0xbd,
  0xb3, 0xdb, 0x7f, 0x3d, 0x8a, 0x1e, 0x24, 0xbe, 0x01, 0xb1, 0x3c, 0xbd,
  0x02, 0x20, 0xba, 0xbd, 0x14, 0xc8, 0x4c, 0x3c, 0x5c, 0x65, 0x78, 0x3e,
  0x9a, 0x5a, 0x71, 0x3e, 0x1f, 0x9a, 0x60, 0xbe, 0x91, 0x0e, 0x47, 0x3e,
  0x71, 0xa2, 0xea, 0xbd, 0x1c, 0x18, 0x2e, 0xbe, 0xb8, 0xad, 0x96, 0xbd,
  0xc8, 0x0e, 0x0e, 0xbc, 0xa0, 0xdb, 0x55, 0xbe, 0xbc, 0x66, 0x10, 0x3d,
  0x16, 0x78, 0x19, 0x3e, 0x63, 0x47, 0x0d, 0x3e, 0x2a, 0x18, 0xe2, 0x3e,
  0xf0, 0xcd, 0x9b, 0x3e, 0x2b, 0xfd, 0xfc, 0xbd, 0xf6, 0x41, 0xb5, 0x3e,
  0xdf, 0x87, 0x0a, 0xbe, 0xf0, 0x00, 0x8c, 0xbe, 0xc0, 0x11, 0x2d, 0x3e,
  0xc3, 0x22, 0x95, 0x3d, 0xff, 0xa5, 0xd8, 0xbd, 0x00, 0x2f, 0x19, 0xbe,
  0x85, 0x45, 0xfe, 0xbd, 0xe2, 0xfc, 0x4e, 0x3e, 0x52, 0xfa, 0xe0, 0x3e,
  0x58, 0xa1, 0x20, 0x3e, 0x7d, 0x51, 0x53, 0x3e, 0x34, 0x13, 0x37, 0x3e,
  0xb9, 0xd3, 0x1d, 0xbe, 0xe6, 0xc1, 0x81, 0xbe, 0xeb, 0x19, 0xd4, 0xbd,
  0x40, 0x4f, 0x10, 0x3e, 0x44, 0xa9, 0x80, 0xbe, 0x58, 0x82, 0x01, 0xbe,
  0xc4, 0x70, 0x14, 0xbd, 0x02, 0x61, 0x58, 0xbd, 0x7c, 0x2f, 0xe5, 0x3d,
  0x7f, 0x67, 0x2b, 0x3e, 0xa7, 0x6b, 0x9e, 0xbd, 0xe7, 0xc0, 0x2b, 0x3e,
  0x0d, 0x44, 0xb9, 0xbd, 0x9c, 0x07, 0x59, 0xbd, 0x19, 0xf1, 0xad, 0xb9,
  0xef, 0xaa, 0x07, 0x3e, 0x30, 0x58, 0xc3, 0xbe, 0x0b, 0x73, 0x9f, 0xbe,
  0xa2, 0x0d, 0x84, 0xbc, 0x3e, 0xa1, 0xcd, 0xbe, 0x1f, 0xfc, 0xa0, 0x3d,
  0x7a, 0xf6, 0x02, 0x3e, 0x09, 0xae, 0x58, 0xbe, 0xdc, 0xd9, 0x62, 0xbd,
  0x94, 0xec, 0x3e, 0xbd, 0x54, 0x47, 0xdd, 0xbc, 0x63, 0xdd, 0x1d, 0xbd,
  0x1e, 0xdf, 0x17, 0x3e, 0xe4, 0xf1, 0xc9, 0xbe, 0xfc, 0xb6, 0x67, 0x3f,
  0x7f, 0xd4, 0xad, 0x3c, 0x78, 0xfc, 0x92, 0x3e, 0xc1, 0x5d, 0x32, 0xbf,
  0x08, 0x65, 0x1d, 0x3f, 0x56, 0x00, 0x81, 0xbd, 0xdc, 0x2d, 0xb5, 0x3d,
  0x11, 0x91, 0x5f, 0x3e, 0xdc, 0x38, 0xd6, 0x3e, 0xad, 0x0a, 0x03, 0x3e,
  0x59, 0x8e, 0xd6, 0x3c, 0x00, 0x7f, 0xb0, 0xbe, 0xf4, 0xf0, 0xa8, 0xbe,
  0x6a, 0xec, 0x1d, 0xbe, 0x50, 0xc3, 0x43, 0x3e, 0x46, 0xe2, 0x15, 0xbf,
  0xc1, 0xa7, 0x31, 0xbf, 0xcf, 0x65, 0x05, 0x3d, 0x04, 0xe5, 0xb5, 0x3d,
  0x85, 0x4e, 0x2b, 0x3e, 0x3a, 0x5c, 0xe6, 0x3c, 0xa0, 0x01, 0xa2, 0x3d,
  0x25, 0xd9, 0x4d, 0x3d, 0xa7, 0x40, 0xca, 0xbd, 0xe9, 0xaf, 0x99, 0xbd,
  0x79, 0x96, 0xab, 0xbc, 0x00, 0x7d, 0x66, 0x3e, 0x08, 0x3a, 0x56, 0xbe,
  0x24, 0xfd, 0xdf, 0xbd, 0xf3, 0x44, 0x4b, 0x3d, 0xd5, 0x6d, 0x5a, 0x3e,
  0x11, 0x82, 0x25, 0x3e, 0x47, 0x9b, 0xc0, 0x3d, 0xb0, 0x72, 0x0d, 0x3e,
  0x94, 0xcb, 0x46, 0x3e, 0x02, 0xe2, 0xc5, 0x3b, 0x52, 0x61, 0x39, 0xbe,
  0xf6, 0x70, 0x57, 0xbe, 0x6f, 0x58, 0x97, 0x3e, 0x88, 0xf7, 0x70, 0xbd,
  0x91, 0xe6, 0x3c, 0xbe, 0x4a, 0x25, 0x63, 0x3e, 0x39, 0xd5, 0xe4, 0x3e,
  0x1b, 0x7c, 0x27, 0x3e, 0x60, 0x74, 0xec, 0xbc, 0xa4, 0xd7, 0x52, 0xbd,
  0xcd, 0x88, 0x0a, 0x3e, 0x6d, 0x86, 0x3d, 0xbd, 0x11, 0x65, 0xa2, 0x3c,
  0x3d, 0x03, 0x41, 0x3e, 0x07, 0x7e, 0xa6, 0x3e, 0x48, 0x34, 0xd8, 0xbd,
  0x74, 0x2b, 0xd8, 0xbd, 0x1d, 0xab, 0x9b, 0x3d, 0x08, 0x90, 0xd7, 0x3e,
  0xfa, 0xec, 0x17, 0x3e, 0xe4, 0x14, 0x6b, 0x3d, 0x84, 0x19, 0xb7, 0x3d,
  0x88, 0x8b, 0x9a, 0x3e, 0x51, 0x84, 0x38, 0xbe, 0x24, 0xaa, 0xb5, 0xbe,
  0xba, 0x97, 0x18, 0xbd, 0x90, 0xd8, 0x55, 0x3e, 0x5d, 0x44, 0x04, 0xbf,
  0x75, 0xe8, 0x28, 0xbf, 0x1d, 0x8e, 0xbb, 0x3c, 0x35, 0xde, 0xaf, 0x3e,
  0x80, 0x4d, 0x62, 0xbc, 0x4b, 0x59, 0x3e, 0xbe, 0xb3, 0xb5, 0x7a, 0x3d,
  0x1f, 0xb8, 0xe8, 0x3d, 0x55, 0x18, 0x1a, 0xbf, 0xcb, 0x59, 0x1a, 0xbf,
  0xb8, 0xae, 0xab, 0xbd, 0x22, 0x26, 0xeb, 0x3d, 0x13, 0x47, 0x45, 0xbf,
  0x49, 0x8f, 0x47, 0xbf, 0xcf, 0x88, 0xc4, 0xbd, 0x47, 0xbd, 0xe4, 0xbd,
  0xd7, 0xe7, 0xc3, 0xbd, 0x26, 0x0c, 0x21, 0xbe, 0x87, 0x9c, 0x31, 0x3e,
  0x4e, 0xfb, 0x22, 0xbe, 0x82, 0x22, 0x5c, 0xbf, 0xd5, 0xcd, 0x96, 0xbf,
  0xd9, 0xdf, 0x4a, 0x3e, 0xc2, 0x8d, 0xd0, 0xbe, 0x8c, 0xbc, 0x9f, 0xbf,
  0x11, 0x28, 0xe9, 0xbf, 0x82, 0x22, 0x18, 0x3e, 0x69, 0xe6, 0x3e, 0xbf,
  0x6a, 0x0f, 0xc7, 0xb9, 0xca, 0xd2, 0xa7, 0xbd, 0xe7, 0xe2, 0xf1, 0xbd,
  0x34, 0x6b, 0x84, 0xbe, 0xad, 0x3e, 0x07, 0x3e, 0xe3, 0xb3, 0x85, 0x3d,
  0x0a, 0x0a, 0x09, 0x3e, 0x29, 0xa2, 0x95, 0xbe, 0x5a, 0x92, 0x2f, 0x3e,
  0xc6, 0xe2, 0x36, 0x3d, 0x01, 0xf4, 0x87, 0xbd, 0x22, 0x7e, 0xc1, 0xbe,
  0x0b, 0x05, 0x22, 0xbc, 0xfb, 0x08, 0x5c, 0xbd, 0x9d, 0xb7, 0xd7, 0xbd,
  0xbf, 0xb1, 0x92, 0xbe, 0xa7, 0xcf, 0x51, 0xbe, 0x3c, 0xa9, 0xe7, 0xbe,
  0xdb, 0x85, 0x31, 0xbd, 0xcc, 0x93, 0xfe, 0xbe, 0xdb, 0x2b, 0x4e, 0xbe,
  0xa6, 0x8d, 0x16, 0xbf, 0xf8, 0xcd, 0x37, 0x3e, 0x0f, 0x64, 0x48, 0xbf,
  0x89, 0x76, 0x80, 0xbe, 0x93, 0x40, 0xae, 0xbe, 0x59, 0x6d, 0x41, 0x3e,
  0x2a, 0xf2, 0x04, 0xbf, 0x75, 0xe9, 0x4c, 0xbe, 0x7a, 0x1a, 0x05, 0xbf,
  0x44, 0xe6, 0x5e, 0x3e, 0xac, 0x3a, 0x0f, 0xbf, 0xbc, 0x1e, 0x1c, 0xbe,
  0xae, 0xb3, 0x26, 0xbf, 0x2e, 0x93, 0x58, 0xbe, 0x7d, 0x35, 0x29, 0xbf,
  0xff, 0x85, 0x6f, 0xbe, 0x30, 0x1d, 0x95, 0xbe, 0x19, 0xda, 0x09, 0x3e,
  0xd3, 0x45, 0xbb, 0xbe, 0x9d, 0xe6, 0xdb, 0xbd, 0x52, 0xcd, 0xa9, 0xbe,
  0x91, 0x59, 0x0f, 0x3e, 0x9b, 0xe7, 0x80, 0xbe, 0x35, 0x51, 0xdd, 0xbd,
  0x81, 0xdc, 0x04, 0xbf, 0x12, 0x96, 0x9e, 0x3d, 0x75, 0x63, 0xac, 0xbe,
  0xf7, 0x75, 0x00, 0xbe, 0xb5, 0x24, 0x2c, 0xbe, 0x21, 0x2d, 0x32, 0x3e,
  0x67, 0xc4, 0x56, 0xbe, 0xce, 0xa7, 0x1e, 0xbd, 0xde, 0x84, 0x1c, 0xbe,
  0x10, 0x6d, 0xab, 0x3d, 0xa9, 0xdf, 0xd4, 0xbd, 0x55, 0x2e, 0xf2, 0x3d,
  0xe6, 0xb4, 0x04, 0xbe, 0xe6, 0xe3, 0x37, 0xbe, 0xf7, 0x59, 0x4f, 0xbc,
  0xcc, 0x56, 0x08, 0x3d, 0xe8, 0x11, 0x18, 0x3c, 0xdb, 0x3f, 0x80, 0x3d,
  0x5b, 0x1a, 0xe5, 0xbd, 0xe2, 0x8c, 0x91, 0x3d, 0xe1, 0x5a, 0x27, 0x3d,
  0xed, 0x54, 0x2b, 0xbe, 0x74, 0xbb, 0xb6, 0x3b, 0x3f, 0x5c, 0x7f, 0x3e,
  0xbe, 0x6e, 0xed, 0x3b, 0xf2, 0x6b, 0x50, 0x3d, 0xd2, 0x0f, 0xde, 0x3d,
  0xfe, 0x0f, 0x40, 0x3e, 0x8d, 0xb0, 0x25, 0x3e, 0x40, 0xea, 0x5d, 0xbe,
  0xb3, 0xe2, 0x32, 0x3d, 0xb8, 0x39, 0x50, 0x3e, 0xa6, 0x37, 0xbe, 0x3d,
  0x7c, 0x5b, 0x6a, 0xbe, 0xcd, 0xde, 0x35, 0x3d, 0x33, 0x34, 0x78, 0x3e,
  0x85, 0x41, 0x99, 0x3d, 0x65, 0x5b, 0xdc, 0x3d, 0xe0, 0x40, 0xbc, 0x3d,
  0x19, 0x2e, 0x81, 0x3e, 0x33, 0x59, 0x89, 0x3e, 0x95, 0xb3, 0x9a, 0xbd,
  0x38, 0x87, 0x28, 0x3c, 0xda, 0x74, 0xda, 0x3e, 0x42, 0x07, 0xae, 0x3e,
  0x04, 0x7b, 0x24, 0x3e, 0xc8, 0x7e, 0xbf, 0x3e, 0x1e, 0x64, 0x01, 0x3f,
  0x6f, 0xf1, 0xc7, 0x3e, 0x39, 0xf9, 0xb4, 0x3d, 0xda, 0xea, 0xd0, 0x3e,
  0x2a, 0x07, 0xc6, 0x3e, 0xce, 0x49, 0xac, 0x3e, 0x32, 0x61, 0x5e, 0x3e,
  0xe1, 0x9d, 0xa1, 0x3d, 0x63, 0x71, 0x90, 0x3f, 0xe1, 0x44, 0xfe, 0x3c,
  0x19, 0x64, 0xf6, 0xbd, 0xa7, 0xf1, 0xca, 0xbe, 0xbb, 0x21, 0x77, 0x3f,
  0xfa, 0x26, 0xf0, 0xbd, 0x24, 0x56, 0xf3, 0xbd, 0x17, 0x06, 0x06, 0xbf,
  0x0c, 0xdf, 0xd4, 0x3f, 0x4c, 0x7e, 0xc6, 0x3f, 0xed, 0xb2, 0xfe, 0x3d,
  0xcb, 0xc0, 0x1f, 0xbf, 0xf5, 0xc1, 0x7d, 0xbd, 0x8d, 0x0d, 0x8f, 0xbe,
  0x13, 0xf7, 0x48, 0xbe, 0x99, 0x10, 0x24, 0xbf, 0xf8, 0xdf, 0x95, 0x3d,
  0x96, 0xfc, 0xa1, 0xbe, 0x15, 0x02, 0x38, 0x3e, 0x5f, 0x6d, 0x33, 0xbf,
  0x52, 0xe8, 0xed, 0x3d, 0xac, 0xb3, 0x65, 0x3e, 0x92, 0x11, 0x1c, 0xbc,
  0xa0, 0x7e, 0xa0, 0xbf, 0x87, 0x4b, 0xb9, 0x3d, 0xea, 0xb2, 0x89, 0xbd,
  0x05, 0x06, 0x0e, 0x3e, 0x2b, 0xc8, 0xf6, 0xbc, 0xe3, 0x59, 0x63, 0x3d,
  0x8d, 0x43, 0x71, 0xbd, 0x00, 0x72, 0x5f, 0xbe, 0xa8, 0x3d, 0x39, 0x3b,
  0x58, 0x74, 0x97, 0x3d, 0xd1, 0xcc, 0x2b, 0x3e, 0x51, 0xe0, 0x0f, 0xbe,
  0x8d, 0x66, 0xbb, 0xbe, 0xcd, 0x2c, 0x0e, 0x3e, 0x0f, 0x2e, 0xe2, 0xbd,
  0xe6, 0x3d, 0x0d, 0x3e, 0x7b, 0x4d, 0x3d, 0x3e, 0x9f, 0x33, 0xb0, 0xbc,
  0xde, 0x83, 0xe8, 0x3d, 0x4f, 0x8f, 0x27, 0xbe, 0x04, 0x1d, 0x39, 0x3e,
  0xc6, 0x50, 0x93, 0x3e, 0x37, 0xb0, 0xb2, 0x3e, 0xd3, 0x90, 0x27, 0xbe,
  0x75, 0x82, 0x1b, 0xbd, 0xda, 0xa2, 0x18, 0x3e, 0x0f, 0x29, 0x86, 0xbc,
  0xba, 0xb7, 0x53, 0xbe, 0xe1, 0x5d, 0xe0, 0x3d, 0xd7, 0x96, 0x26, 0xbc,
  0x01, 0x7a, 0xf3, 0x3d, 0x5f, 0xf6, 0x0f, 0xbe, 0x71, 0x3e, 0xa4, 0x3d,
  0xb1, 0x3d, 0x77, 0x3e, 0x36, 0xf8, 0xb8, 0x3e, 0xd8, 0x2c, 0xd0, 0xbc,
  0xe1, 0xdb, 0x86, 0x3d, 0xc5, 0x5c, 0x0c, 0xbe, 0x81, 0x56, 0x3f, 0x3e,
  0xfb, 0x75, 0x6f, 0xbd, 0x90, 0x0f, 0x10, 0x3e, 0x28, 0xe6, 0x88, 0xbd,
  0x72, 0x47, 0x7d, 0x3e, 0xf1, 0xf3, 0xab, 0xbd, 0xff, 0x70, 0x42, 0x3e,
  0x82, 0x62, 0x57, 0x3e, 0x84, 0x6c, 0xde, 0x3d, 0x88, 0x42, 0x0f, 0x3e,
  0x24, 0xac, 0x9e, 0xbd, 0xe5, 0xc0, 0xfc, 0xbd, 0x82, 0xd3, 0x68, 0x3d,
  0x95, 0xfd, 0x53, 0x3e, 0xb1, 0x62, 0xa3, 0x3e, 0x72, 0x36, 0x50, 0x3d,
  0x47, 0x75, 0xb3, 0xbd, 0x19, 0x9e, 0x73, 0x3e, 0x9a, 0x68, 0x3d, 0x3e,
  0x20, 0xa0, 0xa7, 0x3d, 0xe2, 0x5c, 0xac, 0xbd, 0x28, 0x19, 0x91, 0x3d,
  0xab, 0x20, 0x1f, 0xbe, 0x87, 0x1d, 0x1b, 0xbe, 0x66, 0x56, 0x4a, 0xbd,
  0x51, 0xdd, 0x8f, 0x3c, 0x1b, 0xc6, 0x3b, 0x3d, 0x5f, 0x12, 0xb5, 0xbd,
  0x58, 0x59, 0x20, 0xbe, 0x2a, 0x18, 0x71, 0x3e, 0x1c, 0xf7, 0x7e, 0x3d,
  0x24, 0x1e, 0xac, 0x3d, 0x83, 0xe4, 0x33, 0x3b, 0x64, 0xca, 0x44, 0xbe,
  0x89, 0xf7, 0x50, 0x3e, 0x57, 0x8d, 0x0b, 0x3e, 0x72, 0x62, 0x07, 0x3f,
  0x10, 0xf9, 0x92, 0x3d, 0x1b, 0x1d, 0x06, 0x3e, 0xfe, 0x02, 0x83, 0x3e,
  0xbd, 0x9c, 0x0d, 0x3f, 0xb9, 0x7c, 0x11, 0xbe, 0xf9, 0x9e, 0x81, 0x3d,
  0x3c, 0xa9, 0x0e, 0xbe, 0x37, 0x58, 0x57, 0x3f, 0x40, 0x21, 0xf5, 0x3c,
  0xf2, 0x40, 0x54, 0x3e, 0x26, 0x27, 0x43, 0xbc, 0xfc, 0x5c, 0x53, 0xbf,
  0x40, 0x83, 0x73, 0xbb, 0xdf, 0x6e, 0x21, 0x3e, 0xe8, 0x00, 0x28, 0x3e,
  0x9e, 0xe6, 0x87, 0xbf, 0x76, 0xf7, 0xe2, 0x3d, 0xfe, 0x36, 0xd1, 0x3d,
  0x6c, 0x46, 0x6f, 0xbe, 0x78, 0xf2, 0x33, 0xbf, 0x00, 0x4d, 0x47, 0x3b,
  0x96, 0x49, 0xc0, 0x3d, 0x51, 0x93, 0x82, 0x3d, 0xc7, 0xdf, 0x0a, 0xbe,
  0xde, 0xba, 0x25, 0xbd, 0x02, 0xe6, 0x2c, 0x3e, 0x0f, 0xcc, 0x0d, 0x3d,
  0x4e, 0x99, 0x06, 0xbf, 0x70, 0x48, 0x05, 0xbd, 0xf6, 0x53, 0xff, 0x3d,
  0xe8, 0x18, 0xc6, 0xbe, 0x6a, 0xf7, 0x6d, 0xbf, 0x85, 0xf8, 0x97, 0x3d,
  0xa8, 0x33, 0x3a, 0x3e, 0x99, 0x27, 0xd8, 0xbe, 0x8f, 0x51, 0x9e, 0xbf,
  0xc4, 0x12, 0xa7, 0x3d, 0x3b, 0x06, 0xe7, 0x3d, 0x06, 0x2a, 0x1c, 0xbe,
  0x73, 0x77, 0x7e, 0xbf, 0xb0, 0x35, 0x33, 0x3d, 0x16, 0xe0, 0x46, 0x3e,
  0x11, 0x40, 0xc5, 0xbf, 0x8f, 0x51, 0x09, 0xc0, 0x06, 0xa5, 0xe1, 0xbd,
  0x0a, 0xb0, 0x07, 0xbd, 0x6f, 0x56, 0x38, 0xbf, 0xf7, 0x6f, 0x61, 0xbf,
  0x78, 0x84, 0x44, 0xbe, 0x47, 0x0d, 0x15, 0x3d, 0x08, 0xbc, 0x29, 0xbf,
  0x33, 0xf0, 0x74, 0xbf, 0xbd, 0x13, 0xfa, 0xbd, 0x50, 0x32, 0x9f, 0xbc,
  0xad, 0x54, 0xfb, 0xbf, 0x29, 0xd5, 0x29, 0xc0, 0xff, 0xa4, 0xeb, 0x3d,
  0x2a, 0x5b, 0x56, 0x3e, 0xda, 0x53, 0xb1, 0xbe, 0x97, 0x83, 0xcb, 0xbe,
  0x68, 0xb9, 0xe2, 0xbc, 0xc8, 0x0d, 0x37, 0x3e, 0xe9, 0xd4, 0x73, 0xbe,
  0xc9, 0x10, 0x36, 0xbf, 0x41, 0xc7, 0xbd, 0x3c, 0x69, 0xdf, 0x83, 0x3d,
  0x08, 0xed, 0x12, 0xbf, 0x24, 0xaa, 0x19, 0xbf, 0xe2, 0x80, 0x5c, 0x3e,
  0x7c, 0xc1, 0x6d, 0x3e, 0x4d, 0x7f, 0x12, 0x3d, 0x51, 0x9d, 0xef, 0x3b,
  0x25, 0x3c, 0xb0, 0xbd, 0x08, 0x9b, 0x37, 0x3d, 0x14, 0x77, 0x46, 0xbd,
  0x80, 0xb2, 0x3f, 0xbd, 0xb8, 0x7f, 0xcd, 0xbd, 0xaf, 0xb8, 0x74, 0x3d,
  0x16, 0x5d, 0x69, 0x3e, 0x7f, 0x4e, 0xd8, 0x3e, 0xe7, 0xda, 0x2f, 0xbe,
  0xb8, 0x84, 0xaa, 0x3e, 0x60, 0x6a, 0xdf, 0x3d, 0x63, 0x49, 0x17, 0x3d,
  0xb7, 0x15, 0x4e, 0xbe, 0x99, 0x2d, 0x60, 0x3e, 0xb6, 0x30, 0xbb, 0x3d,
  0xf5, 0x12, 0x2e, 0x3d, 0xc5, 0x4b, 0x1b, 0x3e, 0x5c, 0x11, 0x58, 0x3e,
  0x97, 0x41, 0x83, 0xba, 0x90, 0xa2, 0xb1, 0x3d, 0x0a, 0x8e, 0xc5, 0x3d,
  0x00, 0x68, 0x64, 0x3e, 0xd4, 0xbb, 0x87, 0x3f, 0x89, 0x24, 0x3c, 0x3f,
  0x28, 0x9a, 0x00, 0xbc, 0x87, 0x67, 0x06, 0x3f, 0x22, 0xb6, 0x58, 0x3f,
  0x37, 0xb5, 0x22, 0x3f, 0xa0, 0xaf, 0x05, 0xbe, 0x23, 0x5f, 0xe5, 0x3e,
  0x6d, 0x17, 0x43, 0xbf, 0x23, 0x0a, 0xf9, 0x3e, 0x47, 0xb0, 0xad, 0x3b,
  0x06, 0xc7, 0x9f, 0x3e, 0x98, 0x22, 0x45, 0x3e, 0x3c, 0x8f, 0x9a, 0x3d,
  0x10, 0x18, 0x61, 0x3e, 0x99, 0x4c, 0x96, 0xbd, 0x4e, 0x19, 0xef, 0x3d,
  0x06, 0x86, 0x24, 0xbe, 0x46, 0xff, 0x57, 0x3d, 0xfb, 0x27, 0x43, 0xbc,
  0x17, 0xad, 0x16, 0xc0, 0xd3, 0x93, 0x38, 0xc0, 0x3c, 0x4a, 0x02, 0x3e,
  0x36, 0x33, 0x1a, 0xbf, 0x4b, 0xd6, 0x81, 0x3d, 0xc7, 0xff, 0x6d, 0xbe,
  0x7b, 0xf3, 0x2c, 0xbe, 0xed, 0x16, 0xd6, 0xbc, 0x39, 0x92, 0x8e, 0x3d,
  0x89, 0x8b, 0x30, 0xbe, 0xf4, 0x8f, 0x08, 0xbe, 0x78, 0xf7, 0xec, 0x3a,
  0x77, 0x0d, 0x31, 0xc0, 0x6e, 0xbb, 0x1d, 0xc0, 0xf2, 0x9f, 0xcf, 0x3d,
  0x6c, 0x18, 0x7b, 0x3f, 0x66, 0xd8, 0x7a, 0x3d, 0xa5, 0x54, 0xeb, 0x3c,
  0x9c, 0xc8, 0x84, 0xbc, 0xe0, 0x75, 0x0b, 0x3d, 0x7c, 0xdc, 0x0c, 0x3d,
  0x81, 0x9b, 0x95, 0xb9, 0x72, 0xd0, 0xae, 0xbd, 0x23, 0x78, 0xbb, 0x3d,
  0xdb, 0x78, 0xe7, 0xbf, 0x56, 0x79, 0x01, 0xc0, 0x03, 0x74, 0xeb, 0x3c,
  0x76, 0xca, 0x97, 0x3e, 0x2a, 0x53, 0x04, 0x3c, 0xcb, 0x68, 0x16, 0x3d,
  0x08, 0xe9, 0xe8, 0xbd, 0xca, 0x14, 0x21, 0x3d, 0x8a, 0x9f, 0x52, 0x3d,
  0x1e, 0x7e, 0x9d, 0x3c, 0xa6, 0x89, 0xfd, 0x3d, 0x09, 0xa7, 0x9b, 0x3d,
  0x8b, 0x01, 0xa7, 0xbf, 0x0b, 0x83, 0x95, 0xbf, 0xd3, 0x48, 0x54, 0xbe,
  0xf2, 0x71, 0xdd, 0x3e, 0xf7, 0x00, 0xcc, 0xbd, 0x41, 0xf8, 0x92, 0x3d,
  0xce, 0x5b, 0x01, 0xbe, 0x22, 0xfc, 0xf3, 0x3d, 0x75, 0xa3, 0x79, 0xbd,
  0x72, 0xef, 0x27, 0xbd, 0xf3, 0x08, 0x47, 0x3e, 0x79, 0xf5, 0x9f, 0x3d,
  0x90, 0xf6, 0x46, 0xbf, 0xb3, 0x3f, 0x9c, 0xbf, 0xe3, 0x27, 0x99, 0xbc,
  0x89, 0x3e, 0x32, 0x3f, 0xdc, 0xd2, 0x81, 0xbd, 0x59, 0x72, 0x91, 0xbd,
  0x73, 0xd1, 0x4e, 0xbe, 0xfb, 0x02, 0x67, 0xbc, 0x5e, 0x91, 0x8e, 0xbd,
  0xcc, 0xfc, 0x04, 0xbe, 0xca, 0x21, 0x12, 0xbe, 0x5d, 0x02, 0x58, 0x3b,
  0xc1, 0x95, 0xed, 0xbf, 0x18, 0xb8, 0xec, 0xbf, 0xc2, 0xf1, 0xac, 0x3c,
  0x79, 0xb1, 0x29, 0x3f, 0xb8, 0xa6, 0x45, 0xbe, 0x57, 0x1f, 0x7f, 0xbd,
  0xf2, 0xb9, 0x1a, 0x3e, 0xad, 0xba, 0xcf, 0xbb, 0x2f, 0x61, 0x18, 0xbe,
  0xe6, 0x29, 0x96, 0xbd, 0x3d, 0x81, 0x6a, 0xbe, 0x4f, 0x3f, 0x22, 0xbb,
  0x97, 0xc1, 0x94, 0xc0, 0xe9, 0xa6, 0xa5, 0xc0, 0xbb, 0xa4, 0x59, 0xbe,
  0x72, 0xda, 0x94, 0xc0, 0x46, 0x28, 0x64, 0x3d, 0x25, 0xdc, 0xfa, 0xbe,
  0x59, 0x1d, 0x60, 0x3e, 0x58, 0xae, 0x06, 0xbf, 0xf4, 0x15, 0xb9, 0x3d,
  0x87, 0x89, 0x05, 0xbf, 0x19, 0x06, 0xc8, 0x3d, 0x37, 0x7b, 0xb2, 0xbe,
  0xe6, 0x1f, 0x60, 0x3e, 0x23, 0x70, 0x24, 0x3e, 0x0f, 0x84, 0xff, 0x3d,
  0x96, 0x4f, 0xc9, 0xbe, 0x95, 0x37, 0x65, 0x3e, 0xdf, 0x58, 0xe9, 0x3e,
  0x4b, 0xc3, 0x69, 0x3d, 0x7e, 0x79, 0xfd, 0x3e, 0x16, 0x3b, 0xa4, 0x3e,
  0xad, 0x87, 0x02, 0x3f, 0xc6, 0x21, 0x60, 0xbd, 0x50, 0xdb, 0x18, 0x3f,
  0x5c, 0x93, 0xc4, 0x3d, 0x7b, 0x20, 0x51, 0x3e, 0xed, 0x24, 0xf4, 0xbd,
  0xa6, 0x60, 0x05, 0xbe, 0x3d, 0x98, 0xa0, 0x3e, 0x46, 0xd9, 0xbd, 0x3e,
  0x83, 0xe0, 0x7e, 0xbd, 0x42, 0xea, 0x9c, 0x3e, 0xf4, 0xe7, 0xce, 0x3e,
  0xa2, 0x0c, 0xb8, 0x3e, 0x0a, 0x7b, 0x42, 0x3e, 0x11, 0xf2, 0x3b, 0x3e,
  0x8e, 0x80, 0x6c, 0x3e, 0x19, 0x62, 0xa8, 0x3e, 0x15, 0x96, 0x1b, 0x3e,
  0x09, 0x34, 0x2d, 0x3e, 0x4e, 0x5c, 0x84, 0x3e, 0xd5, 0x50, 0x9b, 0x3e,
  0x28, 0xfe, 0x64, 0xbe, 0x81, 0x3f, 0xd6, 0x3d, 0xae, 0xed, 0x79, 0x3e,
  0x58, 0x72, 0x77, 0x3e, 0x22, 0x8e, 0xde, 0xbd, 0x1f, 0xd1, 0x1c, 0x3d,
  0x8c, 0xc5, 0x87, 0x3e, 0x08, 0x2c, 0xcd, 0x3e, 0x73, 0x71, 0x20, 0x3e,
  0x35, 0x75, 0x76, 0x3e, 0x5a, 0xe1, 0x3e, 0xbb, 0x05, 0x27, 0x33, 0x3c,
  0x7c, 0xe3, 0x2b, 0x3e, 0x82, 0x1f, 0xb6, 0xbd, 0xfb, 0x8c, 0xdf, 0x3d,
  0xa4, 0x62, 0xc6, 0x3d, 0xa0, 0xc9, 0xa7, 0xbd, 0x83, 0xb2, 0xac, 0xbd,
  0x0f, 0xb3, 0x86, 0x3d, 0x8d, 0xd0, 0xe1, 0x3d, 0x09, 0x67, 0x3d, 0x3e,
  0xae, 0x75, 0x02, 0x3e, 0x49, 0x45, 0x2d, 0xbe, 0x13, 0xbd, 0x7e, 0xbe,
  0x3e, 0x2a, 0x0e, 0x3e, 0x01, 0xba, 0x9a, 0xbe, 0x34, 0x34, 0xe7, 0xbd,
  0xea, 0xd3, 0x7f, 0xbe, 0x5b, 0xb7, 0x8f, 0xbb, 0xd6, 0xab, 0xb1, 0xbe,
  0x30, 0x97, 0x1c, 0xbe, 0xdf, 0x52, 0xec, 0xbc, 0x47, 0xf9, 0x8b, 0xbc,
  0x25, 0x9f, 0xd3, 0xbd, 0xc1, 0x1b, 0x8c, 0xbe, 0x0b, 0xa5, 0xe6, 0xbe,
  0x74, 0x80, 0x43, 0xbe, 0x96, 0x6b, 0xee, 0xbe, 0xce, 0x62, 0x54, 0xbe,
  0xa3, 0xdd, 0xfe, 0xbe, 0xab, 0x65, 0x60, 0xbe, 0xa2, 0xae, 0x06, 0xbf,
  0xbb, 0x45, 0x7d, 0xbe, 0xbf, 0xdd, 0xa8, 0xbe, 0xab, 0xcd, 0xc8, 0x3c,
  0x55, 0xbd, 0xc5, 0xbe, 0x51, 0x5d, 0xfb, 0xbe, 0x7f, 0x32, 0xd5, 0xbe,
  0x5d, 0x7b, 0x27, 0xbe, 0x95, 0xa2, 0x64, 0xbf, 0xc4, 0x20, 0x13, 0xbf,
  0xb4, 0x41, 0x26, 0xbf, 0xe7, 0x9a, 0xfb, 0xbc, 0xa7, 0x1c, 0x79, 0xbf,
  0x5a, 0xf6, 0xed, 0xbe, 0x98, 0x07, 0x09, 0xbf, 0x17, 0x74, 0xd4, 0x3c,
  0x25, 0x6b, 0x93, 0xbf, 0x75, 0x3b, 0xad, 0xbf, 0x79, 0x03, 0x4d, 0x3f,
  0xaa, 0x3b, 0x34, 0xbe, 0x5a, 0x28, 0xb6, 0x3d, 0xd8, 0x25, 0x9b, 0xbf,
  0xd3, 0x87, 0x9c, 0x3f, 0xab, 0x7c, 0xce, 0xbd, 0x69, 0x3c, 0x8c, 0xbd,
  0xbe, 0xaa, 0x5b, 0xc0, 0xca, 0x61, 0x8a, 0xbf, 0xe2, 0xbf, 0x24, 0x3e,
  0x14, 0x79, 0xc6, 0xbf, 0x6d, 0x0b, 0x9e, 0xbf, 0x16, 0x40, 0xef, 0xbf,
  0x88, 0x79, 0x4b, 0xbd, 0x94, 0x98, 0xb4, 0xbe, 0x47, 0x5e, 0xbe, 0xbf,
  0x6c, 0x24, 0xe7, 0xbf, 0xff, 0xe9, 0x4a, 0xbd, 0x8c, 0x87, 0xc2, 0xbe,
  0xd5, 0x39, 0xa1, 0xbf, 0x6c, 0x06, 0xd5, 0xbf, 0x98, 0x3a, 0x09, 0x3d,
  0x95, 0xf9, 0xfa, 0x3d, 0x9e, 0xe0, 0x03, 0x3e, 0x0c, 0x2b, 0x8d, 0x3e,
  0x80, 0x7a, 0x62, 0x3d, 0x37, 0x21, 0xf8, 0x3d, 0xa9, 0xf5, 0x85, 0x3d,
  0xd5, 0xb8, 0x07, 0xbb, 0x14, 0xe1, 0x03, 0x3e, 0xd8, 0x26, 0x14, 0xbe,
  0x4a, 0xdd, 0x0c, 0x3f, 0xde, 0x88, 0x31, 0x3f, 0x2e, 0xda, 0x01, 0x3e,
  0xd7, 0x92, 0x1e, 0x3f, 0xb8, 0x23, 0x6e, 0x3e, 0x44, 0x4b, 0x8b, 0x3e,
  0xc4, 0xcd, 0x3b, 0xbe, 0xd6, 0x24, 0xb8, 0x3d, 0xae, 0xae, 0x73, 0x3e,
  0xd1, 0xee, 0xae, 0x3e, 0xe2, 0xd4, 0x0c, 0x3e, 0x62, 0x00, 0x25, 0x3e,
  0x17, 0xd1, 0xcd, 0x3e, 0x65, 0xfa, 0x08, 0x3f, 0xb8, 0x3a, 0x92, 0x3c,
  0x76, 0xa6, 0xb9, 0x3e, 0xf9, 0x80, 0x53, 0x3d, 0x00, 0xa2, 0x2d, 0x3e,
  0x6c, 0x67, 0x6c, 0xbd, 0xc1, 0xd4, 0xed, 0x3d, 0xec, 0x88, 0x2f, 0x3e,
  0xcc, 0xc8, 0x63, 0x3e, 0x56, 0xe6, 0x1e, 0x3e, 0xc7, 0x83, 0x2c, 0x3e,
  0x75, 0x8f, 0x1e, 0xbe, 0xf5, 0x18, 0xff, 0xbd, 0x99, 0x03, 0x34, 0xbe,
  0x72, 0x3d, 0xd3, 0xbd, 0xe0, 0xf8, 0xfc, 0xbc, 0x4a, 0x49, 0x19, 0x3e,
  0x38, 0x23, 0x19, 0x3e, 0x3e, 0x2d, 0x0d, 0x3e, 0x25, 0xca, 0x94, 0x3d,
  0xc7, 0xf8, 0x0b, 0x3e, 0x2b, 0x35, 0x8e, 0xbc, 0xa9, 0x52, 0x06, 0x3e,
  0x66, 0xfc, 0x42, 0xbe, 0xf5, 0xce, 0x58, 0xbe, 0x10, 0x0b, 0xa5, 0x3c,
  0xfe, 0x2c, 0xca, 0xbd, 0x26, 0x92, 0x9a, 0xbd, 0x15, 0x41, 0xae, 0x3c,
  0x08, 0x62, 0xd6, 0xbc, 0xd4, 0xfd, 0xd0, 0x3c, 0x39, 0x72, 0xc2, 0x3b,
  0x7d, 0xb7, 0x33, 0x3c, 0x2a, 0x20, 0x38, 0xbe, 0x75, 0xd2, 0x57, 0x3d,
  0x57, 0xad, 0xa0, 0xbb, 0x07, 0x41, 0xf5, 0xbd, 0x24, 0x9c, 0xd5, 0xbd,
  0x82, 0x80, 0xba, 0x3d, 0x9a, 0x2c, 0x03, 0xbd, 0xac, 0xf9, 0xeb, 0x3c,
  0x78, 0x58, 0x91, 0xbc, 0x17, 0x4a, 0xae, 0x3d, 0x41, 0x95, 0x01, 0x3c,
  0xdd, 0x50, 0x1e, 0xbd, 0x30, 0x40, 0x19, 0xbe, 0xb4, 0x40, 0x82, 0x3d,
  0x6d, 0x47, 0x02, 0xbd, 0x83, 0x0c, 0x11, 0x3d, 0xc4, 0x72, 0x4f, 0x3e,
  0x02, 0x58, 0xd3, 0x3d, 0x51, 0x2e, 0x84, 0x3e, 0xcd, 0xa1, 0x86, 0x3d,
  0x81, 0xde, 0x31, 0xbd, 0xa3, 0x7d, 0x0d, 0x3e, 0x46, 0xdb, 0xaa, 0x3e,
  0xa5, 0x2a, 0xdc, 0x3d, 0xf0, 0x14, 0xf9, 0x3c, 0x6c, 0xab, 0xc6, 0x3e,
  0x0e, 0x95, 0x00, 0x3f, 0x1e, 0x98, 0x0d, 0x3f, 0xf0, 0xb4, 0x1b, 0xbe,
  0xf5, 0x07, 0xe9, 0x3e, 0x5a, 0x35, 0x9a, 0x3d, 0x35, 0xe4, 0x9c, 0xbe,
  0x3d, 0xf4, 0x35, 0xbe, 0x72, 0x31, 0x0a, 0xbf, 0x4d, 0x95, 0x5f, 0x3d,
  0x0d, 0x2a, 0x5b, 0x3d, 0xc2, 0x0d, 0x2c, 0x3e, 0xb4, 0xd4, 0x17, 0xbe,
  0x35, 0xe0, 0x78, 0x3d, 0x5c, 0x4c, 0x99, 0x3e, 0xc8, 0x84, 0x58, 0xbd,
  0xe8, 0xb9, 0xad, 0xbc, 0xd6, 0xba, 0x26, 0x3d, 0xcc, 0x81, 0x84, 0xbe,
  0x2d, 0xd9, 0xe6, 0x3d, 0xfb, 0xc1, 0xee, 0xbe, 0x17, 0x31, 0xb6, 0xbd,
  0x81, 0xeb, 0x8d, 0xbe, 0x00, 0x27, 0xc1, 0x3c, 0xab, 0x15, 0x08, 0xbf,
  0x77, 0x64, 0x89, 0x3e, 0x23, 0xee, 0xd5, 0x3e, 0x89, 0xea, 0x3c, 0xbe,
  0x3d, 0xcb, 0x03, 0x3e, 0x17, 0xac, 0x8a, 0xbc, 0x17, 0x09, 0xe1, 0xbe,
  0xa0, 0x62, 0x3f, 0x3e, 0x15, 0x41, 0x2c, 0xbf, 0xd1, 0x56, 0x47, 0xbe,
  0xbe, 0x8a, 0xcb, 0xbe, 0x00, 0x3b, 0x3a, 0x3b, 0xaa, 0xf4, 0x01, 0xbf,
  0xf2, 0x4d, 0x62, 0x3e, 0x98, 0x7e, 0x04, 0x3e, 0x2c, 0x61, 0x78, 0xbd,
  0x08, 0xf6, 0xcb, 0xbd, 0x22, 0x09, 0x21, 0xbe, 0xab, 0xc9, 0xd5, 0xbe,
  0x75, 0xbc, 0x4d, 0x3e, 0x24, 0xc6, 0x87, 0xbe, 0x08, 0xfc, 0xd9, 0xbd,
  0x76, 0x96, 0xa2, 0xbe, 0x0d, 0xcc, 0x0b, 0xbe, 0x3f, 0xfc, 0x03, 0xbe,
  0x7c, 0x0b, 0xd4, 0xbc, 0xe1, 0xa0, 0x80, 0xbd, 0x56, 0x32, 0xc4, 0x3d,
  0xac, 0x3e, 0xc8, 0xbe, 0x5e, 0x98, 0x84, 0x3c, 0x94, 0x4d, 0x38, 0xbe,
  0x23, 0xb8, 0x8c, 0x3c, 0x5f, 0x70, 0x20, 0x3e, 0x35, 0x17, 0x6d, 0x3d,
  0xd1, 0xe3, 0x2d, 0xbe, 0x6e, 0xb7, 0x2f, 0xbe, 0xd7, 0x98, 0xf4, 0x3d,
  0xd2, 0x31, 0xcf, 0xbe, 0x53, 0x69, 0x9f, 0xbe, 0xcf, 0xf8, 0xc1, 0xbd,
  0xee, 0x1a, 0x02, 0xbf, 0xcd, 0xe2, 0x28, 0x3d, 0x8c, 0x44, 0x4b, 0xba,
  0x0d, 0x96, 0x66, 0x3e, 0xb8, 0xd7, 0x4d, 0x3e, 0xeb, 0xbe, 0x8c, 0x3c,
  0xab, 0x28, 0x03, 0x3e, 0x68, 0xd4, 0xb2, 0x3d, 0x39, 0x77, 0x95, 0x3e,
  0xf5, 0x5f, 0xe4, 0xbd, 0x71, 0xa2, 0x2a, 0xbe, 0x9f, 0x8a, 0x21, 0x3d,
  0xe1, 0xf0, 0x28, 0x3d, 0xd6, 0x58, 0x61, 0x3e, 0xc9, 0x7e, 0x94, 0x3e,
  0xe0, 0xea, 0x5d, 0xbe, 0x46, 0x63, 0xe9, 0x3e, 0x4a, 0x46, 0xfc, 0x3d,
  0x47, 0x93, 0xac, 0x3e, 0x08, 0xc5, 0xc4, 0x3d, 0x7e, 0x3e, 0x0a, 0x3f,
  0x2d, 0x07, 0x13, 0x3e, 0xd8, 0x7e, 0xc0, 0x3d, 0xe9, 0x20, 0x67, 0xbe,
  0x87, 0xad, 0x92, 0x3e, 0x7e, 0xfd, 0xff, 0xff, 0x10, 0x00, 0x00, 0x00,
  0x07, 0x00, 0x00, 0x00, 0x14, 0x00, 0x00, 0x00, 0x34, 0x00, 0x00, 0x00,
  0x02, 0x00, 0x00, 0x00, 0x10, 0x00, 0x00, 0x00, 0x60, 0x00, 0x00, 0x00,
  0x1d, 0x00, 0x00, 0x00, 0x73, 0x65, 0x71, 0x75, 0x65, 0x6e, 0x74, 0x69,
  0x61, 0x6c, 0x5f, 0x32, 0x37, 0x2f, 0x64, 0x65, 0x6e, 0x73, 0x65, 0x5f,
  0x35, 0x30, 0x2f, 0x4d, 0x61, 0x74, 0x4d, 0x75, 0x6c, 0x00, 0x00, 0x00,
  0xf0, 0xfc, 0xff, 0xff, 0x1a, 0xfe, 0xff, 0xff, 0x04, 0x00, 0x00, 0x00,
  0x08, 0x00, 0x00, 0x00, 0xff, 0xff, 0xff, 0xff, 0x60, 0x00, 0x00, 0x00,
  0x00, 0x00, 0x0e, 0x00, 0x18, 0x00, 0x08, 0x00, 0x07, 0x00, 0x0c, 0x00,
  0x10, 0x00, 0x14, 0x00, 0x0e, 0x00, 0x00, 0x00, 0x00, 0x00, 0x00, 0x02,
  0x10, 0x00, 0x00, 0x00, 0x06, 0x00, 0x00, 0x00, 0x10, 0x00, 0x00, 0x00,
  0x30, 0x00, 0x00, 0x00, 0x01, 0x00, 0x00, 0x00, 0x02, 0x00, 0x00, 0x00,
  0x1e, 0x00, 0x00, 0x00, 0x73, 0x65, 0x71, 0x75, 0x65, 0x6e, 0x74, 0x69,
  0x61, 0x6c, 0x5f, 0x32, 0x37, 0x2f, 0x66, 0x6c, 0x61, 0x74, 0x74, 0x65,
  0x6e, 0x5f, 0x32, 0x35, 0x2f, 0x43, 0x6f, 0x6e, 0x73, 0x74, 0x00, 0x00,
  0x5c, 0xfd, 0xff, 0xff, 0x86, 0xfe, 0xff, 0xff, 0x04, 0x00, 0x00, 0x00,
  0x10, 0x00, 0x00, 0x00, 0xd7, 0x4a, 0x46, 0xbc, 0x50, 0xfe, 0x4e, 0xbe,
  0x0a, 0xbd, 0x42, 0xbc, 0x93, 0xef, 0x31, 0xbc, 0x4e, 0xfe, 0xff, 0xff,
  0x10, 0x00, 0x00, 0x00, 0x05, 0x00, 0x00, 0x00, 0x10, 0x00, 0x00, 0x00,
  0x54, 0x00, 0x00, 0x00, 0x01, 0x00, 0x00, 0x00, 0x04, 0x00, 0x00, 0x00,
  0x40, 0x00, 0x00, 0x00, 0x73, 0x65, 0x71, 0x75, 0x65, 0x6e, 0x74, 0x69,
  0x61, 0x6c, 0x5f, 0x32, 0x37, 0x2f, 0x64, 0x65, 0x70, 0x74, 0x68, 0x77,
  0x69, 0x73, 0x65, 0x5f, 0x63, 0x6f, 0x6e, 0x76, 0x32, 0x64, 0x5f, 0x35,
  0x2f, 0x42, 0x69, 0x61, 0x73, 0x41, 0x64, 0x64, 0x2f, 0x52, 0x65, 0x61,
  0x64, 0x56, 0x61, 0x72, 0x69, 0x61, 0x62, 0x6c, 0x65, 0x4f, 0x70, 0x2f,
  0x72, 0x65, 0x73, 0x6f, 0x75, 0x72, 0x63, 0x65, 0x00, 0x00, 0x00, 0x00,
  0xe0, 0xfd, 0xff, 0xff, 0x0a, 0xff, 0xff, 0xff, 0x04, 0x00, 0x00, 0x00,
  0x08, 0x00, 0x00, 0x00, 0xb2, 0x24, 0x47, 0xbd, 0xf1, 0x85, 0x48, 0xbe,
  0xca, 0xfe, 0xff, 0xff, 0x10, 0x00, 0x00, 0x00, 0x04, 0x00, 0x00, 0x00,
  0x10, 0x00, 0x00, 0x00, 0x54, 0x00, 0x00, 0x00, 0x01, 0x00, 0x00, 0x00,
  0x02, 0x00, 0x00, 0x00, 0x40, 0x00, 0x00, 0x00, 0x73, 0x65, 0x71, 0x75,
  0x65, 0x6e, 0x74, 0x69, 0x61, 0x6c, 0x5f, 0x32, 0x37, 0x2f, 0x64, 0x65,
  0x70, 0x74, 0x68, 0x77, 0x69, 0x73, 0x65, 0x5f, 0x63, 0x6f, 0x6e, 0x76,
  0x32, 0x64, 0x5f, 0x34, 0x2f, 0x42, 0x69, 0x61, 0x73, 0x41, 0x64, 0x64,
  0x2f, 0x52, 0x65, 0x61, 0x64, 0x56, 0x61, 0x72, 0x69, 0x61, 0x62, 0x6c,
  0x65, 0x4f, 0x70, 0x2f, 0x72, 0x65, 0x73, 0x6f, 0x75, 0x72, 0x63, 0x65,
  0x00, 0x00, 0x00, 0x00, 0x5c, 0xfe, 0xff, 0xff, 0x86, 0xff, 0xff, 0xff,
  0x04, 0x00, 0x00, 0x00, 0x0c, 0x00, 0x00, 0x00, 0x85, 0x8b, 0xbe, 0x3e,
  0xf0, 0x84, 0xb4, 0xbd, 0xf3, 0x47, 0x2d, 0xbf, 0x4a, 0xff, 0xff, 0xff,
  0x10, 0x00, 0x00, 0x00, 0x03, 0x00, 0x00, 0x00, 0x10, 0x00, 0x00, 0x00,
  0x4c, 0x00, 0x00, 0x00, 0x01, 0x00, 0x00, 0x00, 0x03, 0x00, 0x00, 0x00,
  0x36, 0x00, 0x00, 0x00, 0x73, 0x65, 0x71, 0x75, 0x65, 0x6e, 0x74, 0x69,
  0x61, 0x6c, 0x5f, 0x32, 0x37, 0x2f, 0x64, 0x65, 0x6e, 0x73, 0x65, 0x5f,
  0x35, 0x31, 0x2f, 0x42, 0x69, 0x61, 0x73, 0x41, 0x64, 0x64, 0x2f, 0x52,
  0x65, 0x61, 0x64, 0x56, 0x61, 0x72, 0x69, 0x61, 0x62, 0x6c, 0x65, 0x4f,
  0x70, 0x2f, 0x72, 0x65, 0x73, 0x6f, 0x75, 0x72, 0x63, 0x65, 0x00, 0x00,
  0x04, 0x00, 0x06, 0x00, 0x04, 0x00, 0x00, 0x00, 0x00, 0x00, 0x06, 0x00,
  0x08, 0x00, 0x04, 0x00, 0x06, 0x00, 0x00, 0x00, 0x04, 0x00, 0x00, 0x00,
  0x40, 0x00, 0x00, 0x00, 0x37, 0x14, 0x0c, 0x3e, 0xd2, 0x12, 0x93, 0xbe,
  0x3b, 0x55, 0x39, 0x3f, 0xaa, 0x03, 0x3b, 0x3d, 0xe0, 0x97, 0xf0, 0x3e,
  0x12, 0xae, 0xba, 0xbe, 0x02, 0xb9, 0xe4, 0x3e, 0xa8, 0xa0, 0xe8, 0xbe,
  0x0c, 0xc1, 0x17, 0x3f, 0x17, 0x0c, 0x75, 0x3f, 0x6f, 0x38, 0xa5, 0xbd,
  0xaf, 0xff, 0xb4, 0x3e, 0x4c, 0xeb, 0x58, 0x3f, 0xe0, 0x58, 0x56, 0x3e,
  0x24, 0x9b, 0x4e, 0x3e, 0xa1, 0x63, 0x31, 0xbe, 0x00, 0x00, 0x0e, 0x00,
  0x14, 0x00, 0x04, 0x00, 0x00, 0x00, 0x08, 0x00, 0x0c, 0x00, 0x10, 0x00,
  0x0e, 0x00, 0x00, 0x00, 0x10, 0x00, 0x00, 0x00, 0x02, 0x00, 0x00, 0x00,
  0x10, 0x00, 0x00, 0x00, 0x48, 0x00, 0x00, 0x00, 0x01, 0x00, 0x00, 0x00,
  0x10, 0x00, 0x00, 0x00, 0x36, 0x00, 0x00, 0x00, 0x73, 0x65, 0x71, 0x75,
  0x65, 0x6e, 0x74, 0x69, 0x61, 0x6c, 0x5f, 0x32, 0x37, 0x2f, 0x64, 0x65,
  0x6e, 0x73, 0x65, 0x5f, 0x35, 0x30, 0x2f, 0x42, 0x69, 0x61, 0x73, 0x41,
  0x64, 0x64, 0x2f, 0x52, 0x65, 0x61, 0x64, 0x56, 0x61, 0x72, 0x69, 0x61,
  0x62, 0x6c, 0x65, 0x4f, 0x70, 0x2f, 0x72, 0x65, 0x73, 0x6f, 0x75, 0x72,
  0x63, 0x65, 0x00, 0x00, 0x94, 0xff, 0xff, 0xff, 0x14, 0x00, 0x18, 0x00,
  0x04, 0x00, 0x00, 0x00, 0x08, 0x00, 0x0c, 0x00, 0x10, 0x00, 0x00, 0x00,
  0x00, 0x00, 0x14, 0x00, 0x14, 0x00, 0x00, 0x00, 0x14, 0x00, 0x00, 0x00,
  0x01, 0x00, 0x00, 0x00, 0x20, 0x00, 0x00, 0x00, 0x40, 0x00, 0x00, 0x00,
  0x28, 0x00, 0x00, 0x00, 0x04, 0x00, 0x00, 0x00, 0x01, 0x00, 0x00, 0x00,
  0x50, 0x00, 0x00, 0x00, 0x03, 0x00, 0x00, 0x00, 0x01, 0x00, 0x00, 0x00,
  0x08, 0x00, 0x00, 0x00, 0x69, 0x6e, 0x70, 0x75, 0x74, 0x5f, 0x32, 0x38,
  0x00, 0x00, 0x00, 0x00, 0x04, 0x00, 0x00, 0x00, 0xff, 0xff, 0xff, 0xff,
  0x50, 0x00, 0x00, 0x00, 0x03, 0x00, 0x00, 0x00, 0x01, 0x00, 0x00, 0x00,
  0xfc, 0xff, 0xff, 0xff, 0x04, 0x00, 0x04, 0x00, 0x04, 0x00, 0x00, 0x00
};
