const unsigned char model[] __attribute__((aligned(4))) = {
  0x1c, 0x00, 0x00, 0x00, 0x54, 0x46, 0x4c, 0x33, 0x00, 0x00, 0x12, 0x00,
  0x1c, 0x00, 0x04, 0x00, 0x08, 0x00, 0x0c, 0x00, 0x10, 0x00, 0x14, 0x00,
  0x00, 0x00, 0x18, 0x00, 0x12, 0x00, 0x00, 0x00, 0x03, 0x00, 0x00, 0x00,
  0x14, 0x00, 0x00, 0x00, 0x28, 0x00, 0x00, 0x00, 0xd0, 0x00, 0x00, 0x00,
  0x28, 0x00, 0x00, 0x00, 0x78, 0x00, 0x00, 0x00, 0x05, 0x00, 0x00, 0x00,
  0x4c, 0x07, 0x00, 0x00, 0x60, 0x06, 0x00, 0x00, 0x7c, 0x03, 0x00, 0x00,
  0xc8, 0x02, 0x00, 0x00, 0xa8, 0x01, 0x00, 0x00, 0x01, 0x00, 0x00, 0x00,
  0xcc, 0x00, 0x00, 0x00, 0x14, 0x00, 0x00, 0x00, 0x1c, 0x26, 0x00, 0x00,
  0x18, 0x26, 0x00, 0x00, 0xf0, 0x24, 0x00, 0x00, 0x6c, 0x24, 0x00, 0x00,
  0xe4, 0x23, 0x00, 0x00, 0x5c, 0x23, 0x00, 0x00, 0xec, 0x22, 0x00, 0x00,
  0x94, 0x0a, 0x00, 0x00, 0x7c, 0x09, 0x00, 0x00, 0xe0, 0x08, 0x00, 0x00,
  0x44, 0x08, 0x00, 0x00, 0xf0, 0x25, 0x00, 0x00, 0xec, 0x25, 0x00, 0x00,
  0xe8, 0x25, 0x00, 0x00, 0xe4, 0x25, 0x00, 0x00, 0xe0, 0x25, 0x00, 0x00,
  0xdc, 0x25, 0x00, 0x00, 0xd8, 0x25, 0x00, 0x00, 0xd4, 0x25, 0x00, 0x00,
  0x38, 0x00, 0x00, 0x00, 0x01, 0x00, 0x00, 0x00, 0x0c, 0x00, 0x00, 0x00,
  0x08, 0x00, 0x0c, 0x00, 0x04, 0x00, 0x08, 0x00, 0x08, 0x00, 0x00, 0x00,
  0x08, 0x00, 0x00, 0x00, 0x13, 0x00, 0x00, 0x00, 0x13, 0x00, 0x00, 0x00,
  0x6d, 0x69, 0x6e, 0x5f, 0x72, 0x75, 0x6e, 0x74, 0x69, 0x6d, 0x65, 0x5f,
  0x76, 0x65, 0x72, 0x73, 0x69, 0x6f, 0x6e, 0x00, 0x92, 0xdb, 0xff, 0xff,
  0x04, 0x00, 0x00, 0x00, 0x10, 0x00, 0x00, 0x00, 0x31, 0x2e, 0x35, 0x2e,
  0x30, 0x00, 0x00, 0x00, 0x00, 0x00, 0x00, 0x00, 0x00, 0x00, 0x00, 0x00,
  0x0f, 0x00, 0x00, 0x00, 0x4d, 0x4c, 0x49, 0x52, 0x20, 0x43, 0x6f, 0x6e,
  0x76, 0x65, 0x72, 0x74, 0x65, 0x64, 0x2e, 0x00, 0x00, 0x00, 0x0e, 0x00,
  0x18, 0x00, 0x04, 0x00, 0x08, 0x00, 0x0c, 0x00, 0x10, 0x00, 0x14, 0x00,
  0x0e, 0x00, 0x00, 0x00, 0x14, 0x00, 0x00, 0x00, 0x5c, 0x00, 0x00, 0x00,
  0x60, 0x00, 0x00, 0x00, 0x64, 0x00, 0x00, 0x00, 0x84, 0x00, 0x00, 0x00,
  0x12, 0x00, 0x00, 0x00, 0xe4, 0x24, 0x00, 0x00, 0x70, 0x24, 0x00, 0x00,
  0xa8, 0x23, 0x00, 0x00, 0x24, 0x23, 0x00, 0x00, 0x9c, 0x22, 0x00, 0x00,
  0x34, 0x22, 0x00, 0x00, 0xc4, 0x21, 0x00, 0x00, 0x6c, 0x09, 0x00, 0x00,
  0x40, 0x08, 0x00, 0x00, 0xa4, 0x07, 0x00, 0x00, 0x30, 0x06, 0x00, 0x00,
  0x44, 0x05, 0x00, 0x00, 0xcc, 0x03, 0x00, 0x00, 0x08, 0x03, 0x00, 0x00,
  0x58, 0x02, 0x00, 0x00, 0xa4, 0x01, 0x00, 0x00, 0xfc, 0x00, 0x00, 0x00,
  0x80, 0x00, 0x00, 0x00, 0x01, 0x00, 0x00, 0x00, 0x00, 0x00, 0x00, 0x00,
  0x01, 0x00, 0x00, 0x00, 0x11, 0x00, 0x00, 0x00, 0x08, 0x00, 0x00, 0x00,
  0x94, 0x05, 0x00, 0x00, 0xb4, 0x04, 0x00, 0x00, 0x58, 0x03, 0x00, 0x00,
  0x94, 0x02, 0x00, 0x00, 0xf4, 0x01, 0x00, 0x00, 0x24, 0x01, 0x00, 0x00,
  0x94, 0x00, 0x00, 0x00, 0x10, 0x00, 0x00, 0x00, 0x04, 0x00, 0x00, 0x00,
  0x6d, 0x61, 0x69, 0x6e, 0x00, 0x00, 0x00, 0x00, 0x9a, 0xfd, 0xff, 0xff,
  0x00, 0x00, 0x00, 0x09, 0x04, 0x00, 0x00, 0x00, 0x1c, 0x00, 0x00, 0x00,
  0x10, 0x00, 0x00, 0x00, 0x04, 0x00, 0x00, 0x00, 0x8e, 0xdc, 0xff, 0xff,
  0x00, 0x00, 0x80, 0x3f, 0x01, 0x00, 0x00, 0x00, 0x11, 0x00, 0x00, 0x00,
  0x01, 0x00, 0x00, 0x00, 0x10, 0x00, 0x00, 0x00, 0x76, 0xfa, 0xff, 0xff,
  0x00, 0x00, 0x00, 0x19, 0x01, 0x00, 0x00, 0x00, 0xf4, 0xdb, 0xff, 0xff,
  0x14, 0x00, 0x00, 0x00, 0x12, 0x00, 0x00, 0x00, 0x18, 0x00, 0x00, 0x00,
  0x30, 0x00, 0x00, 0x00, 0x20, 0x00, 0x00, 0x00, 0x02, 0x00, 0x00, 0x00,
  0x01, 0x00, 0x00, 0x00, 0x03, 0x00, 0x00, 0x00, 0x08, 0x00, 0x00, 0x00,
  0x49, 0x64, 0x65, 0x6e, 0x74, 0x69, 0x74, 0x79, 0x00, 0x00, 0x00, 0x00,
  0x02, 0x00, 0x00, 0x00, 0xff, 0xff, 0xff, 0xff, 0x03, 0x00, 0x00, 0x00,
  0xcc, 0xdb, 0xff, 0xff, 0x1a, 0xfe, 0xff, 0xff, 0x00, 0x00, 0x00, 0x08,
  0x03, 0x00, 0x00, 0x00, 0x18, 0x00, 0x00, 0x00, 0x0c, 0x00, 0x00, 0x00,
  0x04, 0x00, 0x00, 0x00, 0xe8, 0xdb, 0xff, 0xff, 0x01, 0x00, 0x00, 0x00,
  0x10, 0x00, 0x00, 0x00, 0x03, 0x00, 0x00, 0x00, 0x0f, 0x00, 0x00, 0x00,
  0x07, 0x00, 0x00, 0x00, 0x02, 0x00, 0x00, 0x00, 0x6c, 0xdc, 0xff, 0xff,
  0x14, 0x00, 0x00, 0x00, 0x11, 0x00, 0x00, 0x00, 0x18, 0x00, 0x00, 0x00,
  0x44, 0x00, 0x00, 0x00, 0x34, 0x00, 0x00, 0x00, 0x02, 0x00, 0x00, 0x00,
  0x01, 0x00, 0x00, 0x00, 0x03, 0x00, 0x00, 0x00, 0x1e, 0x00, 0x00, 0x00,
  0x73, 0x65, 0x71, 0x75, 0x65, 0x6e, 0x74, 0x69, 0x61, 0x6c, 0x5f, 0x33,
  0x30, 0x2f, 0x64, 0x65, 0x6e, 0x73, 0x65, 0x5f, 0x35, 0x37, 0x2f, 0x42,
  0x69, 0x61, 0x73, 0x41, 0x64, 0x64, 0x00, 0x00, 0x02, 0x00, 0x00, 0x00,
  0xff, 0xff, 0xff, 0xff, 0x03, 0x00, 0x00, 0x00, 0x58, 0xdc, 0xff, 0xff,
  0x8e, 0xfc, 0xff, 0xff, 0x00, 0x00, 0x00, 0x08, 0x03, 0x00, 0x00, 0x00,
  0x24, 0x00, 0x00, 0x00, 0x18, 0x00, 0x00, 0x00, 0x0c, 0x00, 0x00, 0x00,
  0x00, 0x00, 0x06, 0x00, 0x08, 0x00, 0x07, 0x00, 0x06, 0x00, 0x00, 0x00,
  0x00, 0x00, 0x00, 0x01, 0x01, 0x00, 0x00, 0x00, 0x0f, 0x00, 0x00, 0x00,
  0x03, 0x00, 0x00, 0x00, 0x0e, 0x00, 0x00, 0x00, 0x06, 0x00, 0x00, 0x00,
  0x01, 0x00, 0x00, 0x00, 0x92, 0xfb, 0xff, 0xff, 0x00, 0x00, 0x00, 0x09,
  0x01, 0x00, 0x00, 0x00, 0x10, 0xdd, 0xff, 0xff, 0x14, 0x00, 0x00, 0x00,
  0x10, 0x00, 0x00, 0x00, 0x18, 0x00, 0x00, 0x00, 0x60, 0x00, 0x00, 0x00,
  0x50, 0x00, 0x00, 0x00, 0x02, 0x00, 0x00, 0x00, 0x01, 0x00, 0x00, 0x00,
  0x10, 0x00, 0x00, 0x00, 0x3a, 0x00, 0x00, 0x00, 0x73, 0x65, 0x71, 0x75,
  0x65, 0x6e, 0x74, 0x69, 0x61, 0x6c, 0x5f, 0x33, 0x30, 0x2f, 0x64, 0x65,
  0x6e, 0x73, 0x65, 0x5f, 0x35, 0x36, 0x2f, 0x52, 0x65, 0x6c, 0x75, 0x3b,
  0x73, 0x65, 0x71, 0x75, 0x65, 0x6e, 0x74, 0x69, 0x61, 0x6c, 0x5f, 0x33,
  0x30, 0x2f, 0x64, 0x65, 0x6e, 0x73, 0x65, 0x5f, 0x35, 0x36, 0x2f, 0x42,
  0x69, 0x61, 0x73, 0x41, 0x64, 0x64, 0x00, 0x00, 0x02, 0x00, 0x00, 0x00,
  0xff, 0xff, 0xff, 0xff, 0x10, 0x00, 0x00, 0x00, 0x48, 0xde, 0xff, 0xff,
  0x00, 0x00, 0x0a, 0x00, 0x10, 0x00, 0x04, 0x00, 0x08, 0x00, 0x0c, 0x00,
  0x0a, 0x00, 0x00, 0x00, 0x02, 0x00, 0x00, 0x00, 0x10, 0x00, 0x00, 0x00,
  0x04, 0x00, 0x00, 0x00, 0x01, 0x00, 0x00, 0x00, 0x0e, 0x00, 0x00, 0x00,
  0x02, 0x00, 0x00, 0x00, 0x0d, 0x00, 0x00, 0x00, 0x05, 0x00, 0x00, 0x00,
  0x42, 0xfc, 0xff, 0xff, 0x00, 0x00, 0x00, 0x16, 0x01, 0x00, 0x00, 0x00,
  0xc0, 0xdd, 0xff, 0xff, 0x14, 0x00, 0x00, 0x00, 0x0f, 0x00, 0x00, 0x00,
  0x18, 0x00, 0x00, 0x00, 0x48, 0x00, 0x00, 0x00, 0x38, 0x00, 0x00, 0x00,
  0x02, 0x00, 0x00, 0x00, 0x01, 0x00, 0x00, 0x00, 0x60, 0x00, 0x00, 0x00,
  0x20, 0x00, 0x00, 0x00, 0x73, 0x65, 0x71, 0x75, 0x65, 0x6e, 0x74, 0x69,
  0x61, 0x6c, 0x5f, 0x33, 0x30, 0x2f, 0x66, 0x6c, 0x61, 0x74, 0x74, 0x65,
  0x6e, 0x5f, 0x32, 0x38, 0x2f, 0x52, 0x65, 0x73, 0x68, 0x61, 0x70, 0x65,
  0x00, 0x00, 0x00, 0x00, 0x02, 0x00, 0x00, 0x00, 0xff, 0xff, 0xff, 0xff,
  0x60, 0x00, 0x00, 0x00, 0xe0, 0xde, 0xff, 0xff, 0x00, 0x00, 0x0e, 0x00,
  0x18, 0x00, 0x08, 0x00, 0x0c, 0x00, 0x10, 0x00, 0x07, 0x00, 0x14, 0x00,
  0x0e, 0x00, 0x00, 0x00, 0x00, 0x00, 0x00, 0x05, 0x01, 0x00, 0x00, 0x00,
  0x2c, 0x00, 0x00, 0x00, 0x20, 0x00, 0x00, 0x00, 0x04, 0x00, 0x00, 0x00,
  0xe6, 0xfd, 0xff, 0xff, 0x03, 0x00, 0x00, 0x00, 0x01, 0x00, 0x00, 0x00,
  0x03, 0x00, 0x00, 0x00, 0x01, 0x00, 0x00, 0x00, 0x00, 0x00, 0x00, 0x01,
  0x01, 0x00, 0x00, 0x00, 0x0d, 0x00, 0x00, 0x00, 0x01, 0x00, 0x00, 0x00,
  0x0c, 0x00, 0x00, 0x00, 0x6c, 0xde, 0xff, 0xff, 0x14, 0x00, 0x00, 0x00,
  0x0e, 0x00, 0x00, 0x00, 0x20, 0x00, 0x00, 0x00, 0x5c, 0x00, 0x00, 0x00,
  0x44, 0x00, 0x00, 0x00, 0x04, 0x00, 0x00, 0x00, 0x01, 0x00, 0x00, 0x00,
  0x08, 0x00, 0x00, 0x00, 0x03, 0x00, 0x00, 0x00, 0x04, 0x00, 0x00, 0x00,
  0x26, 0x00, 0x00, 0x00, 0x73, 0x65, 0x71, 0x75, 0x65, 0x6e, 0x74, 0x69,
  0x61, 0x6c, 0x5f, 0x33, 0x30, 0x2f, 0x6d, 0x61, 0x78, 0x5f, 0x70, 0x6f,
  0x6f, 0x6c, 0x69, 0x6e, 0x67, 0x32, 0x64, 0x5f, 0x35, 0x37, 0x2f, 0x4d,
  0x61, 0x78, 0x50, 0x6f, 0x6f, 0x6c, 0x00, 0x00, 0x04, 0x00, 0x00, 0x00,
  0xff, 0xff, 0xff, 0xff, 0x08, 0x00, 0x00, 0x00, 0x03, 0x00, 0x00, 0x00,
  0x04, 0x00, 0x00, 0x00, 0xa0, 0xdf, 0xff, 0xff, 0x00, 0x00, 0x0e, 0x00,
  0x14, 0x00, 0x00, 0x00, 0x08, 0x00, 0x0c, 0x00, 0x07, 0x00, 0x10, 0x00,
  0x0e, 0x00, 0x00, 0x00, 0x00, 0x00, 0x00, 0x02, 0x28, 0x00, 0x00, 0x00,
  0x1c, 0x00, 0x00, 0x00, 0x04, 0x00, 0x00, 0x00, 0xca, 0xfd, 0xff, 0xff,
  0x01, 0x00, 0x00, 0x00, 0x01, 0x00, 0x00, 0x00, 0x01, 0x00, 0x00, 0x00,
  0x00, 0x00, 0x01, 0x01, 0x01, 0x00, 0x00, 0x00, 0x0c, 0x00, 0x00, 0x00,
  0x03, 0x00, 0x00, 0x00, 0x0b, 0x00, 0x00, 0x00, 0x09, 0x00, 0x00, 0x00,
  0x04, 0x00, 0x00, 0x00, 0x2c, 0xdf, 0xff, 0xff, 0x14, 0x00, 0x00, 0x00,
  0x0d, 0x00, 0x00, 0x00, 0x20, 0x00, 0x00, 0x00, 0xf4, 0x00, 0x00, 0x00,
  0xdc, 0x00, 0x00, 0x00, 0x04, 0x00, 0x00, 0x00, 0x01, 0x00, 0x00, 0x00,
  0x18, 0x00, 0x00, 0x00, 0x03, 0x00, 0x00, 0x00, 0x04, 0x00, 0x00, 0x00,
  0xbe, 0x00, 0x00, 0x00, 0x73, 0x65, 0x71, 0x75, 0x65, 0x6e, 0x74, 0x69,
  0x61, 0x6c, 0x5f, 0x33, 0x30, 0x2f, 0x64, 0x65, 0x70, 0x74, 0x68, 0x77,
  0x69, 0x73, 0x65, 0x5f, 0x63, 0x6f, 0x6e, 0x76, 0x32, 0x64, 0x5f, 0x31,
  0x31, 0x2f, 0x52, 0x65, 0x6c, 0x75, 0x3b, 0x73, 0x65, 0x71, 0x75, 0x65,
  0x6e, 0x74, 0x69, 0x61, 0x6c, 0x5f, 0x33, 0x30, 0x2f, 0x64, 0x65, 0x70,
  0x74, 0x68, 0x77, 0x69, 0x73, 0x65, 0x5f, 0x63, 0x6f, 0x6e, 0x76, 0x32,
  0x64, 0x5f, 0x31, 0x31, 0x2f, 0x42, 0x69, 0x61, 0x73, 0x41, 0x64, 0x64,
  0x3b, 0x73, 0x65, 0x71, 0x75, 0x65, 0x6e, 0x74, 0x69, 0x61, 0x6c, 0x5f,
  0x33, 0x30, 0x2f, 0x64, 0x65, 0x70, 0x74, 0x68, 0x77, 0x69, 0x73, 0x65,
  0x5f, 0x63, 0x6f, 0x6e, 0x76, 0x32, 0x64, 0x5f, 0x31, 0x31, 0x2f, 0x64,
  0x65, 0x70, 0x74, 0x68, 0x77, 0x69, 0x73, 0x65, 0x3b, 0x73, 0x65, 0x71,
  0x75, 0x65, 0x6e, 0x74, 0x69, 0x61, 0x6c, 0x5f, 0x33, 0x30, 0x2f, 0x64,
  0x65, 0x70, 0x74, 0x68, 0x77, 0x69, 0x73, 0x65, 0x5f, 0x63, 0x6f, 0x6e,
  0x76, 0x32, 0x64, 0x5f, 0x31, 0x31, 0x2f, 0x42, 0x69, 0x61, 0x73, 0x41,
  0x64, 0x64, 0x2f, 0x52, 0x65, 0x61, 0x64, 0x56, 0x61, 0x72, 0x69, 0x61,
  0x62, 0x6c, 0x65, 0x4f, 0x70, 0x2f, 0x72, 0x65, 0x73, 0x6f, 0x75, 0x72,
  0x63, 0x65, 0x00, 0x00, 0x04, 0x00, 0x00, 0x00, 0xff, 0xff, 0xff, 0xff,
  0x18, 0x00, 0x00, 0x00, 0x03, 0x00, 0x00, 0x00, 0x04, 0x00, 0x00, 0x00,
  0xf8, 0xe0, 0xff, 0xff, 0x00, 0x00, 0x0e, 0x00, 0x1a, 0x00, 0x08, 0x00,
  0x0c, 0x00, 0x10, 0x00, 0x07, 0x00, 0x14, 0x00, 0x0e, 0x00, 0x00, 0x00,
  0x00, 0x00, 0x00, 0x05, 0x01, 0x00, 0x00, 0x00, 0x3c, 0x00, 0x00, 0x00,
  0x30, 0x00, 0x00, 0x00, 0x14, 0x00, 0x00, 0x00, 0x00, 0x00, 0x0e, 0x00,
  0x18, 0x00, 0x17, 0x00, 0x10, 0x00, 0x0c, 0x00, 0x08, 0x00, 0x04, 0x00,
  0x0e, 0x00, 0x00, 0x00, 0x03, 0x00, 0x00, 0x00, 0x01, 0x00, 0x00, 0x00,
  0x03, 0x00, 0x00, 0x00, 0x01, 0x00, 0x00, 0x00, 0x00, 0x00, 0x00, 0x01,
  0x01, 0x00, 0x00, 0x00, 0x0b, 0x00, 0x00, 0x00, 0x01, 0x00, 0x00, 0x00,
  0x0a, 0x00, 0x00, 0x00, 0x22, 0xff, 0xff, 0xff, 0x00, 0x00, 0x00, 0x11,
  0x01, 0x00, 0x00, 0x00, 0xa0, 0xe0, 0xff, 0xff, 0x14, 0x00, 0x00, 0x00,
  0x0c, 0x00, 0x00, 0x00, 0x20, 0x00, 0x00, 0x00, 0x5c, 0x00, 0x00, 0x00,
  0x44, 0x00, 0x00, 0x00, 0x04, 0x00, 0x00, 0x00, 0x01, 0x00, 0x00, 0x00,
  0x1a, 0x00, 0x00, 0x00, 0x03, 0x00, 0x00, 0x00, 0x04, 0x00, 0x00, 0x00,
  0x26, 0x00, 0x00, 0x00, 0x73, 0x65, 0x71, 0x75, 0x65, 0x6e, 0x74, 0x69,
  0x61, 0x6c, 0x5f, 0x33, 0x30, 0x2f, 0x6d, 0x61, 0x78, 0x5f, 0x70, 0x6f,
  0x6f, 0x6c, 0x69, 0x6e, 0x67, 0x32, 0x64, 0x5f, 0x35, 0x36, 0x2f, 0x4d,
  0x61, 0x78, 0x50, 0x6f, 0x6f, 0x6c, 0x00, 0x00, 0x04, 0x00, 0x00, 0x00,
  0xff, 0xff, 0xff, 0xff, 0x1a, 0x00, 0x00, 0x00, 0x03, 0x00, 0x00, 0x00,
  0x04, 0x00, 0x00, 0x00, 0xd4, 0xe1, 0xff, 0xff, 0x00, 0x00, 0x0e, 0x00,
  0x16, 0x00, 0x00, 0x00, 0x08, 0x00, 0x0c, 0x00, 0x07, 0x00, 0x10, 0x00,
  0x0e, 0x00, 0x00, 0x00, 0x00, 0x00, 0x00, 0x02, 0x38, 0x00, 0x00, 0x00,
  0x2c, 0x00, 0x00, 0x00, 0x14, 0x00, 0x00, 0x00, 0x00, 0x00, 0x0e, 0x00,
  0x14, 0x00, 0x12, 0x00, 0x08, 0x00, 0x0c, 0x00, 0x04, 0x00, 0x13, 0x00,
  0x0e, 0x00, 0x00, 0x00, 0x04, 0x00, 0x00, 0x00, 0x01, 0x00, 0x00, 0x00,
  0x01, 0x00, 0x00, 0x00, 0x00, 0x00, 0x01, 0x01, 0x01, 0x00, 0x00, 0x00,
  0x0a, 0x00, 0x00, 0x00, 0x03, 0x00, 0x00, 0x00, 0x00, 0x00, 0x00, 0x00,
  0x08, 0x00, 0x00, 0x00, 0x03, 0x00, 0x00, 0x00, 0x00, 0x00, 0x0a, 0x00,
  0x0c, 0x00, 0x07, 0x00, 0x00, 0x00, 0x08, 0x00, 0x0a, 0x00, 0x00, 0x00,
  0x00, 0x00, 0x00, 0x04, 0x01, 0x00, 0x00, 0x00, 0x88, 0xe1, 0xff, 0xff,
  0x14, 0x00, 0x00, 0x00, 0x0b, 0x00, 0x00, 0x00, 0x20, 0x00, 0x00, 0x00,
  0x20, 0x01, 0x00, 0x00, 0x08, 0x01, 0x00, 0x00, 0x04, 0x00, 0x00, 0x00,
  0x01, 0x00, 0x00, 0x00, 0x4e, 0x00, 0x00, 0x00, 0x03, 0x00, 0x00, 0x00,
  0x04, 0x00, 0x00, 0x00, 0xea, 0x00, 0x00, 0x00, 0x73, 0x65, 0x71, 0x75,
  0x65, 0x6e, 0x74, 0x69, 0x61, 0x6c, 0x5f, 0x33, 0x30, 0x2f, 0x64, 0x65,
  0x70, 0x74, 0x68, 0x77, 0x69, 0x73, 0x65, 0x5f, 0x63, 0x6f, 0x6e, 0x76,
  0x32, 0x64, 0x5f, 0x31, 0x30, 0x2f, 0x52, 0x65, 0x6c, 0x75, 0x3b, 0x73,
  0x65, 0x71, 0x75, 0x65, 0x6e, 0x74, 0x69, 0x61, 0x6c, 0x5f, 0x33, 0x30,
  0x2f, 0x64, 0x65, 0x70, 0x74, 0x68, 0x77, 0x69, 0x73, 0x65, 0x5f, 0x63,
  0x6f, 0x6e, 0x76, 0x32, 0x64, 0x5f, 0x31, 0x30, 0x2f, 0x42, 0x69, 0x61,
  0x73, 0x41, 0x64, 0x64, 0x3b, 0x73, 0x65, 0x71, 0x75, 0x65, 0x6e, 0x74,
  0x69, 0x61, 0x6c, 0x5f, 0x33, 0x30, 0x2f, 0x64, 0x65, 0x70, 0x74, 0x68,
  0x77, 0x69, 0x73, 0x65, 0x5f, 0x63, 0x6f, 0x6e, 0x76, 0x32, 0x64, 0x5f,
  0x31, 0x31, 0x2f, 0x64, 0x65, 0x70, 0x74, 0x68, 0x77, 0x69, 0x73, 0x65,
  0x3b, 0x73, 0x65, 0x71, 0x75, 0x65, 0x6e, 0x74, 0x69, 0x61, 0x6c, 0x5f,
  0x33, 0x30, 0x2f, 0x64, 0x65, 0x70, 0x74, 0x68, 0x77, 0x69, 0x73, 0x65,
  0x5f, 0x63, 0x6f, 0x6e, 0x76, 0x32, 0x64, 0x5f, 0x31, 0x30, 0x2f, 0x64,
  0x65, 0x70, 0x74, 0x68, 0x77, 0x69, 0x73, 0x65, 0x3b, 0x73, 0x65, 0x71,
  0x75, 0x65, 0x6e, 0x74, 0x69, 0x61, 0x6c, 0x5f, 0x33, 0x30, 0x2f, 0x64,
  0x65, 0x70, 0x74, 0x68, 0x77, 0x69, 0x73, 0x65, 0x5f, 0x63, 0x6f, 0x6e,
  0x76, 0x32, 0x64, 0x5f, 0x31, 0x30, 0x2f, 0x42, 0x69, 0x61, 0x73, 0x41,
  0x64, 0x64, 0x2f, 0x52, 0x65, 0x61, 0x64, 0x56, 0x61, 0x72, 0x69, 0x61,
  0x62, 0x6c, 0x65, 0x4f, 0x70, 0x2f, 0x72, 0x65, 0x73, 0x6f, 0x75, 0x72,
  0x63, 0x65, 0x00, 0x00, 0x04, 0x00, 0x00, 0x00, 0xff, 0xff, 0xff, 0xff,
  0x4e, 0x00, 0x00, 0x00, 0x03, 0x00, 0x00, 0x00, 0x04, 0x00, 0x00, 0x00,
  0x50, 0xe2, 0xff, 0xff, 0x7a, 0xe3, 0xff, 0xff, 0x04, 0x00, 0x00, 0x00,
  0x30, 0x00, 0x00, 0x00, 0xd6, 0xa8, 0xa2, 0x3c, 0x20, 0x81, 0x52, 0x3f,
  0x9c, 0xd0, 0x82, 0xbb, 0x85, 0xc3, 0x82, 0x3f, 0x9b, 0x01, 0x42, 0x3f,
  0xd4, 0x39, 0xb2, 0x3e, 0x9d, 0x71, 0xba, 0x3d, 0xeb, 0x4f, 0x02, 0xbd,
  0xba, 0x49, 0x51, 0x3d, 0x38, 0x78, 0x4d, 0x3e, 0xf3, 0xd5, 0x17, 0x3f,
  0x57, 0xb1, 0xb8, 0x3d, 0x62, 0xe3, 0xff, 0xff, 0x10, 0x00, 0x00, 0x00,
  0x0a, 0x00, 0x00, 0x00, 0x1c, 0x00, 0x00, 0x00, 0x48, 0x00, 0x00, 0x00,
  0x04, 0x00, 0x00, 0x00, 0x01, 0x00, 0x00, 0x00, 0x03, 0x00, 0x00, 0x00,
  0x01, 0x00, 0x00, 0x00, 0x04, 0x00, 0x00, 0x00, 0x2b, 0x00, 0x00, 0x00,
  0x73, 0x65, 0x71, 0x75, 0x65, 0x6e, 0x74, 0x69, 0x61, 0x6c, 0x5f, 0x33,
  0x30, 0x2f, 0x64, 0x65, 0x70, 0x74, 0x68, 0x77, 0x69, 0x73, 0x65, 0x5f,
  0x63, 0x6f, 0x6e, 0x76, 0x32, 0x64, 0x5f, 0x31, 0x31, 0x2f, 0x64, 0x65,
  0x70, 0x74, 0x68, 0x77, 0x69, 0x73, 0x65, 0x00, 0xe8, 0xe2, 0xff, 0xff,
  0x12, 0xe4, 0xff, 0xff, 0x04, 0x00, 0x00, 0x00, 0x30, 0x00, 0x00, 0x00,
  0x6e, 0x6c, 0x6f, 0xbf, 0x11, 0xf5, 0x5d, 0x3f, 0x82, 0xf1, 0x25, 0x3f,
  0x68, 0xbb, 0x0a, 0xbf, 0xa3, 0xb5, 0x4f, 0x3d, 0x90, 0x11, 0x84, 0x3f,
  0x41, 0x50, 0x81, 0xbf, 0xd3, 0xa9, 0x0e, 0xbf, 0x4f, 0x4c, 0x6a, 0x3f,
  0xfa, 0xfb, 0x26, 0x3f, 0x3b, 0xbe, 0x49, 0x3f, 0x82, 0x5b, 0x2c, 0x3f,
  0xfa, 0xe3, 0xff, 0xff, 0x10, 0x00, 0x00, 0x00, 0x09, 0x00, 0x00, 0x00,
  0x1c, 0x00, 0x00, 0x00, 0x48, 0x00, 0x00, 0x00, 0x04, 0x00, 0x00, 0x00,
  0x01, 0x00, 0x00, 0x00, 0x03, 0x00, 0x00, 0x00, 0x01, 0x00, 0x00, 0x00,
  0x04, 0x00, 0x00, 0x00, 0x2b, 0x00, 0x00, 0x00, 0x73, 0x65, 0x71, 0x75,
  0x65, 0x6e, 0x74, 0x69, 0x61, 0x6c, 0x5f, 0x33, 0x30, 0x2f, 0x64, 0x65,
  0x70, 0x74, 0x68, 0x77, 0x69, 0x73, 0x65, 0x5f, 0x63, 0x6f, 0x6e, 0x76,
  0x32, 0x64, 0x5f, 0x31, 0x30, 0x2f, 0x64, 0x65, 0x70, 0x74, 0x68, 0x77,
  0x69, 0x73, 0x65, 0x00, 0x80, 0xe3, 0xff, 0xff, 0xaa, 0xe4, 0xff, 0xff,
  0x04, 0x00, 0x00, 0x00, 0xc0, 0x00, 0x00, 0x00, 0x71, 0x81, 0x13, 0x3f,
  0xc1, 0x2f, 0x25, 0xbe, 0xbb, 0x0d, 0xb0, 0xbe, 0xa5, 0x65, 0x09, 0xbf,
  0x84, 0x40, 0x30, 0x3e, 0xd1, 0xa9, 0xae, 0x3e, 0xd5, 0x14, 0x19, 0x3f,
  0x42, 0x7b, 0x50, 0xbf, 0xcf, 0x0b, 0x76, 0xbd, 0x85, 0x15, 0x05, 0xbe,
  0x4f, 0x5a, 0xde, 0xbe, 0x2d, 0xd7, 0x2b, 0x3f, 0x60, 0x24, 0x57, 0x3f,
  0xae, 0x2d, 0x73, 0x3f, 0x92, 0xd3, 0x11, 0x3f, 0xb6, 0xaa, 0x21, 0x3c,
  0x0c, 0xbc, 0xf9, 0xbe, 0x88, 0x4d, 0xa1, 0x3e, 0x46, 0x34, 0x92, 0xbe,
  0xa4, 0x78, 0xb0, 0x3e, 0x12, 0x60, 0x6d, 0x3f, 0x12, 0xdd, 0x32, 0x3f,
  0x29, 0x35, 0xde, 0x3e, 0x72, 0x07, 0x1f, 0x3f, 0x5a, 0x5c, 0x85, 0xbe,
  0x41, 0x00, 0x10, 0x3f, 0x5f, 0x65, 0x18, 0xbf, 0x99, 0xd9, 0x8a, 0x3e,
  0xe1, 0xe9, 0x8e, 0xbd, 0x08, 0xd0, 0x70, 0x3d, 0x01, 0xa6, 0x82, 0xbf,
  0x97, 0x85, 0x53, 0xbe, 0x3e, 0x6d, 0x61, 0xbf, 0x31, 0x86, 0x05, 0xbf,
  0x89, 0x9a, 0x2a, 0x3f, 0x98, 0x93, 0xe5, 0x3e, 0xca, 0xc7, 0xf6, 0xbe,
  0x60, 0x5b, 0x8b, 0xbe, 0x8f, 0xad, 0x82, 0xbf, 0x58, 0xbe, 0x61, 0x3f,
  0x27, 0x5a, 0xd2, 0xbf, 0xaf, 0xa2, 0xc7, 0xbe, 0xfd, 0x98, 0xa2, 0x3f,
  0x6b, 0x64, 0x62, 0xbf, 0x51, 0x38, 0x22, 0x3f, 0xc6, 0x21, 0x45, 0xbf,
  0x14, 0xd4, 0x10, 0xbf, 0x78, 0x97, 0x13, 0x3f, 0x22, 0xe5, 0xff, 0xff,
  0x10, 0x00, 0x00, 0x00, 0x08, 0x00, 0x00, 0x00, 0x14, 0x00, 0x00, 0x00,
  0x34, 0x00, 0x00, 0x00, 0x02, 0x00, 0x00, 0x00, 0x03, 0x00, 0x00, 0x00,
  0x10, 0x00, 0x00, 0x00, 0x1d, 0x00, 0x00, 0x00, 0x73, 0x65, 0x71, 0x75,
  0x65, 0x6e, 0x74, 0x69, 0x61, 0x6c, 0x5f, 0x33, 0x30, 0x2f, 0x64, 0x65,
  0x6e, 0x73, 0x65, 0x5f, 0x35, 0x37, 0x2f, 0x4d, 0x61, 0x74, 0x4d, 0x75,
  0x6c, 0x00, 0x00, 0x00, 0x94, 0xe4, 0xff, 0xff, 0xbe, 0xe5, 0xff, 0xff,
  0x04, 0x00, 0x00, 0x00, 0x00, 0x18, 0x00, 0x00, 0x75, 0x93, 0xcf, 0xbf,
  0xfa, 0xb8, 0xd9, 0x3d, 0x57, 0x88, 0xc6, 0xbf, 0x9d, 0x9a, 0xad, 0x3d,
  0x7a, 0x45, 0xca, 0xbf, 0x0f, 0xb9, 0x7d, 0x3d, 0x5a, 0x3b, 0x8d, 0xbf,
  0xce, 0xd0, 0x6a, 0x3e, 0x29, 0xa5, 0x52, 0xc0, 0x5e, 0x71, 0xe5, 0xbe,
  0x39, 0xa3, 0x0e, 0xc0, 0xaf, 0xee, 0x40, 0xc0, 0xfe, 0x9e, 0x71, 0xbe,
  0xea, 0x5f, 0xe7, 0xbe, 0x22, 0xc7, 0xe0, 0x3d, 0x84, 0xcd, 0x18, 0xbf,
  0x48, 0x8e, 0x8d, 0xbe, 0xf3, 0x9b, 0xc8, 0xbe, 0x5b, 0xce, 0xe1, 0x3d,
  0xda, 0x48, 0x3c, 0xbf, 0x89, 0xbc, 0x9e, 0x3d, 0x52, 0x60, 0xda, 0xbd,
  0xe6, 0x15, 0x20, 0x3f, 0x8b, 0xf0, 0x8a, 0xbe, 0x47, 0x7d, 0x93, 0x3e,
  0xe4, 0x16, 0x6e, 0xbc, 0x7a, 0xc4, 0xb7, 0x3e, 0x8d, 0xa4, 0x9f, 0x3e,
  0x35, 0x63, 0x9f, 0x3e, 0x3a, 0xaf, 0x88, 0xbd, 0x56, 0xd5, 0x56, 0x3e,
  0xe0, 0x8f, 0x70, 0x3e, 0x55, 0xf8, 0xfc, 0x3e, 0x7e, 0x71, 0xe9, 0x3e,
  0x29, 0x7e, 0x86, 0x3e, 0x6e, 0x40, 0x5c, 0x3f, 0x5b, 0xbc, 0x3f, 0x3d,
  0xfc, 0x27, 0xe2, 0x3d, 0x27, 0x62, 0x19, 0xbd, 0x9e, 0x60, 0xa1, 0x3e,
  0xdd, 0x06, 0xee, 0x3d, 0x50, 0x37, 0x54, 0xba, 0x00, 0xaf, 0xfc, 0x3c,
  0x15, 0x82, 0x8a, 0x3e, 0x87, 0x48, 0x90, 0xbe, 0xd1, 0x6a, 0xc9, 0xbd,
  0x26, 0xda, 0x87, 0xbe, 0x76, 0x3f, 0xa8, 0x3d, 0x46, 0x36, 0x3c, 0x3d,
  0x38, 0xb4, 0x25, 0xbc, 0x68, 0xe3, 0x67, 0xbd, 0x75, 0x26, 0x8e, 0x3d,
  0x4b, 0x6f, 0xaf, 0x3b, 0xb4, 0x33, 0x48, 0x3d, 0x8d, 0xb0, 0x17, 0xbd,
  0xee, 0x97, 0x25, 0x3e, 0x9c, 0xc5, 0x93, 0xbd, 0x11, 0x5e, 0x19, 0xbe,
  0x20, 0xec, 0x6c, 0xbe, 0x0c, 0x93, 0x81, 0x3d, 0x6a, 0x4a, 0x3b, 0xbd,
  0x8d, 0xb0, 0xb6, 0x3c, 0xce, 0x0f, 0x85, 0xbd, 0xc5, 0x68, 0xc9, 0x3d,
  0xdc, 0x2c, 0x5a, 0xbd, 0xc0, 0x97, 0x0d, 0x3d, 0x38, 0x28, 0x49, 0xbd,
  0x02, 0x57, 0x74, 0x3d, 0xe1, 0xa1, 0x8c, 0xbd, 0x9d, 0x97, 0x27, 0xbd,
  0x00, 0xcf, 0x3a, 0xbe, 0xb3, 0xe4, 0xf9, 0x3d, 0x26, 0x05, 0x05, 0xbd,
  0xcd, 0x7a, 0x62, 0x3c, 0x99, 0xb7, 0x16, 0xbe, 0xbf, 0xcb, 0x33, 0x3d,
  0xa8, 0xb2, 0xba, 0xbc, 0x55, 0xaf, 0x50, 0x3d, 0xf1, 0xcb, 0x06, 0xbe,
  0x65, 0xb5, 0x8c, 0x3c, 0xe8, 0x02, 0xac, 0xbc, 0x73, 0x0b, 0xac, 0x3d,
  0x6d, 0x7e, 0xa3, 0xbd, 0x36, 0xa9, 0xe8, 0x3d, 0xcf, 0x80, 0x28, 0x3d,
  0x40, 0x0e, 0x2b, 0x3d, 0xa6, 0x95, 0x5c, 0xbd, 0x5c, 0x71, 0x4d, 0x3c,
  0x9b, 0xe0, 0x66, 0xbd, 0xec, 0xc8, 0x70, 0x3d, 0xb6, 0xf9, 0xc8, 0xbc,
  0xfc, 0x3e, 0x0a, 0x3d, 0xf9, 0x51, 0xa2, 0x3d, 0x71, 0x43, 0x33, 0x3e,
  0xb4, 0x50, 0x96, 0xbc, 0xe7, 0x48, 0xa1, 0x3d, 0x3b, 0x5e, 0x24, 0xbd,
  0x88, 0x22, 0x03, 0xbf, 0xf3, 0x27, 0x58, 0x3e, 0x21, 0x19, 0x40, 0xbe,
  0xf4, 0x9e, 0x02, 0xbd, 0xfc, 0x10, 0x07, 0xbf, 0x06, 0xd8, 0xc2, 0x3e,
  0x32, 0xfd, 0xa2, 0x3b, 0xd6, 0x15, 0x84, 0x3e, 0xe8, 0x85, 0xe3, 0xbe,
  0x32, 0xd9, 0xf6, 0x3e, 0x66, 0x3b, 0xd0, 0x3e, 0x5b, 0x23, 0x16, 0xbc,
  0xf2, 0x8d, 0x66, 0xbf, 0xd3, 0x93, 0x50, 0x3c, 0xc0, 0x06, 0x96, 0xbe,
  0x8b, 0xdd, 0x74, 0xbe, 0x05, 0x6c, 0x71, 0xbf, 0xa4, 0x0c, 0x43, 0x3e,
  0x59, 0x51, 0x99, 0xbe, 0x32, 0xdf, 0xfd, 0x3c, 0x3b, 0x66, 0x56, 0xbf,
  0x75, 0xb5, 0xe5, 0x3e, 0x12, 0x8c, 0x04, 0xbe, 0x0a, 0x62, 0x27, 0xbd,
  0xfa, 0x25, 0x70, 0xbf, 0x2b, 0x38, 0x2f, 0xbe, 0xa0, 0x95, 0x01, 0xbf,
  0x03, 0x04, 0xc6, 0xbe, 0x57, 0x00, 0x8f, 0xbf, 0x93, 0xc6, 0x84, 0x3d,
  0x75, 0x97, 0x07, 0xbf, 0x4f, 0xb2, 0xba, 0x3c, 0xab, 0x3d, 0x73, 0xbf,
  0xbf, 0xc7, 0xc7, 0x3e, 0x3b, 0x1f, 0xd0, 0xbd, 0xb3, 0x02, 0x32, 0xbe,
  0x3c, 0x89, 0x58, 0xbf, 0xcc, 0x7a, 0x5d, 0xbe, 0xd6, 0x36, 0xbc, 0xbe,
  0xc7, 0xc6, 0x45, 0xbe, 0x94, 0x48, 0x21, 0xbf, 0xdd, 0xcb, 0x13, 0xbe,
  0x5f, 0xc5, 0x1e, 0xbf, 0xfe, 0x54, 0x10, 0xbe, 0x73, 0x0f, 0x8a, 0xbf,
  0xe6, 0x70, 0x13, 0x3e, 0xf3, 0x22, 0x77, 0xbe, 0x7b, 0x52, 0x3b, 0x3e,
  0x35, 0xc8, 0xf4, 0xbd, 0xe0, 0x84, 0xa4, 0x3c, 0xf3, 0x05, 0x7a, 0xbe,
  0x4f, 0x09, 0xaf, 0xbd, 0xbb, 0xe5, 0x64, 0x3e, 0x66, 0x88, 0x80, 0x3d,
  0x42, 0x77, 0x4f, 0xbd, 0x15, 0x57, 0x9a, 0xbe, 0xfa, 0x44, 0x8d, 0xbf,
  0x51, 0x9f, 0xbc, 0xbc, 0xa4, 0x7b, 0x07, 0xbf, 0xed, 0x79, 0x43, 0x3e,
  0x82, 0x14, 0xa4, 0x3e, 0xee, 0xeb, 0x7f, 0x3e, 0x36, 0x0e, 0x39, 0x3e,
  0x31, 0x22, 0x40, 0x3e, 0x01, 0x3b, 0x97, 0x3e, 0x0d, 0x05, 0x28, 0x3e,
  0x21, 0x38, 0x91, 0x3e, 0xf8, 0x82, 0xbe, 0x3d, 0x26, 0x06, 0xbc, 0xbe,
  0x11, 0xe2, 0x7e, 0x3e, 0xc3, 0x53, 0x93, 0xbe, 0x71, 0x99, 0x8e, 0x3e,
  0x63, 0xe6, 0x4f, 0x3e, 0x31, 0x59, 0x8c, 0x3e, 0x76, 0xb7, 0x2c, 0x3e,
  0x9e, 0x5d, 0x9a, 0x3e, 0x65, 0xdb, 0x67, 0x3e, 0x6a, 0x32, 0x18, 0x3e,
  0x92, 0x47, 0x6f, 0x3e, 0x86, 0xad, 0x46, 0x3e, 0xf8, 0xb7, 0xe3, 0x3d,
  0xac, 0xa4, 0x43, 0x3e, 0x61, 0xc4, 0x1f, 0x3d, 0x49, 0xe0, 0xd8, 0x3e,
  0xfc, 0xdb, 0x3f, 0x3e, 0x8d, 0x11, 0x6c, 0x3e, 0xcc, 0x6f, 0xe0, 0x3d,
  0xda, 0x99, 0x81, 0x3e, 0xb8, 0x87, 0x0a, 0x3f, 0x00, 0xf9, 0x49, 0x3e,
  0x2e, 0x60, 0xa5, 0x3d, 0xcf, 0x2e, 0x4d, 0x3d, 0xf8, 0xf8, 0x98, 0x38,
  0x97, 0xf6, 0x47, 0x3e, 0x48, 0xb9, 0xa4, 0x3d, 0xd9, 0x60, 0xa0, 0xbc,
  0xfd, 0xd6, 0x2c, 0x3f, 0x80, 0xf4, 0xb8, 0x3e, 0x2d, 0x7c, 0x88, 0x3e,
  0x4c, 0x32, 0x10, 0x3d, 0x5b, 0xdb, 0xe2, 0x3e, 0xdf, 0x84, 0x22, 0x3e,
  0x98, 0x57, 0x97, 0x3e, 0x2e, 0x33, 0x02, 0x3e, 0x22, 0xc8, 0x3b, 0x3f,
  0x3f, 0x66, 0x8d, 0x3e, 0x5c, 0xe3, 0xdd, 0x3b, 0xef, 0xc6, 0x74, 0xbd,
  0xa1, 0xc5, 0x3a, 0xbf, 0x86, 0xa8, 0x17, 0x3f, 0x7d, 0x33, 0x02, 0xbe,
  0x18, 0xc2, 0x29, 0xbe, 0xf5, 0x0e, 0x2f, 0xbf, 0xf9, 0x2d, 0xf0, 0x3e,
  0xab, 0xc5, 0x8a, 0x3c, 0xcf, 0x77, 0x12, 0xbe, 0x57, 0x54, 0xd4, 0xbd,
  0x37, 0xc3, 0xe9, 0x3e, 0xff, 0x38, 0x82, 0xbb, 0x0b, 0x12, 0xb3, 0x3d,
  0x3c, 0xfb, 0x17, 0xbf, 0xf5, 0x12, 0xfa, 0x3e, 0xe0, 0xed, 0xc7, 0x3d,
  0x16, 0x78, 0xd6, 0xbd, 0x26, 0x43, 0x2e, 0xbf, 0xe5, 0xb8, 0xb2, 0x3e,
  0xf8, 0xa2, 0x3c, 0xbd, 0x69, 0xbb, 0x35, 0x3d, 0xac, 0x15, 0xd7, 0x3c,
  0xb7, 0xe3, 0x2c, 0x3f, 0xc1, 0x95, 0x63, 0x3d, 0x6c, 0x05, 0xf6, 0x3d,
  0xd5, 0x30, 0x25, 0xbf, 0x48, 0x19, 0x8c, 0x3e, 0xc1, 0xb5, 0x6f, 0x3d,
  0xa0, 0xca, 0x00, 0xbe, 0xbf, 0x84, 0x1e, 0xbf, 0x0e, 0x41, 0x8e, 0x3e,
  0x78, 0x0f, 0x4c, 0xbd, 0xf1, 0x0b, 0x03, 0x3e, 0x82, 0x17, 0x6b, 0xbc,
  0x55, 0xe9, 0xf8, 0x3e, 0x82, 0x1c, 0x07, 0x3e, 0x3d, 0x62, 0xb6, 0xbd,
  0xb9, 0x46, 0x0e, 0xbf, 0x25, 0x12, 0xa6, 0x3e, 0x06, 0x0f, 0x36, 0x3a,
  0x5b, 0x33, 0x64, 0xbe, 0x6b, 0xe8, 0x2e, 0xbf, 0x09, 0x8d, 0x5f, 0x3e,
  0x25, 0x5f, 0x82, 0xbd, 0xdf, 0x72, 0x0b, 0xbe, 0x68, 0x0c, 0xa8, 0xbe,
  0x87, 0xd1, 0x56, 0x3e, 0x02, 0x47, 0x76, 0x3d, 0x55, 0xc3, 0xe2, 0x3d,
  0x83, 0x48, 0x01, 0xbf, 0xe0, 0x95, 0xa4, 0x3e, 0x8e, 0xd4, 0x94, 0xbc,
  0x62, 0x8c, 0xbf, 0xbc, 0x7c, 0x0b, 0x05, 0xbf, 0x90, 0xe6, 0x89, 0x3e,
  0xa5, 0xd3, 0x3a, 0x3d, 0x68, 0xdc, 0xa5, 0xbd, 0x55, 0x20, 0x3b, 0xbe,
  0x91, 0xca, 0xaf, 0x3e, 0x84, 0x78, 0x97, 0x3a, 0xe2, 0x66, 0x22, 0x3e,
  0x94, 0xba, 0x00, 0xbf, 0x82, 0x8a, 0x16, 0x3f, 0x67, 0xd6, 0xa2, 0x3d,
  0xa9, 0x40, 0x58, 0x3c, 0x2c, 0x9b, 0x1b, 0xbf, 0x61, 0x13, 0xca, 0x3e,
  0xb6, 0x48, 0xe2, 0x3d, 0x43, 0xb1, 0x75, 0x3d, 0x4e, 0x14, 0x2f, 0xbe,
  0xd5, 0xe6, 0x93, 0x3e, 0x28, 0x90, 0x19, 0x3d, 0x0c, 0x76, 0xc5, 0xbd,
  0xbc, 0xfe, 0x57, 0xbf, 0x12, 0x33, 0x88, 0x3e, 0x57, 0xd6, 0xa2, 0x3d,
  0xd1, 0x3d, 0x75, 0xbe, 0x81, 0xce, 0x73, 0xbf, 0x3f, 0x4b, 0xd0, 0x3d,
  0x66, 0x0f, 0xbe, 0x3d, 0x10, 0x05, 0x44, 0xbe, 0x4a, 0xf9, 0x15, 0xbf,
  0x99, 0x88, 0xf6, 0x3d, 0x75, 0x0e, 0x31, 0xbc, 0x96, 0xf9, 0xed, 0x3e,
  0x4a, 0x15, 0x25, 0xbf, 0x96, 0x52, 0xc1, 0xbe, 0xe4, 0x89, 0x85, 0x3f,
  0x75, 0xe5, 0x7f, 0x3e, 0xbf, 0x08, 0x20, 0xbf, 0x9a, 0x40, 0x74, 0xbe,
  0x41, 0x66, 0x64, 0x3f, 0xac, 0xe1, 0x65, 0x3f, 0x0b, 0x14, 0xf0, 0xbe,
  0xf8, 0xeb, 0x1d, 0x3e, 0x31, 0xf0, 0x2d, 0x40, 0x3a, 0x13, 0xb3, 0x3c,
  0x3b, 0x1f, 0xc3, 0xbe, 0x2f, 0x17, 0x50, 0xbb, 0x3a, 0x9d, 0x59, 0xbe,
  0xb4, 0xd7, 0x4e, 0xbd, 0x63, 0x2b, 0xdc, 0xbe, 0xd3, 0x4e, 0x9a, 0x3d,
  0x6d, 0xfb, 0xe3, 0xbe, 0x6f, 0x14, 0x9f, 0x3e, 0xe1, 0xdf, 0x73, 0xbf,
  0xb4, 0xac, 0xf8, 0x3e, 0xb2, 0xe4, 0xc4, 0xbd, 0x8e, 0x03, 0x8e, 0x3e,
  0x03, 0x08, 0x17, 0x3e, 0xc8, 0x12, 0x52, 0x3e, 0xac, 0x1b, 0x9d, 0x3e,
  0x73, 0x82, 0x94, 0x3e, 0x5c, 0xdb, 0xc0, 0x3b, 0xb9, 0xa1, 0xa4, 0x3d,
  0xc2, 0xed, 0x66, 0x3e, 0xe2, 0x91, 0x0a, 0x3f, 0x63, 0x8d, 0x04, 0x3e,
  0x83, 0x78, 0x06, 0x3f, 0xac, 0xbc, 0x3d, 0x3f, 0x89, 0xf8, 0xf3, 0x3d,
  0x64, 0x4a, 0x6e, 0x3e, 0x09, 0x81, 0xd4, 0xbd, 0x43, 0xfa, 0x50, 0x3b,
  0x79, 0x6c, 0x60, 0x3e, 0x55, 0x9a, 0xee, 0x3d, 0x67, 0xf7, 0x98, 0x3c,
  0x1e, 0x08, 0xac, 0x3e, 0xc0, 0x32, 0x8e, 0x3e, 0xe1, 0x4d, 0x88, 0x3e,
  0x46, 0x3d, 0x28, 0x3e, 0x43, 0x10, 0x08, 0x3f, 0xd1, 0x0b, 0x38, 0x3d,
  0xb2, 0x46, 0x6a, 0x3e, 0x2d, 0xe0, 0xce, 0xbd, 0xdf, 0x97, 0x39, 0x3e,
  0x90, 0x39, 0x8a, 0x3d, 0xb4, 0xf3, 0x18, 0x3e, 0xdc, 0xf0, 0x5c, 0x3d,
  0xc9, 0xb7, 0x46, 0x3e, 0xfe, 0x03, 0x5b, 0x3c, 0x0c, 0x57, 0xa8, 0x3d,
  0x1f, 0xe3, 0x61, 0xbd, 0x2a, 0xe2, 0x8a, 0x3e, 0x2c, 0x01, 0x02, 0x3e,
  0x35, 0x3d, 0x41, 0x3e, 0x5f, 0x3f, 0x2b, 0xbe, 0x20, 0x86, 0x6f, 0x3e,
  0x08, 0x6d, 0xd6, 0x3d, 0x0d, 0x43, 0xb0, 0x3e, 0x0e, 0x25, 0xbb, 0x3c,
  0x16, 0x64, 0xf0, 0x3d, 0x10, 0x56, 0xb0, 0x3c, 0x96, 0x53, 0x1d, 0x3e,
  0x64, 0x69, 0x2a, 0xbe, 0x77, 0x31, 0x87, 0x3e, 0x03, 0xbb, 0x10, 0x3d,
  0xc1, 0x76, 0x94, 0x3e, 0x9c, 0x39, 0x81, 0xbe, 0x5a, 0x2c, 0x16, 0x3e,
  0xd0, 0xd2, 0x8f, 0x3c, 0x22, 0xd7, 0x64, 0x3e, 0xe8, 0x36, 0x3a, 0xbe,
  0x09, 0xc0, 0x2f, 0x3d, 0x8b, 0x9c, 0x05, 0x3e, 0x2f, 0x51, 0x91, 0x3e,
  0x11, 0xff, 0x4b, 0xbe, 0x19, 0x3e, 0x88, 0x3e, 0xd9, 0xee, 0xe6, 0xbd,
  0x3a, 0xa4, 0x60, 0xbb, 0xbc, 0x31, 0x07, 0xbf, 0x8c, 0x37, 0x2b, 0xbe,
  0x3e, 0x23, 0x62, 0xbe, 0x74, 0xbb, 0x49, 0xbd, 0x1a, 0x00, 0x0a, 0xbf,
  0x89, 0x4f, 0x9f, 0xbd, 0x40, 0xfa, 0x0a, 0x3d, 0xd4, 0x83, 0x5f, 0x3e,
  0xf2, 0xde, 0xfa, 0xbe, 0xed, 0xdc, 0xe8, 0x3d, 0xf1, 0xd0, 0x89, 0xbe,
  0x37, 0xb8, 0x19, 0xbf, 0x02, 0x69, 0xcf, 0x3e, 0x25, 0x53, 0x08, 0xbf,
  0x00, 0xae, 0xa0, 0x3d, 0xb8, 0x2b, 0x41, 0xbf, 0x33, 0xb1, 0xcc, 0x3e,
  0x96, 0x74, 0xcb, 0xbe, 0x57, 0x14, 0x12, 0xbe, 0x73, 0xcc, 0xad, 0xbe,
  0x4d, 0x21, 0x98, 0x3d, 0x0c, 0x44, 0x7b, 0x3e, 0x3c, 0x7f, 0xde, 0x3e,
  0x66, 0x50, 0x58, 0x3f, 0x5d, 0x88, 0x23, 0x3f, 0x4e, 0x32, 0x94, 0x3e,
  0x07, 0x74, 0xe7, 0x3e, 0xd3, 0xce, 0x57, 0x3f, 0x4f, 0xdc, 0x38, 0x3f,
  0xa5, 0xd9, 0x0f, 0x3f, 0xc9, 0xc3, 0x71, 0xbd, 0xfc, 0x27, 0x20, 0xbd,
  0x3a, 0x8f, 0xd8, 0x3e, 0x64, 0x1a, 0x37, 0xbd, 0xa2, 0x01, 0x67, 0x3e,
  0x07, 0xb2, 0xf6, 0x3e, 0x4e, 0x6e, 0xf3, 0x3e, 0x1e, 0x84, 0x9f, 0x3e,
  0xd1, 0x25, 0x53, 0x3e, 0x34, 0x40, 0xb7, 0x3e, 0xb7, 0xc7, 0x0e, 0x3f,
  0x4e, 0x69, 0xb9, 0x3e, 0x4e, 0x7a, 0x84, 0x3e, 0x82, 0x17, 0xc8, 0x3e,
  0x85, 0x04, 0xd9, 0x3e, 0x27, 0xbd, 0xc3, 0x3e, 0xcb, 0x3d, 0xbf, 0x3c,
  0xc2, 0x08, 0x32, 0xbd, 0x5f, 0x14, 0x56, 0x3e, 0x3f, 0xd1, 0xd3, 0x3d,
  0xc8, 0xe6, 0xe1, 0x3d, 0x9f, 0x7b, 0x5e, 0xbd, 0xde, 0xb7, 0x25, 0x3e,
  0x05, 0x1f, 0x22, 0x3d, 0xd8, 0x8c, 0x4b, 0x3e, 0xbb, 0x0b, 0xa8, 0x3e,
  0x19, 0x65, 0xfc, 0x3e, 0x7d, 0xda, 0xcb, 0x3e, 0x5c, 0x3c, 0x67, 0xbe,
  0x14, 0xb2, 0x13, 0xbe, 0xbb, 0xd7, 0xad, 0xbd, 0xd7, 0x8e, 0x12, 0xbe,
  0x0a, 0x91, 0xe5, 0x3a, 0x93, 0x74, 0x8c, 0xbe, 0xeb, 0x6f, 0xbf, 0xbd,
  0x8d, 0x82, 0x3e, 0xbd, 0x90, 0x91, 0x2c, 0x3e, 0x7b, 0x0e, 0xc1, 0x3d,
  0x1d, 0x34, 0x1d, 0x3e, 0x73, 0x67, 0xa0, 0x3d, 0x02, 0x4e, 0x75, 0xbe,
  0xc4, 0x98, 0x84, 0xbe, 0x4b, 0x44, 0x68, 0xbe, 0xd8, 0x06, 0xba, 0xbd,
  0x81, 0x9b, 0x1f, 0xbe, 0xcb, 0x64, 0xe0, 0xbe, 0x91, 0x49, 0x84, 0xbe,
  0xfa, 0xd3, 0x9c, 0xbe, 0x76, 0xad, 0xa9, 0xbd, 0x86, 0x62, 0xc5, 0xbd,
  0x80, 0x4f, 0x10, 0xbc, 0x99, 0x57, 0x74, 0xbe, 0x48, 0x48, 0x91, 0xbe,
  0x86, 0x2d, 0xc3, 0xbe, 0xe5, 0x23, 0x4b, 0xbe, 0x6f, 0xef, 0xce, 0xbe,
  0x62, 0xbd, 0x81, 0xbe, 0x20, 0x45, 0x14, 0xbf, 0xce, 0xfb, 0xe9, 0xbe,
  0x09, 0xb1, 0x9c, 0xbe, 0x1b, 0x84, 0xbb, 0xbe, 0xd8, 0xcd, 0xa1, 0xbe,
  0x67, 0x0b, 0x49, 0xbe, 0x99, 0x56, 0xe7, 0xbe, 0x97, 0x47, 0xde, 0xbe,
  0x05, 0xfe, 0x00, 0xbf, 0x91, 0xeb, 0x3f, 0xbf, 0x78, 0x29, 0xd9, 0xbe,
  0x51, 0x9c, 0x04, 0xbf, 0x50, 0x6c, 0x49, 0xbf, 0xbb, 0x58, 0x64, 0xbf,
  0x0f, 0xdf, 0xf5, 0xbe, 0x64, 0x77, 0x4b, 0xbf, 0x68, 0xb4, 0x82, 0xbf,
  0x40, 0x8f, 0x28, 0xbf, 0x47, 0x99, 0x35, 0xbf, 0xd8, 0xc9, 0xee, 0x3e,
  0x59, 0x24, 0x88, 0x3e, 0x1a, 0xa5, 0xb5, 0x3e, 0x17, 0x8e, 0x38, 0x3e,
  0x8c, 0xde, 0x0c, 0x3f, 0x89, 0x37, 0x82, 0x3e, 0xf7, 0x71, 0xb1, 0x3e,
  0x2e, 0x98, 0x78, 0x3e, 0xcb, 0xc1, 0xad, 0x3d, 0xb0, 0xa2, 0x47, 0x3e,
  0x58, 0x8b, 0x0f, 0x3e, 0xe9, 0xbb, 0xb1, 0x3e, 0xff, 0xee, 0x30, 0x3d,
  0x3a, 0xb4, 0xb2, 0xb9, 0xf4, 0x4c, 0x4d, 0x3c, 0x9f, 0xa5, 0x42, 0x3d,
  0xec, 0xb7, 0x87, 0x3e, 0x88, 0x37, 0x50, 0x3e, 0x2f, 0xab, 0xb0, 0x3d,
  0x66, 0xae, 0xea, 0x3c, 0x7d, 0x92, 0xe2, 0xbc, 0xe7, 0xb0, 0x36, 0x3e,
  0x2a, 0x0e, 0x99, 0x3d, 0x7e, 0x89, 0x59, 0x3e, 0x39, 0x75, 0x6d, 0xbc,
  0x98, 0x8c, 0xcd, 0xbe, 0xcd, 0xab, 0x8a, 0x3c, 0x87, 0x2e, 0x9c, 0xbe,
  0xeb, 0x80, 0xc6, 0x3d, 0x63, 0x18, 0xbe, 0xbe, 0x26, 0x1e, 0xae, 0xbd,
  0xdc, 0x3c, 0x51, 0xbe, 0x54, 0xdf, 0x8b, 0x3d, 0xde, 0x64, 0xc2, 0x3b,
  0xa4, 0x8a, 0xae, 0xbb, 0x15, 0x20, 0x60, 0xbd, 0x62, 0x1b, 0x68, 0xbc,
  0x5e, 0x0d, 0x23, 0xbf, 0xaa, 0x08, 0x0e, 0xbe, 0xfd, 0x1f, 0xe2, 0xbe,
  0x4e, 0xc8, 0xc7, 0xbd, 0xf3, 0xed, 0x08, 0xbf, 0x8b, 0x07, 0x2d, 0xbe,
  0x4c, 0x67, 0x11, 0xbf, 0x3a, 0x92, 0xa1, 0x3d, 0x0b, 0x36, 0x02, 0xbd,
  0x1e, 0x8b, 0xda, 0xbb, 0x41, 0xa5, 0x85, 0x3d, 0x51, 0x4a, 0xa6, 0xbe,
  0x36, 0xc7, 0x4d, 0xbf, 0xf7, 0x9e, 0xdd, 0xbe, 0xf1, 0x96, 0xfa, 0xbe,
  0x6a, 0x98, 0xe2, 0xbe, 0x70, 0xa0, 0x75, 0xbf, 0xd8, 0x6f, 0xd9, 0xbe,
  0xae, 0x77, 0x62, 0xbf, 0x02, 0x85, 0x9c, 0x3d, 0x4d, 0xf8, 0x3b, 0x3d,
  0xe5, 0xd5, 0xec, 0xbc, 0x46, 0xdd, 0x12, 0x3e, 0x13, 0x3d, 0x0c, 0xbe,
  0xb4, 0x3d, 0x66, 0xbf, 0x87, 0x96, 0x80, 0xbe, 0x39, 0xb7, 0x65, 0xbf,
  0x95, 0xf7, 0xf2, 0x3d, 0xd4, 0x73, 0x0c, 0xbf, 0x4e, 0xef, 0x75, 0xbe,
  0x74, 0xfb, 0x5b, 0xbf, 0x57, 0xa1, 0x81, 0xbe, 0x25, 0x63, 0x41, 0xbe,
  0xd8, 0x1a, 0xf7, 0xbc, 0xe1, 0x93, 0x89, 0x3d, 0x4d, 0x33, 0xea, 0x3d,
  0x5f, 0xcd, 0x34, 0x3e, 0x55, 0xf7, 0x1d, 0xbc, 0x68, 0xef, 0x23, 0xbe,
  0xf3, 0x82, 0xbf, 0x3d, 0xef, 0x76, 0x67, 0x3e, 0x39, 0xa8, 0x6c, 0x3c,
  0x8f, 0x87, 0xe6, 0xbd, 0xf2, 0x98, 0xb3, 0xbe, 0xf4, 0xa6, 0x10, 0xbf,
  0xf8, 0x70, 0x23, 0xbe, 0x98, 0x00, 0x46, 0xbe, 0x6e, 0x2e, 0x22, 0x3f,
  0xec, 0x54, 0x37, 0x3f, 0x4a, 0xb0, 0x28, 0x3f, 0x3b, 0xbd, 0xd4, 0x3e,
  0x5c, 0x70, 0xed, 0x3e, 0x70, 0x9c, 0x07, 0x3f, 0xde, 0x16, 0x35, 0x3f,
  0x1c, 0x82, 0xb5, 0x3e, 0xa5, 0x4e, 0xd5, 0x3d, 0x0e, 0x71, 0x75, 0xbd,
  0x56, 0xea, 0x54, 0x3e, 0x18, 0x04, 0x48, 0xbe, 0x7d, 0xb2, 0xcc, 0x3d,
  0x49, 0x77, 0x31, 0x3c, 0xf8, 0x80, 0xa9, 0xbd, 0x61, 0xae, 0x09, 0x3e,
  0xfd, 0xbc, 0x8d, 0xbe, 0x8b, 0x46, 0x56, 0xbf, 0xfb, 0x62, 0x91, 0xbf,
  0x4d, 0x9f, 0xc6, 0xbf, 0xf8, 0x25, 0x0a, 0x3e, 0xc7, 0xb3, 0x86, 0x3e,
  0x7a, 0x04, 0x0a, 0xbe, 0xfc, 0xb4, 0x2b, 0x3e, 0x1f, 0x80, 0x05, 0xbd,
  0x57, 0x7f, 0xad, 0xbc, 0xaa, 0x73, 0xb1, 0xbd, 0x05, 0xbb, 0x22, 0xbd,
  0xfa, 0x40, 0x30, 0xbe, 0xe5, 0x74, 0x3f, 0xbf, 0xe6, 0x6e, 0x7d, 0xbf,
  0xdb, 0x35, 0xb9, 0xbf, 0x67, 0xf3, 0x12, 0x3c, 0xb0, 0x71, 0x5a, 0x3d,
  0xee, 0x1b, 0x37, 0xbe, 0x15, 0xad, 0xa9, 0xbc, 0x4f, 0x48, 0x73, 0xbd,
  0x9f, 0x64, 0x1a, 0xbd, 0x26, 0x9e, 0xf9, 0xbd, 0x81, 0xa3, 0x9c, 0xbd,
  0x84, 0xa6, 0x10, 0xbe, 0xbe, 0xe1, 0x04, 0xbf, 0x2c, 0x6b, 0x1f, 0xbf,
  0x17, 0x55, 0xad, 0xbf, 0x90, 0x1d, 0x33, 0x3d, 0x69, 0xed, 0x7a, 0x3e,
  0x92, 0x18, 0x2e, 0xbd, 0xc0, 0xbf, 0x08, 0x3e, 0x9a, 0xd8, 0x36, 0xbd,
  0x9a, 0xd5, 0x75, 0xbd, 0xab, 0x83, 0x66, 0xbd, 0x61, 0xa6, 0x13, 0xbd,
  0x99, 0x83, 0x9d, 0x3e, 0xf8, 0x42, 0x70, 0xbe, 0x95, 0xb2, 0x5f, 0xbc,
  0xba, 0x02, 0xcf, 0xbe, 0x1e, 0x8e, 0x1f, 0xbc, 0x62, 0x50, 0x06, 0x3e,
  0xe5, 0xfb, 0xb1, 0xbc, 0x61, 0x28, 0xb8, 0x3d, 0x9c, 0x25, 0xa3, 0xbc,
  0xb0, 0xc0, 0xc9, 0x3d, 0x0c, 0x7f, 0xf8, 0x3c, 0x95, 0x2c, 0x41, 0xbd,
  0xad, 0xc7, 0x25, 0x3f, 0x30, 0x54, 0xef, 0x3d, 0xcf, 0x52, 0x87, 0x3d,
  0x98, 0x7f, 0x9d, 0x3c, 0xe1, 0xd0, 0x87, 0xbe, 0x1c, 0xa7, 0x3a, 0xbe,
  0x51, 0x53, 0x44, 0xbc, 0xb3, 0x85, 0x1b, 0xbe, 0x73, 0x4c, 0x18, 0x3d,
  0x74, 0xeb, 0xb9, 0xbc, 0xef, 0x7e, 0xcf, 0xbc, 0xa5, 0x2d, 0xc1, 0x3d,
  0x72, 0x4a, 0xf8, 0x3e, 0x7a, 0x9c, 0x84, 0x3e, 0x0f, 0x2a, 0x28, 0x3e,
  0x39, 0x27, 0xa8, 0x3c, 0x53, 0x8e, 0xd9, 0xbd, 0xcd, 0xf2, 0xe9, 0xbd,
  0x8c, 0xb5, 0xa6, 0xbd, 0xf9, 0x20, 0x45, 0xbe, 0x92, 0x3e, 0xd5, 0x3d,
  0x7f, 0x10, 0x86, 0x3c, 0x24, 0xd3, 0x4c, 0xbd, 0x11, 0x68, 0x1a, 0x3d,
  0xda, 0x0d, 0x7a, 0x3e, 0x6f, 0xd1, 0x90, 0x3c, 0x81, 0xe9, 0xb4, 0x3d,
  0xc9, 0x1c, 0x28, 0x3d, 0x41, 0xba, 0xe6, 0x3b, 0xcb, 0x0e, 0xc4, 0x3d,
  0x87, 0xf4, 0x31, 0x3d, 0xc1, 0xb2, 0xa8, 0xbd, 0x45, 0xb9, 0x7b, 0xbe,
  0x40, 0x89, 0x2a, 0xbd, 0xf5, 0x63, 0x20, 0xbd, 0x41, 0xdb, 0x1e, 0xbc,
  0xc7, 0x1d, 0xa6, 0x3f, 0x82, 0x0c, 0x4d, 0x3e, 0x0f, 0x76, 0xe1, 0x3e,
  0xad, 0x06, 0xa1, 0xbd, 0x76, 0x2c, 0x15, 0xbd, 0x71, 0xf4, 0x3e, 0x3d,
  0xe4, 0xd2, 0x6d, 0x3d, 0x1d, 0x2f, 0x18, 0x3e, 0xc3, 0x25, 0x59, 0x3f,
  0x88, 0xa7, 0x36, 0x3f, 0xdb, 0xfe, 0x6e, 0x3e, 0xca, 0x95, 0xf5, 0x3e,
  0xc7, 0xda, 0x4c, 0x3f, 0xa9, 0x33, 0x29, 0x3f, 0x3b, 0x19, 0x21, 0x3e,
  0xb5, 0xc3, 0x9e, 0x3e, 0x62, 0x6c, 0xcc, 0x3d, 0x78, 0x9d, 0x2c, 0x40,
  0xcf, 0x1b, 0x47, 0xc0, 0x31, 0xe5, 0x91, 0xbf, 0xf8, 0x20, 0x1f, 0x3e,
  0x98, 0xa5, 0x0e, 0x3e, 0x09, 0x03, 0xfd, 0xbd, 0x4f, 0x3f, 0x29, 0xbe,
  0x8e, 0x2b, 0x3d, 0x3e, 0xe4, 0x28, 0xae, 0x3d, 0x09, 0xb0, 0xb7, 0xbd,
  0xa7, 0x59, 0xa6, 0xbe, 0x4f, 0x05, 0xad, 0xbe, 0x6a, 0xa2, 0x99, 0x3f,
  0x48, 0x13, 0x69, 0xc0, 0xfa, 0x21, 0x81, 0xbf, 0x64, 0xa6, 0x88, 0x3c,
  0xf5, 0xa8, 0x21, 0xbd, 0x1d, 0xa8, 0xf0, 0x3d, 0x56, 0xa7, 0x60, 0xbe,
  0xb1, 0x10, 0x2a, 0x3d, 0x1b, 0x85, 0xb0, 0xbd, 0x49, 0x59, 0x53, 0xbc,
  0xcd, 0x85, 0xc3, 0xbe, 0xf5, 0xb7, 0x7f, 0xbe, 0xc7, 0xbd, 0x74, 0x3f,
  0x72, 0x91, 0x62, 0xc0, 0xee, 0xc3, 0xf6, 0xbe, 0xc6, 0x3b, 0x08, 0xbd,
  0x78, 0xdf, 0xdf, 0x3c, 0x53, 0x7f, 0xf4, 0xbc, 0xc0, 0x49, 0x02, 0xbb,
  0x10, 0x55, 0x3b, 0x3c, 0x1b, 0x54, 0x04, 0x3e, 0x12, 0xcd, 0x32, 0x3c,
  0xc7, 0x20, 0xfe, 0xbc, 0xca, 0x9c, 0xed, 0xbe, 0x4e, 0x49, 0x38, 0x3f,
  0x90, 0x9c, 0x59, 0xc0, 0xcd, 0xab, 0xd5, 0xbe, 0x20, 0x1a, 0xdd, 0x3a,
  0xea, 0xa5, 0x34, 0x3d, 0xf0, 0xeb, 0x74, 0xbc, 0x29, 0x36, 0xd5, 0xbd,
  0x97, 0x0e, 0x52, 0x3b, 0xbe, 0x08, 0x0a, 0x3d, 0xe4, 0x63, 0x17, 0xbd,
  0x90, 0x09, 0x86, 0xbd, 0x30, 0xab, 0x3e, 0xbf, 0xe5, 0x37, 0xb1, 0x3e,
  0xc3, 0x61, 0x01, 0xc0, 0xeb, 0xc1, 0xda, 0xbe, 0x47, 0xb6, 0xdd, 0x3b,
  0xe3, 0x7a, 0x29, 0x3c, 0x04, 0x92, 0xa8, 0xbd, 0xfe, 0xaf, 0x92, 0x3d,
  0x42, 0xac, 0x81, 0xbc, 0x3f, 0x91, 0x52, 0x3d, 0xbe, 0xac, 0x87, 0x3b,
  0x81, 0x15, 0x1c, 0x3d, 0x62, 0x78, 0xad, 0xbe, 0x8d, 0x52, 0x31, 0x3f,
  0x90, 0xf1, 0x1b, 0xc0, 0xc2, 0x62, 0x65, 0xbe, 0x20, 0xb6, 0x96, 0x3c,
  0x0b, 0xcf, 0x05, 0xbd, 0x98, 0xcc, 0x8f, 0xbd, 0x28, 0x23, 0x8d, 0x3d,
  0xf5, 0x8a, 0x8c, 0xbc, 0x38, 0x6e, 0x46, 0x3c, 0xba, 0x91, 0xa7, 0xbd,
  0xf5, 0x18, 0x24, 0xbd, 0xd8, 0x46, 0xb7, 0xbe, 0xd2, 0xdb, 0x0c, 0x3f,
  0x3d, 0xea, 0x06, 0xc0, 0x34, 0x26, 0x0d, 0xbb, 0x5c, 0x0c, 0x88, 0xbc,
  0x96, 0x86, 0xdc, 0xbb, 0x32, 0x5b, 0x56, 0xbe, 0x84, 0x02, 0xd1, 0x3c,
  0x6c, 0x79, 0x2c, 0xbc, 0x33, 0x20, 0x2d, 0x3c, 0x9c, 0xd8, 0x28, 0xbe,
  0xc9, 0xa2, 0x85, 0x3d, 0x68, 0xf4, 0x3c, 0xbf, 0xc8, 0xfd, 0x20, 0x3e,
  0xcc, 0x06, 0x36, 0xc0, 0x1e, 0x14, 0x57, 0xbe, 0x52, 0x53, 0x84, 0x3e,
  0x4d, 0xce, 0x31, 0x3e, 0x07, 0xaa, 0x18, 0xbe, 0x9b, 0xa1, 0xea, 0x3d,
  0x6e, 0xab, 0xa1, 0x3e, 0x22, 0x16, 0x9f, 0x3e, 0xa4, 0xda, 0xa8, 0xbe,
  0x2b, 0xed, 0x11, 0x3e, 0xc2, 0x6b, 0x54, 0xbf, 0xf8, 0xfc, 0x54, 0xbf,
  0x36, 0x37, 0x80, 0xbf, 0xea, 0xf9, 0xa0, 0xbf, 0xc2, 0x93, 0x99, 0x3e,
  0x07, 0xe5, 0x4a, 0x3e, 0xe1, 0x30, 0xec, 0xbd, 0x55, 0x58, 0x41, 0x3e,
  0x3c, 0xca, 0x59, 0x3e, 0x3a, 0x6e, 0x4b, 0x3e, 0xd0, 0x07, 0x84, 0xbd,
  0xe4, 0xa3, 0xf0, 0x3d, 0x6f, 0x2a, 0x1e, 0xbf, 0xe3, 0x72, 0x39, 0xbf,
  0xc1, 0x34, 0xe8, 0xbe, 0x7e, 0x5a, 0x9d, 0xbf, 0xac, 0xc4, 0x00, 0x3e,
  0xec, 0x0c, 0x0d, 0x3d, 0x0a, 0xd1, 0x80, 0xbd, 0x98, 0x7e, 0xca, 0x3d,
  0x85, 0x51, 0x01, 0x3e, 0x1e, 0xf3, 0x50, 0x3e, 0x3f, 0xaf, 0x93, 0xbd,
  0x48, 0xb9, 0x62, 0x3d, 0xe4, 0x53, 0x33, 0xbe, 0xd0, 0x83, 0xcb, 0xbe,
  0xd9, 0x40, 0x84, 0xbd, 0x97, 0x7d, 0x03, 0xbf, 0x19, 0x56, 0xd1, 0xbc,
  0x31, 0x15, 0xc1, 0xbd, 0x95, 0x99, 0x83, 0xbe, 0xe1, 0x9d, 0x74, 0x3d,
  0xc3, 0x6f, 0xf1, 0xbd, 0x8a, 0x49, 0x81, 0xbd, 0xe3, 0xbd, 0x95, 0xbd,
  0xc8, 0x7a, 0x15, 0xbc, 0xb7, 0xf2, 0xeb, 0x3d, 0x60, 0x94, 0x93, 0x3d,
  0x90, 0xb6, 0x13, 0x3e, 0x59, 0xe7, 0x67, 0xbd, 0xd5, 0xcb, 0x08, 0xbe,
  0x92, 0x23, 0x06, 0xbe, 0xc5, 0xba, 0x3f, 0xbe, 0x1d, 0x51, 0x55, 0xbe,
  0x29, 0x22, 0xe7, 0xbc, 0xf5, 0xd9, 0xc2, 0xbd, 0x84, 0xfa, 0xa1, 0xbc,
  0x77, 0x4a, 0x5a, 0xbc, 0x7d, 0xb4, 0x28, 0x3e, 0xe2, 0x7f, 0xdc, 0x3d,
  0xe1, 0xdd, 0x24, 0x3e, 0xfa, 0x91, 0x9d, 0x3c, 0xb5, 0x31, 0x62, 0xbe,
  0x44, 0x51, 0x57, 0xbe, 0x6c, 0x94, 0x72, 0xbe, 0x5f, 0x63, 0xe5, 0xbd,
  0x63, 0x6e, 0x18, 0xbe, 0xfa, 0xe9, 0x37, 0xbd, 0x6b, 0xa5, 0xa7, 0xbd,
  0x1a, 0x4d, 0x20, 0xbe, 0x8e, 0xae, 0xb8, 0x3e, 0x7a, 0x33, 0xc3, 0x3d,
  0x22, 0x5a, 0xa8, 0x3e, 0x1a, 0x5e, 0xae, 0x3e, 0x7b, 0x97, 0x50, 0xbe,
  0x0e, 0x85, 0xe2, 0xbd, 0x1c, 0x23, 0xe3, 0xbd, 0x06, 0xfc, 0xe5, 0xbd,
  0xa2, 0xd6, 0x2e, 0xbe, 0x1d, 0x9f, 0x82, 0xbe, 0xad, 0x21, 0xa6, 0xbd,
  0xfb, 0x3c, 0x34, 0xbe, 0x8c, 0xb7, 0xbc, 0x3e, 0x51, 0x76, 0x8c, 0x3e,
  0xa8, 0x82, 0x84, 0x3e, 0x8f, 0x7e, 0x8b, 0x3e, 0xa3, 0x6e, 0x85, 0x3e,
  0xcc, 0x7b, 0x21, 0xbe, 0x85, 0x75, 0x4b, 0x3e, 0xc5, 0xd9, 0x9c, 0xbe,
  0x1f, 0xca, 0x99, 0xbe, 0x3d, 0xc7, 0x0f, 0xbd, 0xf1, 0xb5, 0x43, 0x3e,
  0xac, 0xe7, 0xe1, 0xbd, 0x71, 0x8c, 0x3a, 0x3f, 0x84, 0x94, 0xad, 0x3e,
  0x2f, 0xfd, 0x00, 0x3f, 0x21, 0xb6, 0x98, 0x3e, 0x5f, 0x61, 0xb7, 0xbd,
  0xd5, 0x4a, 0xb2, 0xbf, 0x8c, 0xe4, 0x8d, 0xbd, 0x2f, 0x65, 0x1c, 0xbf,
  0x4f, 0x16, 0x87, 0xbe, 0xdc, 0x27, 0x04, 0xc0, 0x11, 0x34, 0x86, 0x3c,
  0xff, 0x59, 0x6d, 0xbf, 0x41, 0x54, 0xef, 0x3e, 0x5d, 0x65, 0x06, 0xbf,
  0xfc, 0xc0, 0x11, 0x3f, 0x0c, 0xcc, 0x2f, 0x3f, 0xf6, 0x58, 0xd8, 0xbe,
  0x96, 0x9a, 0x5d, 0xbf, 0x2f, 0xbe, 0x38, 0xbe, 0x99, 0x56, 0x60, 0xbf,
  0x7e, 0x99, 0x13, 0xbe, 0xaf, 0x47, 0x5a, 0xbf, 0x7f, 0x48, 0x58, 0xbe,
  0x26, 0xf6, 0x64, 0xbf, 0x87, 0x60, 0x8d, 0xbe, 0xb7, 0x7a, 0x97, 0xbf,
  0xf5, 0xfd, 0xc6, 0x3d, 0x2d, 0x74, 0xc9, 0xbe, 0xf1, 0x37, 0x72, 0x3e,
  0x31, 0xed, 0xa8, 0x3e, 0xae, 0x3a, 0x82, 0x3e, 0x5e, 0xdf, 0x3f, 0x3e,
  0xcb, 0x60, 0x5c, 0x3e, 0x89, 0x47, 0x1c, 0x3f, 0x04, 0x76, 0x92, 0x3e,
  0xc6, 0xea, 0x81, 0x3e, 0x11, 0xdc, 0xb8, 0xbe, 0x3c, 0x8b, 0x2b, 0xbf,
  0xe2, 0xcf, 0x0c, 0xbe, 0x54, 0x61, 0xe2, 0xbe, 0x56, 0xdd, 0x84, 0x3e,
  0x82, 0xb8, 0x12, 0x3f, 0xe2, 0x57, 0xba, 0x3e, 0x0e, 0xd5, 0xf2, 0x3e,
  0x68, 0x6d, 0xab, 0x3e, 0xb8, 0x87, 0x3d, 0x3f, 0x42, 0x56, 0xe1, 0x3e,
  0x7e, 0xb1, 0x04, 0x3f, 0xd9, 0x10, 0x90, 0xbe, 0xcd, 0x36, 0x69, 0xbe,
  0x4f, 0x5c, 0x25, 0x3d, 0x56, 0xb5, 0x9e, 0xbe, 0x05, 0x9a, 0x8d, 0x3e,
  0x68, 0x57, 0xd4, 0x3e, 0xf6, 0xd5, 0xc0, 0x3e, 0x6f, 0xd8, 0xb9, 0x3e,
  0x51, 0x08, 0x07, 0x3e, 0x23, 0xf4, 0x8e, 0x3e, 0x35, 0xbd, 0xbb, 0x3e,
  0x59, 0x89, 0xd4, 0x3e, 0x2f, 0x43, 0xae, 0x3d, 0x0f, 0xf0, 0x85, 0x3d,
  0xcb, 0x99, 0x82, 0x3e, 0x97, 0xe6, 0xa1, 0xbb, 0xdf, 0xb3, 0xa3, 0xbd,
  0x3a, 0xe7, 0x12, 0xbc, 0x6e, 0x6e, 0x30, 0x3d, 0x74, 0x74, 0xb1, 0x3d,
  0xfd, 0x55, 0x5b, 0x3d, 0x8b, 0xcb, 0x31, 0x3d, 0xa9, 0xc0, 0x85, 0x3d,
  0xf8, 0x4e, 0x4a, 0xbd, 0x32, 0x98, 0x40, 0x3e, 0xeb, 0x1b, 0xaf, 0x3e,
  0xfc, 0x00, 0x31, 0x3d, 0x03, 0x8b, 0xb6, 0x3e, 0x3c, 0x0b, 0x5f, 0xbe,
  0xfb, 0x8f, 0x5d, 0xbe, 0x3a, 0xf2, 0x45, 0xbe, 0x11, 0x8d, 0x44, 0xbc,
  0x0f, 0x7d, 0x05, 0xbe, 0x4c, 0x10, 0x83, 0xbe, 0x27, 0xbe, 0xf7, 0x3c,
  0x73, 0x81, 0x11, 0xbe, 0xcf, 0x6b, 0xa4, 0x3d, 0x9c, 0x95, 0xbf, 0x3e,
  0x74, 0x45, 0x61, 0xbd, 0x16, 0xdb, 0x4d, 0x3e, 0x4a, 0x51, 0xeb, 0xbe,
  0x50, 0xd8, 0xaf, 0xbe, 0x0c, 0xdc, 0xf8, 0xbe, 0xa2, 0x65, 0xc8, 0xbe,
  0x13, 0xbd, 0xf6, 0xbe, 0x5b, 0x2c, 0x0e, 0xbf, 0xc4, 0x56, 0xce, 0xbe,
  0xf4, 0x9b, 0xfc, 0xbe, 0x94, 0xa1, 0x20, 0xbe, 0x4e, 0xf0, 0x1d, 0x3d,
  0xbd, 0x48, 0xbc, 0xbe, 0xb5, 0x9c, 0xf5, 0xbd, 0x1e, 0x51, 0x9a, 0xbf,
  0x6b, 0x91, 0x45, 0x3f, 0xd2, 0x15, 0xf0, 0x3e, 0xfd, 0x9d, 0xaf, 0xbd,
  0x3d, 0x9f, 0xc9, 0x3c, 0x53, 0x7e, 0x29, 0x3e, 0xb5, 0x0f, 0x22, 0x3e,
  0x7b, 0xe7, 0x29, 0x3e, 0x91, 0x9d, 0xdf, 0xbd, 0x3c, 0x1b, 0x35, 0x3e,
  0x96, 0xa6, 0xc4, 0x3d, 0x7b, 0x5c, 0x16, 0x3e, 0xde, 0x76, 0x5f, 0xbf,
  0x06, 0x14, 0xb5, 0x3e, 0x4b, 0x9a, 0xa1, 0x3e, 0x2b, 0x69, 0x31, 0xbf,
  0x1d, 0xb6, 0xde, 0xbd, 0xdd, 0xba, 0x16, 0x3e, 0x77, 0xb1, 0x7f, 0x3e,
  0xed, 0x34, 0x16, 0x3d, 0x60, 0x46, 0xf0, 0xbd, 0xb2, 0x4b, 0x0e, 0x3e,
  0x0d, 0x9a, 0xa4, 0x3d, 0xf0, 0xc9, 0x9b, 0xbc, 0x0e, 0xc7, 0x77, 0xbf,
  0x5d, 0xeb, 0x3c, 0x3f, 0xc5, 0xdc, 0xc9, 0x3e, 0x10, 0xbc, 0x1e, 0xbf,
  0xb1, 0xf9, 0xff, 0xbd, 0x62, 0x0b, 0x4f, 0x3e, 0x6d, 0x22, 0x81, 0x3e,
  0x24, 0xa9, 0xbd, 0x3c, 0x43, 0x2c, 0x50, 0xbd, 0x56, 0x88, 0x62, 0x3e,
  0xb6, 0xbb, 0x39, 0x3e, 0x01, 0x51, 0xb3, 0x3d, 0x99, 0x86, 0x68, 0xbf,
  0x82, 0xdb, 0xe4, 0x3e, 0x12, 0x30, 0xc5, 0x3e, 0xf2, 0x64, 0xf9, 0xbe,
  0x4a, 0xf1, 0x24, 0xbe, 0xee, 0x40, 0x1f, 0x3e, 0x0a, 0x59, 0xf9, 0x3d,
  0x75, 0xe8, 0x15, 0xbe, 0x95, 0xe8, 0xd1, 0xbd, 0x60, 0x31, 0x8e, 0x3d,
  0x4e, 0x7d, 0x89, 0x3e, 0x7d, 0x51, 0x30, 0x3e, 0xde, 0xe9, 0x7b, 0xbf,
  0x08, 0xe5, 0xe3, 0x3e, 0xf8, 0x1c, 0xd4, 0x3e, 0x32, 0x5f, 0x12, 0xbf,
  0x5c, 0xc2, 0x3a, 0xbe, 0x37, 0x6d, 0x8c, 0x3d, 0x99, 0x10, 0x45, 0x3e,
  0x1d, 0x27, 0x81, 0xbd, 0x27, 0xb8, 0x03, 0xbd, 0x0c, 0x8e, 0x5f, 0x3d,
  0x3e, 0xcc, 0xa7, 0x3e, 0x87, 0xf1, 0x9b, 0xbd, 0x03, 0x0b, 0x74, 0xbf,
  0x25, 0x87, 0x1a, 0x3f, 0x2b, 0x33, 0xc3, 0x3e, 0xd6, 0x15, 0x06, 0xbf,
  0x91, 0x47, 0x43, 0xbe, 0xc7, 0x48, 0x21, 0x3c, 0xd3, 0xe2, 0x49, 0x3e,
  0x0f, 0x5d, 0xc6, 0xbd, 0x86, 0x60, 0x28, 0xbe, 0x35, 0xe7, 0x79, 0x3c,
  0x63, 0x8c, 0x8b, 0x3e, 0xf3, 0xfc, 0xa6, 0xbc, 0x75, 0x81, 0x98, 0xbf,
  0x9d, 0xf3, 0x0e, 0x3f, 0xdc, 0xd5, 0x95, 0x3e, 0x7d, 0x47, 0x24, 0xbf,
  0xac, 0x60, 0x82, 0xbe, 0xde, 0xd0, 0x45, 0xbc, 0xc4, 0x55, 0x4b, 0x3e,
  0xc4, 0x70, 0x16, 0xbe, 0xc7, 0x46, 0x7c, 0xbe, 0xa1, 0x73, 0x2c, 0x3d,
  0xe2, 0xef, 0x67, 0x3e, 0x0e, 0x73, 0x2d, 0xbd, 0xca, 0xd7, 0x77, 0xbf,
  0xa9, 0x4a, 0x98, 0x3e, 0xbd, 0x90, 0xb1, 0x3c, 0x62, 0x90, 0x3a, 0xbf,
  0x50, 0x75, 0x72, 0xbe, 0xc6, 0xfa, 0xb7, 0x3d, 0x80, 0xed, 0x43, 0x3e,
  0x6c, 0x4f, 0x43, 0xbe, 0xbd, 0xe5, 0x92, 0xbe, 0x2b, 0x91, 0x15, 0xbe,
  0xde, 0xfd, 0x4f, 0x3e, 0xc9, 0x1b, 0x89, 0xbe, 0xac, 0x1d, 0x82, 0xbf,
  0xb7, 0x59, 0x29, 0xbf, 0x5e, 0xbd, 0x9e, 0xbf, 0x07, 0xed, 0xa6, 0xbf,
  0x1b, 0xba, 0x14, 0xbf, 0x34, 0x3d, 0x63, 0xbe, 0x8b, 0x1e, 0x46, 0xbf,
  0x5a, 0xc9, 0x00, 0xbf, 0x08, 0xae, 0x11, 0xbf, 0x6c, 0x7f, 0x68, 0xbd,
  0x46, 0x02, 0x2a, 0xbf, 0xd8, 0x88, 0x9c, 0xbe, 0x03, 0x75, 0x2d, 0xbf,
  0x46, 0x23, 0x03, 0xbf, 0x90, 0x34, 0x0a, 0xbf, 0x14, 0x9c, 0x90, 0xbf,
  0xbb, 0xe0, 0xc2, 0xbe, 0xc3, 0xe7, 0x55, 0xbe, 0x50, 0x88, 0x35, 0xbe,
  0x7a, 0x5a, 0x39, 0xbf, 0x10, 0xea, 0x9a, 0xbe, 0x73, 0x28, 0xa4, 0xbd,
  0x26, 0x9f, 0x40, 0xbd, 0x1d, 0x4f, 0x11, 0xbe, 0x85, 0x1b, 0xc4, 0xbe,
  0xc7, 0x66, 0x49, 0xbe, 0xa2, 0x05, 0x8c, 0xbd, 0xcc, 0xa4, 0xbd, 0xbe,
  0x64, 0xb2, 0x27, 0x3d, 0xea, 0x62, 0xa7, 0x3d, 0x29, 0x76, 0x1f, 0x3e,
  0x8f, 0x89, 0xe7, 0xbc, 0x3f, 0x1c, 0xa6, 0x3d, 0x7e, 0x44, 0x4a, 0x3e,
  0x87, 0xc5, 0x68, 0x3e, 0x00, 0xd6, 0x86, 0x3e, 0xcf, 0x37, 0x2d, 0x3d,
  0xa7, 0xe8, 0xdb, 0x3d, 0x87, 0x1a, 0x90, 0x3e, 0x68, 0xf5, 0x09, 0xbe,
  0x93, 0x20, 0xb0, 0xbd, 0x3a, 0x3b, 0xaf, 0x3d, 0x2d, 0x2b, 0x56, 0x3e,
  0x48, 0x53, 0x1c, 0x3e, 0xf2, 0xd3, 0xfd, 0x3d, 0x74, 0x33, 0x8a, 0x3e,
  0x85, 0x98, 0xba, 0x3e, 0xa7, 0x01, 0xd4, 0x3e, 0x67, 0xb8, 0x18, 0x3e,
  0x57, 0x1f, 0x14, 0x3e, 0x3c, 0x25, 0xc1, 0x3e, 0xcc, 0xa5, 0x3b, 0x3e,
  0x76, 0xbb, 0x40, 0xbe, 0x25, 0x8d, 0x8c, 0xbc, 0xe1, 0x38, 0x85, 0x3e,
  0x0f, 0x0a, 0x79, 0x3d, 0x40, 0x36, 0xbe, 0x3e, 0xf9, 0x17, 0x75, 0x3e,
  0x8c, 0xf3, 0xd5, 0x3e, 0xe3, 0xac, 0xef, 0x3e, 0x1d, 0x16, 0x9e, 0x3e,
  0x06, 0xec, 0x2c, 0x3e, 0x12, 0x81, 0x83, 0x3e, 0x11, 0x42, 0x66, 0x3e,
  0x72, 0x14, 0x15, 0x3e, 0xbb, 0x43, 0x01, 0xbe, 0xec, 0x36, 0x95, 0x3e,
  0xfe, 0xc5, 0x4f, 0x3e, 0x48, 0x0f, 0xd6, 0x3d, 0xf8, 0x86, 0x4b, 0x3e,
  0x25, 0x34, 0xa7, 0x3e, 0x01, 0x11, 0x80, 0x3e, 0x46, 0x0f, 0x9d, 0x3e,
  0xfb, 0x69, 0x83, 0x3e, 0x8a, 0xbd, 0xbb, 0x3e, 0x32, 0x80, 0xb0, 0x3e,
  0x28, 0x54, 0x3c, 0x3e, 0x7b, 0xac, 0x37, 0x3e, 0xb1, 0x79, 0x74, 0x3e,
  0x55, 0x8f, 0x3e, 0x3e, 0x4e, 0x5a, 0x4d, 0xbd, 0x99, 0x36, 0x4a, 0xbe,
  0x3c, 0x56, 0x4f, 0x3d, 0x79, 0x74, 0xc6, 0x3d, 0x55, 0x5f, 0xa8, 0x3e,
  0xcb, 0x87, 0x36, 0x3e, 0xe5, 0x6e, 0xe2, 0x3d, 0xf7, 0xc7, 0x94, 0x3e,
  0x58, 0x44, 0x6c, 0xbe, 0x0c, 0x57, 0x65, 0xbd, 0xfb, 0xab, 0xa8, 0xbd,
  0x83, 0xc1, 0xa1, 0x3e, 0x02, 0xb0, 0x18, 0xbf, 0xb4, 0xd0, 0xfc, 0xbe,
  0x18, 0x17, 0xae, 0xbe, 0xc7, 0xc8, 0xe4, 0xbe, 0x82, 0x49, 0xe0, 0xbe,
  0xe7, 0x17, 0x25, 0x3f, 0xbc, 0x28, 0x84, 0xbf, 0x5f, 0x4a, 0x84, 0x3f,
  0x71, 0x84, 0xee, 0xbe, 0x64, 0x51, 0x51, 0x3f, 0x19, 0x79, 0x68, 0xbf,
  0x97, 0x1b, 0x18, 0x3f, 0xd1, 0x22, 0xb4, 0xbf, 0x41, 0xaf, 0x56, 0x3f,
  0x6c, 0xb2, 0x23, 0xc0, 0x36, 0x65, 0xb4, 0xbe, 0xec, 0x16, 0x86, 0xbf,
  0x9f, 0xab, 0xdc, 0x3e, 0x5e, 0xc4, 0x8e, 0xbf, 0x5c, 0xcb, 0x80, 0xbf,
  0x4d, 0x34, 0x8b, 0xbf, 0xbf, 0x03, 0xc2, 0x3d, 0xac, 0x93, 0xbe, 0xbf,
  0x28, 0x16, 0x95, 0xbf, 0x55, 0x88, 0xff, 0xbf, 0xfa, 0x4b, 0x25, 0xbe,
  0x6e, 0x3a, 0x14, 0xc0, 0x2f, 0x7e, 0x05, 0xc0, 0xa8, 0x31, 0x77, 0xbe,
  0xee, 0x8e, 0x19, 0x3e, 0x3d, 0x1b, 0x8d, 0xbd, 0xcd, 0x77, 0x11, 0x3d,
  0x80, 0x15, 0xc8, 0xbe, 0x82, 0xa3, 0x46, 0xbd, 0x46, 0x3d, 0x1c, 0xbe,
  0x95, 0xa8, 0x07, 0xbe, 0x02, 0x3c, 0xf3, 0xbe, 0x31, 0x0c, 0x07, 0x3f,
  0xc3, 0x75, 0x28, 0xbe, 0x87, 0xc7, 0xb9, 0xbe, 0xf6, 0x2b, 0xf5, 0xbc,
  0xf4, 0xa9, 0xea, 0x3d, 0x95, 0xab, 0x99, 0x3d, 0xa9, 0x9c, 0x9c, 0x3d,
  0xfb, 0x20, 0x20, 0x3d, 0x4a, 0xcb, 0x13, 0x3e, 0xc2, 0xa2, 0xca, 0x3d,
  0x39, 0xca, 0x8c, 0x3d, 0xbb, 0xae, 0x74, 0x3e, 0x26, 0xc9, 0x46, 0x3f,
  0x93, 0x8e, 0x37, 0x3e, 0xda, 0xa0, 0xdc, 0x3e, 0x8f, 0xb9, 0x3b, 0x3e,
  0x2a, 0xb5, 0x80, 0x3d, 0x68, 0x95, 0xcc, 0x3d, 0xc5, 0x71, 0x74, 0x3e,
  0xc3, 0xef, 0x70, 0x3d, 0xa5, 0x78, 0x16, 0xbd, 0xe3, 0x60, 0x64, 0x3e,
  0xd0, 0x8c, 0x43, 0x3e, 0x8d, 0xd8, 0x3f, 0x3e, 0x5c, 0x99, 0x92, 0x3e,
  0x29, 0xbb, 0x1a, 0x3e, 0xb5, 0xbc, 0x82, 0x3e, 0x1f, 0x63, 0xe5, 0x3d,
  0xbf, 0x25, 0x34, 0x3d, 0x1e, 0x69, 0x21, 0xbd, 0x27, 0xa9, 0x64, 0x3e,
  0x41, 0x51, 0x17, 0x3e, 0xcc, 0x69, 0x5f, 0x3e, 0x0d, 0x94, 0xac, 0x3d,
  0x2e, 0x1e, 0xfe, 0x3d, 0x16, 0x72, 0x41, 0x3d, 0x9a, 0xc3, 0xd0, 0x3c,
  0xab, 0xe5, 0xaa, 0xbe, 0x2d, 0x82, 0xe1, 0x3d, 0x92, 0xf9, 0x5c, 0x3d,
  0xd1, 0x32, 0x2f, 0xbc, 0xbd, 0xae, 0x27, 0xbe, 0xdb, 0x64, 0x28, 0x3e,
  0x7a, 0x93, 0xe7, 0x3d, 0xd6, 0x42, 0x3c, 0x3d, 0x84, 0x6e, 0x2f, 0x3c,
  0xe7, 0x8f, 0x09, 0x3e, 0xc0, 0xaf, 0x56, 0x37, 0x11, 0x95, 0x25, 0x3c,
  0x1c, 0x0f, 0x3f, 0xbe, 0xf7, 0x1c, 0x84, 0xbd, 0x8a, 0x7f, 0x0c, 0x3e,
  0x34, 0x8f, 0xfb, 0xbc, 0xe8, 0x1a, 0x9f, 0x3d, 0x4a, 0x83, 0x34, 0xbd,
  0x15, 0x1b, 0x1c, 0x3d, 0x43, 0xe2, 0xaa, 0x3d, 0x8b, 0x62, 0x0d, 0x3e,
  0xa8, 0x20, 0x33, 0xbd, 0x68, 0xc2, 0x77, 0x3d, 0x4d, 0x08, 0x09, 0xbd,
  0x84, 0xfc, 0xb0, 0xbc, 0xc4, 0xee, 0xa2, 0x3c, 0xe1, 0xbe, 0x38, 0xbf,
  0x3c, 0xe7, 0xa6, 0xbf, 0x26, 0xaf, 0xdc, 0x3d, 0xf4, 0xbf, 0x24, 0xc0,
  0xb1, 0x62, 0x80, 0xbf, 0xa7, 0x53, 0xbd, 0xbf, 0x03, 0x67, 0x81, 0xbd,
  0xac, 0x48, 0x48, 0xc0, 0xe2, 0x80, 0x07, 0x3e, 0xfd, 0x19, 0x8c, 0xbf,
  0xe1, 0x04, 0x3d, 0x3f, 0xf8, 0xb7, 0xec, 0xbf, 0x83, 0xf0, 0x97, 0x3e,
  0x71, 0x78, 0x4d, 0x3d, 0xb6, 0x5f, 0xda, 0x3e, 0xf5, 0x36, 0xae, 0x3e,
  0x21, 0xca, 0x32, 0x3e, 0x7c, 0x24, 0xd2, 0xbd, 0x6a, 0x1c, 0xcd, 0x3e,
  0x21, 0x7a, 0x6d, 0x3e, 0x16, 0x5c, 0x17, 0x3f, 0x6b, 0x16, 0xe1, 0x3e,
  0x37, 0x9c, 0xfa, 0x3e, 0xb8, 0x9d, 0x38, 0x3f, 0xd2, 0x07, 0xd5, 0x3e,
  0xfa, 0xfc, 0x1c, 0x3e, 0xeb, 0x9b, 0xf3, 0x3e, 0x42, 0xee, 0xa0, 0x3e,
  0x1b, 0xef, 0x2a, 0x3e, 0x6c, 0x77, 0x6c, 0x3e, 0xd2, 0x14, 0xb1, 0x3e,
  0x9c, 0x10, 0x88, 0x3e, 0xd8, 0xf0, 0xac, 0x3e, 0xa9, 0x02, 0x9f, 0xbc,
  0xd8, 0x67, 0x20, 0x3f, 0x18, 0x9a, 0x32, 0x3e, 0x2d, 0x7e, 0x7c, 0x3e,
  0x8f, 0x15, 0x2c, 0x3d, 0xf2, 0x40, 0xf1, 0x3d, 0x5d, 0x5d, 0x5a, 0x3e,
  0xed, 0x31, 0x83, 0x3e, 0x12, 0x98, 0x3a, 0x3e, 0x91, 0x69, 0x75, 0x3e,
  0xb2, 0xde, 0xa3, 0x3e, 0x07, 0xe0, 0x68, 0x3e, 0x04, 0xf1, 0xcf, 0xbd,
  0x60, 0xe7, 0x56, 0x3e, 0xf8, 0xa9, 0x2e, 0x3e, 0x41, 0xd4, 0xc0, 0x3d,
  0xdf, 0x5c, 0xe9, 0x3d, 0x83, 0x32, 0x73, 0xbd, 0x84, 0x8f, 0xee, 0x3d,
  0x42, 0xa6, 0xae, 0x3d, 0x34, 0x1f, 0x8e, 0x3d, 0x85, 0x62, 0xce, 0x3d,
  0x4e, 0x0f, 0x26, 0x3e, 0x4d, 0x16, 0xab, 0xbe, 0x0e, 0xa2, 0xee, 0xbe,
  0x9b, 0x4d, 0x1d, 0xbe, 0xfc, 0xf9, 0xb8, 0xbe, 0x95, 0xf7, 0x87, 0x3d,
  0x68, 0xd2, 0xc4, 0xbb, 0x67, 0x2a, 0x04, 0xbd, 0xbe, 0xe3, 0xb3, 0x3c,
  0x29, 0x84, 0xf1, 0x3d, 0x04, 0x81, 0xdf, 0x3d, 0xda, 0x03, 0x51, 0x3c,
  0x17, 0x77, 0x5c, 0x3d, 0x1a, 0xd5, 0x14, 0xbe, 0xad, 0xb0, 0x8d, 0xbe,
  0xcb, 0xf6, 0x92, 0xbd, 0x48, 0xaf, 0x07, 0xbe, 0x8b, 0xf2, 0x86, 0x3c,
  0xf5, 0x46, 0x00, 0xbd, 0xc0, 0x59, 0xcd, 0xbb, 0x52, 0x6b, 0xac, 0x3d,
  0xb3, 0x73, 0x5c, 0x3c, 0xc3, 0x0a, 0x3d, 0xbd, 0xaa, 0x82, 0xc5, 0x3c,
  0x5e, 0xd5, 0x52, 0xbd, 0x9e, 0xc9, 0x27, 0xbc, 0xb3, 0x5a, 0xa3, 0xbd,
  0xbe, 0x16, 0x5a, 0xbd, 0xa8, 0x06, 0xed, 0x3c, 0xc8, 0x9d, 0x5d, 0xbe,
  0x06, 0xa5, 0x2d, 0xbe, 0x14, 0xc9, 0x48, 0xbe, 0xf6, 0x19, 0x35, 0xbe,
  0xc9, 0xa5, 0x0b, 0xbe, 0x6d, 0xe9, 0x34, 0xbe, 0xd7, 0xea, 0x18, 0xbe,
  0x5c, 0x7b, 0x18, 0xbe, 0x36, 0xfb, 0x6d, 0xba, 0xfe, 0x9e, 0x06, 0xbe,
  0x61, 0x63, 0xee, 0xbd, 0x05, 0xee, 0x3c, 0x3d, 0x82, 0xa0, 0x08, 0x3f,
  0x9b, 0x1d, 0x1e, 0x3f, 0x95, 0xbf, 0x4a, 0x3e, 0xdb, 0xcf, 0x09, 0x3e,
  0x1a, 0xbc, 0xd4, 0x3e, 0x0f, 0x66, 0x04, 0x3f, 0xa9, 0x3a, 0x0c, 0x3f,
  0x26, 0x4f, 0x6b, 0x3d, 0x80, 0x13, 0x89, 0xb9, 0x6d, 0xee, 0x40, 0x3f,
  0x0a, 0x29, 0x92, 0xbe, 0xf1, 0x09, 0x60, 0xbe, 0x88, 0x66, 0x37, 0x3e,
  0x8e, 0x04, 0x4f, 0x3e, 0x1b, 0x42, 0x0d, 0xbe, 0x97, 0x65, 0x23, 0xbe,
  0x05, 0x64, 0x79, 0x3e, 0x9f, 0xe8, 0x5e, 0x3e, 0x12, 0xbf, 0x38, 0x3e,
  0xd7, 0x29, 0xb6, 0xbe, 0x6a, 0x8e, 0xb5, 0xbe, 0x92, 0x00, 0x20, 0x3f,
  0x3f, 0x93, 0x19, 0xbf, 0xa5, 0x6f, 0xa9, 0xbf, 0x22, 0x0d, 0xf0, 0xbd,
  0x18, 0xc8, 0x73, 0x3e, 0x54, 0xcb, 0x00, 0xbf, 0xd4, 0xfa, 0x13, 0xbf,
  0x52, 0xd3, 0xbd, 0xbd, 0x04, 0x6f, 0xd0, 0x3d, 0x50, 0xf3, 0x98, 0xbe,
  0x0e, 0x22, 0x02, 0xbf, 0x2d, 0xec, 0x3e, 0xbf, 0x34, 0xc3, 0x4b, 0x3f,
  0x43, 0xbb, 0xce, 0xbf, 0x85, 0x5a, 0x9c, 0xbf, 0xb1, 0x8e, 0xbd, 0xbe,
  0xbe, 0x41, 0x0e, 0x3e, 0xe4, 0x3e, 0x4a, 0xbf, 0xf1, 0xd7, 0x9c, 0xbe,
  0x1c, 0x30, 0x74, 0xbe, 0x4b, 0xcb, 0x5c, 0x3e, 0x02, 0xda, 0x08, 0xbf,
  0x73, 0x81, 0xd7, 0xbe, 0x34, 0xf7, 0x96, 0xbf, 0xce, 0xf2, 0x97, 0x3e,
  0x2b, 0xae, 0x10, 0xc0, 0x69, 0x30, 0xcb, 0xbf, 0x91, 0x9f, 0xcd, 0xbe,
  0x7e, 0xdb, 0xbc, 0xbc, 0x61, 0x4e, 0x4e, 0xbe, 0x06, 0xe5, 0x18, 0xbf,
  0x67, 0xef, 0xbd, 0xbe, 0xb2, 0x6d, 0x8e, 0x3d, 0x91, 0x19, 0xbd, 0xbe,
  0x76, 0x8f, 0x15, 0xbf, 0x5c, 0xa9, 0x89, 0xbf, 0xa9, 0x3d, 0x06, 0x3f,
  0xfe, 0x86, 0x48, 0xbf, 0xf7, 0xc3, 0xa1, 0xbf, 0x89, 0x20, 0x95, 0xbd,
  0xd6, 0x55, 0xc4, 0xbc, 0x9b, 0xb2, 0x00, 0xbd, 0x33, 0xa2, 0x8b, 0xbd,
  0x48, 0x98, 0xc6, 0xbd, 0x48, 0xdd, 0xa9, 0xbd, 0xb6, 0x37, 0x0c, 0xbd,
  0xbc, 0x2f, 0x18, 0xbd, 0xae, 0xf0, 0xa0, 0x3b, 0x12, 0xe7, 0x17, 0x3f,
  0xcc, 0x53, 0x02, 0x3e, 0xb5, 0x36, 0x05, 0x3e, 0xb0, 0x86, 0x49, 0x3b,
  0x7d, 0xc5, 0x1c, 0xbd, 0x9f, 0x75, 0xc1, 0x3d, 0xb2, 0xbf, 0xbf, 0xbd,
  0x3a, 0xa7, 0x2f, 0xbd, 0xfd, 0x44, 0xa0, 0xbd, 0x00, 0x77, 0x51, 0xbc,
  0xb6, 0x61, 0xb1, 0xbd, 0x63, 0x69, 0x6a, 0x3d, 0x10, 0x27, 0xa0, 0x3e,
  0x70, 0x5f, 0xca, 0x3d, 0xa9, 0xb4, 0xf1, 0x3d, 0xfd, 0xad, 0x3b, 0x3e,
  0x4a, 0x7e, 0x8f, 0x3c, 0x18, 0x0a, 0xc6, 0x3e, 0x98, 0xe2, 0x78, 0x3d,
  0x4b, 0xb1, 0xec, 0x3d, 0xfc, 0x69, 0x80, 0x3d, 0xd5, 0xbe, 0xc8, 0x3e,
  0xad, 0xba, 0x09, 0x3d, 0x36, 0x1e, 0xa6, 0x3c, 0xe3, 0x47, 0x01, 0x3e,
  0xb9, 0x06, 0x02, 0x3e, 0x7b, 0x44, 0x21, 0xbb, 0xeb, 0xd4, 0xb3, 0x3e,
  0x41, 0x9a, 0x64, 0x3f, 0xdd, 0xd3, 0x3a, 0x3f, 0x2d, 0x1d, 0xd8, 0x3e,
  0x13, 0x4c, 0x2a, 0x3e, 0xfa, 0x25, 0x6c, 0x3f, 0xad, 0x0b, 0x14, 0x3f,
  0x24, 0x16, 0xa6, 0x3e, 0x63, 0x02, 0x7d, 0xbe, 0xc8, 0x33, 0x92, 0x3d,
  0x72, 0x4d, 0x4c, 0xbd, 0xbf, 0xe1, 0xc8, 0xbe, 0x8e, 0x46, 0x9b, 0x3e,
  0x24, 0x7e, 0x45, 0x3f, 0xc6, 0x03, 0xe4, 0x3e, 0x64, 0x58, 0x02, 0x3f,
  0x9b, 0xe7, 0x2d, 0x3e, 0x02, 0xfb, 0xf4, 0x3e, 0x5b, 0xa5, 0xe4, 0x3e,
  0x23, 0xd0, 0x80, 0x3e, 0x39, 0x83, 0x9f, 0x3c, 0xdb, 0x1f, 0xb3, 0x3e,
  0x79, 0x0c, 0x12, 0xbe, 0xf9, 0xb0, 0x5d, 0x3d, 0x8f, 0x4b, 0x02, 0x3d,
  0xb0, 0x2a, 0x12, 0x3e, 0x49, 0x33, 0xc7, 0x3e, 0x51, 0x60, 0x0b, 0x3e,
  0x93, 0x34, 0x1d, 0xbc, 0xa9, 0x57, 0x82, 0x3e, 0xcf, 0x06, 0xe9, 0x3e,
  0xfa, 0x91, 0xe4, 0x3d, 0x66, 0xa6, 0x56, 0xbd, 0xef, 0x9e, 0x16, 0x3e,
  0x9e, 0x3e, 0xf2, 0xbd, 0x65, 0x36, 0xb3, 0xbd, 0x67, 0xf2, 0xba, 0xbd,
  0xe9, 0x6c, 0xa7, 0x3d, 0xc1, 0x02, 0xe7, 0x3e, 0xe3, 0xbe, 0x30, 0xbd,
  0xfb, 0xbe, 0x19, 0x3c, 0xad, 0x6a, 0x71, 0x3d, 0x60, 0x81, 0xa7, 0x3e,
  0xf9, 0xb0, 0xbc, 0x3d, 0x3a, 0x6f, 0x0d, 0xbe, 0xfe, 0x91, 0x3b, 0x3e,
  0xf5, 0xb9, 0xab, 0xb9, 0xf2, 0x27, 0x49, 0x3c, 0xb3, 0x51, 0xda, 0xbd,
  0xff, 0xfd, 0x06, 0xbd, 0x10, 0xeb, 0xa2, 0x3e, 0x4a, 0xd9, 0xb7, 0xb9,
  0x40, 0x72, 0x2a, 0xbe, 0x0e, 0x2b, 0x0d, 0xbe, 0xef, 0x86, 0xaa, 0x3e,
  0x73, 0x66, 0x01, 0x3d, 0x9e, 0xb0, 0x44, 0xbc, 0x81, 0x83, 0x21, 0x3e,
  0xf6, 0x71, 0x6d, 0x3d, 0x69, 0xdd, 0x11, 0xbe, 0xb0, 0x6d, 0x66, 0xbe,
  0xed, 0xa9, 0x8a, 0xbe, 0x3c, 0x59, 0x92, 0x3e, 0x3c, 0x9c, 0xce, 0x3b,
  0xe4, 0x92, 0x32, 0xbd, 0xfb, 0x6e, 0x58, 0xbe, 0x9b, 0x33, 0x91, 0x3e,
  0x40, 0x9f, 0x0f, 0xbe, 0x21, 0xf4, 0x99, 0xbd, 0xf8, 0x08, 0xeb, 0x3d,
  0x93, 0x1d, 0x25, 0x3e, 0x21, 0xa2, 0x3a, 0x3d, 0xaa, 0xa2, 0xfb, 0xbd,
  0xa9, 0x96, 0x33, 0xbe, 0xe5, 0x8f, 0xa9, 0x3e, 0x5e, 0xa1, 0xf8, 0xbc,
  0xa9, 0x2a, 0x85, 0xbd, 0x63, 0x9e, 0xd0, 0xbd, 0xb2, 0x7e, 0x91, 0x3e,
  0x5e, 0xeb, 0x4f, 0xbd, 0x46, 0xfc, 0x23, 0xbe, 0x5c, 0xb7, 0xdd, 0x3b,
  0x7c, 0x8b, 0x34, 0x3e, 0x5a, 0x1f, 0x44, 0x3d, 0x87, 0x1e, 0xa3, 0xbe,
  0x5a, 0xfa, 0x0d, 0xbf, 0x68, 0xf2, 0xb4, 0x3e, 0x51, 0x04, 0x24, 0xbe,
  0x6a, 0x89, 0xb2, 0xbe, 0x75, 0x9a, 0x1a, 0xbf, 0x54, 0xbf, 0x91, 0x3e,
  0x6c, 0x02, 0x00, 0xbe, 0x94, 0xac, 0x44, 0xbe, 0x76, 0x51, 0x3a, 0xbe,
  0x1c, 0x2b, 0x63, 0x3e, 0xc9, 0x5f, 0xfb, 0xbd, 0x76, 0xfd, 0xff, 0xff,
  0x10, 0x00, 0x00, 0x00, 0x07, 0x00, 0x00, 0x00, 0x14, 0x00, 0x00, 0x00,
  0x34, 0x00, 0x00, 0x00, 0x02, 0x00, 0x00, 0x00, 0x10, 0x00, 0x00, 0x00,
  0x60, 0x00, 0x00, 0x00, 0x1d, 0x00, 0x00, 0x00, 0x73, 0x65, 0x71, 0x75,
  0x65, 0x6e, 0x74, 0x69, 0x61, 0x6c, 0x5f, 0x33, 0x30, 0x2f, 0x64, 0x65,
  0x6e, 0x73, 0x65, 0x5f, 0x35, 0x36, 0x2f, 0x4d, 0x61, 0x74, 0x4d, 0x75,
  0x6c, 0x00, 0x00, 0x00, 0xe8, 0xfc, 0xff, 0xff, 0x12, 0xfe, 0xff, 0xff,
  0x04, 0x00, 0x00, 0x00, 0x08, 0x00, 0x00, 0x00, 0xff, 0xff, 0xff, 0xff,
  0x60, 0x00, 0x00, 0x00, 0x00, 0x00, 0x0e, 0x00, 0x18, 0x00, 0x08, 0x00,
  0x07, 0x00, 0x0c, 0x00, 0x10, 0x00, 0x14, 0x00, 0x0e, 0x00, 0x00, 0x00,
  0x00, 0x00, 0x00, 0x02, 0x10, 0x00, 0x00, 0x00, 0x06, 0x00, 0x00, 0x00,
  0x10, 0x00, 0x00, 0x00, 0x30, 0x00, 0x00, 0x00, 0x01, 0x00, 0x00, 0x00,
  0x02, 0x00, 0x00, 0x00, 0x1e, 0x00, 0x00, 0x00, 0x73, 0x65, 0x71, 0x75,
  0x65, 0x6e, 0x74, 0x69, 0x61, 0x6c, 0x5f, 0x33, 0x30, 0x2f, 0x66, 0x6c,
  0x61, 0x74, 0x74, 0x65, 0x6e, 0x5f, 0x32, 0x38, 0x2f, 0x43, 0x6f, 0x6e,
  0x73, 0x74, 0x00, 0x00, 0x54, 0xfd, 0xff, 0xff, 0x7e, 0xfe, 0xff, 0xff,
  0x04, 0x00, 0x00, 0x00, 0x10, 0x00, 0x00, 0x00, 0x3f, 0x57, 0x4e, 0xbc,
  0x80, 0x43, 0xa7, 0xbb, 0x3e, 0x01, 0x14, 0xbd, 0x34, 0xe1, 0x34, 0xbe,
  0x46, 0xfe, 0xff, 0xff, 0x10, 0x00, 0x00, 0x00, 0x05, 0x00, 0x00, 0x00,
  0x10, 0x00, 0x00, 0x00, 0x54, 0x00, 0x00, 0x00, 0x01, 0x00, 0x00, 0x00,
  0x04, 0x00, 0x00, 0x00, 0x41, 0x00, 0x00, 0x00, 0x73, 0x65, 0x71, 0x75,
  0x65, 0x6e, 0x74, 0x69, 0x61, 0x6c, 0x5f, 0x33, 0x30, 0x2f, 0x64, 0x65,
  0x70, 0x74, 0x68, 0x77, 0x69, 0x73, 0x65, 0x5f, 0x63, 0x6f, 0x6e, 0x76,
  0x32, 0x64, 0x5f, 0x31, 0x31, 0x2f, 0x42, 0x69, 0x61, 0x73, 0x41, 0x64,
  0x64, 0x2f, 0x52, 0x65, 0x61, 0x64, 0x56, 0x61, 0x72, 0x69, 0x61, 0x62,
  0x6c, 0x65, 0x4f, 0x70, 0x2f, 0x72, 0x65, 0x73, 0x6f, 0x75, 0x72, 0x63,
  0x65, 0x00, 0x00, 0x00, 0xd8, 0xfd, 0xff, 0xff, 0x02, 0xff, 0xff, 0xff,
  0x04, 0x00, 0x00, 0x00, 0x10, 0x00, 0x00, 0x00, 0x21, 0xe8, 0x4f, 0xbc,
  0xa7, 0x73, 0x21, 0xbe, 0xa3, 0xea, 0x0c, 0xbe, 0x79, 0x20, 0x65, 0xbd,
  0xca, 0xfe, 0xff, 0xff, 0x10, 0x00, 0x00, 0x00, 0x04, 0x00, 0x00, 0x00,
  0x10, 0x00, 0x00, 0x00, 0x54, 0x00, 0x00, 0x00, 0x01, 0x00, 0x00, 0x00,
  0x04, 0x00, 0x00, 0x00, 0x41, 0x00, 0x00, 0x00, 0x73, 0x65, 0x71, 0x75,
  0x65, 0x6e, 0x74, 0x69, 0x61, 0x6c, 0x5f, 0x33, 0x30, 0x2f, 0x64, 0x65,
  0x70, 0x74, 0x68, 0x77, 0x69, 0x73, 0x65, 0x5f, 0x63, 0x6f, 0x6e, 0x76,
  0x32, 0x64, 0x5f, 0x31, 0x30, 0x2f, 0x42, 0x69, 0x61, 0x73, 0x41, 0x64,
  0x64, 0x2f, 0x52, 0x65, 0x61, 0x64, 0x56, 0x61, 0x72, 0x69, 0x61, 0x62,
  0x6c, 0x65, 0x4f, 0x70, 0x2f, 0x72, 0x65, 0x73, 0x6f, 0x75, 0x72, 0x63,
  0x65, 0x00, 0x00, 0x00, 0x5c, 0xfe, 0xff, 0xff, 0x86, 0xff, 0xff, 0xff,
  0x04, 0x00, 0x00, 0x00, 0x0c, 0x00, 0x00, 0x00, 0x6b, 0xfc, 0xa9, 0x3d,
  0x4d, 0xa8, 0x86, 0xbd, 0x61, 0xef, 0x08, 0xbe, 0x4a, 0xff, 0xff, 0xff,
  0x10, 0x00, 0x00, 0x00, 0x03, 0x00, 0x00, 0x00, 0x10, 0x00, 0x00, 0x00,
  0x4c, 0x00, 0x00, 0x00, 0x01, 0x00, 0x00, 0x00, 0x03, 0x00, 0x00, 0x00,
  0x36, 0x00, 0x00, 0x00, 0x73, 0x65, 0x71, 0x75, 0x65, 0x6e, 0x74, 0x69,
  0x61, 0x6c, 0x5f, 0x33, 0x30, 0x2f, 0x64, 0x65, 0x6e, 0x73, 0x65, 0x5f,
  0x35, 0x37, 0x2f, 0x42, 0x69, 0x61, 0x73, 0x41, 0x64, 0x64, 0x2f, 0x52,
  0x65, 0x61, 0x64, 0x56, 0x61, 0x72, 0x69, 0x61, 0x62, 0x6c, 0x65, 0x4f,
  0x70, 0x2f, 0x72, 0x65, 0x73, 0x6f, 0x75, 0x72, 0x63, 0x65, 0x00, 0x00,
  0x04, 0x00, 0x06, 0x00, 0x04, 0x00, 0x00, 0x00, 0x00, 0x00, 0x06, 0x00,
  0x08, 0x00, 0x04, 0x00, 0x06, 0x00, 0x00, 0x00, 0x04, 0x00, 0x00, 0x00,
  0x40, 0x00, 0x00, 0x00, 0x1b, 0x29, 0xaa, 0x3e, 0x99, 0xba, 0x2c, 0x3e,
  0x59, 0x8f, 0x42, 0x3e, 0x41, 0x98, 0x07, 0x3e, 0x4a, 0xc8, 0x0a, 0xbd,
  0x4a, 0x26, 0xd2, 0x3d, 0x69, 0x67, 0xb6, 0x3e, 0x8c, 0xcc, 0x3d, 0x3f,
  0xb2, 0x96, 0x01, 0x3f, 0xcd, 0xcd, 0x98, 0x3d, 0x13, 0x93, 0x66, 0x3f,
  0xb5, 0x5c, 0xaa, 0x3e, 0xc3, 0x8b, 0x93, 0x3e, 0x65, 0xce, 0x89, 0xbe,
  0xa1, 0x5d, 0x35, 0x3f, 0xb1, 0x10, 0xd1, 0xbd, 0x00, 0x00, 0x0e, 0x00,
  0x14, 0x00, 0x04, 0x00, 0x00, 0x00, 0x08, 0x00, 0x0c, 0x00, 0x10, 0x00,
  0x0e, 0x00, 0x00, 0x00, 0x10, 0x00, 0x00, 0x00, 0x02, 0x00, 0x00, 0x00,
  0x10, 0x00, 0x00, 0x00, 0x48, 0x00, 0x00, 0x00, 0x01, 0x00, 0x00, 0x00,
  0x10, 0x00, 0x00, 0x00, 0x36, 0x00, 0x00, 0x00, 0x73, 0x65, 0x71, 0x75,
  0x65, 0x6e, 0x74, 0x69, 0x61, 0x6c, 0x5f, 0x33, 0x30, 0x2f, 0x64, 0x65,
  0x6e, 0x73, 0x65, 0x5f, 0x35, 0x36, 0x2f, 0x42, 0x69, 0x61, 0x73, 0x41,
  0x64, 0x64, 0x2f, 0x52, 0x65, 0x61, 0x64, 0x56, 0x61, 0x72, 0x69, 0x61,
  0x62, 0x6c, 0x65, 0x4f, 0x70, 0x2f, 0x72, 0x65, 0x73, 0x6f, 0x75, 0x72,
  0x63, 0x65, 0x00, 0x00, 0x94, 0xff, 0xff, 0xff, 0x14, 0x00, 0x18, 0x00,
  0x04, 0x00, 0x00, 0x00, 0x08, 0x00, 0x0c, 0x00, 0x10, 0x00, 0x00, 0x00,
  0x00, 0x00, 0x14, 0x00, 0x14, 0x00, 0x00, 0x00, 0x14, 0x00, 0x00, 0x00,
  0x01, 0x00, 0x00, 0x00, 0x20, 0x00, 0x00, 0x00, 0x40, 0x00, 0x00, 0x00,
  0x28, 0x00, 0x00, 0x00, 0x04, 0x00, 0x00, 0x00, 0x01, 0x00, 0x00, 0x00,
  0x50, 0x00, 0x00, 0x00, 0x03, 0x00, 0x00, 0x00, 0x01, 0x00, 0x00, 0x00,
  0x08, 0x00, 0x00, 0x00, 0x69, 0x6e, 0x70, 0x75, 0x74, 0x5f, 0x33, 0x31,
  0x00, 0x00, 0x00, 0x00, 0x04, 0x00, 0x00, 0x00, 0xff, 0xff, 0xff, 0xff,
  0x50, 0x00, 0x00, 0x00, 0x03, 0x00, 0x00, 0x00, 0x01, 0x00, 0x00, 0x00,
  0xfc, 0xff, 0xff, 0xff, 0x04, 0x00, 0x04, 0x00, 0x04, 0x00, 0x00, 0x00
};
