const unsigned char model[] __attribute__((aligned(4))) = {
  0x1c, 0x00, 0x00, 0x00, 0x54, 0x46, 0x4c, 0x33, 0x00, 0x00, 0x12, 0x00,
  0x1c, 0x00, 0x04, 0x00, 0x08, 0x00, 0x0c, 0x00, 0x10, 0x00, 0x14, 0x00,
  0x00, 0x00, 0x18, 0x00, 0x12, 0x00, 0x00, 0x00, 0x03, 0x00, 0x00, 0x00,
  0x14, 0x00, 0x00, 0x00, 0x28, 0x00, 0x00, 0x00, 0xd0, 0x00, 0x00, 0x00,
  0x28, 0x00, 0x00, 0x00, 0x78, 0x00, 0x00, 0x00, 0x05, 0x00, 0x00, 0x00,
  0x48, 0x07, 0x00, 0x00, 0x5c, 0x06, 0x00, 0x00, 0x7c, 0x03, 0x00, 0x00,
  0xc8, 0x02, 0x00, 0x00, 0xa8, 0x01, 0x00, 0x00, 0x01, 0x00, 0x00, 0x00,
  0xcc, 0x00, 0x00, 0x00, 0x14, 0x00, 0x00, 0x00, 0xd4, 0x19, 0x00, 0x00,
  0xd0, 0x19, 0x00, 0x00, 0xa8, 0x18, 0x00, 0x00, 0x24, 0x18, 0x00, 0x00,
  0xa4, 0x17, 0x00, 0x00, 0x24, 0x17, 0x00, 0x00, 0xb4, 0x16, 0x00, 0x00,
  0x5c, 0x0a, 0x00, 0x00, 0x44, 0x09, 0x00, 0x00, 0xc0, 0x08, 0x00, 0x00,
  0x3c, 0x08, 0x00, 0x00, 0xa8, 0x19, 0x00, 0x00, 0xa4, 0x19, 0x00, 0x00,
  0xa0, 0x19, 0x00, 0x00, 0x9c, 0x19, 0x00, 0x00, 0x98, 0x19, 0x00, 0x00,
  0x94, 0x19, 0x00, 0x00, 0x90, 0x19, 0x00, 0x00, 0x8c, 0x19, 0x00, 0x00,
  0x38, 0x00, 0x00, 0x00, 0x01, 0x00, 0x00, 0x00, 0x0c, 0x00, 0x00, 0x00,
  0x08, 0x00, 0x0c, 0x00, 0x04, 0x00, 0x08, 0x00, 0x08, 0x00, 0x00, 0x00,
  0x08, 0x00, 0x00, 0x00, 0x13, 0x00, 0x00, 0x00, 0x13, 0x00, 0x00, 0x00,
  0x6d, 0x69, 0x6e, 0x5f, 0x72, 0x75, 0x6e, 0x74, 0x69, 0x6d, 0x65, 0x5f,
  0x76, 0x65, 0x72, 0x73, 0x69, 0x6f, 0x6e, 0x00, 0xda, 0xe7, 0xff, 0xff,
  0x04, 0x00, 0x00, 0x00, 0x10, 0x00, 0x00, 0x00, 0x31, 0x2e, 0x35, 0x2e,
  0x30, 0x00, 0x00, 0x00, 0x00, 0x00, 0x00, 0x00, 0x00, 0x00, 0x00, 0x00,
  0x0f, 0x00, 0x00, 0x00, 0x4d, 0x4c, 0x49, 0x52, 0x20, 0x43, 0x6f, 0x6e,
  0x76, 0x65, 0x72, 0x74, 0x65, 0x64, 0x2e, 0x00, 0x00, 0x00, 0x0e, 0x00,
  0x18, 0x00, 0x04, 0x00, 0x08, 0x00, 0x0c, 0x00, 0x10, 0x00, 0x14, 0x00,
  0x0e, 0x00, 0x00, 0x00, 0x14, 0x00, 0x00, 0x00, 0x5c, 0x00, 0x00, 0x00,
  0x60, 0x00, 0x00, 0x00, 0x64, 0x00, 0x00, 0x00, 0x84, 0x00, 0x00, 0x00,
  0x12, 0x00, 0x00, 0x00, 0x9c, 0x18, 0x00, 0x00, 0x28, 0x18, 0x00, 0x00,
  0x60, 0x17, 0x00, 0x00, 0xdc, 0x16, 0x00, 0x00, 0x5c, 0x16, 0x00, 0x00,
  0xfc, 0x15, 0x00, 0x00, 0x8c, 0x15, 0x00, 0x00, 0x34, 0x09, 0x00, 0x00,
  0x08, 0x08, 0x00, 0x00, 0x84, 0x07, 0x00, 0x00, 0x2c, 0x06, 0x00, 0x00,
  0x40, 0x05, 0x00, 0x00, 0xcc, 0x03, 0x00, 0x00, 0x08, 0x03, 0x00, 0x00,
  0x58, 0x02, 0x00, 0x00, 0xa4, 0x01, 0x00, 0x00, 0xfc, 0x00, 0x00, 0x00,
  0x80, 0x00, 0x00, 0x00, 0x01, 0x00, 0x00, 0x00, 0x00, 0x00, 0x00, 0x00,
  0x01, 0x00, 0x00, 0x00, 0x11, 0x00, 0x00, 0x00, 0x08, 0x00, 0x00, 0x00,
  0x90, 0x05, 0x00, 0x00, 0xb0, 0x04, 0x00, 0x00, 0x58, 0x03, 0x00, 0x00,
  0x94, 0x02, 0x00, 0x00, 0xf4, 0x01, 0x00, 0x00, 0x24, 0x01, 0x00, 0x00,
  0x94, 0x00, 0x00, 0x00, 0x10, 0x00, 0x00, 0x00, 0x04, 0x00, 0x00, 0x00,
  0x6d, 0x61, 0x69, 0x6e, 0x00, 0x00, 0x00, 0x00, 0x9a, 0xfd, 0xff, 0xff,
  0x00, 0x00, 0x00, 0x09, 0x04, 0x00, 0x00, 0x00, 0x1c, 0x00, 0x00, 0x00,
  0x10, 0x00, 0x00, 0x00, 0x04, 0x00, 0x00, 0x00, 0xd6, 0xe8, 0xff, 0xff,
  0x00, 0x00, 0x80, 0x3f, 0x01, 0x00, 0x00, 0x00, 0x11, 0x00, 0x00, 0x00,
  0x01, 0x00, 0x00, 0x00, 0x10, 0x00, 0x00, 0x00, 0x7a, 0xfa, 0xff, 0xff,
  0x00, 0x00, 0x00, 0x19, 0x01, 0x00, 0x00, 0x00, 0x3c, 0xe8, 0xff, 0xff,
  0x14, 0x00, 0x00, 0x00, 0x12, 0x00, 0x00, 0x00, 0x18, 0x00, 0x00, 0x00,
  0x30, 0x00, 0x00, 0x00, 0x20, 0x00, 0x00, 0x00, 0x02, 0x00, 0x00, 0x00,
  0x01, 0x00, 0x00, 0x00, 0x03, 0x00, 0x00, 0x00, 0x08, 0x00, 0x00, 0x00,
  0x49, 0x64, 0x65, 0x6e, 0x74, 0x69, 0x74, 0x79, 0x00, 0x00, 0x00, 0x00,
  0x02, 0x00, 0x00, 0x00, 0xff, 0xff, 0xff, 0xff, 0x03, 0x00, 0x00, 0x00,
  0x14, 0xe8, 0xff, 0xff, 0x1a, 0xfe, 0xff, 0xff, 0x00, 0x00, 0x00, 0x08,
  0x03, 0x00, 0x00, 0x00, 0x18, 0x00, 0x00, 0x00, 0x0c, 0x00, 0x00, 0x00,
  0x04, 0x00, 0x00, 0x00, 0x30, 0xe8, 0xff, 0xff, 0x01, 0x00, 0x00, 0x00,
  0x10, 0x00, 0x00, 0x00, 0x03, 0x00, 0x00, 0x00, 0x0f, 0x00, 0x00, 0x00,
  0x07, 0x00, 0x00, 0x00, 0x02, 0x00, 0x00, 0x00, 0xb4, 0xe8, 0xff, 0xff,
  0x14, 0x00, 0x00, 0x00, 0x11, 0x00, 0x00, 0x00, 0x18, 0x00, 0x00, 0x00,
  0x44, 0x00, 0x00, 0x00, 0x34, 0x00, 0x00, 0x00, 0x02, 0x00, 0x00, 0x00,
  0x01, 0x00, 0x00, 0x00, 0x03, 0x00, 0x00, 0x00, 0x1e, 0x00, 0x00, 0x00,
  0x73, 0x65, 0x71, 0x75, 0x65, 0x6e, 0x74, 0x69, 0x61, 0x6c, 0x5f, 0x32,
  0x36, 0x2f, 0x64, 0x65, 0x6e, 0x73, 0x65, 0x5f, 0x34, 0x39, 0x2f, 0x42,
  0x69, 0x61, 0x73, 0x41, 0x64, 0x64, 0x00, 0x00, 0x02, 0x00, 0x00, 0x00,
  0xff, 0xff, 0xff, 0xff, 0x03, 0x00, 0x00, 0x00, 0xa0, 0xe8, 0xff, 0xff,
  0x92, 0xfc, 0xff, 0xff, 0x00, 0x00, 0x00, 0x08, 0x03, 0x00, 0x00, 0x00,
  0x24, 0x00, 0x00, 0x00, 0x18, 0x00, 0x00, 0x00, 0x0c, 0x00, 0x00, 0x00,
  0x00, 0x00, 0x06, 0x00, 0x08, 0x00, 0x07, 0x00, 0x06, 0x00, 0x00, 0x00,
  0x00, 0x00, 0x00, 0x01, 0x01, 0x00, 0x00, 0x00, 0x0f, 0x00, 0x00, 0x00,
  0x03, 0x00, 0x00, 0x00, 0x0e, 0x00, 0x00, 0x00, 0x06, 0x00, 0x00, 0x00,
  0x01, 0x00, 0x00, 0x00, 0x96, 0xfb, 0xff, 0xff, 0x00, 0x00, 0x00, 0x09,
  0x01, 0x00, 0x00, 0x00, 0x58, 0xe9, 0xff, 0xff, 0x14, 0x00, 0x00, 0x00,
  0x10, 0x00, 0x00, 0x00, 0x18, 0x00, 0x00, 0x00, 0x60, 0x00, 0x00, 0x00,
  0x50, 0x00, 0x00, 0x00, 0x02, 0x00, 0x00, 0x00, 0x01, 0x00, 0x00, 0x00,
  0x10, 0x00, 0x00, 0x00, 0x3a, 0x00, 0x00, 0x00, 0x73, 0x65, 0x71, 0x75,
  0x65, 0x6e, 0x74, 0x69, 0x61, 0x6c, 0x5f, 0x32, 0x36, 0x2f, 0x64, 0x65,
  0x6e, 0x73, 0x65, 0x5f, 0x34, 0x38, 0x2f, 0x52, 0x65, 0x6c, 0x75, 0x3b,
  0x73, 0x65, 0x71, 0x75, 0x65, 0x6e, 0x74, 0x69, 0x61, 0x6c, 0x5f, 0x32,
  0x36, 0x2f, 0x64, 0x65, 0x6e, 0x73, 0x65, 0x5f, 0x34, 0x38, 0x2f, 0x42,
  0x69, 0x61, 0x73, 0x41, 0x64, 0x64, 0x00, 0x00, 0x02, 0x00, 0x00, 0x00,
  0xff, 0xff, 0xff, 0xff, 0x10, 0x00, 0x00, 0x00, 0x90, 0xea, 0xff, 0xff,
  0x00, 0x00, 0x0a, 0x00, 0x10, 0x00, 0x04, 0x00, 0x08, 0x00, 0x0c, 0x00,
  0x0a, 0x00, 0x00, 0x00, 0x02, 0x00, 0x00, 0x00, 0x10, 0x00, 0x00, 0x00,
  0x04, 0x00, 0x00, 0x00, 0x01, 0x00, 0x00, 0x00, 0x0e, 0x00, 0x00, 0x00,
  0x02, 0x00, 0x00, 0x00, 0x0d, 0x00, 0x00, 0x00, 0x05, 0x00, 0x00, 0x00,
  0x46, 0xfc, 0xff, 0xff, 0x00, 0x00, 0x00, 0x16, 0x01, 0x00, 0x00, 0x00,
  0x08, 0xea, 0xff, 0xff, 0x14, 0x00, 0x00, 0x00, 0x0f, 0x00, 0x00, 0x00,
  0x18, 0x00, 0x00, 0x00, 0x48, 0x00, 0x00, 0x00, 0x38, 0x00, 0x00, 0x00,
  0x02, 0x00, 0x00, 0x00, 0x01, 0x00, 0x00, 0x00, 0x30, 0x00, 0x00, 0x00,
  0x20, 0x00, 0x00, 0x00, 0x73, 0x65, 0x71, 0x75, 0x65, 0x6e, 0x74, 0x69,
  0x61, 0x6c, 0x5f, 0x32, 0x36, 0x2f, 0x66, 0x6c, 0x61, 0x74, 0x74, 0x65,
  0x6e, 0x5f, 0x32, 0x34, 0x2f, 0x52, 0x65, 0x73, 0x68, 0x61, 0x70, 0x65,
  0x00, 0x00, 0x00, 0x00, 0x02, 0x00, 0x00, 0x00, 0xff, 0xff, 0xff, 0xff,
  0x30, 0x00, 0x00, 0x00, 0x28, 0xeb, 0xff, 0xff, 0x00, 0x00, 0x0e, 0x00,
  0x18, 0x00, 0x08, 0x00, 0x0c, 0x00, 0x10, 0x00, 0x07, 0x00, 0x14, 0x00,
  0x0e, 0x00, 0x00, 0x00, 0x00, 0x00, 0x00, 0x05, 0x01, 0x00, 0x00, 0x00,
  0x2c, 0x00, 0x00, 0x00, 0x20, 0x00, 0x00, 0x00, 0x04, 0x00, 0x00, 0x00,
  0xea, 0xfd, 0xff, 0xff, 0x03, 0x00, 0x00, 0x00, 0x01, 0x00, 0x00, 0x00,
  0x03, 0x00, 0x00, 0x00, 0x01, 0x00, 0x00, 0x00, 0x00, 0x00, 0x00, 0x01,
  0x01, 0x00, 0x00, 0x00, 0x0d, 0x00, 0x00, 0x00, 0x01, 0x00, 0x00, 0x00,
  0x0c, 0x00, 0x00, 0x00, 0xb4, 0xea, 0xff, 0xff, 0x14, 0x00, 0x00, 0x00,
  0x0e, 0x00, 0x00, 0x00, 0x20, 0x00, 0x00, 0x00, 0x5c, 0x00, 0x00, 0x00,
  0x44, 0x00, 0x00, 0x00, 0x04, 0x00, 0x00, 0x00, 0x01, 0x00, 0x00, 0x00,
  0x08, 0x00, 0x00, 0x00, 0x03, 0x00, 0x00, 0x00, 0x02, 0x00, 0x00, 0x00,
  0x26, 0x00, 0x00, 0x00, 0x73, 0x65, 0x71, 0x75, 0x65, 0x6e, 0x74, 0x69,
  0x61, 0x6c, 0x5f, 0x32, 0x36, 0x2f, 0x6d, 0x61, 0x78, 0x5f, 0x70, 0x6f,
  0x6f, 0x6c, 0x69, 0x6e, 0x67, 0x32, 0x64, 0x5f, 0x34, 0x39, 0x2f, 0x4d,
  0x61, 0x78, 0x50, 0x6f, 0x6f, 0x6c, 0x00, 0x00, 0x04, 0x00, 0x00, 0x00,
  0xff, 0xff, 0xff, 0xff, 0x08, 0x00, 0x00, 0x00, 0x03, 0x00, 0x00, 0x00,
  0x02, 0x00, 0x00, 0x00, 0xe8, 0xeb, 0xff, 0xff, 0x00, 0x00, 0x0e, 0x00,
  0x14, 0x00, 0x00, 0x00, 0x08, 0x00, 0x0c, 0x00, 0x07, 0x00, 0x10, 0x00,
  0x0e, 0x00, 0x00, 0x00, 0x00, 0x00, 0x00, 0x02, 0x28, 0x00, 0x00, 0x00,
  0x1c, 0x00, 0x00, 0x00, 0x04, 0x00, 0x00, 0x00, 0xce, 0xfd, 0xff, 0xff,
  0x01, 0x00, 0x00, 0x00, 0x01, 0x00, 0x00, 0x00, 0x01, 0x00, 0x00, 0x00,
  0x00, 0x00, 0x01, 0x01, 0x01, 0x00, 0x00, 0x00, 0x0c, 0x00, 0x00, 0x00,
  0x03, 0x00, 0x00, 0x00, 0x0b, 0x00, 0x00, 0x00, 0x09, 0x00, 0x00, 0x00,
  0x04, 0x00, 0x00, 0x00, 0x74, 0xeb, 0xff, 0xff, 0x14, 0x00, 0x00, 0x00,
  0x0d, 0x00, 0x00, 0x00, 0x20, 0x00, 0x00, 0x00, 0xf0, 0x00, 0x00, 0x00,
  0xd8, 0x00, 0x00, 0x00, 0x04, 0x00, 0x00, 0x00, 0x01, 0x00, 0x00, 0x00,
  0x18, 0x00, 0x00, 0x00, 0x03, 0x00, 0x00, 0x00, 0x02, 0x00, 0x00, 0x00,
  0xba, 0x00, 0x00, 0x00, 0x73, 0x65, 0x71, 0x75, 0x65, 0x6e, 0x74, 0x69,
  0x61, 0x6c, 0x5f, 0x32, 0x36, 0x2f, 0x64, 0x65, 0x70, 0x74, 0x68, 0x77,
  0x69, 0x73, 0x65, 0x5f, 0x63, 0x6f, 0x6e, 0x76, 0x32, 0x64, 0x5f, 0x33,
  0x2f, 0x52, 0x65, 0x6c, 0x75, 0x3b, 0x73, 0x65, 0x71, 0x75, 0x65, 0x6e,
  0x74, 0x69, 0x61, 0x6c, 0x5f, 0x32, 0x36, 0x2f, 0x64, 0x65, 0x70, 0x74,
  0x68, 0x77, 0x69, 0x73, 0x65, 0x5f, 0x63, 0x6f, 0x6e, 0x76, 0x32, 0x64,
  0x5f, 0x33, 0x2f, 0x42, 0x69, 0x61, 0x73, 0x41, 0x64, 0x64, 0x3b, 0x73,
  0x65, 0x71, 0x75, 0x65, 0x6e, 0x74, 0x69, 0x61, 0x6c, 0x5f, 0x32, 0x36,
  0x2f, 0x64, 0x65, 0x70, 0x74, 0x68, 0x77, 0x69, 0x73, 0x65, 0x5f, 0x63,
  0x6f, 0x6e, 0x76, 0x32, 0x64, 0x5f, 0x33, 0x2f, 0x64, 0x65, 0x70, 0x74,
  0x68, 0x77, 0x69, 0x73, 0x65, 0x3b, 0x73, 0x65, 0x71, 0x75, 0x65, 0x6e,
  0x74, 0x69, 0x61, 0x6c, 0x5f, 0x32, 0x36, 0x2f, 0x64, 0x65, 0x70, 0x74,
  0x68, 0x77, 0x69, 0x73, 0x65, 0x5f, 0x63, 0x6f, 0x6e, 0x76, 0x32, 0x64,
  0x5f, 0x33, 0x2f, 0x42, 0x69, 0x61, 0x73, 0x41, 0x64, 0x64, 0x2f, 0x52,
  0x65, 0x61, 0x64, 0x56, 0x61, 0x72, 0x69, 0x61, 0x62, 0x6c, 0x65, 0x4f,
  0x70, 0x2f, 0x72, 0x65, 0x73, 0x6f, 0x75, 0x72, 0x63, 0x65, 0x00, 0x00,
  0x04, 0x00, 0x00, 0x00, 0xff, 0xff, 0xff, 0xff, 0x18, 0x00, 0x00, 0x00,
  0x03, 0x00, 0x00, 0x00, 0x02, 0x00, 0x00, 0x00, 0x3c, 0xed, 0xff, 0xff,
  0x00, 0x00, 0x0e, 0x00, 0x1a, 0x00, 0x08, 0x00, 0x0c, 0x00, 0x10, 0x00,
  0x07, 0x00, 0x14, 0x00, 0x0e, 0x00, 0x00, 0x00, 0x00, 0x00, 0x00, 0x05,
  0x01, 0x00, 0x00, 0x00, 0x3c, 0x00, 0x00, 0x00, 0x30, 0x00, 0x00, 0x00,
  0x14, 0x00, 0x00, 0x00, 0x00, 0x00, 0x0e, 0x00, 0x18, 0x00, 0x17, 0x00,
  0x10, 0x00, 0x0c, 0x00, 0x08, 0x00, 0x04, 0x00, 0x0e, 0x00, 0x00, 0x00,
  0x03, 0x00, 0x00, 0x00, 0x01, 0x00, 0x00, 0x00, 0x03, 0x00, 0x00, 0x00,
  0x01, 0x00, 0x00, 0x00, 0x00, 0x00, 0x00, 0x01, 0x01, 0x00, 0x00, 0x00,
  0x0b, 0x00, 0x00, 0x00, 0x01, 0x00, 0x00, 0x00, 0x0a, 0x00, 0x00, 0x00,
  0x22, 0xff, 0xff, 0xff, 0x00, 0x00, 0x00, 0x11, 0x01, 0x00, 0x00, 0x00,
  0xe4, 0xec, 0xff, 0xff, 0x14, 0x00, 0x00, 0x00, 0x0c, 0x00, 0x00, 0x00,
  0x20, 0x00, 0x00, 0x00, 0x5c, 0x00, 0x00, 0x00, 0x44, 0x00, 0x00, 0x00,
  0x04, 0x00, 0x00, 0x00, 0x01, 0x00, 0x00, 0x00, 0x1a, 0x00, 0x00, 0x00,
  0x03, 0x00, 0x00, 0x00, 0x02, 0x00, 0x00, 0x00, 0x26, 0x00, 0x00, 0x00,
  0x73, 0x65, 0x71, 0x75, 0x65, 0x6e, 0x74, 0x69, 0x61, 0x6c, 0x5f, 0x32,
  0x36, 0x2f, 0x6d, 0x61, 0x78, 0x5f, 0x70, 0x6f, 0x6f, 0x6c, 0x69, 0x6e,
  0x67, 0x32, 0x64, 0x5f, 0x34, 0x38, 0x2f, 0x4d, 0x61, 0x78, 0x50, 0x6f,
  0x6f, 0x6c, 0x00, 0x00, 0x04, 0x00, 0x00, 0x00, 0xff, 0xff, 0xff, 0xff,
  0x1a, 0x00, 0x00, 0x00, 0x03, 0x00, 0x00, 0x00, 0x02, 0x00, 0x00, 0x00,
  0x18, 0xee, 0xff, 0xff, 0x00, 0x00, 0x0e, 0x00, 0x16, 0x00, 0x00, 0x00,
  0x08, 0x00, 0x0c, 0x00, 0x07, 0x00, 0x10, 0x00, 0x0e, 0x00, 0x00, 0x00,
  0x00, 0x00, 0x00, 0x02, 0x38, 0x00, 0x00, 0x00, 0x2c, 0x00, 0x00, 0x00,
  0x14, 0x00, 0x00, 0x00, 0x00, 0x00, 0x0e, 0x00, 0x14, 0x00, 0x12, 0x00,
  0x08, 0x00, 0x0c, 0x00, 0x04, 0x00, 0x13, 0x00, 0x0e, 0x00, 0x00, 0x00,
  0x02, 0x00, 0x00, 0x00, 0x01, 0x00, 0x00, 0x00, 0x01, 0x00, 0x00, 0x00,
  0x00, 0x00, 0x01, 0x01, 0x01, 0x00, 0x00, 0x00, 0x0a, 0x00, 0x00, 0x00,
  0x03, 0x00, 0x00, 0x00, 0x00, 0x00, 0x00, 0x00, 0x08, 0x00, 0x00, 0x00,
  0x03, 0x00, 0x00, 0x00, 0x00, 0x00, 0x0a, 0x00, 0x0c, 0x00, 0x07, 0x00,
  0x00, 0x00, 0x08, 0x00, 0x0a, 0x00, 0x00, 0x00, 0x00, 0x00, 0x00, 0x04,
  0x01, 0x00, 0x00, 0x00, 0xcc, 0xed, 0xff, 0xff, 0x14, 0x00, 0x00, 0x00,
  0x0b, 0x00, 0x00, 0x00, 0x20, 0x00, 0x00, 0x00, 0x1c, 0x01, 0x00, 0x00,
  0x04, 0x01, 0x00, 0x00, 0x04, 0x00, 0x00, 0x00, 0x01, 0x00, 0x00, 0x00,
  0x4e, 0x00, 0x00, 0x00, 0x03, 0x00, 0x00, 0x00, 0x02, 0x00, 0x00, 0x00,
  0xe5, 0x00, 0x00, 0x00, 0x73, 0x65, 0x71, 0x75, 0x65, 0x6e, 0x74, 0x69,
  0x61, 0x6c, 0x5f, 0x32, 0x36, 0x2f, 0x64, 0x65, 0x70, 0x74, 0x68, 0x77,
  0x69, 0x73, 0x65, 0x5f, 0x63, 0x6f, 0x6e, 0x76, 0x32, 0x64, 0x5f, 0x32,
  0x2f, 0x52, 0x65, 0x6c, 0x75, 0x3b, 0x73, 0x65, 0x71, 0x75, 0x65, 0x6e,
  0x74, 0x69, 0x61, 0x6c, 0x5f, 0x32, 0x36, 0x2f, 0x64, 0x65, 0x70, 0x74,
  0x68, 0x77, 0x69, 0x73, 0x65, 0x5f, 0x63, 0x6f, 0x6e, 0x76, 0x32, 0x64,
  0x5f, 0x32, 0x2f, 0x42, 0x69, 0x61, 0x73, 0x41, 0x64, 0x64, 0x3b, 0x73,
  0x65, 0x71, 0x75, 0x65, 0x6e, 0x74, 0x69, 0x61, 0x6c, 0x5f, 0x32, 0x36,
  0x2f, 0x64, 0x65, 0x70, 0x74, 0x68, 0x77, 0x69, 0x73, 0x65, 0x5f, 0x63,
  0x6f, 0x6e, 0x76, 0x32, 0x64, 0x5f, 0x33, 0x2f, 0x64, 0x65, 0x70, 0x74,
  0x68, 0x77, 0x69, 0x73, 0x65, 0x3b, 0x73, 0x65, 0x71, 0x75, 0x65, 0x6e,
  0x74, 0x69, 0x61, 0x6c, 0x5f, 0x32, 0x36, 0x2f, 0x64, 0x65, 0x70, 0x74,
  0x68, 0x77, 0x69, 0x73, 0x65, 0x5f, 0x63, 0x6f, 0x6e, 0x76, 0x32, 0x64,
  0x5f, 0x32, 0x2f, 0x64, 0x65, 0x70, 0x74, 0x68, 0x77, 0x69, 0x73, 0x65,
  0x3b, 0x73, 0x65, 0x71, 0x75, 0x65, 0x6e, 0x74, 0x69, 0x61, 0x6c, 0x5f,
  0x32, 0x36, 0x2f, 0x64, 0x65, 0x70, 0x74, 0x68, 0x77, 0x69, 0x73, 0x65,
  0x5f, 0x63, 0x6f, 0x6e, 0x76, 0x32, 0x64, 0x5f, 0x32, 0x2f, 0x42, 0x69,
  0x61, 0x73, 0x41, 0x64, 0x64, 0x2f, 0x52, 0x65, 0x61, 0x64, 0x56, 0x61,
  0x72, 0x69, 0x61, 0x62, 0x6c, 0x65, 0x4f, 0x70, 0x2f, 0x72, 0x65, 0x73,
  0x6f, 0x75, 0x72, 0x63, 0x65, 0x00, 0x00, 0x00, 0x04, 0x00, 0x00, 0x00,
  0xff, 0xff, 0xff, 0xff, 0x4e, 0x00, 0x00, 0x00, 0x03, 0x00, 0x00, 0x00,
  0x02, 0x00, 0x00, 0x00, 0x90, 0xee, 0xff, 0xff, 0xba, 0xef, 0xff, 0xff,
  0x04, 0x00, 0x00, 0x00, 0x18, 0x00, 0x00, 0x00, 0xaf, 0xd0, 0x80, 0x3f,
  0x35, 0x6e, 0x7f, 0x3e, 0x1d, 0xd6, 0x9e, 0x3e, 0xb5, 0x94, 0x67, 0x3f,
  0x3e, 0x29, 0xb9, 0x3c, 0x3d, 0xf0, 0x81, 0x3e, 0x8a, 0xef, 0xff, 0xff,
  0x10, 0x00, 0x00, 0x00, 0x0a, 0x00, 0x00, 0x00, 0x1c, 0x00, 0x00, 0x00,
  0x48, 0x00, 0x00, 0x00, 0x04, 0x00, 0x00, 0x00, 0x01, 0x00, 0x00, 0x00,
  0x03, 0x00, 0x00, 0x00, 0x01, 0x00, 0x00, 0x00, 0x02, 0x00, 0x00, 0x00,
  0x2a, 0x00, 0x00, 0x00, 0x73, 0x65, 0x71, 0x75, 0x65, 0x6e, 0x74, 0x69,
  0x61, 0x6c, 0x5f, 0x32, 0x36, 0x2f, 0x64, 0x65, 0x70, 0x74, 0x68, 0x77,
  0x69, 0x73, 0x65, 0x5f, 0x63, 0x6f, 0x6e, 0x76, 0x32, 0x64, 0x5f, 0x33,
  0x2f, 0x64, 0x65, 0x70, 0x74, 0x68, 0x77, 0x69, 0x73, 0x65, 0x00, 0x00,
  0x10, 0xef, 0xff, 0xff, 0x3a, 0xf0, 0xff, 0xff, 0x04, 0x00, 0x00, 0x00,
  0x18, 0x00, 0x00, 0x00, 0xf5, 0xd0, 0x39, 0x3d, 0x2e, 0x82, 0x47, 0x3f,
  0xb1, 0x0b, 0x91, 0x3f, 0xa4, 0x5a, 0xbb, 0x3d, 0x15, 0x1f, 0xbe, 0xbc,
  0x9e, 0x08, 0x75, 0xbf, 0x0a, 0xf0, 0xff, 0xff, 0x10, 0x00, 0x00, 0x00,
  0x09, 0x00, 0x00, 0x00, 0x1c, 0x00, 0x00, 0x00, 0x48, 0x00, 0x00, 0x00,
  0x04, 0x00, 0x00, 0x00, 0x01, 0x00, 0x00, 0x00, 0x03, 0x00, 0x00, 0x00,
  0x01, 0x00, 0x00, 0x00, 0x02, 0x00, 0x00, 0x00, 0x2a, 0x00, 0x00, 0x00,
  0x73, 0x65, 0x71, 0x75, 0x65, 0x6e, 0x74, 0x69, 0x61, 0x6c, 0x5f, 0x32,
  0x36, 0x2f, 0x64, 0x65, 0x70, 0x74, 0x68, 0x77, 0x69, 0x73, 0x65, 0x5f,
  0x63, 0x6f, 0x6e, 0x76, 0x32, 0x64, 0x5f, 0x32, 0x2f, 0x64, 0x65, 0x70,
  0x74, 0x68, 0x77, 0x69, 0x73, 0x65, 0x00, 0x00, 0x90, 0xef, 0xff, 0xff,
  0xba, 0xf0, 0xff, 0xff, 0x04, 0x00, 0x00, 0x00, 0xc0, 0x00, 0x00, 0x00,
  0x6e, 0xeb, 0x00, 0xbf, 0x21, 0x54, 0xa2, 0xbe, 0xf1, 0x40, 0x37, 0xbf,
  0x11, 0x37, 0x8c, 0xbe, 0x2a, 0xba, 0xc7, 0xbe, 0x32, 0xff, 0x1c, 0xbf,
  0x23, 0x88, 0x35, 0x3f, 0xc3, 0x28, 0x31, 0x3f, 0xd2, 0x95, 0x35, 0xbe,
  0xed, 0x99, 0x6b, 0x3f, 0x9b, 0x1c, 0x93, 0xbe, 0x3f, 0x61, 0x34, 0x3f,
  0x50, 0xe8, 0xf1, 0xbe, 0x6a, 0x66, 0x21, 0x3e, 0x5d, 0xb0, 0x84, 0x3e,
  0x03, 0x1f, 0x33, 0x3f, 0x2a, 0x60, 0x96, 0xbe, 0xc4, 0x14, 0x42, 0x3e,
  0xec, 0x9f, 0xb5, 0xbe, 0x74, 0xe8, 0x8b, 0x3e, 0x21, 0x3a, 0x25, 0x3f,
  0xd4, 0x2a, 0x0f, 0xbf, 0x39, 0xce, 0xed, 0x3d, 0x6a, 0x3f, 0x59, 0xbe,
  0x6b, 0xef, 0x59, 0xbe, 0x96, 0x6e, 0xb2, 0xbe, 0xdc, 0x3e, 0xa0, 0x3b,
  0xf7, 0x41, 0x35, 0xbe, 0x26, 0x7b, 0xf0, 0x3e, 0x34, 0xc5, 0x32, 0xbe,
  0xc3, 0xdc, 0xaf, 0x3e, 0x12, 0x49, 0x0b, 0xbf, 0x27, 0xc9, 0xca, 0x3e,
  0x9d, 0x19, 0xb3, 0x3e, 0xc7, 0x39, 0xea, 0x3e, 0xf1, 0xc5, 0xf0, 0x3e,
  0x33, 0xf8, 0x3b, 0xbf, 0x33, 0x48, 0x6c, 0x3f, 0x1a, 0x89, 0x4f, 0xbf,
  0x9d, 0xd8, 0x91, 0xbf, 0x8b, 0xcb, 0xd7, 0xbf, 0x26, 0xe0, 0x31, 0xbf,
  0x83, 0x02, 0xf9, 0xbf, 0x4a, 0x99, 0x1a, 0xbf, 0xb9, 0x51, 0xa1, 0xbc,
  0xaf, 0x27, 0xa5, 0xbf, 0xb1, 0xee, 0xd8, 0xbf, 0xae, 0x9a, 0x2f, 0xbf,
  0x32, 0xf1, 0xff, 0xff, 0x10, 0x00, 0x00, 0x00, 0x08, 0x00, 0x00, 0x00,
  0x14, 0x00, 0x00, 0x00, 0x34, 0x00, 0x00, 0x00, 0x02, 0x00, 0x00, 0x00,
  0x03, 0x00, 0x00, 0x00, 0x10, 0x00, 0x00, 0x00, 0x1d, 0x00, 0x00, 0x00,
  0x73, 0x65, 0x71, 0x75, 0x65, 0x6e, 0x74, 0x69, 0x61, 0x6c, 0x5f, 0x32,
  0x36, 0x2f, 0x64, 0x65, 0x6e, 0x73, 0x65, 0x5f, 0x34, 0x39, 0x2f, 0x4d,
  0x61, 0x74, 0x4d, 0x75, 0x6c, 0x00, 0x00, 0x00, 0xa4, 0xf0, 0xff, 0xff,
  0xce, 0xf1, 0xff, 0xff, 0x04, 0x00, 0x00, 0x00, 0x00, 0x0c, 0x00, 0x00,
  0xbd, 0x5a, 0x87, 0x3f, 0x20, 0xdf, 0x05, 0x3f, 0x41, 0xd9, 0x52, 0x3f,
  0xc2, 0xc8, 0xf0, 0x3d, 0xbf, 0xa4, 0xe5, 0xbe, 0xc7, 0x52, 0xa3, 0xbe,
  0x7f, 0xed, 0x39, 0x3f, 0xa7, 0x78, 0x8e, 0x3e, 0xbf, 0x58, 0xbd, 0x3e,
  0x6e, 0xe0, 0x0f, 0x3d, 0x4c, 0x6b, 0x17, 0x3e, 0x2d, 0x97, 0x40, 0xbe,
  0x60, 0x73, 0x79, 0x3e, 0x49, 0x8c, 0x15, 0x3e, 0xd3, 0x6d, 0x07, 0x3f,
  0x74, 0xb0, 0x99, 0xbd, 0x17, 0x84, 0x61, 0xbc, 0xd1, 0xae, 0x89, 0xbe,
  0xc4, 0x05, 0xa2, 0x3e, 0xa9, 0x4d, 0x8e, 0x3e, 0x3e, 0x14, 0xc4, 0x3e,
  0xc3, 0x8a, 0xf4, 0x3d, 0xa4, 0x67, 0x00, 0x3e, 0xbb, 0x2a, 0x59, 0xbe,
  0x28, 0x4b, 0x96, 0x3e, 0x35, 0xd4, 0xe0, 0xbd, 0x01, 0x29, 0xf2, 0x3d,
  0x6c, 0x24, 0xb0, 0x3d, 0xe9, 0xa9, 0x26, 0x3e, 0xcb, 0xc3, 0xcc, 0xbd,
  0x7c, 0x27, 0x09, 0x3e, 0x45, 0xa2, 0xb2, 0x3c, 0xbe, 0x66, 0x8d, 0x3e,
  0x2f, 0x00, 0xf2, 0xbd, 0x74, 0x14, 0x54, 0x3e, 0xe5, 0xb3, 0xcd, 0xbd,
  0x01, 0x84, 0x47, 0x3e, 0x51, 0x2b, 0xab, 0xbd, 0x20, 0x25, 0xc5, 0x3d,
  0x79, 0x31, 0x27, 0xbe, 0xfe, 0xdc, 0xb9, 0x3d, 0x6b, 0x50, 0x1a, 0xbe,
  0xa9, 0xba, 0x88, 0x3e, 0x5d, 0x91, 0x3f, 0xbe, 0x5a, 0x4f, 0x6d, 0x3e,
  0x00, 0x57, 0x80, 0xbe, 0xd1, 0xab, 0x8d, 0x3b, 0xc8, 0x32, 0xda, 0xbe,
  0x47, 0x28, 0xcc, 0x3d, 0xfd, 0xff, 0x8d, 0x3f, 0x83, 0xb1, 0x3e, 0xbf,
  0x32, 0x5f, 0xad, 0x3d, 0x69, 0xb5, 0xd3, 0x3f, 0x14, 0x28, 0x7e, 0x3f,
  0x92, 0x9c, 0x91, 0xbe, 0xab, 0xa8, 0x5e, 0x3e, 0xbb, 0x00, 0xbf, 0xbe,
  0x98, 0x42, 0x40, 0xbe, 0x10, 0xc5, 0x0f, 0xbe, 0x24, 0x13, 0xb3, 0x3e,
  0xff, 0x74, 0xe7, 0xbc, 0xba, 0x08, 0xc9, 0x3e, 0x6b, 0xdf, 0x01, 0xbe,
  0xcc, 0xd7, 0x43, 0x3d, 0x34, 0x8c, 0xab, 0x3e, 0x91, 0xde, 0x8e, 0x3e,
  0xdf, 0x8e, 0x47, 0xbe, 0xf0, 0xbc, 0x0e, 0xbe, 0xae, 0x32, 0x91, 0xbe,
  0x80, 0x99, 0x04, 0xbd, 0xfc, 0xea, 0xe3, 0x3d, 0xb7, 0x87, 0x81, 0x3e,
  0x3d, 0x28, 0x0b, 0xbe, 0x98, 0xb7, 0x52, 0x3e, 0xba, 0xda, 0x5a, 0xbe,
  0x7c, 0xae, 0x36, 0x3d, 0x93, 0x4e, 0xdf, 0x3d, 0x5d, 0x46, 0x96, 0xbd,
  0x62, 0x12, 0xfa, 0xbd, 0xe1, 0x7c, 0x83, 0x3e, 0xa7, 0xe9, 0x2a, 0xbe,
  0x57, 0x82, 0x52, 0xbe, 0xc6, 0xd3, 0xa5, 0xbd, 0x34, 0xe4, 0x8b, 0x3e,
  0x85, 0xe6, 0x75, 0x3e, 0xf0, 0xab, 0xc4, 0x3e, 0x20, 0xe3, 0xcf, 0x3c,
  0xfa, 0xdf, 0x49, 0x3e, 0x1c, 0xf8, 0x26, 0xbe, 0x2f, 0x10, 0xe5, 0xbc,
  0xf4, 0xbe, 0x85, 0x3e, 0x73, 0x1d, 0x1b, 0x3e, 0x3f, 0xbb, 0x58, 0xbc,
  0xd9, 0x32, 0xdc, 0xbd, 0xba, 0x3d, 0x91, 0x3d, 0x99, 0x6f, 0xae, 0x3d,
  0xf3, 0x7a, 0x68, 0x3f, 0xce, 0x20, 0xd8, 0xbe, 0x0a, 0xa4, 0x65, 0x3f,
  0x6e, 0x25, 0xd9, 0x3d, 0x01, 0x14, 0xf0, 0x3e, 0xae, 0xc1, 0xdb, 0xbd,
  0x07, 0x73, 0xc6, 0x3e, 0xd9, 0xce, 0x83, 0xbe, 0x01, 0x76, 0x92, 0x3e,
  0x5c, 0xfa, 0xe0, 0x3c, 0xa1, 0x6b, 0xda, 0x3e, 0x9d, 0xa9, 0xf6, 0x3d,
  0xb8, 0xc0, 0x9a, 0x3e, 0xf9, 0xf0, 0x44, 0xbe, 0xb2, 0x6f, 0x97, 0x3d,
  0xdb, 0xa1, 0x08, 0x3d, 0xc8, 0x74, 0x21, 0x3e, 0x6d, 0x14, 0xe4, 0xbd,
  0x6d, 0xf8, 0xa6, 0x3e, 0x56, 0x63, 0x8a, 0xbe, 0x8d, 0x56, 0x90, 0x3e,
  0x21, 0x3a, 0x01, 0xbd, 0xae, 0x2e, 0x6f, 0x3e, 0xd2, 0x86, 0x36, 0xbe,
  0x4b, 0x98, 0xaa, 0x3e, 0xb2, 0x51, 0x67, 0xbe, 0x5c, 0xa2, 0xc8, 0x3e,
  0xf0, 0x7a, 0x86, 0xbd, 0x32, 0xde, 0x99, 0x3e, 0xcb, 0x34, 0x87, 0xbd,
  0x50, 0x24, 0xa5, 0x3e, 0xa7, 0xb5, 0xac, 0xbe, 0x70, 0x93, 0x84, 0x3e,
  0x62, 0x13, 0x5c, 0x3a, 0x8f, 0xb9, 0xa4, 0x3e, 0x88, 0xe5, 0x46, 0xbe,
  0x66, 0x0c, 0x43, 0x3e, 0xae, 0x9d, 0xb4, 0xbe, 0x87, 0xc2, 0x96, 0x3e,
  0x6e, 0x50, 0x28, 0xbc, 0xea, 0x88, 0xad, 0x3e, 0xc5, 0x12, 0x27, 0xbe,
  0x62, 0x20, 0xc5, 0xbe, 0x39, 0x82, 0x33, 0xbf, 0x0f, 0x12, 0xa6, 0xbd,
  0xc4, 0x6a, 0xba, 0xbe, 0x86, 0xfc, 0x0a, 0xbe, 0x83, 0x4e, 0xfe, 0xbe,
  0xe5, 0x85, 0xa8, 0xbe, 0x7a, 0x6f, 0xfa, 0xbd, 0xa1, 0x17, 0x9a, 0xbe,
  0x93, 0x1e, 0xe7, 0x3e, 0x67, 0x2a, 0xd4, 0x3f, 0xfd, 0x11, 0xa4, 0x3f,
  0xbc, 0xff, 0x05, 0xbf, 0xc4, 0x6d, 0x98, 0xbd, 0x67, 0x95, 0x31, 0xbf,
  0x8c, 0xd1, 0x0f, 0x3e, 0x2c, 0xd3, 0xba, 0xbd, 0xb3, 0x26, 0x65, 0x3e,
  0xa3, 0x27, 0x8a, 0x3d, 0x15, 0xc6, 0x39, 0x3c, 0x2b, 0x3e, 0x7c, 0x3d,
  0xf5, 0x99, 0x09, 0x3e, 0x5f, 0x7d, 0xf7, 0x3c, 0x30, 0xba, 0x52, 0x3e,
  0x1b, 0x07, 0x1e, 0xbe, 0xb0, 0xa0, 0x26, 0x3d, 0x6f, 0x84, 0x3a, 0x3c,
  0x10, 0x0e, 0xbe, 0x3c, 0x70, 0xf3, 0x0c, 0x3e, 0x0e, 0x4c, 0x02, 0x3f,
  0xa8, 0xc7, 0x4d, 0xbe, 0xc0, 0x96, 0x4d, 0xbe, 0x05, 0xb6, 0x93, 0x3d,
  0xb7, 0x1e, 0xcc, 0xbd, 0x14, 0xf9, 0x96, 0x3d, 0x55, 0xb9, 0xaf, 0x3e,
  0xec, 0x04, 0x10, 0xbe, 0x2a, 0xc4, 0xdc, 0xbd, 0xd7, 0xbb, 0x10, 0xbe,
  0x48, 0xaf, 0x74, 0x3e, 0xc4, 0x0d, 0x0c, 0x3e, 0x58, 0x6c, 0xb3, 0x3e,
  0xf2, 0x82, 0xc7, 0xbd, 0xb4, 0x66, 0x3e, 0xbe, 0xeb, 0xff, 0xd3, 0x3d,
  0x92, 0x9b, 0x13, 0xbd, 0xd3, 0xfb, 0x14, 0x3e, 0xc3, 0x4b, 0xb2, 0x3e,
  0xc2, 0x5f, 0x2d, 0xbe, 0x1d, 0x4e, 0x2a, 0xbe, 0xfe, 0x17, 0xda, 0x3d,
  0x39, 0x67, 0x3a, 0x3e, 0xcd, 0x48, 0x49, 0x3e, 0xaf, 0x89, 0x92, 0x3e,
  0xd2, 0xa6, 0x0e, 0xbe, 0xb9, 0x3d, 0x69, 0xbc, 0xc1, 0x2a, 0xa7, 0xbe,
  0x5a, 0xcd, 0x3e, 0x3c, 0x93, 0x38, 0x01, 0x3f, 0xeb, 0xa7, 0x3c, 0xbc,
  0xc8, 0x39, 0x3f, 0x3f, 0xb6, 0x97, 0x14, 0x3f, 0xa5, 0x22, 0x06, 0x3f,
  0x3a, 0x6a, 0x10, 0x3f, 0x7e, 0x4c, 0x89, 0x3e, 0xdd, 0x40, 0xee, 0x3d,
  0xc0, 0x23, 0x21, 0x3f, 0x1c, 0x7b, 0xa7, 0x3e, 0xf6, 0x39, 0xc3, 0x3e,
  0xf4, 0x4d, 0x8d, 0x3e, 0x8d, 0xdc, 0xc6, 0x3e, 0xcf, 0x9d, 0x56, 0x3e,
  0x75, 0x5c, 0x94, 0x3e, 0x53, 0x2d, 0xf7, 0x3d, 0xd6, 0x3a, 0xcd, 0x3d,
  0x7b, 0x2f, 0x06, 0x3e, 0x8f, 0x9c, 0xfc, 0x3e, 0x4f, 0x85, 0xa8, 0x3e,
  0x36, 0x41, 0xd9, 0xbd, 0x7a, 0x73, 0x1a, 0xbe, 0x9b, 0x8e, 0xd5, 0xbd,
  0x7c, 0xb2, 0x11, 0xbd, 0x44, 0x69, 0x9c, 0x3e, 0x23, 0xd8, 0xbe, 0x3d,
  0xe0, 0xde, 0x99, 0xbe, 0xd6, 0xbc, 0x51, 0xbe, 0x58, 0xab, 0xc5, 0xbe,
  0x71, 0xc7, 0xdc, 0xbc, 0xb0, 0xbb, 0x20, 0xbe, 0x8d, 0xbe, 0x85, 0xbe,
  0x78, 0x0b, 0x09, 0xbf, 0x62, 0x92, 0xba, 0xbe, 0xcd, 0xb9, 0x0f, 0xbf,
  0x4e, 0x64, 0x88, 0xbe, 0xbe, 0x29, 0xfb, 0xbe, 0x1c, 0xd0, 0xc6, 0xbe,
  0x6a, 0x44, 0x2b, 0xbf, 0x26, 0x9f, 0x37, 0xbf, 0x35, 0xce, 0x3f, 0xbf,
  0xd2, 0xc0, 0x2f, 0xbf, 0x3c, 0x55, 0x75, 0xbf, 0x5e, 0x03, 0x62, 0xbf,
  0x95, 0x6b, 0x41, 0x3f, 0x27, 0x1d, 0x06, 0x3d, 0x00, 0xa9, 0xf2, 0x3e,
  0xc5, 0x40, 0x2d, 0xbf, 0x85, 0xdd, 0x02, 0x3f, 0xfe, 0x1a, 0x63, 0x3d,
  0xcc, 0x31, 0x45, 0x3e, 0x74, 0xf5, 0xe8, 0xbd, 0x95, 0xd0, 0x16, 0x3e,
  0x99, 0xdb, 0x25, 0xbf, 0xc6, 0x5f, 0x1b, 0x3e, 0xf8, 0x05, 0x05, 0xbe,
  0x6a, 0x65, 0x87, 0x3e, 0x90, 0x25, 0x3c, 0xbe, 0xc0, 0x2f, 0xcb, 0x3e,
  0xda, 0x94, 0x1f, 0xbf, 0x38, 0x51, 0xe8, 0x3d, 0xbd, 0x15, 0x00, 0xbe,
  0xbc, 0x3b, 0x82, 0x3e, 0x08, 0xb3, 0x40, 0xbe, 0x98, 0xa5, 0x45, 0x3f,
  0x14, 0x21, 0x1f, 0xbf, 0x89, 0x56, 0xa4, 0x3e, 0x97, 0x72, 0xbd, 0xbd,
  0x07, 0xd1, 0x04, 0x3e, 0x1e, 0x51, 0x88, 0xbe, 0x49, 0xea, 0xc9, 0x3e,
  0xc7, 0xca, 0x5d, 0xbf, 0x1c, 0x38, 0x16, 0x3e, 0x55, 0xa2, 0x25, 0xbe,
  0xce, 0x28, 0x1e, 0x3e, 0x5b, 0x5a, 0x81, 0xbe, 0x9a, 0x17, 0x09, 0x3f,
  0x05, 0x3e, 0x5b, 0xbf, 0xd4, 0xe1, 0x55, 0x3e, 0xd3, 0x51, 0xda, 0xbd,
  0xfc, 0xe0, 0x53, 0x3e, 0xae, 0x7d, 0x6f, 0xbe, 0x8a, 0xee, 0x13, 0x3f,
  0x71, 0xb9, 0x72, 0xbf, 0x43, 0x44, 0x6f, 0x3e, 0xc9, 0xb0, 0xf1, 0xbd,
  0x43, 0x82, 0x0b, 0x3e, 0x01, 0x34, 0x4f, 0xbe, 0x7c, 0x97, 0xe1, 0x3d,
  0x69, 0xe4, 0x49, 0xbf, 0x9d, 0x10, 0x57, 0x3d, 0xad, 0x77, 0x77, 0xbd,
  0xfb, 0x0e, 0x17, 0xc0, 0xde, 0x66, 0x9c, 0xbf, 0x09, 0x8d, 0xf7, 0xbf,
  0x29, 0x55, 0x85, 0xbf, 0xc9, 0x87, 0x9a, 0xbe, 0x64, 0x49, 0xe8, 0xbe,
  0xcb, 0x7c, 0x11, 0xbf, 0x3a, 0x24, 0x87, 0x3d, 0x4c, 0x94, 0xab, 0xbe,
  0x48, 0x43, 0x3b, 0x3e, 0x92, 0x08, 0x22, 0x3e, 0xe4, 0xc1, 0x40, 0x3e,
  0x53, 0x50, 0xc8, 0x3e, 0x8b, 0xa3, 0xce, 0x3e, 0x13, 0x13, 0xd3, 0x3e,
  0x2a, 0x22, 0xd1, 0x3e, 0x35, 0x5a, 0x56, 0x3e, 0x64, 0x31, 0xf4, 0x3e,
  0xc0, 0x56, 0xa1, 0x3e, 0x47, 0xd0, 0x13, 0x3f, 0x2d, 0xab, 0xa6, 0x3e,
  0x41, 0x17, 0xbe, 0x3e, 0xa2, 0xdf, 0x6a, 0x3e, 0xb4, 0x84, 0xbf, 0xbd,
  0x7d, 0x86, 0x28, 0x3e, 0x15, 0x17, 0x50, 0x3d, 0x85, 0x7a, 0x23, 0x3e,
  0xb9, 0xc7, 0xa5, 0x3d, 0x44, 0x12, 0x8a, 0xbe, 0x58, 0x74, 0xda, 0xbe,
  0xe6, 0x4a, 0x1d, 0xbc, 0xf1, 0x47, 0xff, 0x3c, 0xc6, 0x48, 0x26, 0xbd,
  0x07, 0xc7, 0xd6, 0xbd, 0x49, 0x0e, 0x42, 0xbe, 0x24, 0xa6, 0x23, 0xbe,
  0xff, 0x05, 0x38, 0xbd, 0x13, 0x84, 0x57, 0xbe, 0xa6, 0xcd, 0xca, 0xbd,
  0x53, 0xc0, 0x18, 0xbe, 0x20, 0xc4, 0x45, 0x3c, 0xc8, 0x8c, 0xbf, 0xbd,
  0xfb, 0x0e, 0xa7, 0xbe, 0x34, 0x40, 0x9d, 0x3c, 0xec, 0xf8, 0x8b, 0xbe,
  0x02, 0xc9, 0x72, 0xbd, 0x50, 0xe7, 0xfe, 0x3d, 0xb1, 0x56, 0xda, 0x3e,
  0x7e, 0xce, 0xb7, 0x3e, 0x85, 0xff, 0x25, 0x3d, 0x11, 0x01, 0x3e, 0x3e,
  0xb6, 0x9a, 0x4e, 0xbc, 0xb8, 0xde, 0xed, 0x3d, 0xc2, 0x14, 0x90, 0xbf,
  0x41, 0xdd, 0x03, 0x3b, 0xe4, 0xd3, 0x0d, 0xbf, 0xa8, 0x84, 0x95, 0xbb,
  0xc8, 0xbe, 0x4c, 0xbe, 0x87, 0x0e, 0x3f, 0xc0, 0x85, 0x7b, 0x11, 0xc0,
  0x7b, 0xf5, 0x5e, 0xbd, 0xa7, 0x41, 0xe3, 0xbe, 0x67, 0xc3, 0xae, 0xbd,
  0xf2, 0x32, 0xac, 0xbe, 0x87, 0x82, 0x21, 0xc0, 0xf9, 0x2a, 0x98, 0xbf,
  0xa9, 0x02, 0x35, 0xbd, 0xa8, 0x1b, 0x99, 0xbd, 0x41, 0xf5, 0x86, 0xbc,
  0x94, 0xe7, 0x6c, 0xbd, 0xb5, 0x94, 0xd7, 0x3e, 0x99, 0x17, 0x29, 0x3e,
  0xad, 0x6f, 0x1e, 0x3e, 0xa0, 0x50, 0x76, 0x3d, 0x6f, 0xf9, 0xa7, 0x3d,
  0xf0, 0x64, 0xc4, 0x3c, 0xec, 0xd6, 0x04, 0x3f, 0x14, 0x20, 0xd4, 0x3e,
  0x75, 0xee, 0x90, 0x3b, 0xb2, 0x8b, 0x9d, 0x3d, 0xff, 0x09, 0xd3, 0x3d,
  0xc4, 0x61, 0x07, 0xbc, 0x0b, 0xd5, 0x69, 0x3e, 0xfc, 0x94, 0x42, 0x3e,
  0x57, 0x71, 0x52, 0x3d, 0x57, 0x5c, 0x03, 0xbe, 0x7d, 0xfa, 0xab, 0xb9,
  0x13, 0x70, 0x1f, 0xbd, 0x3f, 0x77, 0xa4, 0xbd, 0x5b, 0xee, 0x96, 0xbb,
  0x85, 0xbf, 0x96, 0xbc, 0xba, 0x15, 0x6c, 0x3e, 0x8e, 0x42, 0xb0, 0xbd,
  0xe8, 0x34, 0x36, 0xbd, 0x00, 0x3d, 0x0e, 0x3e, 0x8c, 0xa4, 0xdc, 0x3e,
  0x04, 0x5e, 0xdf, 0x3e, 0x65, 0xe4, 0xc0, 0x3e, 0x62, 0x94, 0xa2, 0xbe,
  0xc8, 0x01, 0x76, 0x3c, 0xfb, 0x62, 0x23, 0xbd, 0xc3, 0x81, 0x16, 0xbc,
  0x65, 0xa5, 0x0f, 0x3e, 0xe0, 0x41, 0x75, 0x3e, 0x7d, 0xe1, 0x2d, 0xbf,
  0x8a, 0x40, 0xab, 0xbd, 0xf8, 0x10, 0xd9, 0xbe, 0x82, 0xa2, 0x88, 0xbe,
  0x29, 0x6a, 0xfc, 0xbd, 0xe7, 0xb2, 0xf6, 0x3d, 0xb2, 0x1e, 0x38, 0xbf,
  0x5c, 0xe4, 0x54, 0xbe, 0x0e, 0x60, 0xc4, 0xbe, 0xee, 0xf5, 0x42, 0xbe,
  0x5b, 0x7d, 0x89, 0xbe, 0xb4, 0xbc, 0x23, 0xbc, 0xba, 0x81, 0x5f, 0xbf,
  0x7c, 0xea, 0x92, 0xbe, 0x06, 0xac, 0x21, 0xbe, 0x8e, 0x2d, 0x22, 0x3c,
  0x2b, 0xc6, 0xdd, 0xbe, 0xd3, 0x0f, 0x95, 0xbe, 0xd0, 0xea, 0x43, 0xbf,
  0x02, 0xfe, 0x72, 0xbe, 0xb9, 0x34, 0x95, 0xba, 0xe5, 0x86, 0x9c, 0x3d,
  0x0c, 0x52, 0xe5, 0xbe, 0x0e, 0x99, 0x66, 0xbe, 0xd8, 0x1f, 0xed, 0xbe,
  0x6b, 0x96, 0xf5, 0xbd, 0x54, 0x31, 0x2e, 0x3e, 0x14, 0x83, 0x90, 0x3e,
  0x69, 0xde, 0xb2, 0xbd, 0x09, 0x43, 0x16, 0xbd, 0x79, 0x6e, 0x10, 0xbe,
  0xef, 0x5f, 0xd5, 0xbb, 0x9e, 0x23, 0x46, 0x3e, 0x18, 0x61, 0x66, 0x3e,
  0x19, 0xf2, 0xf9, 0x3d, 0x1c, 0x9c, 0xdf, 0x3d, 0xfb, 0xbf, 0x89, 0x3e,
  0xed, 0x53, 0xa4, 0x3f, 0xeb, 0x4a, 0x03, 0x3e, 0xb3, 0x38, 0xc7, 0x3e,
  0x98, 0x57, 0x89, 0xbf, 0xc0, 0xfb, 0x91, 0x3d, 0x5a, 0x99, 0xba, 0xbf,
  0xb7, 0x91, 0x0a, 0xbe, 0x88, 0xfe, 0x31, 0xbf, 0x30, 0x89, 0x8c, 0x3f,
  0xfc, 0x38, 0x48, 0x3f, 0xf2, 0x40, 0xdf, 0x3e, 0xd3, 0x4d, 0xba, 0x3e,
  0x0c, 0x6b, 0xb1, 0x3e, 0x17, 0xcc, 0x87, 0x3f, 0x62, 0xbe, 0x3d, 0x3f,
  0x15, 0x3d, 0x89, 0x3e, 0xbf, 0x44, 0xa8, 0x3d, 0xec, 0x8a, 0x94, 0x3e,
  0x31, 0x71, 0x0f, 0x3d, 0x54, 0xfe, 0xf4, 0xbd, 0xbc, 0x7f, 0xf1, 0xbe,
  0x02, 0x4b, 0x25, 0x3e, 0x73, 0x9d, 0xf4, 0xbd, 0x56, 0x84, 0x01, 0x3e,
  0x8e, 0xf0, 0x35, 0xbc, 0x67, 0x59, 0x95, 0xbe, 0x08, 0xc4, 0xb8, 0xbd,
  0x7a, 0x5e, 0xe3, 0x3d, 0xe2, 0x1f, 0x92, 0xbc, 0x16, 0xb8, 0xa5, 0x3d,
  0x57, 0xb0, 0x55, 0x3d, 0x5b, 0xdc, 0xb6, 0x3c, 0xca, 0xcb, 0xed, 0x3d,
  0xfa, 0x28, 0xb7, 0x3d, 0xdf, 0xe3, 0x2e, 0xbd, 0x0a, 0x6a, 0x12, 0x3e,
  0x5f, 0x57, 0x58, 0x3c, 0x9d, 0xbb, 0x8b, 0x3c, 0x1b, 0x9a, 0xf9, 0xbc,
  0xd0, 0x43, 0xb8, 0x3d, 0x14, 0x8b, 0x0b, 0xbe, 0x1a, 0x95, 0x77, 0x3d,
  0x71, 0xee, 0x73, 0x3c, 0xb8, 0x83, 0x1d, 0xbe, 0x00, 0x45, 0x25, 0xbe,
  0x34, 0x7d, 0xf4, 0xbd, 0xe5, 0x2f, 0xaf, 0xbe, 0x0b, 0xc6, 0x6c, 0xbd,
  0x3c, 0xac, 0x76, 0xbe, 0x1c, 0x66, 0xa6, 0xbe, 0x0d, 0x5a, 0xe7, 0xbe,
  0x12, 0x74, 0x15, 0xbd, 0xe2, 0xcf, 0x45, 0x3d, 0x82, 0xb2, 0x0a, 0xbf,
  0xf6, 0xd5, 0x85, 0xbe, 0x49, 0x01, 0x89, 0x3e, 0xde, 0x93, 0x15, 0x3e,
  0xe7, 0x1c, 0x23, 0xbe, 0x17, 0x2d, 0x1e, 0xbd, 0x75, 0x05, 0x35, 0xbf,
  0xaf, 0x3a, 0x7d, 0xbe, 0xd4, 0x33, 0xcc, 0x3c, 0x47, 0xfd, 0x93, 0x3d,
  0xb2, 0x50, 0x7d, 0xbe, 0xdf, 0xc8, 0x24, 0xbe, 0xda, 0x46, 0x5c, 0xbf,
  0x78, 0x59, 0xa2, 0xbe, 0x92, 0xc9, 0x9b, 0xbd, 0x51, 0x72, 0x94, 0xbd,
  0xd2, 0x81, 0x66, 0xbe, 0xac, 0xc3, 0xbc, 0x3d, 0xe5, 0x11, 0xf0, 0xbe,
  0xd6, 0xdf, 0x01, 0xbd, 0x4a, 0xb9, 0x79, 0xbe, 0x02, 0x92, 0x89, 0xbe,
  0x43, 0x9b, 0x93, 0xbd, 0xff, 0x16, 0x85, 0x3d, 0xca, 0x02, 0x3f, 0x3e,
  0x76, 0x1a, 0x8f, 0x3e, 0x8a, 0x28, 0xc6, 0xbe, 0xd0, 0x2c, 0x8c, 0xbe,
  0xb0, 0x35, 0xd9, 0x3d, 0xdb, 0xac, 0xc2, 0x3d, 0x6b, 0xe8, 0x9f, 0x3e,
  0x9f, 0xc9, 0x51, 0x3f, 0x50, 0x0b, 0xa9, 0xbe, 0x47, 0xdd, 0xbb, 0xbe,
  0x98, 0x44, 0x21, 0x3e, 0xf5, 0x33, 0x78, 0x3e, 0x8a, 0x84, 0xb5, 0x3d,
  0x41, 0x6e, 0xf1, 0x3d, 0x4b, 0x36, 0x8f, 0x3d, 0xe5, 0xc5, 0xc6, 0x3d,
  0x84, 0x10, 0xa9, 0x3d, 0x68, 0x21, 0xf3, 0xbe, 0xab, 0xc0, 0xb9, 0xbd,
  0x7c, 0xe7, 0x06, 0xbf, 0x19, 0x20, 0x82, 0x3e, 0x6d, 0x7c, 0x16, 0x3f,
  0xfb, 0xb7, 0xc6, 0x3d, 0x04, 0xe9, 0xa2, 0xbf, 0xc2, 0x73, 0xe2, 0xbc,
  0x75, 0xde, 0x08, 0xc0, 0xa6, 0xc5, 0x8c, 0xc0, 0xd1, 0xba, 0x36, 0xc0,
  0x54, 0xb2, 0xdc, 0xbd, 0xea, 0x84, 0x80, 0xbe, 0x34, 0x52, 0x57, 0xbf,
  0x6b, 0x90, 0x01, 0xbf, 0xbd, 0xea, 0x04, 0xbf, 0x26, 0x5b, 0x54, 0x3e,
  0x59, 0x39, 0xb5, 0x3e, 0x4a, 0x29, 0x1c, 0x3e, 0xf6, 0x14, 0xc3, 0xbc,
  0x52, 0x2a, 0x56, 0x3e, 0x35, 0x54, 0x81, 0x3f, 0x54, 0x88, 0xfa, 0x3e,
  0x5a, 0xea, 0x8f, 0x3e, 0x8b, 0x3c, 0xaf, 0xbd, 0xbd, 0x55, 0x8d, 0x3e,
  0x3a, 0x5d, 0x98, 0x3d, 0xfb, 0x6e, 0x5e, 0x3e, 0xf7, 0xfc, 0x73, 0x3e,
  0xcd, 0xef, 0xf2, 0x3c, 0x7d, 0x35, 0x54, 0x3c, 0x11, 0x17, 0x14, 0x3e,
  0x81, 0x0c, 0x1c, 0x3e, 0xc1, 0x90, 0x82, 0xbe, 0x94, 0x90, 0x31, 0x3d,
  0x30, 0xd5, 0x7d, 0xbd, 0x76, 0x50, 0xd3, 0x3c, 0xfa, 0x4a, 0x0f, 0x3e,
  0x5d, 0x34, 0x11, 0xbd, 0xd5, 0x61, 0x86, 0xbe, 0x77, 0x38, 0x2b, 0x3e,
  0x69, 0x9d, 0x01, 0xbb, 0xb8, 0xbe, 0x07, 0x3d, 0xab, 0x20, 0x00, 0x3e,
  0xb3, 0xa7, 0x06, 0xbc, 0x08, 0x46, 0x74, 0xbe, 0x68, 0x60, 0x59, 0xbd,
  0x75, 0x5c, 0x7e, 0x3d, 0xd4, 0x14, 0xda, 0xbc, 0x1c, 0x1e, 0xc2, 0x3c,
  0x46, 0xec, 0x88, 0xbd, 0xcd, 0xe7, 0xac, 0xbd, 0xec, 0x79, 0xbb, 0xbd,
  0x72, 0x76, 0x1e, 0xbf, 0xfc, 0xb3, 0x52, 0xbd, 0xe2, 0x9f, 0x46, 0xbf,
  0x5f, 0x31, 0x35, 0xbd, 0xf4, 0x7b, 0x8f, 0x3e, 0x26, 0x00, 0x82, 0x3e,
  0x4f, 0x95, 0x30, 0xbf, 0xb2, 0x38, 0x2c, 0xbe, 0x9e, 0x7e, 0x1b, 0xbf,
  0xb2, 0xc9, 0x52, 0xbe, 0x9f, 0xe8, 0x80, 0xbe, 0xdc, 0x57, 0xde, 0x3b,
  0x24, 0x16, 0x89, 0xbd, 0xc2, 0x32, 0xc9, 0x3d, 0x82, 0xea, 0xfd, 0x3c,
  0x62, 0x07, 0xd8, 0x3e, 0x8c, 0x31, 0x97, 0xbe, 0x2e, 0x91, 0x95, 0xbe,
  0xe6, 0x88, 0xeb, 0x3e, 0xc2, 0x8a, 0xcf, 0x3e, 0x38, 0x56, 0x0d, 0x3f,
  0xe4, 0x6b, 0xea, 0x3e, 0x93, 0x0a, 0x42, 0xbe, 0x6c, 0x5d, 0x6c, 0xbe,
  0x8b, 0xc4, 0xf1, 0x3e, 0x8f, 0xfb, 0xbf, 0x3e, 0x2f, 0x1a, 0xb6, 0x3e,
  0x7a, 0x7e, 0xdb, 0x3e, 0x27, 0x5c, 0xa7, 0xbd, 0x57, 0x2a, 0x1f, 0x3e,
  0x77, 0x12, 0x2e, 0x3e, 0x46, 0xd7, 0x66, 0x3e, 0x03, 0xe3, 0x46, 0x3e,
  0xbb, 0x5e, 0xec, 0xbd, 0xab, 0x7f, 0x5f, 0x3e, 0xb9, 0xbf, 0xb7, 0x3e,
  0x6b, 0x3e, 0x7d, 0xbe, 0xad, 0xf5, 0x2f, 0xbe, 0x5f, 0xc3, 0x9d, 0xbe,
  0x49, 0x1a, 0x3c, 0xbe, 0xef, 0x41, 0x00, 0x3e, 0xec, 0xeb, 0xf2, 0x3d,
  0x16, 0x9c, 0x34, 0xbf, 0xef, 0x43, 0x9b, 0xbe, 0xf8, 0x10, 0x3a, 0xbf,
  0xe4, 0x18, 0xbf, 0xbe, 0xd4, 0xbe, 0xa5, 0xbe, 0x1a, 0xda, 0x52, 0xbe,
  0xe0, 0x65, 0x5d, 0xbf, 0x15, 0xab, 0x42, 0xbf, 0x2a, 0x4c, 0xb6, 0xbf,
  0x33, 0x46, 0x88, 0xbf, 0x27, 0xb4, 0x60, 0xbe, 0x16, 0x4e, 0xa8, 0xbe,
  0x55, 0x12, 0x81, 0xbf, 0xb0, 0xb1, 0x04, 0xbf, 0xf3, 0xf2, 0xb3, 0xbf,
  0x70, 0x65, 0x1f, 0xbf, 0x70, 0x0e, 0xae, 0xbe, 0xf5, 0xdc, 0x3c, 0xbe,
  0x78, 0xd2, 0xcb, 0xbe, 0xa1, 0x06, 0xfd, 0x3c, 0xd8, 0x05, 0x97, 0xbe,
  0xec, 0x0c, 0x87, 0xbc, 0x0f, 0x0a, 0xa1, 0xbd, 0xce, 0x43, 0x09, 0xbe,
  0xe7, 0x72, 0x2c, 0x3e, 0x75, 0x3c, 0xad, 0x3d, 0x0a, 0xee, 0x2b, 0x3e,
  0x36, 0x1e, 0x5e, 0x3e, 0x72, 0xa6, 0x99, 0x3e, 0x1b, 0x1c, 0xa4, 0x3e,
  0xe6, 0x8a, 0xca, 0x3e, 0x31, 0xf5, 0x85, 0x3e, 0x50, 0xe0, 0x50, 0x3e,
  0x9a, 0xf7, 0x90, 0x3e, 0x3f, 0x14, 0x05, 0x3f, 0xba, 0x46, 0xe7, 0x3e,
  0x42, 0xc1, 0x94, 0x3e, 0x41, 0xc2, 0x62, 0x3e, 0xbb, 0x8e, 0x93, 0x3d,
  0x88, 0x21, 0x8a, 0x3e, 0x68, 0x20, 0xfe, 0x3e, 0x27, 0x0d, 0xb3, 0x3e,
  0x88, 0x69, 0x83, 0x3e, 0xbc, 0xa8, 0xcf, 0x3e, 0xf9, 0x72, 0x8a, 0x3e,
  0x00, 0x1c, 0x90, 0x3e, 0xcd, 0x27, 0x42, 0x3e, 0xa4, 0x1f, 0x25, 0x3e,
  0xcf, 0x21, 0x53, 0x3e, 0x0d, 0x46, 0xbe, 0xbe, 0xdc, 0x2e, 0x84, 0x3e,
  0xed, 0xd1, 0x99, 0x3d, 0x5d, 0x38, 0xa8, 0xbe, 0xc1, 0x1a, 0x1b, 0xbf,
  0x7c, 0x18, 0x58, 0xbf, 0xa3, 0xa9, 0xa5, 0xbe, 0x16, 0x61, 0xea, 0xbc,
  0x55, 0x31, 0x2f, 0x3d, 0x5f, 0x13, 0x6a, 0x3e, 0xf5, 0x0e, 0x58, 0x3e,
  0xdd, 0xf8, 0x5f, 0xbf, 0xe1, 0xa3, 0xa7, 0xbe, 0x17, 0xc2, 0xd2, 0xbd,
  0x58, 0x7c, 0x95, 0xbb, 0x41, 0x43, 0x3b, 0x3e, 0xa6, 0x4a, 0x2f, 0x3e,
  0x97, 0x25, 0x60, 0xbf, 0xdf, 0xae, 0xaf, 0xbe, 0x7a, 0xac, 0x41, 0xbe,
  0x9c, 0x0d, 0xbb, 0xbd, 0x17, 0x8b, 0xc4, 0x3d, 0x24, 0x6d, 0x1d, 0x3e,
  0x5c, 0x09, 0x27, 0xbf, 0x31, 0x9e, 0x5d, 0xbe, 0x2c, 0x66, 0x4f, 0xbe,
  0x85, 0x1c, 0x29, 0xbd, 0xc0, 0x3b, 0x2b, 0x3c, 0xc8, 0x05, 0xfd, 0x3c,
  0x58, 0xd0, 0xaa, 0xbe, 0xb5, 0x2c, 0x19, 0x3c, 0x92, 0x16, 0x5a, 0xbd,
  0x09, 0xdb, 0x17, 0x3d, 0x7d, 0x32, 0xea, 0xbd, 0xca, 0x5e, 0xbe, 0xbd,
  0x37, 0x6b, 0x5b, 0xbc, 0xfb, 0xb8, 0x85, 0x3e, 0x36, 0x61, 0x42, 0x3d,
  0xae, 0x50, 0x97, 0xbd, 0xbf, 0x5c, 0x18, 0xbe, 0x6c, 0x81, 0x3e, 0xbd,
  0x09, 0x73, 0xff, 0x3d, 0xb9, 0x9b, 0x86, 0x3d, 0xf2, 0xa9, 0xa1, 0x3d,
  0x00, 0x59, 0x78, 0x3e, 0xa7, 0xcb, 0xae, 0xbd, 0x9b, 0x09, 0x1a, 0xbe,
  0xb0, 0x58, 0x80, 0x3d, 0xbd, 0x91, 0xa7, 0x3f, 0x47, 0x5e, 0xa8, 0x3d,
  0x8d, 0xc3, 0x25, 0xbd, 0xd7, 0x5e, 0xde, 0xbd, 0xa8, 0xea, 0x7f, 0xbe,
  0x85, 0xf8, 0x29, 0x3f, 0x09, 0x54, 0xca, 0x3e, 0x67, 0xa3, 0x42, 0x3f,
  0xc5, 0xf8, 0x2a, 0x3e, 0xb4, 0x63, 0x85, 0x3f, 0xa7, 0x03, 0xb2, 0x3e,
  0x0e, 0xf2, 0x0b, 0x3d, 0x29, 0x4e, 0x20, 0x3e, 0x63, 0x07, 0x2d, 0xbe,
  0x2e, 0x25, 0x84, 0x3d, 0x25, 0x20, 0xc3, 0xbe, 0x63, 0xe4, 0x5d, 0x3e,
  0xf9, 0xe2, 0x89, 0xbd, 0xc1, 0xe4, 0x7f, 0x3d, 0x27, 0x6f, 0xb9, 0xbd,
  0x5e, 0xf5, 0x97, 0x3d, 0xb3, 0x00, 0xd9, 0xbe, 0x02, 0xa3, 0xb1, 0xbe,
  0x24, 0x29, 0x5b, 0x3c, 0xc8, 0x4f, 0xd0, 0xbe, 0x3d, 0x43, 0x10, 0xbe,
  0x4e, 0x48, 0x39, 0xbe, 0xc0, 0xfd, 0xe9, 0xbf, 0x81, 0xe7, 0x91, 0xbf,
  0x35, 0x2b, 0xbb, 0xbe, 0xf6, 0xc5, 0x14, 0xbf, 0x0d, 0x8d, 0xa8, 0xbe,
  0x42, 0xfe, 0x00, 0xbf, 0x4b, 0x34, 0x0d, 0xc0, 0xd9, 0xa2, 0x9d, 0xbf,
  0x28, 0xb9, 0x39, 0xbe, 0x58, 0x04, 0x05, 0xbe, 0xd7, 0x5c, 0x9f, 0xbe,
  0x13, 0xcd, 0x25, 0xbd, 0xfa, 0x66, 0xb6, 0x3e, 0xa8, 0x23, 0x5a, 0x3e,
  0x37, 0x4f, 0x64, 0xbd, 0xf7, 0xc6, 0x20, 0xbc, 0xfe, 0xf5, 0xc5, 0xbd,
  0xa9, 0x95, 0xde, 0xbd, 0x80, 0x68, 0xaa, 0x3e, 0x35, 0x33, 0x80, 0x3e,
  0x80, 0x84, 0x79, 0x3d, 0x6a, 0x4f, 0x93, 0x3d, 0x7a, 0x46, 0x3a, 0x3d,
  0x0a, 0x03, 0xe1, 0x3c, 0x74, 0x61, 0x7d, 0x3e, 0x17, 0xf1, 0xd5, 0x3d,
  0x86, 0xfd, 0xff, 0xff, 0x10, 0x00, 0x00, 0x00, 0x07, 0x00, 0x00, 0x00,
  0x14, 0x00, 0x00, 0x00, 0x34, 0x00, 0x00, 0x00, 0x02, 0x00, 0x00, 0x00,
  0x10, 0x00, 0x00, 0x00, 0x30, 0x00, 0x00, 0x00, 0x1d, 0x00, 0x00, 0x00,
  0x73, 0x65, 0x71, 0x75, 0x65, 0x6e, 0x74, 0x69, 0x61, 0x6c, 0x5f, 0x32,
  0x36, 0x2f, 0x64, 0x65, 0x6e, 0x73, 0x65, 0x5f, 0x34, 0x38, 0x2f, 0x4d,
  0x61, 0x74, 0x4d, 0x75, 0x6c, 0x00, 0x00, 0x00, 0xf8, 0xfc, 0xff, 0xff,
  0x22, 0xfe, 0xff, 0xff, 0x04, 0x00, 0x00, 0x00, 0x08, 0x00, 0x00, 0x00,
  0xff, 0xff, 0xff, 0xff, 0x30, 0x00, 0x00, 0x00, 0x00, 0x00, 0x0e, 0x00,
  0x18, 0x00, 0x08, 0x00, 0x07, 0x00, 0x0c, 0x00, 0x10, 0x00, 0x14, 0x00,
  0x0e, 0x00, 0x00, 0x00, 0x00, 0x00, 0x00, 0x02, 0x10, 0x00, 0x00, 0x00,
  0x06, 0x00, 0x00, 0x00, 0x10, 0x00, 0x00, 0x00, 0x30, 0x00, 0x00, 0x00,
  0x01, 0x00, 0x00, 0x00, 0x02, 0x00, 0x00, 0x00, 0x1e, 0x00, 0x00, 0x00,
  0x73, 0x65, 0x71, 0x75, 0x65, 0x6e, 0x74, 0x69, 0x61, 0x6c, 0x5f, 0x32,
  0x36, 0x2f, 0x66, 0x6c, 0x61, 0x74, 0x74, 0x65, 0x6e, 0x5f, 0x32, 0x34,
  0x2f, 0x43, 0x6f, 0x6e, 0x73, 0x74, 0x00, 0x00, 0x64, 0xfd, 0xff, 0xff,
  0x8e, 0xfe, 0xff, 0xff, 0x04, 0x00, 0x00, 0x00, 0x08, 0x00, 0x00, 0x00,
  0xf8, 0x58, 0x9d, 0xbd, 0x29, 0x01, 0x36, 0xbd, 0x4e, 0xfe, 0xff, 0xff,
  0x10, 0x00, 0x00, 0x00, 0x05, 0x00, 0x00, 0x00, 0x10, 0x00, 0x00, 0x00,
  0x54, 0x00, 0x00, 0x00, 0x01, 0x00, 0x00, 0x00, 0x02, 0x00, 0x00, 0x00,
  0x40, 0x00, 0x00, 0x00, 0x73, 0x65, 0x71, 0x75, 0x65, 0x6e, 0x74, 0x69,
  0x61, 0x6c, 0x5f, 0x32, 0x36, 0x2f, 0x64, 0x65, 0x70, 0x74, 0x68, 0x77,
  0x69, 0x73, 0x65, 0x5f, 0x63, 0x6f, 0x6e, 0x76, 0x32, 0x64, 0x5f, 0x33,
  0x2f, 0x42, 0x69, 0x61, 0x73, 0x41, 0x64, 0x64, 0x2f, 0x52, 0x65, 0x61,
  0x64, 0x56, 0x61, 0x72, 0x69, 0x61, 0x62, 0x6c, 0x65, 0x4f, 0x70, 0x2f,
  0x72, 0x65, 0x73, 0x6f, 0x75, 0x72, 0x63, 0x65, 0x00, 0x00, 0x00, 0x00,
  0xe0, 0xfd, 0xff, 0xff, 0x0a, 0xff, 0xff, 0xff, 0x04, 0x00, 0x00, 0x00,
  0x08, 0x00, 0x00, 0x00, 0xee, 0x3c, 0x37, 0xbe, 0x39, 0xab, 0x84, 0xbc,
  0xca, 0xfe, 0xff, 0xff, 0x10, 0x00, 0x00, 0x00, 0x04, 0x00, 0x00, 0x00,
  0x10, 0x00, 0x00, 0x00, 0x54, 0x00, 0x00, 0x00, 0x01, 0x00, 0x00, 0x00,
  0x02, 0x00, 0x00, 0x00, 0x40, 0x00, 0x00, 0x00, 0x73, 0x65, 0x71, 0x75,
  0x65, 0x6e, 0x74, 0x69, 0x61, 0x6c, 0x5f, 0x32, 0x36, 0x2f, 0x64, 0x65,
  0x70, 0x74, 0x68, 0x77, 0x69, 0x73, 0x65, 0x5f, 0x63, 0x6f, 0x6e, 0x76,
  0x32, 0x64, 0x5f, 0x32, 0x2f, 0x42, 0x69, 0x61, 0x73, 0x41, 0x64, 0x64,
  0x2f, 0x52, 0x65, 0x61, 0x64, 0x56, 0x61, 0x72, 0x69, 0x61, 0x62, 0x6c,
  0x65, 0x4f, 0x70, 0x2f, 0x72, 0x65, 0x73, 0x6f, 0x75, 0x72, 0x63, 0x65,
  0x00, 0x00, 0x00, 0x00, 0x5c, 0xfe, 0xff, 0xff, 0x86, 0xff, 0xff, 0xff,
  0x04, 0x00, 0x00, 0x00, 0x0c, 0x00, 0x00, 0x00, 0x2b, 0x53, 0x80, 0x3d,
  0x79, 0xc7, 0x05, 0xbe, 0x5f, 0xa0, 0x86, 0x3e, 0x4a, 0xff, 0xff, 0xff,
  0x10, 0x00, 0x00, 0x00, 0x03, 0x00, 0x00, 0x00, 0x10, 0x00, 0x00, 0x00,
  0x4c, 0x00, 0x00, 0x00, 0x01, 0x00, 0x00, 0x00, 0x03, 0x00, 0x00, 0x00,
  0x36, 0x00, 0x00, 0x00, 0x73, 0x65, 0x71, 0x75, 0x65, 0x6e, 0x74, 0x69,
  0x61, 0x6c, 0x5f, 0x32, 0x36, 0x2f, 0x64, 0x65, 0x6e, 0x73, 0x65, 0x5f,
  0x34, 0x39, 0x2f, 0x42, 0x69, 0x61, 0x73, 0x41, 0x64, 0x64, 0x2f, 0x52,
  0x65, 0x61, 0x64, 0x56, 0x61, 0x72, 0x69, 0x61, 0x62, 0x6c, 0x65, 0x4f,
  0x70, 0x2f, 0x72, 0x65, 0x73, 0x6f, 0x75, 0x72, 0x63, 0x65, 0x00, 0x00,
  0x04, 0x00, 0x06, 0x00, 0x04, 0x00, 0x00, 0x00, 0x00, 0x00, 0x06, 0x00,
  0x08, 0x00, 0x04, 0x00, 0x06, 0x00, 0x00, 0x00, 0x04, 0x00, 0x00, 0x00,
  0x40, 0x00, 0x00, 0x00, 0xb4, 0xdd, 0xb9, 0x3e, 0x06, 0x8d, 0x5d, 0xbe,
  0x20, 0x9c, 0x57, 0x3f, 0xab, 0xe0, 0xa7, 0xbe, 0x6f, 0x10, 0x0c, 0x3d,
  0x43, 0x42, 0x56, 0x3f, 0xcf, 0xd2, 0xa6, 0x3e, 0xe6, 0x8f, 0xb5, 0x3e,
  0xfd, 0x8d, 0x8d, 0x3e, 0x36, 0x16, 0x0d, 0xbf, 0x74, 0x1f, 0x58, 0x3d,
  0x37, 0x72, 0x4b, 0x3e, 0xab, 0xa8, 0x7e, 0x3d, 0x38, 0x92, 0xb4, 0x3e,
  0x4d, 0x28, 0x85, 0x3c, 0x3f, 0x3f, 0x0b, 0x3f, 0x00, 0x00, 0x0e, 0x00,
  0x14, 0x00, 0x04, 0x00, 0x00, 0x00, 0x08, 0x00, 0x0c, 0x00, 0x10, 0x00,
  0x0e, 0x00, 0x00, 0x00, 0x10, 0x00, 0x00, 0x00, 0x02, 0x00, 0x00, 0x00,
  0x10, 0x00, 0x00, 0x00, 0x48, 0x00, 0x00, 0x00, 0x01, 0x00, 0x00, 0x00,
  0x10, 0x00, 0x00, 0x00, 0x36, 0x00, 0x00, 0x00, 0x73, 0x65, 0x71, 0x75,
  0x65, 0x6e, 0x74, 0x69, 0x61, 0x6c, 0x5f, 0x32, 0x36, 0x2f, 0x64, 0x65,
  0x6e, 0x73, 0x65, 0x5f, 0x34, 0x38, 0x2f, 0x42, 0x69, 0x61, 0x73, 0x41,
  0x64, 0x64, 0x2f, 0x52, 0x65, 0x61, 0x64, 0x56, 0x61, 0x72, 0x69, 0x61,
  0x62, 0x6c, 0x65, 0x4f, 0x70, 0x2f, 0x72, 0x65, 0x73, 0x6f, 0x75, 0x72,
  0x63, 0x65, 0x00, 0x00, 0x94, 0xff, 0xff, 0xff, 0x14, 0x00, 0x18, 0x00,
  0x04, 0x00, 0x00, 0x00, 0x08, 0x00, 0x0c, 0x00, 0x10, 0x00, 0x00, 0x00,
  0x00, 0x00, 0x14, 0x00, 0x14, 0x00, 0x00, 0x00, 0x14, 0x00, 0x00, 0x00,
  0x01, 0x00, 0x00, 0x00, 0x20, 0x00, 0x00, 0x00, 0x40, 0x00, 0x00, 0x00,
  0x28, 0x00, 0x00, 0x00, 0x04, 0x00, 0x00, 0x00, 0x01, 0x00, 0x00, 0x00,
  0x50, 0x00, 0x00, 0x00, 0x03, 0x00, 0x00, 0x00, 0x01, 0x00, 0x00, 0x00,
  0x08, 0x00, 0x00, 0x00, 0x69, 0x6e, 0x70, 0x75, 0x74, 0x5f, 0x32, 0x37,
  0x00, 0x00, 0x00, 0x00, 0x04, 0x00, 0x00, 0x00, 0xff, 0xff, 0xff, 0xff,
  0x50, 0x00, 0x00, 0x00, 0x03, 0x00, 0x00, 0x00, 0x01, 0x00, 0x00, 0x00,
  0xfc, 0xff, 0xff, 0xff, 0x04, 0x00, 0x04, 0x00, 0x04, 0x00, 0x00, 0x00
};
