const unsigned char model[] __attribute__((aligned(4))) = {
  0x1c, 0x00, 0x00, 0x00, 0x54, 0x46, 0x4c, 0x33, 0x00, 0x00, 0x12, 0x00,
  0x1c, 0x00, 0x04, 0x00, 0x08, 0x00, 0x0c, 0x00, 0x10, 0x00, 0x14, 0x00,
  0x00, 0x00, 0x18, 0x00, 0x12, 0x00, 0x00, 0x00, 0x03, 0x00, 0x00, 0x00,
  0x14, 0x00, 0x00, 0x00, 0x28, 0x00, 0x00, 0x00, 0xd0, 0x00, 0x00, 0x00,
  0x28, 0x00, 0x00, 0x00, 0x78, 0x00, 0x00, 0x00, 0x05, 0x00, 0x00, 0x00,
  0x4c, 0x07, 0x00, 0x00, 0x60, 0x06, 0x00, 0x00, 0x7c, 0x03, 0x00, 0x00,
  0xc8, 0x02, 0x00, 0x00, 0xa8, 0x01, 0x00, 0x00, 0x01, 0x00, 0x00, 0x00,
  0xcc, 0x00, 0x00, 0x00, 0x14, 0x00, 0x00, 0x00, 0x30, 0x3e, 0x00, 0x00,
  0x2c, 0x3e, 0x00, 0x00, 0x04, 0x3d, 0x00, 0x00, 0x80, 0x3c, 0x00, 0x00,
  0xf8, 0x3b, 0x00, 0x00, 0x60, 0x3b, 0x00, 0x00, 0xf0, 0x3a, 0x00, 0x00,
  0x98, 0x0a, 0x00, 0x00, 0x80, 0x09, 0x00, 0x00, 0xe4, 0x08, 0x00, 0x00,
  0x18, 0x08, 0x00, 0x00, 0x04, 0x3e, 0x00, 0x00, 0x00, 0x3e, 0x00, 0x00,
  0xfc, 0x3d, 0x00, 0x00, 0xf8, 0x3d, 0x00, 0x00, 0xf4, 0x3d, 0x00, 0x00,
  0xf0, 0x3d, 0x00, 0x00, 0xec, 0x3d, 0x00, 0x00, 0xe8, 0x3d, 0x00, 0x00,
  0x38, 0x00, 0x00, 0x00, 0x01, 0x00, 0x00, 0x00, 0x0c, 0x00, 0x00, 0x00,
  0x08, 0x00, 0x0c, 0x00, 0x04, 0x00, 0x08, 0x00, 0x08, 0x00, 0x00, 0x00,
  0x08, 0x00, 0x00, 0x00, 0x13, 0x00, 0x00, 0x00, 0x13, 0x00, 0x00, 0x00,
  0x6d, 0x69, 0x6e, 0x5f, 0x72, 0x75, 0x6e, 0x74, 0x69, 0x6d, 0x65, 0x5f,
  0x76, 0x65, 0x72, 0x73, 0x69, 0x6f, 0x6e, 0x00, 0x7e, 0xc3, 0xff, 0xff,
  0x04, 0x00, 0x00, 0x00, 0x10, 0x00, 0x00, 0x00, 0x31, 0x2e, 0x35, 0x2e,
  0x30, 0x00, 0x00, 0x00, 0x00, 0x00, 0x00, 0x00, 0x00, 0x00, 0x00, 0x00,
  0x0f, 0x00, 0x00, 0x00, 0x4d, 0x4c, 0x49, 0x52, 0x20, 0x43, 0x6f, 0x6e,
  0x76, 0x65, 0x72, 0x74, 0x65, 0x64, 0x2e, 0x00, 0x00, 0x00, 0x0e, 0x00,
  0x18, 0x00, 0x04, 0x00, 0x08, 0x00, 0x0c, 0x00, 0x10, 0x00, 0x14, 0x00,
  0x0e, 0x00, 0x00, 0x00, 0x14, 0x00, 0x00, 0x00, 0x5c, 0x00, 0x00, 0x00,
  0x60, 0x00, 0x00, 0x00, 0x64, 0x00, 0x00, 0x00, 0x84, 0x00, 0x00, 0x00,
  0x12, 0x00, 0x00, 0x00, 0xf8, 0x3c, 0x00, 0x00, 0x84, 0x3c, 0x00, 0x00,
  0xbc, 0x3b, 0x00, 0x00, 0x38, 0x3b, 0x00, 0x00, 0xb0, 0x3a, 0x00, 0x00,
  0x38, 0x3a, 0x00, 0x00, 0xc8, 0x39, 0x00, 0x00, 0x70, 0x09, 0x00, 0x00,
  0x44, 0x08, 0x00, 0x00, 0xa8, 0x07, 0x00, 0x00, 0x30, 0x06, 0x00, 0x00,
  0x44, 0x05, 0x00, 0x00, 0xcc, 0x03, 0x00, 0x00, 0x08, 0x03, 0x00, 0x00,
  0x58, 0x02, 0x00, 0x00, 0xa4, 0x01, 0x00, 0x00, 0xfc, 0x00, 0x00, 0x00,
  0x80, 0x00, 0x00, 0x00, 0x01, 0x00, 0x00, 0x00, 0x00, 0x00, 0x00, 0x00,
  0x01, 0x00, 0x00, 0x00, 0x11, 0x00, 0x00, 0x00, 0x08, 0x00, 0x00, 0x00,
  0x94, 0x05, 0x00, 0x00, 0xb4, 0x04, 0x00, 0x00, 0x58, 0x03, 0x00, 0x00,
  0x94, 0x02, 0x00, 0x00, 0xf4, 0x01, 0x00, 0x00, 0x24, 0x01, 0x00, 0x00,
  0x94, 0x00, 0x00, 0x00, 0x10, 0x00, 0x00, 0x00, 0x04, 0x00, 0x00, 0x00,
  0x6d, 0x61, 0x69, 0x6e, 0x00, 0x00, 0x00, 0x00, 0x9a, 0xfd, 0xff, 0xff,
  0x00, 0x00, 0x00, 0x09, 0x04, 0x00, 0x00, 0x00, 0x1c, 0x00, 0x00, 0x00,
  0x10, 0x00, 0x00, 0x00, 0x04, 0x00, 0x00, 0x00, 0x7a, 0xc4, 0xff, 0xff,
  0x00, 0x00, 0x80, 0x3f, 0x01, 0x00, 0x00, 0x00, 0x11, 0x00, 0x00, 0x00,
  0x01, 0x00, 0x00, 0x00, 0x10, 0x00, 0x00, 0x00, 0x76, 0xfa, 0xff, 0xff,
  0x00, 0x00, 0x00, 0x19, 0x01, 0x00, 0x00, 0x00, 0xe0, 0xc3, 0xff, 0xff,
  0x14, 0x00, 0x00, 0x00, 0x12, 0x00, 0x00, 0x00, 0x18, 0x00, 0x00, 0x00,
  0x30, 0x00, 0x00, 0x00, 0x20, 0x00, 0x00, 0x00, 0x02, 0x00, 0x00, 0x00,
  0x01, 0x00, 0x00, 0x00, 0x03, 0x00, 0x00, 0x00, 0x08, 0x00, 0x00, 0x00,
  0x49, 0x64, 0x65, 0x6e, 0x74, 0x69, 0x74, 0x79, 0x00, 0x00, 0x00, 0x00,
  0x02, 0x00, 0x00, 0x00, 0xff, 0xff, 0xff, 0xff, 0x03, 0x00, 0x00, 0x00,
  0xb8, 0xc3, 0xff, 0xff, 0x1a, 0xfe, 0xff, 0xff, 0x00, 0x00, 0x00, 0x08,
  0x03, 0x00, 0x00, 0x00, 0x18, 0x00, 0x00, 0x00, 0x0c, 0x00, 0x00, 0x00,
  0x04, 0x00, 0x00, 0x00, 0xd4, 0xc3, 0xff, 0xff, 0x01, 0x00, 0x00, 0x00,
  0x10, 0x00, 0x00, 0x00, 0x03, 0x00, 0x00, 0x00, 0x0f, 0x00, 0x00, 0x00,
  0x07, 0x00, 0x00, 0x00, 0x02, 0x00, 0x00, 0x00, 0x58, 0xc4, 0xff, 0xff,
  0x14, 0x00, 0x00, 0x00, 0x11, 0x00, 0x00, 0x00, 0x18, 0x00, 0x00, 0x00,
  0x44, 0x00, 0x00, 0x00, 0x34, 0x00, 0x00, 0x00, 0x02, 0x00, 0x00, 0x00,
  0x01, 0x00, 0x00, 0x00, 0x03, 0x00, 0x00, 0x00, 0x1e, 0x00, 0x00, 0x00,
  0x73, 0x65, 0x71, 0x75, 0x65, 0x6e, 0x74, 0x69, 0x61, 0x6c, 0x5f, 0x33,
  0x31, 0x2f, 0x64, 0x65, 0x6e, 0x73, 0x65, 0x5f, 0x35, 0x39, 0x2f, 0x42,
  0x69, 0x61, 0x73, 0x41, 0x64, 0x64, 0x00, 0x00, 0x02, 0x00, 0x00, 0x00,
  0xff, 0xff, 0xff, 0xff, 0x03, 0x00, 0x00, 0x00, 0x44, 0xc4, 0xff, 0xff,
  0x8e, 0xfc, 0xff, 0xff, 0x00, 0x00, 0x00, 0x08, 0x03, 0x00, 0x00, 0x00,
  0x24, 0x00, 0x00, 0x00, 0x18, 0x00, 0x00, 0x00, 0x0c, 0x00, 0x00, 0x00,
  0x00, 0x00, 0x06, 0x00, 0x08, 0x00, 0x07, 0x00, 0x06, 0x00, 0x00, 0x00,
  0x00, 0x00, 0x00, 0x01, 0x01, 0x00, 0x00, 0x00, 0x0f, 0x00, 0x00, 0x00,
  0x03, 0x00, 0x00, 0x00, 0x0e, 0x00, 0x00, 0x00, 0x06, 0x00, 0x00, 0x00,
  0x01, 0x00, 0x00, 0x00, 0x92, 0xfb, 0xff, 0xff, 0x00, 0x00, 0x00, 0x09,
  0x01, 0x00, 0x00, 0x00, 0xfc, 0xc4, 0xff, 0xff, 0x14, 0x00, 0x00, 0x00,
  0x10, 0x00, 0x00, 0x00, 0x18, 0x00, 0x00, 0x00, 0x60, 0x00, 0x00, 0x00,
  0x50, 0x00, 0x00, 0x00, 0x02, 0x00, 0x00, 0x00, 0x01, 0x00, 0x00, 0x00,
  0x10, 0x00, 0x00, 0x00, 0x3a, 0x00, 0x00, 0x00, 0x73, 0x65, 0x71, 0x75,
  0x65, 0x6e, 0x74, 0x69, 0x61, 0x6c, 0x5f, 0x33, 0x31, 0x2f, 0x64, 0x65,
  0x6e, 0x73, 0x65, 0x5f, 0x35, 0x38, 0x2f, 0x52, 0x65, 0x6c, 0x75, 0x3b,
  0x73, 0x65, 0x71, 0x75, 0x65, 0x6e, 0x74, 0x69, 0x61, 0x6c, 0x5f, 0x33,
  0x31, 0x2f, 0x64, 0x65, 0x6e, 0x73, 0x65, 0x5f, 0x35, 0x38, 0x2f, 0x42,
  0x69, 0x61, 0x73, 0x41, 0x64, 0x64, 0x00, 0x00, 0x02, 0x00, 0x00, 0x00,
  0xff, 0xff, 0xff, 0xff, 0x10, 0x00, 0x00, 0x00, 0x34, 0xc6, 0xff, 0xff,
  0x00, 0x00, 0x0a, 0x00, 0x10, 0x00, 0x04, 0x00, 0x08, 0x00, 0x0c, 0x00,
  0x0a, 0x00, 0x00, 0x00, 0x02, 0x00, 0x00, 0x00, 0x10, 0x00, 0x00, 0x00,
  0x04, 0x00, 0x00, 0x00, 0x01, 0x00, 0x00, 0x00, 0x0e, 0x00, 0x00, 0x00,
  0x02, 0x00, 0x00, 0x00, 0x0d, 0x00, 0x00, 0x00, 0x05, 0x00, 0x00, 0x00,
  0x42, 0xfc, 0xff, 0xff, 0x00, 0x00, 0x00, 0x16, 0x01, 0x00, 0x00, 0x00,
  0xac, 0xc5, 0xff, 0xff, 0x14, 0x00, 0x00, 0x00, 0x0f, 0x00, 0x00, 0x00,
  0x18, 0x00, 0x00, 0x00, 0x48, 0x00, 0x00, 0x00, 0x38, 0x00, 0x00, 0x00,
  0x02, 0x00, 0x00, 0x00, 0x01, 0x00, 0x00, 0x00, 0xc0, 0x00, 0x00, 0x00,
  0x20, 0x00, 0x00, 0x00, 0x73, 0x65, 0x71, 0x75, 0x65, 0x6e, 0x74, 0x69,
  0x61, 0x6c, 0x5f, 0x33, 0x31, 0x2f, 0x66, 0x6c, 0x61, 0x74, 0x74, 0x65,
  0x6e, 0x5f, 0x32, 0x39, 0x2f, 0x52, 0x65, 0x73, 0x68, 0x61, 0x70, 0x65,
  0x00, 0x00, 0x00, 0x00, 0x02, 0x00, 0x00, 0x00, 0xff, 0xff, 0xff, 0xff,
  0xc0, 0x00, 0x00, 0x00, 0xcc, 0xc6, 0xff, 0xff, 0x00, 0x00, 0x0e, 0x00,
  0x18, 0x00, 0x08, 0x00, 0x0c, 0x00, 0x10, 0x00, 0x07, 0x00, 0x14, 0x00,
  0x0e, 0x00, 0x00, 0x00, 0x00, 0x00, 0x00, 0x05, 0x01, 0x00, 0x00, 0x00,
  0x2c, 0x00, 0x00, 0x00, 0x20, 0x00, 0x00, 0x00, 0x04, 0x00, 0x00, 0x00,
  0xe6, 0xfd, 0xff, 0xff, 0x03, 0x00, 0x00, 0x00, 0x01, 0x00, 0x00, 0x00,
  0x03, 0x00, 0x00, 0x00, 0x01, 0x00, 0x00, 0x00, 0x00, 0x00, 0x00, 0x01,
  0x01, 0x00, 0x00, 0x00, 0x0d, 0x00, 0x00, 0x00, 0x01, 0x00, 0x00, 0x00,
  0x0c, 0x00, 0x00, 0x00, 0x58, 0xc6, 0xff, 0xff, 0x14, 0x00, 0x00, 0x00,
  0x0e, 0x00, 0x00, 0x00, 0x20, 0x00, 0x00, 0x00, 0x5c, 0x00, 0x00, 0x00,
  0x44, 0x00, 0x00, 0x00, 0x04, 0x00, 0x00, 0x00, 0x01, 0x00, 0x00, 0x00,
  0x08, 0x00, 0x00, 0x00, 0x03, 0x00, 0x00, 0x00, 0x08, 0x00, 0x00, 0x00,
  0x26, 0x00, 0x00, 0x00, 0x73, 0x65, 0x71, 0x75, 0x65, 0x6e, 0x74, 0x69,
  0x61, 0x6c, 0x5f, 0x33, 0x31, 0x2f, 0x6d, 0x61, 0x78, 0x5f, 0x70, 0x6f,
  0x6f, 0x6c, 0x69, 0x6e, 0x67, 0x32, 0x64, 0x5f, 0x35, 0x39, 0x2f, 0x4d,
  0x61, 0x78, 0x50, 0x6f, 0x6f, 0x6c, 0x00, 0x00, 0x04, 0x00, 0x00, 0x00,
  0xff, 0xff, 0xff, 0xff, 0x08, 0x00, 0x00, 0x00, 0x03, 0x00, 0x00, 0x00,
  0x08, 0x00, 0x00, 0x00, 0x8c, 0xc7, 0xff, 0xff, 0x00, 0x00, 0x0e, 0x00,
  0x14, 0x00, 0x00, 0x00, 0x08, 0x00, 0x0c, 0x00, 0x07, 0x00, 0x10, 0x00,
  0x0e, 0x00, 0x00, 0x00, 0x00, 0x00, 0x00, 0x02, 0x28, 0x00, 0x00, 0x00,
  0x1c, 0x00, 0x00, 0x00, 0x04, 0x00, 0x00, 0x00, 0xca, 0xfd, 0xff, 0xff,
  0x02, 0x00, 0x00, 0x00, 0x01, 0x00, 0x00, 0x00, 0x01, 0x00, 0x00, 0x00,
  0x00, 0x00, 0x01, 0x01, 0x01, 0x00, 0x00, 0x00, 0x0c, 0x00, 0x00, 0x00,
  0x03, 0x00, 0x00, 0x00, 0x0b, 0x00, 0x00, 0x00, 0x09, 0x00, 0x00, 0x00,
  0x04, 0x00, 0x00, 0x00, 0x18, 0xc7, 0xff, 0xff, 0x14, 0x00, 0x00, 0x00,
  0x0d, 0x00, 0x00, 0x00, 0x20, 0x00, 0x00, 0x00, 0xf4, 0x00, 0x00, 0x00,
  0xdc, 0x00, 0x00, 0x00, 0x04, 0x00, 0x00, 0x00, 0x01, 0x00, 0x00, 0x00,
  0x18, 0x00, 0x00, 0x00, 0x03, 0x00, 0x00, 0x00, 0x08, 0x00, 0x00, 0x00,
  0xbe, 0x00, 0x00, 0x00, 0x73, 0x65, 0x71, 0x75, 0x65, 0x6e, 0x74, 0x69,
  0x61, 0x6c, 0x5f, 0x33, 0x31, 0x2f, 0x64, 0x65, 0x70, 0x74, 0x68, 0x77,
  0x69, 0x73, 0x65, 0x5f, 0x63, 0x6f, 0x6e, 0x76, 0x32, 0x64, 0x5f, 0x31,
  0x33, 0x2f, 0x52, 0x65, 0x6c, 0x75, 0x3b, 0x73, 0x65, 0x71, 0x75, 0x65,
  0x6e, 0x74, 0x69, 0x61, 0x6c, 0x5f, 0x33, 0x31, 0x2f, 0x64, 0x65, 0x70,
  0x74, 0x68, 0x77, 0x69, 0x73, 0x65, 0x5f, 0x63, 0x6f, 0x6e, 0x76, 0x32,
  0x64, 0x5f, 0x31, 0x33, 0x2f, 0x42, 0x69, 0x61, 0x73, 0x41, 0x64, 0x64,
  0x3b, 0x73, 0x65, 0x71, 0x75, 0x65, 0x6e, 0x74, 0x69, 0x61, 0x6c, 0x5f,
  0x33, 0x31, 0x2f, 0x64, 0x65, 0x70, 0x74, 0x68, 0x77, 0x69, 0x73, 0x65,
  0x5f, 0x63, 0x6f, 0x6e, 0x76, 0x32, 0x64, 0x5f, 0x31, 0x33, 0x2f, 0x64,
  0x65, 0x70, 0x74, 0x68, 0x77, 0x69, 0x73, 0x65, 0x3b, 0x73, 0x65, 0x71,
  0x75, 0x65, 0x6e, 0x74, 0x69, 0x61, 0x6c, 0x5f, 0x33, 0x31, 0x2f, 0x64,
  0x65, 0x70, 0x74, 0x68, 0x77, 0x69, 0x73, 0x65, 0x5f, 0x63, 0x6f, 0x6e,
  0x76, 0x32, 0x64, 0x5f, 0x31, 0x33, 0x2f, 0x42, 0x69, 0x61, 0x73, 0x41,
  0x64, 0x64, 0x2f, 0x52, 0x65, 0x61, 0x64, 0x56, 0x61, 0x72, 0x69, 0x61,
  0x62, 0x6c, 0x65, 0x4f, 0x70, 0x2f, 0x72, 0x65, 0x73, 0x6f, 0x75, 0x72,
  0x63, 0x65, 0x00, 0x00, 0x04, 0x00, 0x00, 0x00, 0xff, 0xff, 0xff, 0xff,
  0x18, 0x00, 0x00, 0x00, 0x03, 0x00, 0x00, 0x00, 0x08, 0x00, 0x00, 0x00,
  0xe4, 0xc8, 0xff, 0xff, 0x00, 0x00, 0x0e, 0x00, 0x1a, 0x00, 0x08, 0x00,
  0x0c, 0x00, 0x10, 0x00, 0x07, 0x00, 0x14, 0x00, 0x0e, 0x00, 0x00, 0x00,
  0x00, 0x00, 0x00, 0x05, 0x01, 0x00, 0x00, 0x00, 0x3c, 0x00, 0x00, 0x00,
  0x30, 0x00, 0x00, 0x00, 0x14, 0x00, 0x00, 0x00, 0x00, 0x00, 0x0e, 0x00,
  0x18, 0x00, 0x17, 0x00, 0x10, 0x00, 0x0c, 0x00, 0x08, 0x00, 0x04, 0x00,
  0x0e, 0x00, 0x00, 0x00, 0x03, 0x00, 0x00, 0x00, 0x01, 0x00, 0x00, 0x00,
  0x03, 0x00, 0x00, 0x00, 0x01, 0x00, 0x00, 0x00, 0x00, 0x00, 0x00, 0x01,
  0x01, 0x00, 0x00, 0x00, 0x0b, 0x00, 0x00, 0x00, 0x01, 0x00, 0x00, 0x00,
  0x0a, 0x00, 0x00, 0x00, 0x22, 0xff, 0xff, 0xff, 0x00, 0x00, 0x00, 0x11,
  0x01, 0x00, 0x00, 0x00, 0x8c, 0xc8, 0xff, 0xff, 0x14, 0x00, 0x00, 0x00,
  0x0c, 0x00, 0x00, 0x00, 0x20, 0x00, 0x00, 0x00, 0x5c, 0x00, 0x00, 0x00,
  0x44, 0x00, 0x00, 0x00, 0x04, 0x00, 0x00, 0x00, 0x01, 0x00, 0x00, 0x00,
  0x1a, 0x00, 0x00, 0x00, 0x03, 0x00, 0x00, 0x00, 0x04, 0x00, 0x00, 0x00,
  0x26, 0x00, 0x00, 0x00, 0x73, 0x65, 0x71, 0x75, 0x65, 0x6e, 0x74, 0x69,
  0x61, 0x6c, 0x5f, 0x33, 0x31, 0x2f, 0x6d, 0x61, 0x78, 0x5f, 0x70, 0x6f,
  0x6f, 0x6c, 0x69, 0x6e, 0x67, 0x32, 0x64, 0x5f, 0x35, 0x38, 0x2f, 0x4d,
  0x61, 0x78, 0x50, 0x6f, 0x6f, 0x6c, 0x00, 0x00, 0x04, 0x00, 0x00, 0x00,
  0xff, 0xff, 0xff, 0xff, 0x1a, 0x00, 0x00, 0x00, 0x03, 0x00, 0x00, 0x00,
  0x04, 0x00, 0x00, 0x00, 0xc0, 0xc9, 0xff, 0xff, 0x00, 0x00, 0x0e, 0x00,
  0x16, 0x00, 0x00, 0x00, 0x08, 0x00, 0x0c, 0x00, 0x07, 0x00, 0x10, 0x00,
  0x0e, 0x00, 0x00, 0x00, 0x00, 0x00, 0x00, 0x02, 0x38, 0x00, 0x00, 0x00,
  0x2c, 0x00, 0x00, 0x00, 0x14, 0x00, 0x00, 0x00, 0x00, 0x00, 0x0e, 0x00,
  0x14, 0x00, 0x12, 0x00, 0x08, 0x00, 0x0c, 0x00, 0x04, 0x00, 0x13, 0x00,
  0x0e, 0x00, 0x00, 0x00, 0x04, 0x00, 0x00, 0x00, 0x01, 0x00, 0x00, 0x00,
  0x01, 0x00, 0x00, 0x00, 0x00, 0x00, 0x01, 0x01, 0x01, 0x00, 0x00, 0x00,
  0x0a, 0x00, 0x00, 0x00, 0x03, 0x00, 0x00, 0x00, 0x00, 0x00, 0x00, 0x00,
  0x08, 0x00, 0x00, 0x00, 0x03, 0x00, 0x00, 0x00, 0x00, 0x00, 0x0a, 0x00,
  0x0c, 0x00, 0x07, 0x00, 0x00, 0x00, 0x08, 0x00, 0x0a, 0x00, 0x00, 0x00,
  0x00, 0x00, 0x00, 0x04, 0x01, 0x00, 0x00, 0x00, 0x74, 0xc9, 0xff, 0xff,
  0x14, 0x00, 0x00, 0x00, 0x0b, 0x00, 0x00, 0x00, 0x20, 0x00, 0x00, 0x00,
  0xf4, 0x00, 0x00, 0x00, 0xdc, 0x00, 0x00, 0x00, 0x04, 0x00, 0x00, 0x00,
  0x01, 0x00, 0x00, 0x00, 0x4e, 0x00, 0x00, 0x00, 0x03, 0x00, 0x00, 0x00,
  0x04, 0x00, 0x00, 0x00, 0xbe, 0x00, 0x00, 0x00, 0x73, 0x65, 0x71, 0x75,
  0x65, 0x6e, 0x74, 0x69, 0x61, 0x6c, 0x5f, 0x33, 0x31, 0x2f, 0x64, 0x65,
  0x70, 0x74, 0x68, 0x77, 0x69, 0x73, 0x65, 0x5f, 0x63, 0x6f, 0x6e, 0x76,
  0x32, 0x64, 0x5f, 0x31, 0x32, 0x2f, 0x52, 0x65, 0x6c, 0x75, 0x3b, 0x73,
  0x65, 0x71, 0x75, 0x65, 0x6e, 0x74, 0x69, 0x61, 0x6c, 0x5f, 0x33, 0x31,
  0x2f, 0x64, 0x65, 0x70, 0x74, 0x68, 0x77, 0x69, 0x73, 0x65, 0x5f, 0x63,
  0x6f, 0x6e, 0x76, 0x32, 0x64, 0x5f, 0x31, 0x32, 0x2f, 0x42, 0x69, 0x61,
  0x73, 0x41, 0x64, 0x64, 0x3b, 0x73, 0x65, 0x71, 0x75, 0x65, 0x6e, 0x74,
  0x69, 0x61, 0x6c, 0x5f, 0x33, 0x31, 0x2f, 0x64, 0x65, 0x70, 0x74, 0x68,
  0x77, 0x69, 0x73, 0x65, 0x5f, 0x63, 0x6f, 0x6e, 0x76, 0x32, 0x64, 0x5f,
  0x31, 0x32, 0x2f, 0x64, 0x65, 0x70, 0x74, 0x68, 0x77, 0x69, 0x73, 0x65,
  0x3b, 0x73, 0x65, 0x71, 0x75, 0x65, 0x6e, 0x74, 0x69, 0x61, 0x6c, 0x5f,
  0x33, 0x31, 0x2f, 0x64, 0x65, 0x70, 0x74, 0x68, 0x77, 0x69, 0x73, 0x65,
  0x5f, 0x63, 0x6f, 0x6e, 0x76, 0x32, 0x64, 0x5f, 0x31, 0x32, 0x2f, 0x42,
  0x69, 0x61, 0x73, 0x41, 0x64, 0x64, 0x2f, 0x52, 0x65, 0x61, 0x64, 0x56,
  0x61, 0x72, 0x69, 0x61, 0x62, 0x6c, 0x65, 0x4f, 0x70, 0x2f, 0x72, 0x65,
  0x73, 0x6f, 0x75, 0x72, 0x63, 0x65, 0x00, 0x00, 0x04, 0x00, 0x00, 0x00,
  0xff, 0xff, 0xff, 0xff, 0x4e, 0x00, 0x00, 0x00, 0x03, 0x00, 0x00, 0x00,
  0x04, 0x00, 0x00, 0x00, 0x10, 0xca, 0xff, 0xff, 0x3a, 0xcb, 0xff, 0xff,
  0x04, 0x00, 0x00, 0x00, 0x60, 0x00, 0x00, 0x00, 0x54, 0xf1, 0x03, 0x3e,
  0x1f, 0x2f, 0x93, 0xbe, 0x5c, 0x3e, 0x48, 0x3f, 0xcb, 0x8a, 0xf2, 0xbc,
  0x7f, 0x1e, 0x51, 0x3f, 0xf3, 0x71, 0x04, 0x3e, 0x1b, 0xbe, 0x87, 0x3f,
  0xeb, 0xd6, 0xe4, 0x3e, 0x0e, 0x14, 0x4b, 0x3e, 0x22, 0x0b, 0xe5, 0xbe,
  0xae, 0x63, 0x68, 0xbd, 0x8e, 0xc4, 0x96, 0x3b, 0x18, 0xb3, 0x11, 0xbe,
  0x04, 0x80, 0xca, 0x3e, 0x13, 0xeb, 0xac, 0xbe, 0x1d, 0xe1, 0xb0, 0x3e,
  0xff, 0x57, 0x19, 0x3f, 0xb0, 0x3c, 0x97, 0xbd, 0x7c, 0x3b, 0x98, 0x3a,
  0x2d, 0x42, 0x5d, 0x3f, 0x6b, 0xf6, 0xbd, 0xbc, 0xc1, 0x7c, 0xc7, 0x3e,
  0x7a, 0x9d, 0x2b, 0xbf, 0xca, 0x98, 0x35, 0x3f, 0x52, 0xcb, 0xff, 0xff,
  0x10, 0x00, 0x00, 0x00, 0x0a, 0x00, 0x00, 0x00, 0x1c, 0x00, 0x00, 0x00,
  0x48, 0x00, 0x00, 0x00, 0x04, 0x00, 0x00, 0x00, 0x01, 0x00, 0x00, 0x00,
  0x03, 0x00, 0x00, 0x00, 0x01, 0x00, 0x00, 0x00, 0x08, 0x00, 0x00, 0x00,
  0x2b, 0x00, 0x00, 0x00, 0x73, 0x65, 0x71, 0x75, 0x65, 0x6e, 0x74, 0x69,
  0x61, 0x6c, 0x5f, 0x33, 0x31, 0x2f, 0x64, 0x65, 0x70, 0x74, 0x68, 0x77,
  0x69, 0x73, 0x65, 0x5f, 0x63, 0x6f, 0x6e, 0x76, 0x32, 0x64, 0x5f, 0x31,
  0x33, 0x2f, 0x64, 0x65, 0x70, 0x74, 0x68, 0x77, 0x69, 0x73, 0x65, 0x00,
  0xd8, 0xca, 0xff, 0xff, 0x02, 0xcc, 0xff, 0xff, 0x04, 0x00, 0x00, 0x00,
  0x30, 0x00, 0x00, 0x00, 0x41, 0x03, 0x54, 0x3f, 0x21, 0x50, 0x1f, 0x3f,
  0x3c, 0xbc, 0x38, 0xbf, 0xfc, 0x2e, 0x39, 0x3f, 0xd0, 0xa2, 0x49, 0xbf,
  0x71, 0x82, 0x1a, 0xbd, 0x58, 0x8c, 0x8e, 0xbe, 0x54, 0xdc, 0x72, 0x3f,
  0xc4, 0xd9, 0x50, 0x3f, 0xf7, 0xe2, 0x77, 0xbf, 0x8f, 0x0b, 0x87, 0x3f,
  0xdc, 0x69, 0x27, 0x3f, 0xea, 0xcb, 0xff, 0xff, 0x10, 0x00, 0x00, 0x00,
  0x09, 0x00, 0x00, 0x00, 0x1c, 0x00, 0x00, 0x00, 0x48, 0x00, 0x00, 0x00,
  0x04, 0x00, 0x00, 0x00, 0x01, 0x00, 0x00, 0x00, 0x03, 0x00, 0x00, 0x00,
  0x01, 0x00, 0x00, 0x00, 0x04, 0x00, 0x00, 0x00, 0x2b, 0x00, 0x00, 0x00,
  0x73, 0x65, 0x71, 0x75, 0x65, 0x6e, 0x74, 0x69, 0x61, 0x6c, 0x5f, 0x33,
  0x31, 0x2f, 0x64, 0x65, 0x70, 0x74, 0x68, 0x77, 0x69, 0x73, 0x65, 0x5f,
  0x63, 0x6f, 0x6e, 0x76, 0x32, 0x64, 0x5f, 0x31, 0x32, 0x2f, 0x64, 0x65,
  0x70, 0x74, 0x68, 0x77, 0x69, 0x73, 0x65, 0x00, 0x70, 0xcb, 0xff, 0xff,
  0x9a, 0xcc, 0xff, 0xff, 0x04, 0x00, 0x00, 0x00, 0xc0, 0x00, 0x00, 0x00,
  0xac, 0xe5, 0x37, 0xbf, 0xab, 0xe6, 0x12, 0x3f, 0x65, 0xb2, 0xc5, 0x3d,
  0x6c, 0x37, 0x9c, 0xbe, 0x93, 0x55, 0xee, 0xbc, 0x90, 0xb8, 0x23, 0x3f,
  0x6e, 0x1e, 0xfe, 0xbe, 0x3c, 0x2e, 0xef, 0x3e, 0x08, 0x2d, 0x0b, 0x3e,
  0xd0, 0xb4, 0xb3, 0xbd, 0x55, 0x86, 0x06, 0x3f, 0xa2, 0xca, 0xe8, 0x3e,
  0x53, 0x32, 0x81, 0xbf, 0xe9, 0x1e, 0x63, 0xbe, 0x8e, 0x04, 0xca, 0x3e,
  0x57, 0xea, 0x29, 0xbc, 0xbe, 0xbe, 0x08, 0xbe, 0x58, 0x7a, 0xc0, 0x3e,
  0xe3, 0x7a, 0x47, 0xbf, 0x13, 0x1f, 0xb4, 0x3e, 0xbb, 0x68, 0x1e, 0x3f,
  0x7e, 0xd8, 0x63, 0xbf, 0x4c, 0x50, 0xdd, 0xbe, 0x65, 0xbe, 0xb6, 0x3e,
  0xd4, 0x6a, 0x48, 0x3b, 0x1c, 0x37, 0x86, 0xbe, 0x3b, 0x01, 0x25, 0xbe,
  0xac, 0x5e, 0x03, 0xbf, 0xa8, 0x60, 0x93, 0xbe, 0xdd, 0x7e, 0x9a, 0x3e,
  0x19, 0x03, 0xd1, 0xbe, 0x25, 0xa0, 0x10, 0x3f, 0xf1, 0x43, 0x03, 0xbe,
  0x10, 0xeb, 0x0b, 0xbf, 0x51, 0x3e, 0xf6, 0xbe, 0x3b, 0x69, 0x1d, 0x3f,
  0x52, 0xe3, 0x38, 0xbf, 0xbc, 0x9a, 0x9e, 0x3f, 0x5b, 0x02, 0x06, 0x3d,
  0xd2, 0xba, 0xf8, 0xbf, 0x17, 0xf2, 0x78, 0xbf, 0x97, 0x7a, 0x32, 0x3f,
  0xd3, 0x1d, 0x09, 0xbf, 0xa1, 0x3c, 0x84, 0xbf, 0x75, 0xa1, 0x07, 0x3f,
  0x3b, 0xe4, 0x1d, 0xbf, 0x3a, 0xf1, 0x76, 0xbf, 0x0c, 0x38, 0x61, 0xbe,
  0x12, 0xcd, 0xff, 0xff, 0x10, 0x00, 0x00, 0x00, 0x08, 0x00, 0x00, 0x00,
  0x14, 0x00, 0x00, 0x00, 0x34, 0x00, 0x00, 0x00, 0x02, 0x00, 0x00, 0x00,
  0x03, 0x00, 0x00, 0x00, 0x10, 0x00, 0x00, 0x00, 0x1d, 0x00, 0x00, 0x00,
  0x73, 0x65, 0x71, 0x75, 0x65, 0x6e, 0x74, 0x69, 0x61, 0x6c, 0x5f, 0x33,
  0x31, 0x2f, 0x64, 0x65, 0x6e, 0x73, 0x65, 0x5f, 0x35, 0x39, 0x2f, 0x4d,
  0x61, 0x74, 0x4d, 0x75, 0x6c, 0x00, 0x00, 0x00, 0x84, 0xcc, 0xff, 0xff,
  0xae, 0xcd, 0xff, 0xff, 0x04, 0x00, 0x00, 0x00, 0x00, 0x30, 0x00, 0x00,
  0xc7, 0xd5, 0x1e, 0xbe, 0x24, 0xdc, 0x10, 0x3d, 0x80, 0xb6, 0xb9, 0x3f,
  0xa5, 0x7d, 0xa1, 0xbb, 0x28, 0xfa, 0x93, 0x3f, 0xee, 0x87, 0xcb, 0x3e,
  0x2c, 0x9a, 0xe1, 0x3e, 0x53, 0xce, 0xda, 0x3e, 0xb8, 0x04, 0x81, 0x3d,
  0xec, 0xdc, 0xba, 0x3d, 0x3e, 0x07, 0x92, 0x3f, 0x0d, 0x45, 0x76, 0x3d,
  0x19, 0x36, 0x7f, 0x3f, 0xbb, 0x2d, 0x11, 0x3f, 0xba, 0x59, 0x08, 0x3f,
  0xf0, 0x0d, 0xde, 0x3e, 0xc7, 0x6d, 0x0b, 0xbe, 0x50, 0x99, 0x4c, 0x3d,
  0xa4, 0x48, 0x08, 0x40, 0xb2, 0x07, 0x38, 0x3e, 0xda, 0x4a, 0xb4, 0x3f,
  0x22, 0x20, 0xf2, 0x3e, 0xf0, 0x46, 0x4f, 0x3f, 0x0b, 0x60, 0x3a, 0x3f,
  0xd3, 0xf6, 0xfa, 0x3d, 0x66, 0x1e, 0x09, 0xbe, 0x7f, 0xe1, 0x9c, 0x3e,
  0xc7, 0x86, 0xd9, 0xbd, 0x10, 0x18, 0x4c, 0x3e, 0xf2, 0xd7, 0x46, 0x3e,
  0xff, 0xcc, 0x25, 0x3f, 0x6a, 0xcd, 0xcb, 0x3e, 0x8b, 0xb6, 0xe8, 0xbc,
  0xf6, 0xc3, 0x1a, 0x3e, 0xbf, 0x9a, 0xa5, 0x3e, 0x83, 0x4d, 0xf0, 0x3b,
  0x84, 0x18, 0x6a, 0x3e, 0x55, 0x53, 0x2c, 0x3e, 0x99, 0x3d, 0xb2, 0x3e,
  0xbc, 0xa0, 0x3d, 0x3e, 0x9d, 0x35, 0x1d, 0xbe, 0x08, 0xb6, 0xab, 0xbd,
  0x8e, 0xde, 0x5b, 0x3e, 0xa1, 0x87, 0x96, 0xbd, 0x3f, 0x18, 0x92, 0x3e,
  0x69, 0xc8, 0xc3, 0x3c, 0x33, 0xd8, 0x29, 0x3f, 0x1a, 0x05, 0x4f, 0x3e,
  0x3a, 0xf2, 0x9a, 0xbe, 0x4e, 0xe2, 0x0b, 0x3e, 0xf1, 0xf3, 0x8a, 0x3e,
  0x17, 0x3a, 0x12, 0xbe, 0x2f, 0xa5, 0x4f, 0x3e, 0x2e, 0xa9, 0x16, 0xbd,
  0x93, 0x34, 0xa6, 0x3e, 0x9f, 0xb5, 0x9e, 0x3e, 0xfa, 0x79, 0xcd, 0xbe,
  0x70, 0x3c, 0xef, 0x3c, 0x45, 0x20, 0x15, 0x3e, 0x90, 0xac, 0xc8, 0xbd,
  0x3d, 0x3a, 0x1d, 0x3e, 0xd7, 0x1c, 0xf8, 0xbb, 0x0b, 0x80, 0x4c, 0x3e,
  0x0f, 0x80, 0xca, 0x3d, 0x8f, 0xff, 0x95, 0xbe, 0xa4, 0xfb, 0xd4, 0xbd,
  0xaa, 0x74, 0xed, 0xbc, 0x00, 0xaf, 0x38, 0x3d, 0xbb, 0x34, 0xb7, 0x3b,
  0x2a, 0x9b, 0x11, 0x3d, 0x7e, 0x4d, 0x09, 0x3e, 0x7d, 0x6f, 0x6b, 0x3d,
  0x5e, 0x54, 0xc3, 0xbe, 0x0a, 0x79, 0x04, 0xbe, 0xf8, 0x20, 0x89, 0x3d,
  0x2b, 0x7d, 0xa9, 0x3c, 0x7a, 0x3c, 0x34, 0x3c, 0xb0, 0xaf, 0xe6, 0x3c,
  0x9b, 0x49, 0xc4, 0x3e, 0x19, 0x3f, 0x2b, 0x3e, 0x9f, 0x6b, 0x1a, 0xbf,
  0x80, 0xf7, 0xc6, 0xbb, 0x68, 0xda, 0x55, 0xbe, 0xd2, 0xe8, 0xea, 0x3b,
  0xd9, 0xbe, 0x14, 0x3b, 0xa0, 0x61, 0x98, 0xbd, 0x39, 0x1c, 0xd3, 0x3c,
  0xb5, 0x3a, 0x62, 0x3e, 0x13, 0x66, 0xc1, 0xbe, 0x40, 0xa5, 0xd5, 0xbd,
  0xb2, 0xec, 0xeb, 0xbd, 0xc1, 0xdd, 0x67, 0x3e, 0xe8, 0xb0, 0xf4, 0xbd,
  0x6c, 0xda, 0x21, 0xbe, 0xd3, 0x95, 0x52, 0x3e, 0xa2, 0x1e, 0xe1, 0x3d,
  0x92, 0xca, 0x9a, 0xbe, 0xfc, 0x60, 0x28, 0xbd, 0x7f, 0x65, 0xaa, 0xbd,
  0xe1, 0xe6, 0x78, 0xbc, 0x49, 0x59, 0x9e, 0xbc, 0xcc, 0x7c, 0x2d, 0xbe,
  0x01, 0xd3, 0x5e, 0x3e, 0x2f, 0xeb, 0x77, 0x3e, 0x14, 0xd7, 0xf2, 0xbe,
  0xc4, 0xc8, 0x33, 0x3d, 0x29, 0x29, 0x70, 0xbd, 0xf3, 0xa0, 0x2f, 0x3d,
  0x76, 0x11, 0x0d, 0xbd, 0x52, 0x6b, 0x35, 0xbe, 0xda, 0x82, 0xcf, 0x3d,
  0x46, 0xf7, 0xcf, 0x3c, 0xda, 0x9d, 0xd8, 0xbe, 0x90, 0x7b, 0x2b, 0xbe,
  0xdf, 0x08, 0xf3, 0xbd, 0x60, 0x57, 0x81, 0x3e, 0xeb, 0xbc, 0xc9, 0xbd,
  0x4a, 0x88, 0x2f, 0xbe, 0x1e, 0x82, 0x6f, 0x3e, 0x24, 0x3a, 0x12, 0x3e,
  0x06, 0xd7, 0x7c, 0xbe, 0xa4, 0xe9, 0x20, 0x3e, 0x8b, 0x47, 0x02, 0xbd,
  0x5b, 0xca, 0x1a, 0x3e, 0x12, 0x66, 0x2b, 0xbd, 0x79, 0xc9, 0x7d, 0x3d,
  0x51, 0x33, 0x5b, 0x3e, 0x90, 0xfa, 0xe9, 0x3c, 0x39, 0x79, 0x2b, 0xbe,
  0x42, 0xb7, 0x13, 0x3e, 0xbf, 0xe0, 0xea, 0x3b, 0x1a, 0x50, 0x93, 0x3d,
  0x24, 0x94, 0x9e, 0xbc, 0x56, 0x85, 0x5a, 0xbe, 0xdd, 0x55, 0xd0, 0xbd,
  0xbc, 0x04, 0x28, 0x3e, 0x84, 0xa4, 0x92, 0xbe, 0x80, 0x60, 0x3f, 0x3c,
  0xee, 0x9c, 0xb7, 0xbd, 0x22, 0xbf, 0x41, 0x3e, 0x5c, 0x2e, 0xb0, 0xbc,
  0x72, 0x27, 0xaa, 0xbc, 0xa4, 0xd3, 0x24, 0x3e, 0x08, 0xb3, 0xd4, 0x3d,
  0x00, 0x83, 0x38, 0xbe, 0x54, 0x42, 0x34, 0x3d, 0x76, 0x2b, 0x79, 0xbd,
  0x5b, 0x7b, 0xbe, 0x3d, 0x8f, 0x5f, 0xae, 0x3c, 0x8d, 0xf1, 0x80, 0x3d,
  0x77, 0x9f, 0xbe, 0x3c, 0x4d, 0x5e, 0x0f, 0x3e, 0x5c, 0xa4, 0x95, 0xbe,
  0x6c, 0x41, 0x23, 0xbd, 0x09, 0x42, 0x88, 0xbd, 0x60, 0x83, 0x1e, 0x3e,
  0x71, 0x36, 0xb8, 0xbd, 0x5a, 0x6a, 0x52, 0xbe, 0x2e, 0xc8, 0x52, 0xbc,
  0x82, 0xd9, 0x97, 0x3d, 0x8d, 0x4a, 0xb0, 0xbe, 0xf0, 0xbc, 0x26, 0x3e,
  0xe1, 0xeb, 0x63, 0x3c, 0x68, 0x54, 0x5b, 0x3e, 0xe6, 0x72, 0xbd, 0xbd,
  0x11, 0x09, 0xc1, 0xbd, 0xe0, 0xe5, 0x06, 0x3e, 0x5c, 0x22, 0x36, 0x3d,
  0x84, 0x5a, 0x32, 0xbf, 0x02, 0xe0, 0x29, 0x3e, 0xb7, 0x0d, 0x03, 0xbd,
  0x52, 0x6e, 0x8c, 0xbd, 0xbe, 0x40, 0xb4, 0x3d, 0x23, 0xb1, 0xb4, 0xbd,
  0x9e, 0x6c, 0xa7, 0x3c, 0x37, 0x24, 0xa4, 0x3d, 0xd2, 0x12, 0x33, 0xbf,
  0xec, 0xd4, 0x6d, 0x3d, 0xfa, 0x7e, 0xf1, 0xbd, 0x02, 0x3a, 0xaf, 0xbd,
  0x3e, 0x7c, 0xa6, 0xbb, 0x85, 0x8f, 0x2b, 0xbe, 0xe0, 0x0d, 0xd8, 0x3b,
  0x05, 0x75, 0x8d, 0x3d, 0xb5, 0x43, 0x45, 0xbf, 0xa0, 0xb6, 0xb5, 0x3b,
  0x33, 0xe2, 0x22, 0xbe, 0x24, 0x27, 0x90, 0xbe, 0xec, 0x23, 0xd0, 0xbd,
  0x0a, 0xae, 0x83, 0xbe, 0xb6, 0x31, 0x43, 0x3e, 0x39, 0xe0, 0x3d, 0xbe,
  0xee, 0xb1, 0x68, 0xbf, 0x04, 0x71, 0x3e, 0xbd, 0x9c, 0x73, 0x9c, 0xbe,
  0x9c, 0x75, 0x18, 0xbf, 0x1a, 0x90, 0x6d, 0xbe, 0x60, 0x2f, 0xb4, 0xbe,
  0xe6, 0x5b, 0x4d, 0xbe, 0x97, 0x28, 0x79, 0xbe, 0x26, 0x2a, 0x54, 0xbf,
  0xf6, 0x8d, 0x9f, 0x3d, 0x7c, 0x3d, 0xe9, 0xbe, 0xa9, 0xd9, 0x3f, 0xbf,
  0x41, 0x80, 0xb3, 0xbe, 0x2b, 0x4d, 0xd9, 0xbe, 0x95, 0xb5, 0x92, 0xbe,
  0xb8, 0xaa, 0xbe, 0xbe, 0x28, 0x4c, 0xd1, 0xbe, 0xd4, 0xbe, 0xaa, 0xbd,
  0xeb, 0xe2, 0x4e, 0xbe, 0x0d, 0xce, 0xc0, 0xbe, 0x72, 0x01, 0x60, 0xbe,
  0x21, 0xe2, 0xe4, 0xbe, 0xa9, 0xba, 0x80, 0xbe, 0xad, 0x7b, 0xda, 0xbe,
  0x0d, 0xb5, 0xdf, 0xbe, 0xb0, 0x3b, 0x29, 0x3d, 0x6e, 0x2e, 0x91, 0xbe,
  0x60, 0xe7, 0x3a, 0xbe, 0x16, 0x6f, 0x30, 0xbe, 0xe0, 0x8a, 0xfa, 0xbd,
  0x25, 0xbc, 0x59, 0xbe, 0xf7, 0x26, 0xc0, 0xbd, 0x58, 0x7e, 0xc8, 0xbe,
  0x4c, 0x67, 0x07, 0xbd, 0xe4, 0x72, 0x14, 0xbe, 0x8c, 0x56, 0x90, 0xbe,
  0xef, 0x8f, 0x80, 0xbe, 0x79, 0x2c, 0x33, 0xbd, 0x58, 0x82, 0x66, 0xbd,
  0xd1, 0x81, 0x78, 0xbd, 0x2d, 0xc7, 0x5a, 0xbe, 0x02, 0x03, 0x6d, 0xbd,
  0x3e, 0x11, 0xc9, 0xbe, 0xfa, 0x9b, 0x96, 0xbe, 0xb5, 0xce, 0x98, 0xbe,
  0x50, 0x37, 0x65, 0xbe, 0x9d, 0x59, 0xb7, 0xbe, 0x07, 0xc6, 0x9b, 0xbe,
  0x93, 0x18, 0x89, 0xbd, 0x3c, 0x4c, 0xe5, 0x3d, 0x47, 0x87, 0x00, 0x3c,
  0x9f, 0x9c, 0x2f, 0xbe, 0xd5, 0x0c, 0x67, 0x3d, 0xe0, 0xf0, 0x05, 0x3d,
  0xce, 0x6b, 0xb0, 0x3d, 0x17, 0x0a, 0x88, 0xbb, 0x67, 0x22, 0xdb, 0xbd,
  0xc0, 0xae, 0x9e, 0xbb, 0x51, 0x6e, 0x4a, 0xbb, 0x14, 0xbf, 0x7a, 0xbe,
  0x0c, 0x5f, 0xc2, 0xbc, 0xbf, 0x21, 0xc2, 0x3d, 0x14, 0xcd, 0x23, 0x3e,
  0xb0, 0x7f, 0x55, 0x3d, 0x4a, 0xa7, 0x7d, 0xba, 0x56, 0x92, 0x20, 0x3e,
  0xce, 0x62, 0x05, 0xbe, 0x66, 0x58, 0xee, 0xbc, 0x39, 0x93, 0xf7, 0xbd,
  0x52, 0xfe, 0x01, 0xbe, 0x77, 0xae, 0x7e, 0xbe, 0x85, 0x43, 0x53, 0xbe,
  0xac, 0xef, 0x41, 0x3d, 0x98, 0x33, 0xfa, 0xbc, 0x2d, 0xb9, 0xc4, 0x3d,
  0x6f, 0x43, 0x13, 0xbd, 0x29, 0x2a, 0xad, 0x3d, 0x4b, 0x7a, 0x69, 0xbc,
  0xfb, 0xa8, 0x51, 0x3e, 0xc3, 0x79, 0x3b, 0xbd, 0x3c, 0x53, 0xda, 0x3d,
  0xc0, 0xc9, 0x0a, 0x3d, 0xeb, 0x4f, 0xe5, 0x39, 0xe6, 0x3d, 0xaa, 0xbd,
  0xef, 0x23, 0x53, 0x3d, 0xfc, 0x9a, 0x54, 0x3d, 0x28, 0x45, 0x03, 0xbd,
  0xdc, 0x12, 0xef, 0x3d, 0xa1, 0xd7, 0x18, 0x3d, 0x54, 0xca, 0x24, 0x3e,
  0xce, 0xef, 0xeb, 0xbc, 0x14, 0x08, 0x57, 0x3e, 0xb3, 0xfc, 0x50, 0x3d,
  0x1c, 0x13, 0x43, 0x3b, 0x79, 0x2f, 0x10, 0x3d, 0x59, 0x65, 0x64, 0x3e,
  0x67, 0x17, 0x12, 0x3e, 0xa8, 0xc1, 0x2a, 0x3d, 0x88, 0xc9, 0x1d, 0x3d,
  0x7f, 0x9c, 0xde, 0xbd, 0x93, 0xd5, 0x41, 0x3d, 0xc2, 0x33, 0x6c, 0xba,
  0xd0, 0xee, 0xad, 0x3d, 0x59, 0x95, 0x93, 0x3d, 0x48, 0x77, 0xa1, 0x3d,
  0x78, 0x2c, 0xb2, 0xbc, 0x45, 0xbc, 0xfd, 0x3d, 0x16, 0x9b, 0x98, 0xbc,
  0xf1, 0xe5, 0x35, 0x3e, 0xa5, 0x1f, 0x30, 0x3d, 0x8d, 0x7a, 0x07, 0x3e,
  0x4d, 0xf1, 0xab, 0x3c, 0x0b, 0x9a, 0x20, 0x3e, 0x5c, 0xfc, 0x19, 0x3d,
  0x2c, 0xd4, 0x47, 0x3e, 0x4a, 0x6c, 0xc2, 0x3e, 0x8d, 0xa6, 0x49, 0x3e,
  0xd3, 0x58, 0xb3, 0x3d, 0xd4, 0xf4, 0xd1, 0x3d, 0x98, 0x0d, 0x28, 0x3e,
  0x44, 0x15, 0x78, 0xbc, 0x78, 0xdc, 0x34, 0x3d, 0x7e, 0xfc, 0xa3, 0x3d,
  0x0a, 0xde, 0x52, 0xbd, 0x51, 0x03, 0x9c, 0x3c, 0x39, 0x45, 0xdd, 0xbd,
  0x5c, 0x1d, 0x60, 0x3d, 0x2b, 0x42, 0x70, 0xbd, 0x50, 0xe2, 0x2d, 0x3d,
  0x00, 0x67, 0x29, 0x3d, 0x0f, 0xf2, 0x20, 0x3e, 0x01, 0xa5, 0x05, 0xbe,
  0x50, 0x76, 0x94, 0x3d, 0xf3, 0x68, 0x54, 0x3d, 0xce, 0x9f, 0x14, 0x3e,
  0x12, 0x89, 0x48, 0xbc, 0x55, 0x71, 0x0f, 0x3e, 0x6a, 0x80, 0x8f, 0x3d,
  0x9b, 0x2e, 0x61, 0x3e, 0x12, 0x57, 0x9b, 0x3e, 0x35, 0x88, 0x26, 0x3e,
  0x60, 0x66, 0xfe, 0x3d, 0xd6, 0x6d, 0x86, 0x3e, 0xc3, 0xcb, 0x4e, 0x3e,
  0x8f, 0x5a, 0x35, 0x3e, 0x80, 0x20, 0x23, 0xbc, 0xeb, 0x66, 0x69, 0x3d,
  0x32, 0xa4, 0x21, 0xbd, 0x64, 0x96, 0x0e, 0x3e, 0xc3, 0x7c, 0x97, 0xba,
  0x82, 0x14, 0x20, 0x3e, 0x22, 0x71, 0xbb, 0x3c, 0x42, 0x71, 0xdf, 0xba,
  0xea, 0xfa, 0x1f, 0x3e, 0xd9, 0x9b, 0xc8, 0x3b, 0x89, 0xf1, 0x58, 0xbe,
  0x18, 0x7e, 0x07, 0x3d, 0x66, 0x9e, 0x37, 0xbd, 0x6e, 0x62, 0x24, 0x3e,
  0x4a, 0xcc, 0x63, 0xbd, 0x0a, 0xda, 0x92, 0x3d, 0xd4, 0x88, 0x21, 0x3e,
  0x3f, 0x77, 0x21, 0x3e, 0x82, 0xc8, 0xc6, 0x3e, 0x75, 0xdb, 0x28, 0x3e,
  0x3f, 0xe0, 0x08, 0x3e, 0xc4, 0x45, 0xbb, 0x3e, 0xd9, 0xb0, 0xa4, 0x3e,
  0xfa, 0x57, 0x7e, 0x3e, 0x88, 0xa6, 0xeb, 0xbc, 0x4c, 0x92, 0x4d, 0xbc,
  0x0e, 0xeb, 0x21, 0x3f, 0x58, 0x9b, 0xab, 0x3d, 0xdc, 0x06, 0x3a, 0x3e,
  0x5b, 0x77, 0xc5, 0x3d, 0x94, 0xd7, 0xd5, 0x3e, 0x2e, 0x3f, 0x21, 0x3e,
  0xa0, 0xfa, 0x71, 0x3c, 0xad, 0xbf, 0x3f, 0xbd, 0x0b, 0x56, 0x29, 0x3f,
  0xfa, 0xaa, 0x21, 0xbd, 0xed, 0x9f, 0x91, 0x3e, 0x8e, 0xcd, 0x27, 0x3e,
  0x73, 0x1e, 0xbf, 0x3e, 0xd8, 0xb7, 0x00, 0x3c, 0x60, 0x14, 0xb0, 0xbc,
  0x96, 0x01, 0x95, 0x3d, 0x5d, 0xf6, 0x00, 0x3f, 0x01, 0x78, 0x36, 0x3e,
  0x4e, 0x26, 0xab, 0x3d, 0xdb, 0x83, 0x12, 0x3e, 0xe3, 0x5c, 0xa7, 0x3e,
  0x58, 0xe6, 0xef, 0xbe, 0x2a, 0xf4, 0x40, 0xbd, 0xf0, 0x0e, 0x22, 0x3e,
  0x17, 0xc5, 0x8e, 0xbe, 0x31, 0x86, 0xc5, 0x3e, 0x31, 0x81, 0x17, 0xbf,
  0x32, 0xd9, 0x03, 0x3f, 0xc6, 0xdd, 0x22, 0x3e, 0x5f, 0x6a, 0xb3, 0x3e,
  0xc2, 0xf7, 0x0d, 0x3e, 0xff, 0x1e, 0x82, 0x3e, 0xca, 0xa3, 0x1b, 0xbf,
  0xc5, 0x13, 0x9c, 0x3e, 0x96, 0x28, 0x60, 0xbe, 0x0b, 0x42, 0xa9, 0x3e,
  0x20, 0xc5, 0x4b, 0x3e, 0xfb, 0x05, 0xc0, 0xbf, 0xe0, 0x79, 0x2f, 0x3c,
  0x5f, 0x05, 0xa5, 0x3d, 0xc7, 0x16, 0x04, 0xc0, 0x46, 0x35, 0xa5, 0x3d,
  0xc8, 0xea, 0x52, 0xbf, 0x98, 0x15, 0x0d, 0x3f, 0x72, 0x82, 0x2b, 0x3f,
  0x81, 0x30, 0xc0, 0xbf, 0x60, 0xff, 0x19, 0xbd, 0x55, 0x88, 0xb1, 0xbe,
  0x14, 0x28, 0x70, 0xbf, 0x4c, 0xef, 0x99, 0xbe, 0x07, 0xf5, 0x28, 0xbf,
  0x72, 0x57, 0x98, 0x3e, 0xd0, 0xf4, 0x65, 0x3e, 0x9c, 0x82, 0x36, 0xbf,
  0xb8, 0x39, 0xa8, 0x3d, 0x34, 0x21, 0x4f, 0xbe, 0x4b, 0xfa, 0x78, 0xbc,
  0x02, 0x8d, 0xa5, 0xbd, 0xb8, 0xc9, 0x00, 0xbf, 0xee, 0x61, 0xaf, 0x3e,
  0x2c, 0x7c, 0xd9, 0x3e, 0xd2, 0xfc, 0x43, 0xc0, 0x80, 0x64, 0xe5, 0x3a,
  0x08, 0x57, 0x66, 0xbf, 0x10, 0xa1, 0x26, 0xc0, 0x29, 0xd2, 0x46, 0xbf,
  0x15, 0xb3, 0xbf, 0xbf, 0x6a, 0xec, 0x2a, 0x3f, 0x3b, 0x18, 0x1d, 0x3f,
  0x41, 0x02, 0xae, 0xbf, 0x40, 0x89, 0xfd, 0x3b, 0xfd, 0x89, 0xf9, 0xbe,
  0x4d, 0x4d, 0x77, 0xbf, 0x68, 0x4d, 0xf8, 0xbe, 0x59, 0xe0, 0x6f, 0xbf,
  0xcd, 0xe4, 0xe5, 0x3e, 0xa6, 0x82, 0xd7, 0x3e, 0x82, 0x5a, 0x93, 0xbf,
  0xc0, 0xe8, 0xa6, 0x3c, 0x94, 0xd9, 0xd2, 0xbe, 0x0d, 0x0e, 0x3b, 0xbf,
  0x41, 0xea, 0xf3, 0xbe, 0xf9, 0x92, 0x46, 0xbf, 0x09, 0x5c, 0xd6, 0x3e,
  0xdc, 0x51, 0x91, 0x3e, 0x76, 0xce, 0x51, 0xc0, 0xc4, 0xf0, 0x84, 0x3d,
  0x21, 0xdd, 0xd1, 0xbf, 0x36, 0xa1, 0x85, 0xbf, 0x83, 0xe2, 0xc1, 0xbf,
  0x9c, 0x46, 0xfc, 0xbf, 0x03, 0xd9, 0x40, 0x3f, 0x10, 0x10, 0x27, 0x3f,
  0x7b, 0xcf, 0x50, 0x3e, 0x08, 0x68, 0xe2, 0x3d, 0xb9, 0x0e, 0xa8, 0xbe,
  0x11, 0x16, 0xd6, 0x3d, 0x4f, 0x67, 0x84, 0xbe, 0x48, 0xbe, 0x9f, 0xbe,
  0x49, 0x3c, 0xe7, 0x3e, 0x33, 0xab, 0x1e, 0x3e, 0xac, 0x80, 0x5a, 0x3e,
  0xf0, 0xf6, 0x07, 0x3e, 0xa5, 0x56, 0xfd, 0xbe, 0x85, 0xef, 0xf8, 0x3b,
  0x13, 0x5c, 0xf1, 0xbe, 0x50, 0xb5, 0xb4, 0xbe, 0xe4, 0x4a, 0xb5, 0x3e,
  0x24, 0x3d, 0xb8, 0x3d, 0xe9, 0xd6, 0x9b, 0xbd, 0xe5, 0x52, 0x0f, 0xbe,
  0xd5, 0x42, 0x64, 0xbf, 0x38, 0x73, 0xe3, 0x3e, 0x2f, 0x5f, 0x95, 0xbf,
  0x1e, 0xeb, 0xd5, 0xbe, 0xd7, 0xb5, 0x24, 0x3f, 0xac, 0x0d, 0xb0, 0x3e,
  0x01, 0x81, 0x08, 0x3e, 0x40, 0xd2, 0xd1, 0x3c, 0x03, 0x42, 0x44, 0xbd,
  0xa5, 0xf3, 0x21, 0x3c, 0x20, 0x40, 0x8c, 0x3c, 0xc9, 0x29, 0x30, 0xbd,
  0xf3, 0xfe, 0x05, 0x3e, 0x2c, 0x7b, 0x65, 0x3d, 0x4f, 0x69, 0xb4, 0x3d,
  0xb0, 0xaf, 0x1f, 0x3e, 0xee, 0x48, 0x9c, 0xbd, 0x63, 0x57, 0xf9, 0x3b,
  0x4a, 0xeb, 0xfe, 0xbd, 0xf7, 0xbd, 0x40, 0xbd, 0xca, 0x91, 0x03, 0xbd,
  0x9d, 0x2e, 0xb9, 0x3c, 0x08, 0xa2, 0x05, 0x3e, 0x84, 0x25, 0xc0, 0x3d,
  0x8a, 0x3f, 0x06, 0x3e, 0x03, 0x8d, 0xa8, 0x3e, 0x77, 0x94, 0x81, 0x3e,
  0x50, 0xcb, 0x31, 0x3e, 0x4c, 0x64, 0x29, 0x3f, 0xdc, 0x30, 0x8c, 0x3e,
  0xe0, 0x95, 0x2b, 0x3e, 0x44, 0xa1, 0xce, 0x3d, 0x4d, 0x3f, 0x16, 0x3e,
  0x26, 0xed, 0x6f, 0x3e, 0x96, 0xc8, 0x9b, 0xbb, 0xd2, 0x1c, 0xb3, 0x3d,
  0x87, 0x7e, 0xf0, 0x3b, 0x59, 0x83, 0x9d, 0x3d, 0xfe, 0x6b, 0x40, 0x3e,
  0xbc, 0xed, 0x87, 0xbd, 0xd3, 0x49, 0xe8, 0x3a, 0x8d, 0xdf, 0x19, 0x3e,
  0x0f, 0xb3, 0x5b, 0x3d, 0x9d, 0xd0, 0xb1, 0x3d, 0x38, 0x1f, 0xd1, 0xbd,
  0x3d, 0x81, 0xbe, 0x3d, 0xf9, 0x7c, 0xb5, 0xbc, 0x8e, 0xb9, 0x8d, 0x3d,
  0x4d, 0xcb, 0x22, 0x3e, 0x13, 0xa9, 0xe6, 0x3d, 0xe8, 0x0b, 0x50, 0x3e,
  0xa1, 0x65, 0x22, 0x3e, 0x69, 0x45, 0xf0, 0x3e, 0x79, 0xa7, 0x32, 0x3e,
  0x10, 0xdd, 0xde, 0x3d, 0x78, 0x72, 0x8e, 0x3d, 0x1c, 0x54, 0xa0, 0x3d,
  0x6e, 0x11, 0x34, 0x3e, 0x23, 0x30, 0x07, 0x3e, 0x14, 0x03, 0x97, 0x3d,
  0x29, 0xd2, 0x02, 0x3d, 0x34, 0x09, 0x92, 0xbc, 0x13, 0xa1, 0xa1, 0x3d,
  0x31, 0x6c, 0x8d, 0xbd, 0x93, 0xad, 0xbf, 0x3d, 0xed, 0x14, 0xb7, 0x3d,
  0xa2, 0x1c, 0xcf, 0x3d, 0x89, 0xf0, 0xbb, 0x3d, 0xd0, 0xa5, 0x50, 0xbd,
  0x79, 0xc1, 0xe1, 0x3d, 0xa6, 0x0c, 0x8b, 0xbb, 0xa1, 0xcb, 0xbe, 0xbd,
  0xa5, 0xe1, 0xe5, 0x3c, 0x0b, 0x8f, 0x09, 0xbe, 0xb2, 0x49, 0xb5, 0x3d,
  0x33, 0xb2, 0x86, 0x3d, 0x71, 0x2b, 0x80, 0x3e, 0xfa, 0x16, 0x21, 0x3d,
  0xfb, 0xd5, 0x08, 0x3e, 0x38, 0x22, 0xd1, 0xbd, 0x22, 0x68, 0xbe, 0xbb,
  0x12, 0x98, 0x9a, 0x3d, 0xd0, 0x35, 0xcc, 0x3d, 0xc4, 0x0f, 0x0c, 0x3e,
  0x02, 0x01, 0x9e, 0xbd, 0xa5, 0xb6, 0x26, 0xbd, 0xae, 0x12, 0x80, 0x3e,
  0xa8, 0x18, 0x03, 0xbd, 0xe9, 0xb3, 0x32, 0x3d, 0x90, 0x7a, 0x4c, 0xbd,
  0x21, 0xd4, 0x20, 0x3e, 0x0f, 0xcc, 0x62, 0x3c, 0x6b, 0xc3, 0x55, 0xbb,
  0x41, 0xac, 0x9d, 0xbc, 0x1d, 0x48, 0xfd, 0x3b, 0x68, 0xf1, 0xc9, 0x3c,
  0xf3, 0xfe, 0xc1, 0xbd, 0xe0, 0xcf, 0x15, 0xbd, 0xa9, 0xee, 0xa1, 0x3d,
  0x05, 0x97, 0x31, 0xbd, 0x4c, 0xe4, 0x58, 0xbc, 0xb1, 0x02, 0x53, 0xbe,
  0x3e, 0xc9, 0xb7, 0xbe, 0x6c, 0x0d, 0x00, 0xbd, 0x74, 0xb9, 0x05, 0x3f,
  0xb9, 0xca, 0xd5, 0xbe, 0x40, 0x1d, 0x0b, 0x3f, 0x43, 0xb5, 0xc2, 0x3e,
  0x9c, 0x9e, 0x43, 0xbf, 0xbb, 0xfd, 0xfe, 0xbe, 0x9b, 0x55, 0x08, 0x3e,
  0xc7, 0xbe, 0x21, 0xbe, 0xac, 0x94, 0xb9, 0x3e, 0x68, 0xb4, 0x8d, 0xbe,
  0xd7, 0x30, 0x1c, 0x3f, 0xe2, 0x9a, 0x66, 0x3e, 0x01, 0x71, 0x15, 0xbf,
  0xe8, 0x1a, 0x30, 0xbf, 0xe0, 0x88, 0xa1, 0x3f, 0x43, 0x7c, 0x94, 0xbd,
  0xa9, 0x65, 0x0e, 0x40, 0x96, 0xfb, 0x28, 0x3f, 0xd2, 0xd7, 0x07, 0x40,
  0x3d, 0x45, 0xa7, 0x3f, 0xc7, 0x34, 0x24, 0xbf, 0xf2, 0xa9, 0x18, 0xbf,
  0x23, 0x14, 0xa0, 0x3d, 0x60, 0x8b, 0xe9, 0xbc, 0x99, 0x1d, 0x8f, 0x3d,
  0x5f, 0x94, 0x46, 0x3d, 0xce, 0xba, 0x16, 0x3e, 0xcd, 0xf3, 0xe8, 0x3d,
  0x20, 0x00, 0x13, 0xbf, 0x8d, 0x09, 0xd7, 0xbe, 0xfa, 0x39, 0x4a, 0x3e,
  0xb1, 0x73, 0x8c, 0xbd, 0xe3, 0x79, 0x85, 0x3d, 0x1c, 0x92, 0x36, 0x3e,
  0x2e, 0x7e, 0x98, 0x3d, 0x49, 0xf6, 0x92, 0x3d, 0x85, 0xf4, 0xb7, 0xbe,
  0xe4, 0x6e, 0x91, 0xbe, 0x55, 0xb9, 0xef, 0x3e, 0x00, 0x35, 0xe7, 0xbd,
  0x63, 0x53, 0xc4, 0x3e, 0x99, 0xe1, 0xf6, 0x3e, 0x47, 0x48, 0xe0, 0x3e,
  0x61, 0x32, 0x0f, 0x3f, 0x02, 0x9f, 0x40, 0xbf, 0x22, 0xcc, 0x02, 0xbf,
  0x3b, 0x04, 0x4a, 0x3c, 0x93, 0xff, 0x0b, 0xbe, 0x1d, 0x9b, 0x48, 0x3e,
  0x25, 0x44, 0x0f, 0x3e, 0x33, 0x4b, 0xa8, 0x3d, 0xdf, 0x4d, 0x11, 0x3e,
  0xe5, 0x08, 0xc0, 0xbd, 0x3d, 0x5e, 0x55, 0xbe, 0xad, 0x0b, 0x4e, 0x3e,
  0x80, 0x90, 0x75, 0x3c, 0x96, 0xbd, 0x64, 0x3e, 0xc7, 0xb8, 0xd7, 0x3d,
  0x03, 0x98, 0xd3, 0x3d, 0x86, 0xf6, 0x2b, 0x3e, 0x3c, 0x8a, 0x39, 0xbe,
  0x6c, 0x31, 0x06, 0xbe, 0x50, 0x9a, 0xd6, 0x3e, 0x6c, 0x1e, 0xa6, 0x3d,
  0x26, 0x6a, 0xbc, 0x3e, 0xd9, 0x92, 0x0b, 0x3e, 0x1e, 0xd1, 0xdb, 0x3e,
  0xae, 0xb2, 0x83, 0x3e, 0x68, 0x71, 0x0b, 0xbf, 0xc6, 0xc6, 0x32, 0xbe,
  0x35, 0x24, 0x56, 0xbe, 0x2e, 0xd0, 0x13, 0xbe, 0x24, 0x0d, 0x59, 0xbd,
  0x8a, 0x33, 0xba, 0x3d, 0x6a, 0xd2, 0x96, 0xbc, 0x36, 0xd1, 0xa7, 0xbd,
  0x76, 0x7e, 0xa9, 0xbd, 0x7b, 0x63, 0x15, 0x3d, 0x37, 0xff, 0x18, 0x3e,
  0xb1, 0xf6, 0xf6, 0xbd, 0x58, 0x2f, 0xa0, 0x3d, 0xb7, 0x83, 0x5a, 0x3e,
  0x8f, 0x31, 0x46, 0x3d, 0xbd, 0xdf, 0xec, 0x3d, 0xe9, 0xec, 0xac, 0xbd,
  0xd7, 0x9c, 0xfe, 0xbc, 0xa0, 0x19, 0x8a, 0x3c, 0x91, 0xe0, 0x9f, 0xbd,
  0x0a, 0x61, 0xc7, 0x3d, 0xc7, 0x9b, 0x2f, 0x3e, 0x64, 0x59, 0x9d, 0x3d,
  0x6d, 0xd6, 0x27, 0x3e, 0xc2, 0x8c, 0xda, 0xbe, 0xe3, 0xb1, 0x75, 0xbe,
  0x5f, 0xdb, 0x3b, 0xbe, 0x80, 0xca, 0x09, 0xbe, 0xed, 0x5a, 0x5f, 0x3d,
  0xa5, 0x04, 0x6f, 0xbc, 0x02, 0x7d, 0x06, 0x3b, 0xb7, 0x8d, 0x81, 0x3c,
  0x5a, 0x01, 0xe8, 0xbc, 0xa6, 0x8c, 0xb8, 0xbd, 0x0a, 0xa1, 0xd1, 0xba,
  0xc0, 0xfc, 0xd2, 0x3d, 0x07, 0x29, 0x18, 0x3d, 0x52, 0x70, 0x23, 0xbd,
  0x7a, 0xbd, 0x17, 0x3d, 0x6f, 0x9a, 0x64, 0xbd, 0x78, 0x46, 0xb5, 0x3d,
  0xd8, 0x33, 0xb5, 0x3d, 0x6d, 0xeb, 0x94, 0xbd, 0x24, 0xcc, 0x9c, 0xbd,
  0x73, 0x92, 0xcd, 0x3d, 0xc4, 0x98, 0xa1, 0x3e, 0xa3, 0xc1, 0x07, 0x3e,
  0xba, 0x4c, 0x02, 0x3e, 0xb2, 0x95, 0x5c, 0xbe, 0x18, 0x62, 0x45, 0x3d,
  0x88, 0xb8, 0x7e, 0xbe, 0xcc, 0x84, 0xf2, 0xbd, 0x65, 0xae, 0xc6, 0x3a,
  0x32, 0x80, 0xbb, 0x3d, 0x56, 0x38, 0x02, 0xbe, 0x6f, 0x52, 0x06, 0xbe,
  0x52, 0x25, 0x18, 0xbe, 0x8c, 0xe9, 0xcd, 0xbd, 0x2d, 0x10, 0x87, 0xbd,
  0xac, 0x5a, 0x04, 0xbd, 0x0f, 0x57, 0x80, 0xbd, 0x3a, 0x2a, 0x97, 0xbd,
  0xac, 0x1c, 0x2c, 0xbd, 0x11, 0x86, 0xf2, 0xbc, 0x0c, 0x1f, 0x82, 0x3d,
  0x39, 0x9b, 0x9f, 0xbc, 0x19, 0x9c, 0xda, 0xbd, 0x2a, 0x78, 0x1e, 0x3e,
  0xd6, 0x02, 0x4d, 0x3e, 0xfe, 0xe3, 0xbe, 0x3e, 0xf5, 0x37, 0x5d, 0x3e,
  0x90, 0x90, 0x92, 0x3e, 0xac, 0xab, 0x16, 0x3e, 0x67, 0x27, 0x08, 0x3e,
  0xf4, 0xfb, 0x31, 0xbe, 0x98, 0xf5, 0x13, 0xbd, 0x40, 0xd2, 0xb2, 0x3d,
  0x8a, 0xc4, 0xf6, 0x3c, 0xe7, 0x67, 0xba, 0x3a, 0x53, 0x05, 0x5d, 0xbd,
  0x0d, 0x76, 0x89, 0x3d, 0x1c, 0xc0, 0x59, 0xbd, 0xcb, 0x0e, 0xa6, 0xbd,
  0xaa, 0xb4, 0x8e, 0xbd, 0x5b, 0x82, 0xa1, 0xbd, 0x37, 0x50, 0x13, 0xbd,
  0x01, 0x52, 0x9b, 0x3c, 0x6a, 0x46, 0xcb, 0xbd, 0x3d, 0xee, 0x3a, 0x3e,
  0xf3, 0x6c, 0xe8, 0x3d, 0x56, 0xa6, 0x67, 0xbe, 0x5c, 0xae, 0x8b, 0x3d,
  0x89, 0x62, 0xae, 0x3d, 0xd9, 0xea, 0x22, 0x3e, 0x8c, 0xc4, 0x3b, 0x3e,
  0x05, 0xac, 0x1f, 0x3e, 0x9c, 0x5a, 0x6e, 0x3d, 0x3d, 0xe3, 0xfe, 0x3d,
  0xdc, 0x54, 0xa2, 0xbe, 0x12, 0x2a, 0xdf, 0xbd, 0x24, 0x48, 0x4f, 0x3d,
  0x43, 0x98, 0xd1, 0xbc, 0x95, 0x10, 0x2e, 0xbd, 0xa4, 0xf1, 0x15, 0xbe,
  0x4f, 0x58, 0x87, 0x3d, 0x0a, 0x2f, 0x2c, 0xbd, 0xe8, 0x8a, 0x91, 0xbe,
  0xd8, 0xb4, 0xb4, 0xbc, 0x01, 0xec, 0x46, 0xbd, 0xb5, 0x16, 0x4f, 0xbd,
  0x00, 0x63, 0x16, 0xbe, 0xe6, 0x35, 0x1a, 0xbe, 0x6b, 0x8d, 0xc1, 0x3d,
  0x7a, 0x48, 0x71, 0xbd, 0x2a, 0x06, 0xa6, 0xbe, 0xa8, 0xe3, 0xdc, 0xbc,
  0x07, 0x57, 0xd1, 0x3d, 0x39, 0x3b, 0x49, 0x3d, 0xd0, 0xb8, 0xaa, 0x3d,
  0xeb, 0x6e, 0xd7, 0x3d, 0x64, 0x68, 0x00, 0x3c, 0xe9, 0x0d, 0x24, 0x3e,
  0xa7, 0xf2, 0x6b, 0x3e, 0xd0, 0x73, 0xe7, 0x3d, 0xc2, 0x6f, 0x11, 0xbf,
  0x6f, 0x47, 0xf5, 0x3d, 0xce, 0x36, 0xd7, 0xbe, 0x72, 0x79, 0xd6, 0xbd,
  0xb1, 0xa5, 0x88, 0xbf, 0xe2, 0x05, 0xc7, 0xbe, 0xe2, 0x6a, 0x4b, 0x3e,
  0x1c, 0xbc, 0xcf, 0x3d, 0x76, 0x6f, 0x29, 0xbf, 0x1c, 0xa6, 0x9a, 0x3e,
  0x99, 0x1c, 0xf1, 0xbe, 0xaf, 0x69, 0xb0, 0xbd, 0x61, 0x06, 0xc4, 0xbf,
  0x42, 0xaf, 0xe0, 0xbe, 0x4c, 0x0a, 0x92, 0x3e, 0x58, 0x22, 0xd2, 0x3d,
  0x19, 0xbc, 0x96, 0x3e, 0xe4, 0x12, 0x99, 0xbd, 0x71, 0xed, 0x8e, 0x3e,
  0x97, 0x8a, 0x31, 0xbd, 0x59, 0x6a, 0xc8, 0xbe, 0xcb, 0xe9, 0xc4, 0xbe,
  0x19, 0x26, 0x00, 0x3f, 0x10, 0x14, 0x0b, 0x3e, 0x75, 0x16, 0x83, 0x3e,
  0xcb, 0x0f, 0xc9, 0x3e, 0x44, 0xda, 0x1e, 0x3e, 0x45, 0x1c, 0x58, 0x3e,
  0x15, 0xd8, 0xd0, 0x3e, 0xb3, 0x6c, 0xc6, 0x3e, 0x6e, 0x66, 0x01, 0x3f,
  0x79, 0x5e, 0xd4, 0xbd, 0xbb, 0x22, 0xd3, 0x3e, 0xf2, 0x08, 0xd5, 0x3e,
  0x2f, 0x3e, 0xac, 0x3e, 0x74, 0xcc, 0xa3, 0x3e, 0x98, 0xae, 0xfa, 0x3e,
  0x11, 0x01, 0xb2, 0x3e, 0x88, 0xc3, 0x98, 0x3e, 0xa0, 0xfa, 0xcb, 0x3c,
  0x29, 0x82, 0x13, 0xbe, 0x0d, 0xb9, 0x39, 0x3c, 0x98, 0xc9, 0xf7, 0xbd,
  0xfd, 0xf7, 0x92, 0xbd, 0xde, 0x76, 0xaa, 0xbe, 0x4d, 0xee, 0x10, 0xbe,
  0x00, 0x58, 0x12, 0x3f, 0x40, 0x3d, 0x32, 0x3d, 0xf9, 0xe1, 0x62, 0x3e,
  0xad, 0xab, 0x86, 0x3e, 0x5e, 0x40, 0xc1, 0x3e, 0x88, 0x2d, 0x89, 0x3e,
  0xa1, 0x78, 0xe7, 0x3e, 0xed, 0xeb, 0x70, 0x3e, 0x31, 0x47, 0x00, 0x3f,
  0x28, 0xc2, 0xa3, 0xbc, 0x33, 0x29, 0x86, 0x3e, 0xf4, 0x78, 0x87, 0x3e,
  0xc7, 0x4c, 0x98, 0x3e, 0x58, 0x41, 0x91, 0x3e, 0xe0, 0x75, 0x07, 0x3f,
  0xba, 0xc7, 0xcc, 0x3d, 0xb4, 0xbe, 0xad, 0x3e, 0x2f, 0x02, 0xca, 0xbd,
  0x33, 0x2c, 0xc4, 0x3d, 0x34, 0xfd, 0x26, 0x3e, 0x57, 0xa5, 0xaa, 0x3d,
  0x43, 0x2b, 0xcf, 0x3d, 0xb3, 0x91, 0x35, 0xbc, 0xe8, 0x97, 0x1f, 0x3e,
  0x3c, 0x6a, 0xca, 0x3e, 0x7d, 0xf0, 0x81, 0xbd, 0x15, 0x36, 0x34, 0x3e,
  0x97, 0x25, 0x5d, 0xbb, 0x65, 0x86, 0xa9, 0x3e, 0xa1, 0xc4, 0x57, 0x3e,
  0x5a, 0x56, 0x40, 0x3e, 0x08, 0x7e, 0x2c, 0x3d, 0x16, 0xb7, 0xb0, 0x3e,
  0x18, 0x13, 0xd1, 0xbc, 0x20, 0xf2, 0x8e, 0x3e, 0x83, 0x68, 0x5c, 0x3d,
  0x39, 0xee, 0xa3, 0x3e, 0x70, 0xf6, 0x88, 0x3e, 0xa6, 0x0f, 0xa0, 0x3e,
  0x1e, 0x02, 0x5c, 0x3d, 0xc3, 0xf7, 0xba, 0x3e, 0xf1, 0x02, 0x08, 0xbe,
  0x80, 0xa8, 0x06, 0x3e, 0xc2, 0x57, 0x6c, 0x3e, 0xf7, 0x04, 0x54, 0x3e,
  0x7a, 0x2c, 0x2a, 0x3e, 0x55, 0xfd, 0x45, 0x3e, 0x8d, 0x61, 0x56, 0x3e,
  0xcb, 0xb6, 0xef, 0x3d, 0x16, 0xb9, 0xd7, 0xbd, 0x45, 0xf2, 0xa8, 0x3a,
  0xef, 0x18, 0x35, 0xbe, 0x11, 0xaf, 0xf6, 0x3d, 0xe8, 0x17, 0xe5, 0xbc,
  0x33, 0xad, 0x1f, 0x3d, 0x31, 0x4e, 0x01, 0xbd, 0x20, 0x8d, 0xa0, 0x3c,
  0x94, 0x41, 0x17, 0x3d, 0x0a, 0x1b, 0x90, 0x3d, 0x74, 0x65, 0x6e, 0xbe,
  0x37, 0xcd, 0x03, 0x3e, 0xa8, 0xb4, 0x45, 0x3c, 0x34, 0xb7, 0x83, 0xbc,
  0x1c, 0x53, 0x27, 0xbe, 0x63, 0x8f, 0xc2, 0x3d, 0xb5, 0x45, 0xa7, 0xbd,
  0x0b, 0xac, 0x9e, 0x3d, 0xee, 0x38, 0x1c, 0x3d, 0x35, 0xf3, 0x17, 0x3e,
  0x7d, 0x6f, 0x64, 0x3d, 0x6d, 0xc6, 0x27, 0x3e, 0x5f, 0x47, 0x06, 0x3e,
  0x5c, 0xfc, 0x4f, 0xbe, 0xb0, 0x7a, 0x2b, 0x3d, 0xde, 0xfa, 0x50, 0xbd,
  0xd8, 0x61, 0x01, 0xbe, 0xe4, 0x3d, 0xe1, 0xbc, 0xf2, 0x70, 0x71, 0xbe,
  0xcc, 0xa0, 0x25, 0xbe, 0xc8, 0x05, 0x0f, 0xbe, 0x7c, 0x4c, 0x99, 0xbe,
  0x86, 0x57, 0x81, 0x3d, 0xad, 0xc0, 0xec, 0xbb, 0x95, 0x06, 0x51, 0xbe,
  0x32, 0xf3, 0x67, 0xbd, 0xd7, 0xc0, 0x24, 0xbe, 0x63, 0x3c, 0x84, 0xbe,
  0x05, 0x3e, 0xb4, 0xbe, 0x35, 0x7b, 0x45, 0xbd, 0x34, 0xb6, 0x82, 0xbd,
  0xd2, 0xd4, 0xaa, 0x3d, 0x1e, 0x2f, 0xa4, 0x3d, 0x3c, 0x35, 0xe2, 0x3c,
  0x15, 0xc3, 0x1e, 0xbe, 0x3f, 0x28, 0x59, 0x3d, 0x0d, 0x63, 0x86, 0xbd,
  0x14, 0xb4, 0xb1, 0xbe, 0x8f, 0xe9, 0xf8, 0xbd, 0x4e, 0x96, 0x50, 0xbe,
  0xc2, 0xcf, 0xc1, 0xbd, 0xc7, 0x7b, 0x32, 0xbe, 0x0a, 0x62, 0x23, 0xbe,
  0xcb, 0xd4, 0x84, 0xbe, 0x9b, 0xda, 0x38, 0xbe, 0x2e, 0x0f, 0xc5, 0xbe,
  0x2d, 0x27, 0x13, 0xbe, 0xe9, 0x92, 0xfc, 0xbd, 0xa7, 0xf8, 0xb8, 0xbe,
  0x59, 0x9a, 0x4f, 0xbd, 0xe1, 0x59, 0x21, 0xbe, 0xc3, 0x10, 0x85, 0xbe,
  0xcb, 0x76, 0xaa, 0xbe, 0x22, 0xbc, 0x72, 0xbe, 0x69, 0x51, 0xe6, 0xbd,
  0x30, 0x4f, 0xd3, 0xbd, 0xf8, 0x2a, 0x8e, 0xbe, 0x9e, 0x7d, 0x10, 0xbe,
  0xf7, 0x9a, 0x79, 0xbe, 0x4f, 0x7d, 0x95, 0xbc, 0x2e, 0x71, 0xc2, 0xbd,
  0x24, 0x06, 0x08, 0xbf, 0xbc, 0x61, 0x02, 0xbd, 0x07, 0x3c, 0x7d, 0xbe,
  0x5e, 0xb1, 0x83, 0xbf, 0x8c, 0x0f, 0x3d, 0xbe, 0x31, 0xd5, 0x1a, 0xbf,
  0xc9, 0xad, 0x38, 0xbd, 0xce, 0x60, 0x2b, 0xbf, 0x6f, 0x19, 0x39, 0xbf,
  0xdc, 0x5c, 0x11, 0x3e, 0x91, 0xe7, 0x99, 0xbe, 0x36, 0xeb, 0x5b, 0xbf,
  0xb3, 0xd3, 0x0a, 0xbe, 0x14, 0x8d, 0x04, 0xbf, 0x95, 0xe2, 0xce, 0xbd,
  0x90, 0xc7, 0x4c, 0xbf, 0x26, 0xa0, 0xc6, 0xbe, 0x70, 0x44, 0xca, 0x3c,
  0x73, 0x36, 0x8d, 0xbe, 0xd9, 0x16, 0x83, 0xbf, 0x9c, 0x9e, 0x83, 0xbe,
  0xa7, 0x44, 0x28, 0xbf, 0x31, 0xd4, 0x3d, 0xbd, 0x8b, 0x2c, 0x42, 0xbf,
  0x2c, 0xb3, 0x79, 0x3e, 0xf4, 0xce, 0x21, 0x3d, 0x9a, 0x19, 0x04, 0x3f,
  0x36, 0xab, 0x98, 0xbf, 0x31, 0x6b, 0xf7, 0x3e, 0x38, 0x2c, 0x0d, 0xbe,
  0xe8, 0x62, 0xcc, 0xbd, 0xd6, 0x9f, 0x86, 0x3d, 0xca, 0xc4, 0x18, 0x3f,
  0x30, 0x48, 0xc3, 0x3c, 0xef, 0x71, 0x0a, 0x3e, 0xbb, 0xa8, 0xb0, 0xbf,
  0xb5, 0x18, 0x7d, 0x3e, 0x83, 0xba, 0xd0, 0xbe, 0xb5, 0x5e, 0xe7, 0x3d,
  0x37, 0x94, 0x45, 0x3e, 0xd6, 0xcd, 0x12, 0xbe, 0x66, 0x76, 0xf9, 0xbd,
  0xe6, 0x44, 0x5e, 0xbd, 0x4a, 0xb3, 0x3f, 0xc0, 0xb4, 0x90, 0xb9, 0x3e,
  0x10, 0x23, 0x32, 0xbf, 0x78, 0xb4, 0x96, 0x3d, 0x85, 0x59, 0x83, 0x3e,
  0x6b, 0x07, 0x15, 0x3e, 0x8c, 0x36, 0x00, 0x3e, 0xb1, 0x36, 0xd1, 0xbc,
  0xb2, 0xa4, 0x1a, 0xbf, 0x55, 0x0c, 0xaa, 0x3d, 0x72, 0x95, 0x62, 0xbd,
  0xb3, 0x81, 0xc7, 0xbc, 0x9a, 0x99, 0x67, 0x3e, 0xb5, 0xd2, 0xe9, 0xba,
  0x8b, 0x68, 0x82, 0xbd, 0x75, 0xd0, 0xde, 0x3d, 0x98, 0x63, 0x11, 0xbf,
  0xf1, 0xec, 0xa9, 0xbe, 0x41, 0x51, 0x87, 0xbc, 0xc9, 0x1f, 0xbb, 0x3c,
  0x60, 0xc3, 0xb2, 0x3e, 0x49, 0xe3, 0x29, 0xbe, 0xc2, 0x8d, 0x3f, 0xbd,
  0xbf, 0x29, 0xe6, 0xbd, 0x29, 0x3e, 0xd1, 0xbf, 0x2c, 0x67, 0x17, 0xbe,
  0xff, 0x3f, 0x4c, 0xbe, 0x64, 0x7b, 0xe1, 0x3d, 0xd8, 0x9d, 0x16, 0x3f,
  0x8c, 0x23, 0xc3, 0xbd, 0xdc, 0xb0, 0xe0, 0x3d, 0x45, 0x2e, 0x96, 0x3e,
  0x40, 0xff, 0xa2, 0xbe, 0x5b, 0x8f, 0x03, 0xbe, 0x3c, 0x99, 0x63, 0xbe,
  0xb3, 0x82, 0x48, 0x3e, 0xd2, 0x9a, 0x16, 0x3e, 0x41, 0x23, 0x1a, 0xbd,
  0x0a, 0x27, 0x0a, 0x3e, 0x64, 0x87, 0x9a, 0x3c, 0xa9, 0x35, 0x32, 0xbf,
  0xcd, 0xa7, 0x8d, 0xbd, 0x0a, 0xec, 0x8b, 0xbd, 0x51, 0xb7, 0x54, 0xbd,
  0x95, 0xf6, 0x02, 0x3e, 0xaa, 0xcd, 0x2c, 0xbf, 0xc8, 0xbd, 0x2c, 0xbd,
  0xbc, 0x4c, 0x80, 0x3e, 0xf7, 0x5a, 0xfe, 0xbf, 0xf2, 0x0e, 0x7a, 0xbb,
  0x43, 0xf6, 0x62, 0xbe, 0x53, 0x76, 0x8e, 0x3e, 0xfa, 0x9b, 0x0e, 0x3f,
  0x83, 0xfa, 0xa1, 0x3a, 0x86, 0x77, 0x1e, 0x3e, 0x21, 0x5c, 0x0b, 0xbe,
  0x57, 0xb6, 0x29, 0xbf, 0xb4, 0xc1, 0x9a, 0x3d, 0xd4, 0x7e, 0x60, 0xbe,
  0x04, 0x72, 0x7b, 0x3e, 0x10, 0x0a, 0x1c, 0x3e, 0x4a, 0x69, 0xbd, 0xbe,
  0x00, 0x7b, 0x6e, 0x3a, 0x8c, 0x66, 0x2e, 0xbe, 0x76, 0x7a, 0x0a, 0xbf,
  0xae, 0x84, 0x59, 0xbc, 0xb1, 0x6a, 0xf8, 0xbd, 0xf1, 0xd1, 0x2b, 0x3e,
  0x77, 0x8d, 0xa8, 0x3e, 0x8a, 0x4a, 0xac, 0xbf, 0x4b, 0xf9, 0x85, 0xbd,
  0xe0, 0xc0, 0xaa, 0xbe, 0xa9, 0xf1, 0x10, 0xc0, 0x42, 0xbc, 0x88, 0xbe,
  0x2d, 0x6b, 0x0d, 0xbf, 0x1c, 0xbb, 0x54, 0x3e, 0x0e, 0x63, 0x1a, 0x3f,
  0x86, 0x29, 0x70, 0xbe, 0x32, 0xbe, 0x70, 0xbd, 0x9e, 0xf0, 0xef, 0xbd,
  0x31, 0xbe, 0xfd, 0xbe, 0xf6, 0xd4, 0x51, 0xbe, 0x2f, 0x48, 0x08, 0xbf,
  0xcc, 0xb2, 0x3a, 0x3e, 0xf5, 0xea, 0x29, 0x3e, 0x3c, 0x35, 0x36, 0xbf,
  0xd4, 0x30, 0x91, 0xbd, 0x73, 0xf0, 0x30, 0xbc, 0x9a, 0x25, 0x01, 0xbf,
  0x2a, 0xa0, 0xcc, 0xbd, 0xff, 0x69, 0xf4, 0xbe, 0xbd, 0x0f, 0x13, 0x3e,
  0xfc, 0xfd, 0x33, 0x3e, 0x1c, 0x95, 0x45, 0xc0, 0x0a, 0x11, 0x21, 0x3e,
  0x70, 0xd8, 0x61, 0xbf, 0x41, 0x9a, 0xdf, 0xbf, 0x3c, 0x3a, 0x33, 0xbf,
  0x51, 0x7f, 0xd2, 0xbf, 0xbe, 0xbd, 0x50, 0x3e, 0x18, 0x94, 0x05, 0x3f,
  0x57, 0x31, 0x69, 0x3b, 0x1c, 0x21, 0xaa, 0x3d, 0x23, 0xfe, 0x12, 0xbf,
  0x10, 0x87, 0x12, 0xbe, 0x0f, 0xc8, 0x19, 0xbf, 0x4f, 0xa0, 0x6d, 0xbe,
  0xa9, 0xcc, 0x9d, 0x3e, 0xb6, 0xae, 0x61, 0x3e, 0x4c, 0x48, 0x98, 0x3c,
  0x62, 0x6b, 0xb2, 0xbd, 0xa7, 0xc9, 0xd5, 0xbe, 0x94, 0x7a, 0x81, 0xbd,
  0x5d, 0xd3, 0xbd, 0xbe, 0x3e, 0xb0, 0x38, 0xbe, 0x19, 0xbb, 0x60, 0x3e,
  0x67, 0x3a, 0x00, 0x3e, 0x85, 0x44, 0xa0, 0xbd, 0x9c, 0xe2, 0x20, 0xbe,
  0x4e, 0x68, 0x9e, 0xbf, 0xe7, 0xd6, 0x7c, 0x3e, 0x1e, 0x95, 0xc2, 0xbf,
  0x2c, 0xa4, 0x05, 0xbf, 0x6b, 0x4c, 0x51, 0x3e, 0xff, 0x6c, 0x8f, 0x3d,
  0xbb, 0x0c, 0x09, 0xbd, 0x74, 0x89, 0x2a, 0xbe, 0x61, 0x9b, 0xc3, 0xbd,
  0x02, 0x49, 0x24, 0xbd, 0x3c, 0xe4, 0x37, 0xbe, 0x8d, 0x03, 0xf4, 0xbc,
  0x2e, 0x07, 0x33, 0x3d, 0xe6, 0x94, 0x4c, 0x3d, 0x81, 0xb2, 0xd9, 0xbd,
  0x5c, 0x97, 0x0e, 0xbd, 0xe8, 0x4b, 0xe1, 0xbc, 0x64, 0xca, 0xb6, 0x3b,
  0x21, 0x9d, 0xb8, 0xbc, 0xd9, 0xc5, 0x2c, 0xbd, 0x95, 0xa8, 0x17, 0xbc,
  0x7e, 0x96, 0x81, 0x3d, 0xe3, 0x23, 0xb9, 0x3d, 0x18, 0xb1, 0x1e, 0xbe,
  0xf3, 0x8d, 0x7e, 0x3d, 0x15, 0x50, 0x6e, 0x3e, 0xf3, 0xfd, 0x04, 0x3e,
  0x41, 0x6f, 0x18, 0x3e, 0x45, 0xb5, 0x4b, 0x3e, 0x65, 0xdb, 0xe1, 0x3d,
  0xcc, 0x6e, 0xf6, 0x3d, 0xf8, 0x73, 0x5d, 0x3d, 0x25, 0xf1, 0x6f, 0xbd,
  0x14, 0xd6, 0xcb, 0x3d, 0x0a, 0xd3, 0x73, 0xbd, 0xa3, 0x14, 0xa2, 0x3d,
  0x18, 0x49, 0xc2, 0xbd, 0xd5, 0x18, 0x4e, 0x3e, 0x4b, 0x4e, 0x38, 0x3e,
  0xf2, 0xff, 0xe9, 0xbd, 0xa3, 0x88, 0xdc, 0xbc, 0x99, 0x46, 0xc6, 0x3c,
  0x41, 0x8e, 0x07, 0xbb, 0x33, 0x9a, 0xc5, 0x3d, 0x40, 0x0d, 0x1b, 0xbd,
  0xc6, 0x69, 0x3e, 0x3e, 0x99, 0x4d, 0x8f, 0x3d, 0x28, 0x2e, 0xa1, 0x3c,
  0x99, 0x03, 0x42, 0x3e, 0xc9, 0x5a, 0x8d, 0xbc, 0x06, 0x7f, 0xf6, 0x3d,
  0x3a, 0x4d, 0x15, 0x3e, 0x2d, 0x5f, 0x35, 0x3e, 0xc6, 0x2b, 0x53, 0x3e,
  0x46, 0x82, 0x3b, 0x3f, 0xe0, 0x56, 0xa0, 0x3c, 0x02, 0xfd, 0x3e, 0x3f,
  0x23, 0x43, 0x1a, 0x3e, 0x87, 0xf9, 0x21, 0x3f, 0xf4, 0xd9, 0x24, 0x3f,
  0x8c, 0x82, 0x10, 0x3f, 0xd6, 0x8d, 0xc5, 0x3e, 0xa2, 0xd0, 0xe8, 0x3e,
  0x5c, 0xca, 0x13, 0x3e, 0x05, 0xc8, 0xde, 0x3e, 0x22, 0x82, 0xd8, 0x3d,
  0xb0, 0x87, 0xe8, 0x3e, 0xb5, 0x49, 0x78, 0x3e, 0x98, 0x78, 0xcd, 0x3e,
  0xe5, 0x47, 0x41, 0x3e, 0x4d, 0xc6, 0xf4, 0xbe, 0xa0, 0xcd, 0x9c, 0xbc,
  0xe7, 0x81, 0xa2, 0xbe, 0x55, 0x63, 0x1d, 0xbe, 0x5b, 0xd8, 0xd2, 0xbe,
  0x1b, 0x43, 0x6a, 0xbe, 0x11, 0x7c, 0x4a, 0xbd, 0x93, 0x39, 0x01, 0xbd,
  0x74, 0xf3, 0xb3, 0x3e, 0x33, 0x55, 0xeb, 0xbd, 0xe0, 0x0a, 0x9a, 0x3e,
  0x37, 0xe7, 0xa7, 0x3d, 0x18, 0xf5, 0x9c, 0x3e, 0xce, 0xec, 0xb9, 0x3e,
  0xbf, 0xa5, 0x1a, 0x3e, 0x98, 0xdd, 0x1c, 0x3e, 0x64, 0x63, 0xe8, 0x3c,
  0xe0, 0x4a, 0x05, 0xbc, 0x85, 0x84, 0xa2, 0x3d, 0xb3, 0x38, 0x3a, 0xbd,
  0x3d, 0xc7, 0x3a, 0xbd, 0x81, 0xf9, 0x5d, 0x3e, 0x3b, 0x0c, 0x32, 0x3e,
  0x21, 0xfd, 0x66, 0xbc, 0x68, 0xce, 0xa6, 0xbe, 0x46, 0x64, 0x26, 0x3e,
  0x72, 0x19, 0x3d, 0xbe, 0xc2, 0x20, 0xec, 0x3c, 0xd5, 0x74, 0x79, 0xbe,
  0x04, 0xa0, 0x5a, 0xbe, 0x48, 0x89, 0x41, 0xbd, 0xfc, 0x87, 0xfc, 0x3d,
  0x27, 0xca, 0xd6, 0x3e, 0xe0, 0xc6, 0x5b, 0xbc, 0x64, 0x26, 0x12, 0x3e,
  0x2e, 0x93, 0x9f, 0xbd, 0x99, 0x14, 0xcd, 0x3e, 0x5b, 0xff, 0x80, 0x3e,
  0x92, 0xe2, 0xce, 0xba, 0xc2, 0xdb, 0x9a, 0xbd, 0x67, 0x03, 0x68, 0xbb,
  0xe0, 0xca, 0x48, 0xbc, 0x01, 0xc4, 0xed, 0x3c, 0xc0, 0xb4, 0x92, 0x3d,
  0x2c, 0x17, 0x02, 0x3d, 0x64, 0x1e, 0x18, 0x3e, 0xe7, 0x29, 0xf2, 0xbc,
  0xcd, 0x09, 0xfb, 0x3d, 0xd1, 0xad, 0x03, 0xbf, 0xbc, 0xd9, 0x29, 0x3d,
  0xca, 0x07, 0xed, 0xbd, 0x1c, 0xb5, 0x7d, 0x3d, 0x68, 0xb9, 0x3b, 0xbe,
  0xea, 0x53, 0x57, 0xbe, 0x22, 0x67, 0xd4, 0x3c, 0x03, 0xd8, 0x1d, 0xbc,
  0x7d, 0xe3, 0x7c, 0x3e, 0xac, 0x82, 0xce, 0x3d, 0x04, 0x5b, 0x11, 0x3e,
  0x50, 0x23, 0xf7, 0x3d, 0xa1, 0x92, 0x97, 0x3e, 0xe9, 0x74, 0x84, 0x3e,
  0x04, 0x0c, 0xe6, 0x3d, 0x93, 0x01, 0x48, 0xbd, 0x6a, 0xf5, 0x46, 0x3d,
  0x28, 0x89, 0xd6, 0x3d, 0x61, 0x88, 0x2e, 0xbd, 0x6b, 0x1a, 0x0d, 0x3e,
  0x18, 0xdb, 0x2b, 0x3d, 0x49, 0x32, 0x7b, 0x3e, 0x2a, 0xe6, 0x81, 0x3d,
  0xfa, 0xe9, 0x0d, 0x3e, 0xa0, 0xfd, 0x0d, 0xbf, 0x68, 0x00, 0xe2, 0x3d,
  0xe7, 0x31, 0x7f, 0xbe, 0x44, 0xed, 0x5d, 0x3e, 0x20, 0xff, 0xc7, 0xbe,
  0xa9, 0x3c, 0x48, 0xbe, 0x52, 0xd7, 0x2a, 0xbe, 0x92, 0x0e, 0x83, 0x3e,
  0xd0, 0xe3, 0xae, 0x3e, 0x29, 0x3b, 0xc1, 0xbd, 0x60, 0x98, 0xb5, 0x3d,
  0x03, 0x69, 0xf1, 0xbd, 0xd5, 0xe8, 0x25, 0x3e, 0x92, 0x65, 0xe1, 0x3d,
  0xde, 0x84, 0x28, 0x3e, 0x0e, 0x76, 0xe6, 0xbc, 0x39, 0x7f, 0x13, 0xbe,
  0x4c, 0x2c, 0xd9, 0x3d, 0x14, 0x14, 0x30, 0xbe, 0x5c, 0xfc, 0x1a, 0xba,
  0x46, 0x1c, 0xe1, 0x3c, 0x08, 0xc7, 0x87, 0x3d, 0xa3, 0x44, 0xcf, 0xbd,
  0x3a, 0x75, 0x13, 0xbe, 0xb5, 0x26, 0xee, 0xbe, 0x68, 0xf0, 0x0e, 0xbd,
  0x65, 0x0e, 0x91, 0xbe, 0xa6, 0x5c, 0x39, 0x3e, 0xe3, 0x03, 0x94, 0xbe,
  0x7b, 0xa0, 0x33, 0xbe, 0x33, 0x21, 0xbb, 0x3b, 0xa2, 0xd1, 0x60, 0x3e,
  0xc7, 0x0d, 0x9e, 0x3e, 0x8a, 0xe3, 0xb3, 0xbd, 0xa7, 0x3b, 0x11, 0x3e,
  0x3b, 0x09, 0x14, 0x3d, 0xb7, 0x7d, 0x95, 0x3e, 0x72, 0x7b, 0x80, 0x3e,
  0x46, 0x50, 0x11, 0x3b, 0xac, 0x76, 0x41, 0x3d, 0x0a, 0xac, 0x0f, 0x3e,
  0xce, 0x55, 0xdf, 0xbd, 0xd2, 0x69, 0x01, 0xbd, 0xc5, 0xde, 0x59, 0x3e,
  0x8f, 0x3a, 0xac, 0xbd, 0x99, 0xd3, 0x10, 0x3e, 0x0b, 0xb0, 0x48, 0xbd,
  0x86, 0x7b, 0xa2, 0x3d, 0x0f, 0xa0, 0xae, 0xbe, 0xc4, 0xe3, 0xa3, 0x3d,
  0x86, 0x8d, 0x53, 0xbd, 0xc3, 0x78, 0x90, 0x3e, 0x2e, 0x0b, 0x75, 0xbe,
  0x35, 0xf5, 0x14, 0xbc, 0x4b, 0xbf, 0x00, 0x3e, 0x9b, 0x41, 0x12, 0x3e,
  0xc7, 0x23, 0xf6, 0x3e, 0x34, 0xd1, 0x5e, 0xbd, 0x89, 0x3f, 0x38, 0x3e,
  0x85, 0xd9, 0xd2, 0x3c, 0xb9, 0x55, 0x43, 0x3e, 0x8d, 0x21, 0xdc, 0x3e,
  0x2d, 0xa9, 0xbc, 0xbc, 0x15, 0x9e, 0x2b, 0xbd, 0xfd, 0xd5, 0x44, 0x3d,
  0x8c, 0x62, 0x98, 0xbd, 0x4d, 0xa8, 0x3b, 0x3d, 0x75, 0xff, 0x93, 0x3d,
  0xd9, 0xfb, 0x74, 0x3b, 0x80, 0xd1, 0xff, 0x3d, 0x8f, 0x44, 0x14, 0x3c,
  0xdf, 0x27, 0xea, 0xbd, 0x89, 0x38, 0xb6, 0xbe, 0x4c, 0x1b, 0x13, 0x3e,
  0x87, 0x64, 0x38, 0xbe, 0x6e, 0x39, 0x8d, 0x3e, 0x87, 0xa0, 0xef, 0xbd,
  0x19, 0x02, 0xdf, 0xbd, 0x8c, 0xb5, 0xed, 0x3c, 0xed, 0x8c, 0x3c, 0x3e,
  0xac, 0xd3, 0xf7, 0x3e, 0xe8, 0x88, 0x48, 0xbd, 0xcb, 0xe1, 0x1d, 0x3e,
  0x7d, 0xef, 0x2f, 0xbe, 0xa7, 0xbe, 0x57, 0x3e, 0x5a, 0xf8, 0x48, 0x3e,
  0xc8, 0x58, 0xe1, 0xbd, 0x5c, 0x85, 0xd2, 0xbe, 0x7c, 0x30, 0x75, 0x3e,
  0x8c, 0xd4, 0x16, 0x3d, 0x9b, 0xcc, 0xd5, 0xb8, 0xc8, 0x47, 0xae, 0xbe,
  0x8a, 0x98, 0x9a, 0x3d, 0xac, 0xa2, 0x9a, 0x3c, 0x6a, 0x52, 0x9f, 0xbd,
  0x0b, 0x6c, 0xf6, 0xbe, 0xe3, 0x59, 0x3a, 0xbe, 0x0c, 0x61, 0xe8, 0x3d,
  0x2d, 0x85, 0x40, 0xbd, 0x26, 0x10, 0xbf, 0x3e, 0x53, 0xe0, 0x0c, 0xbe,
  0x06, 0x29, 0x02, 0xbe, 0xbe, 0x84, 0x35, 0x3e, 0x57, 0xa2, 0x8a, 0xbd,
  0xd6, 0xd7, 0x8f, 0xbd, 0x68, 0x22, 0x71, 0x3d, 0x67, 0x87, 0x16, 0xbe,
  0x97, 0x0f, 0x35, 0x3d, 0x7b, 0x43, 0xd5, 0xbd, 0xbf, 0xca, 0x08, 0xbe,
  0x40, 0xea, 0x26, 0xbe, 0x54, 0x67, 0x2f, 0xbd, 0xc7, 0x3b, 0x90, 0xbf,
  0x57, 0xb6, 0x9f, 0xbd, 0xd3, 0x4b, 0x0d, 0xbf, 0x68, 0xf2, 0x06, 0xc0,
  0x48, 0x90, 0x1c, 0xbf, 0x13, 0x36, 0xf4, 0xbe, 0xc1, 0x0e, 0x1f, 0xbe,
  0xb4, 0x19, 0x62, 0x3b, 0x25, 0x49, 0x11, 0xbf, 0x00, 0xf5, 0x84, 0x3c,
  0x96, 0x2d, 0x42, 0xbf, 0xc4, 0x52, 0x38, 0xbf, 0x9b, 0x70, 0x03, 0xbf,
  0xa0, 0x5a, 0xac, 0xbe, 0x8b, 0x18, 0x05, 0xbf, 0x78, 0xf6, 0x6e, 0xbe,
  0xaf, 0x6b, 0x0a, 0xbd, 0x40, 0x82, 0x83, 0xbd, 0x23, 0xaf, 0xeb, 0xbd,
  0x4b, 0xc4, 0xae, 0x3d, 0xe6, 0x6c, 0x39, 0xbd, 0x9a, 0x34, 0xd8, 0x3a,
  0x04, 0xf0, 0x0f, 0xbd, 0x3d, 0x02, 0x59, 0x3d, 0x0c, 0x58, 0xa5, 0xbf,
  0x00, 0xe5, 0xa9, 0xba, 0x7b, 0xdc, 0x13, 0x3e, 0x1c, 0x99, 0x15, 0xc0,
  0xb8, 0x7e, 0x04, 0x3e, 0xed, 0x65, 0xd9, 0xbe, 0x63, 0x5e, 0xe6, 0x3d,
  0x84, 0xc0, 0xcb, 0xbc, 0xbd, 0x49, 0x51, 0xbe, 0x82, 0x4c, 0x07, 0x3e,
  0x3d, 0xfb, 0x6f, 0xbe, 0x58, 0x26, 0x86, 0x3d, 0xb1, 0x60, 0x26, 0xbe,
  0x82, 0x75, 0x20, 0xbe, 0xf5, 0xb4, 0x5b, 0xbe, 0xd0, 0x07, 0x87, 0xbe,
  0x72, 0x6e, 0xe0, 0xbd, 0xd6, 0xd5, 0xa0, 0x3d, 0xaf, 0x36, 0x32, 0xbd,
  0xb3, 0xb7, 0x9a, 0x3d, 0x5e, 0x71, 0x5f, 0x3c, 0x25, 0xa7, 0xce, 0xbd,
  0xda, 0xd0, 0x59, 0xbc, 0x6f, 0xae, 0x09, 0x3d, 0xe6, 0xa4, 0x9c, 0xbf,
  0xc2, 0x95, 0x22, 0x3e, 0xc8, 0x9c, 0xa9, 0xbe, 0xf9, 0x4f, 0xb8, 0xbf,
  0x60, 0x07, 0xfa, 0xbd, 0xa9, 0x91, 0xf5, 0xbe, 0x22, 0x33, 0x4c, 0x3e,
  0xec, 0x19, 0x83, 0xbd, 0xec, 0xf2, 0x1f, 0xbe, 0x1f, 0x7b, 0x2c, 0xbe,
  0x01, 0x10, 0x41, 0xbe, 0xf0, 0x04, 0xaa, 0xbe, 0x7f, 0x44, 0x07, 0xbe,
  0x39, 0xbc, 0x1a, 0xbe, 0x1e, 0xe9, 0x58, 0xbe, 0x40, 0xba, 0xb3, 0xbc,
  0xc0, 0x68, 0x9c, 0xbd, 0x26, 0x1b, 0x5c, 0xbd, 0x7d, 0x5a, 0xa3, 0xbb,
  0xea, 0x01, 0x0e, 0x3e, 0xbc, 0x32, 0xc9, 0xbc, 0xb1, 0x73, 0x78, 0xbd,
  0x83, 0xbe, 0x90, 0x3c, 0xc7, 0x30, 0x1a, 0x3d, 0xa7, 0xc5, 0x05, 0xbf,
  0xdc, 0xca, 0xee, 0x3d, 0xf8, 0x0a, 0x7c, 0xbe, 0x95, 0xcc, 0x5e, 0xbe,
  0x93, 0xd9, 0x0e, 0x3e, 0x92, 0xac, 0xaf, 0xbe, 0xf6, 0xaa, 0xa7, 0x3d,
  0x23, 0xd8, 0x44, 0xbc, 0xb8, 0xa8, 0x50, 0xbc, 0xe2, 0xc5, 0x95, 0x3d,
  0x8c, 0x03, 0xaf, 0xbd, 0xe1, 0x39, 0x84, 0x3d, 0x4d, 0xd4, 0xbb, 0xbb,
  0xac, 0x66, 0x37, 0x3d, 0x4e, 0x56, 0xc8, 0x3d, 0xdc, 0x8d, 0x80, 0x3d,
  0x36, 0x50, 0x7c, 0xbc, 0x6a, 0x58, 0x7e, 0xbd, 0xde, 0x62, 0xc5, 0xbd,
  0xef, 0xf1, 0x46, 0x3e, 0x90, 0xaa, 0x65, 0xbd, 0x22, 0xa1, 0xec, 0xbd,
  0x08, 0x84, 0xd6, 0xbd, 0x3c, 0xb7, 0xe7, 0xbc, 0x40, 0xe3, 0xd1, 0x3d,
  0x2d, 0xeb, 0x96, 0xbd, 0x36, 0x3b, 0xa1, 0x3e, 0x50, 0xe9, 0x2c, 0xbd,
  0xa9, 0x64, 0x9b, 0x3e, 0x74, 0x5e, 0x7a, 0x3d, 0xa7, 0x5b, 0xd4, 0x3d,
  0x28, 0xf7, 0x14, 0xbe, 0xd3, 0xff, 0xef, 0x3d, 0x38, 0xbc, 0x00, 0x3d,
  0x66, 0xb9, 0x62, 0x3d, 0xa7, 0xc1, 0x6e, 0x3e, 0x5d, 0xb2, 0xd0, 0x3d,
  0x65, 0x5a, 0x16, 0xbd, 0x96, 0x73, 0xbe, 0x3d, 0x23, 0x06, 0xcc, 0xbd,
  0x81, 0xbd, 0x49, 0xbd, 0xe8, 0x53, 0x72, 0x3d, 0x3a, 0x7a, 0xc9, 0xbd,
  0x1b, 0x0a, 0x01, 0xbc, 0x0e, 0x3e, 0x97, 0xbc, 0xbf, 0x83, 0xdf, 0xbc,
  0xb0, 0xd9, 0xa2, 0xbd, 0x5e, 0xb3, 0x1c, 0xbd, 0x4f, 0x8d, 0x88, 0x3d,
  0x6c, 0xcd, 0x91, 0x3d, 0xe5, 0x4f, 0x4e, 0x3e, 0xe6, 0x63, 0x87, 0x3d,
  0x70, 0xf8, 0x99, 0x3e, 0xdd, 0xbd, 0xc1, 0x3d, 0x8a, 0x7b, 0xf6, 0xbc,
  0x34, 0xc7, 0x36, 0xbe, 0x60, 0xa9, 0x18, 0x3e, 0x0c, 0xc6, 0x12, 0xbd,
  0xc8, 0x72, 0x3b, 0x3e, 0x5f, 0x46, 0x15, 0x3e, 0xff, 0x42, 0x3a, 0x3e,
  0xaa, 0x77, 0x3b, 0x3d, 0x09, 0xa0, 0x8d, 0x3c, 0x30, 0x9b, 0xeb, 0xbd,
  0xc1, 0xaf, 0x6a, 0xbd, 0x14, 0x72, 0xc5, 0xbd, 0x2e, 0x5c, 0x78, 0xbc,
  0x5f, 0x01, 0x35, 0x3c, 0xde, 0x70, 0xfd, 0xbd, 0x2b, 0xa2, 0x4b, 0xbd,
  0x66, 0x4c, 0xb4, 0xbd, 0xc9, 0x21, 0xe8, 0xbc, 0x25, 0xbc, 0x52, 0x3e,
  0xbc, 0x83, 0x9e, 0x3d, 0xd7, 0x92, 0x27, 0x3e, 0x60, 0xf8, 0x1f, 0x3c,
  0x49, 0xda, 0x1f, 0x3e, 0x99, 0x23, 0x9c, 0x3d, 0xed, 0x03, 0xd0, 0xbc,
  0xbf, 0xee, 0xc8, 0xbd, 0x16, 0x8c, 0xe3, 0x3d, 0xf0, 0xe7, 0xdc, 0x3d,
  0xc9, 0x90, 0x06, 0x3e, 0xa4, 0x30, 0x18, 0x3c, 0xc1, 0xda, 0x28, 0x3d,
  0xf4, 0xf9, 0x68, 0x3d, 0xde, 0x41, 0xdb, 0x3d, 0x49, 0x1a, 0x2a, 0xbd,
  0x50, 0x25, 0x57, 0xbd, 0x18, 0x1e, 0x27, 0x3e, 0x17, 0x06, 0xb7, 0x3d,
  0xed, 0xd0, 0x5a, 0xbd, 0xc5, 0xf1, 0xbf, 0x3b, 0xea, 0xd2, 0x38, 0xbc,
  0xf6, 0x7b, 0x21, 0xbd, 0x06, 0x62, 0x0f, 0xbe, 0x5c, 0x6c, 0x4b, 0x3e,
  0xfe, 0x39, 0x81, 0xbd, 0xd8, 0x6e, 0x16, 0x3f, 0xed, 0x94, 0xaa, 0xbd,
  0x3c, 0xcf, 0xb9, 0x3e, 0x57, 0xdd, 0xf2, 0x3e, 0xf8, 0xfe, 0x4f, 0x3d,
  0x5a, 0x49, 0x40, 0xbe, 0xe7, 0x1b, 0x2c, 0x3d, 0xac, 0x96, 0xb8, 0x3d,
  0x90, 0x1a, 0x51, 0x3e, 0x2d, 0xf8, 0x5a, 0xbd, 0x2b, 0xcd, 0x55, 0x3c,
  0xb6, 0xc3, 0x3a, 0x3e, 0x69, 0x30, 0x94, 0x3d, 0x00, 0xac, 0xb7, 0xbc,
  0xaa, 0xb3, 0x5a, 0xbf, 0x20, 0xfd, 0x22, 0xbe, 0x4b, 0xb6, 0x3a, 0xbf,
  0x12, 0x54, 0x40, 0xbf, 0x13, 0xf8, 0x1d, 0xbf, 0x4b, 0x00, 0x05, 0xbf,
  0x17, 0xed, 0x02, 0xbf, 0x07, 0xe2, 0x28, 0xbf, 0xc8, 0x41, 0xca, 0xbe,
  0xe0, 0x15, 0x12, 0xbd, 0x72, 0x26, 0xb4, 0xbe, 0x70, 0x88, 0xe9, 0xbe,
  0xb5, 0xb3, 0xac, 0xbe, 0xd9, 0x3f, 0xd0, 0xbe, 0xf4, 0x79, 0x0b, 0xbf,
  0xc2, 0x3b, 0x0f, 0xbf, 0x66, 0x17, 0xa6, 0x3d, 0x12, 0x8e, 0x07, 0xbe,
  0x59, 0x48, 0x0a, 0x3f, 0xb0, 0x9c, 0x02, 0x3f, 0x09, 0xb3, 0x00, 0x3f,
  0xef, 0xc9, 0x08, 0x3f, 0xa7, 0x0a, 0xf8, 0x3e, 0xe1, 0x3d, 0x55, 0x3f,
  0x4a, 0xff, 0xbf, 0xbe, 0x00, 0x52, 0x5a, 0x3a, 0x3e, 0xf2, 0xe7, 0xbe,
  0xed, 0x22, 0x0d, 0xbf, 0xb6, 0xb2, 0xda, 0xbe, 0x94, 0x4d, 0xc2, 0xbe,
  0xd9, 0xdc, 0x08, 0xbf, 0xc3, 0x67, 0xb6, 0xbe, 0x9d, 0x92, 0x5d, 0xbe,
  0x90, 0xfd, 0x59, 0xbd, 0xdc, 0xc2, 0x5a, 0xbe, 0x9e, 0x28, 0x54, 0xbe,
  0x60, 0xae, 0x5e, 0xbe, 0x4d, 0x89, 0x78, 0xbe, 0xc3, 0xb5, 0xad, 0xbe,
  0x69, 0x56, 0xbb, 0xbe, 0xd3, 0xa4, 0x90, 0x3d, 0xec, 0xa7, 0xca, 0x3d,
  0xa4, 0xa7, 0xc4, 0x3e, 0xfb, 0xeb, 0x16, 0x3f, 0xa2, 0x49, 0xc1, 0x3e,
  0xb7, 0x7d, 0xd4, 0x3e, 0xe7, 0x56, 0x05, 0x3f, 0x33, 0x4d, 0x0f, 0x3f,
  0x83, 0x05, 0xb9, 0xbc, 0x40, 0x1e, 0xb3, 0x3d, 0x8f, 0x97, 0x13, 0xbe,
  0x36, 0x5b, 0x36, 0xbe, 0xe0, 0x90, 0xc2, 0xbd, 0x2f, 0xa6, 0x08, 0xbe,
  0x21, 0x69, 0xde, 0xbd, 0xec, 0x62, 0xf1, 0xbd, 0xd2, 0x52, 0xcb, 0xbb,
  0x4a, 0xeb, 0xfd, 0xbd, 0xae, 0x82, 0x00, 0xbe, 0x1f, 0xbe, 0x00, 0x3e,
  0x14, 0xaa, 0x50, 0xbd, 0x2d, 0xf4, 0x10, 0xbe, 0xf8, 0x87, 0x6e, 0xbe,
  0xea, 0xa5, 0x71, 0xbd, 0xcd, 0x6d, 0x8b, 0x3d, 0x7d, 0xe4, 0xcf, 0xbd,
  0x98, 0x47, 0x88, 0x3e, 0x2a, 0xbc, 0x87, 0x3e, 0xe9, 0xdc, 0xad, 0x3d,
  0xf0, 0x15, 0x05, 0x3e, 0xe0, 0x21, 0xe0, 0x3e, 0x6e, 0x0d, 0x1d, 0x3e,
  0xe2, 0xf8, 0x67, 0x3d, 0x42, 0x33, 0x09, 0x3e, 0x63, 0x53, 0x1b, 0xbe,
  0xab, 0x84, 0xda, 0x3d, 0xbe, 0xc8, 0x4b, 0xbc, 0xd0, 0xd1, 0x96, 0x3a,
  0xdb, 0x90, 0x62, 0x3b, 0x02, 0xa7, 0x3c, 0x3e, 0xb3, 0x92, 0x1f, 0x3e,
  0xa0, 0x30, 0x95, 0x3c, 0x58, 0x0b, 0x57, 0x3e, 0xce, 0xa4, 0x52, 0x3e,
  0xa5, 0x07, 0x44, 0x3d, 0xba, 0x81, 0x96, 0x3d, 0x93, 0x8f, 0x05, 0x3e,
  0x90, 0xf7, 0x92, 0xbc, 0x3a, 0x0a, 0x48, 0x3d, 0xc2, 0x41, 0x82, 0x3d,
  0xc4, 0x4c, 0xeb, 0x3c, 0xe6, 0xb2, 0xc7, 0xbc, 0x88, 0x53, 0x62, 0x3d,
  0xb8, 0xe6, 0xf8, 0x3c, 0x91, 0x80, 0x34, 0x3e, 0x2d, 0x80, 0x5f, 0xbd,
  0x57, 0x38, 0x41, 0x3e, 0x80, 0xc2, 0xd8, 0x3d, 0x79, 0xc1, 0x76, 0x3e,
  0x27, 0xbc, 0x77, 0x3e, 0x45, 0xa6, 0x12, 0x3e, 0x03, 0x60, 0x32, 0x3e,
  0xaa, 0x38, 0x68, 0x3e, 0x0a, 0xdf, 0x35, 0x3e, 0xe1, 0xe1, 0x23, 0x3b,
  0xfe, 0xa0, 0x61, 0xbd, 0xa8, 0xbe, 0xff, 0xbd, 0xc7, 0x87, 0x64, 0xbc,
  0xff, 0x7c, 0x13, 0x3a, 0x9f, 0xd0, 0xa2, 0x3c, 0xa0, 0x14, 0x35, 0xbd,
  0x5c, 0x59, 0x0c, 0x3e, 0x03, 0xd0, 0x4c, 0x3d, 0x8d, 0x1e, 0xa5, 0xbd,
  0x2b, 0x59, 0x7d, 0xbe, 0x85, 0xaa, 0x5c, 0xbd, 0xc8, 0xd9, 0x35, 0xbe,
  0x1f, 0x97, 0x10, 0xbe, 0x19, 0x89, 0x0f, 0x3d, 0x5e, 0x55, 0xc9, 0xbd,
  0xe5, 0xf4, 0x79, 0x3e, 0x1c, 0xea, 0xa1, 0x3d, 0x2b, 0x67, 0x60, 0x3e,
  0x95, 0xe5, 0x88, 0x3e, 0x3f, 0x28, 0x86, 0x3e, 0x2b, 0x84, 0x65, 0x3e,
  0x0c, 0x64, 0xbb, 0x3d, 0x9e, 0x79, 0x1b, 0x3e, 0xc3, 0x90, 0xed, 0x3d,
  0xd0, 0xfc, 0xbc, 0xbd, 0x1f, 0xb7, 0x82, 0x3d, 0xe0, 0x10, 0xa0, 0x3e,
  0x0c, 0xb4, 0xcc, 0x3d, 0xa3, 0x97, 0x18, 0x3e, 0xb9, 0x9b, 0x4d, 0x3d,
  0x2b, 0xad, 0xc2, 0x3d, 0xe5, 0x30, 0x26, 0xbe, 0x73, 0x49, 0xb0, 0xbd,
  0xad, 0x4a, 0x5a, 0xbe, 0xf1, 0x2d, 0xb2, 0xbe, 0x47, 0xbd, 0x30, 0xbe,
  0x4e, 0x18, 0x41, 0xbe, 0x38, 0x48, 0xb2, 0xbc, 0x87, 0xfa, 0x20, 0xbe,
  0x73, 0x90, 0x5f, 0x3d, 0x2c, 0xb4, 0x1f, 0x3e, 0x35, 0xae, 0xa1, 0x3e,
  0x1d, 0x7e, 0x7a, 0x3e, 0x1e, 0xe2, 0x57, 0x3e, 0x5d, 0xcc, 0x97, 0x3e,
  0x46, 0x42, 0x24, 0xbd, 0xe3, 0x10, 0x26, 0x3e, 0xb3, 0x15, 0x8b, 0x3d,
  0x20, 0xd3, 0x05, 0x3e, 0x15, 0xa3, 0x34, 0x3e, 0x2e, 0x0c, 0x89, 0x3e,
  0xd1, 0x5a, 0xba, 0x3d, 0xb8, 0x8b, 0x43, 0x3e, 0x3b, 0xd0, 0x07, 0x3e,
  0xb9, 0xf2, 0x9d, 0x3e, 0x5e, 0xba, 0xa4, 0xbe, 0xab, 0xfc, 0xbb, 0xbd,
  0xa0, 0x1e, 0xbf, 0xbe, 0x5b, 0x49, 0x08, 0xbf, 0xd1, 0xa1, 0x8d, 0xbe,
  0x84, 0xba, 0xaa, 0xbe, 0x7e, 0x30, 0x50, 0xbe, 0xc7, 0xe5, 0x80, 0xbe,
  0x1d, 0x20, 0x57, 0x3d, 0xbd, 0x71, 0xc5, 0xbd, 0xa9, 0x9d, 0xb9, 0x3e,
  0x49, 0x65, 0xa9, 0x3d, 0xc0, 0x47, 0x9c, 0x3e, 0x65, 0x49, 0x85, 0x3e,
  0x98, 0x03, 0x6b, 0x3d, 0xc5, 0x6b, 0x62, 0x3d, 0x29, 0xd7, 0x7b, 0xbc,
  0x20, 0xf5, 0x65, 0xbc, 0xe9, 0xa5, 0x72, 0x3e, 0x07, 0xa5, 0x1a, 0xbd,
  0x57, 0x97, 0x3c, 0x3e, 0xbc, 0x94, 0x5c, 0x3e, 0xd7, 0x0c, 0xe1, 0x3d,
  0xa2, 0x92, 0xc1, 0x3d, 0x0b, 0x80, 0xcf, 0xbe, 0x09, 0x66, 0xeb, 0xbd,
  0x9f, 0x95, 0xb2, 0xbe, 0x86, 0x80, 0x3e, 0xbf, 0x0d, 0x88, 0xb7, 0xbe,
  0x03, 0xa4, 0xdf, 0xbe, 0x29, 0xbf, 0x03, 0xbe, 0x31, 0xbd, 0xb2, 0xbe,
  0x5c, 0xc3, 0xdf, 0x3e, 0x13, 0x2b, 0xa5, 0xbd, 0xe1, 0x17, 0x0e, 0x3f,
  0xff, 0xc9, 0xe0, 0xbd, 0x61, 0x69, 0xed, 0x3e, 0xf6, 0x78, 0x2c, 0x3e,
  0xab, 0x35, 0x49, 0x3f, 0xa5, 0x9b, 0xba, 0x3d, 0xfb, 0x77, 0x0c, 0x3f,
  0x84, 0x5d, 0x1b, 0x3e, 0x21, 0x67, 0x0c, 0x3f, 0xcc, 0x36, 0xf6, 0x3d,
  0x60, 0xc1, 0x02, 0x3f, 0xa7, 0xd9, 0xa5, 0x3e, 0xae, 0xdc, 0x08, 0x3f,
  0x97, 0x9e, 0x82, 0x3d, 0xb3, 0x7c, 0xba, 0x3e, 0x53, 0x2c, 0xd1, 0xbd,
  0x13, 0x78, 0x46, 0x3e, 0xb6, 0x7a, 0xa6, 0x3e, 0xdd, 0x96, 0x67, 0x3e,
  0x16, 0x2c, 0x3f, 0x3e, 0x9e, 0x09, 0x61, 0x3f, 0x33, 0xea, 0x03, 0x3f,
  0x00, 0x8a, 0xa5, 0x3e, 0x1a, 0xe5, 0x09, 0x3e, 0xc6, 0x8c, 0xb8, 0x3c,
  0x30, 0xee, 0xc7, 0xbc, 0x69, 0x71, 0xa2, 0x3d, 0xac, 0xad, 0xb4, 0x3b,
  0xcf, 0x18, 0xc1, 0x3c, 0x0e, 0xe6, 0x0f, 0xbf, 0x67, 0xdd, 0x10, 0x3f,
  0x70, 0x36, 0x64, 0xbd, 0xd3, 0x96, 0xce, 0x3d, 0x06, 0x8a, 0x6d, 0x3c,
  0xaf, 0xf4, 0x90, 0x3e, 0x29, 0xec, 0xc5, 0x3d, 0xcd, 0xa9, 0x40, 0xbd,
  0x8d, 0x27, 0xdb, 0xbe, 0xf2, 0xe2, 0x8f, 0x3e, 0xb7, 0x54, 0xf8, 0xbd,
  0xaf, 0xf3, 0xd2, 0x3d, 0xb7, 0x9f, 0x98, 0xbd, 0xd7, 0xfa, 0x4f, 0x3e,
  0x2c, 0xe8, 0x8c, 0x3d, 0xa7, 0x20, 0x21, 0x3f, 0xa2, 0x01, 0x57, 0x3d,
  0x07, 0xbd, 0xa8, 0x3e, 0x46, 0x1d, 0xef, 0xbd, 0x46, 0x61, 0x87, 0xbc,
  0x9e, 0xd8, 0xd0, 0xbd, 0x1c, 0x9a, 0x50, 0x3d, 0xa2, 0x2d, 0x93, 0x3d,
  0xb0, 0xcb, 0xa1, 0x3d, 0x66, 0x68, 0xa7, 0xbe, 0xfe, 0xa8, 0xde, 0x3e,
  0x94, 0xb1, 0x21, 0x3d, 0xd1, 0x94, 0xfc, 0xbc, 0xd4, 0xc5, 0xa6, 0xbd,
  0x4c, 0xe3, 0x38, 0x3d, 0x47, 0xf0, 0x30, 0xbd, 0x57, 0x3a, 0x6e, 0xbd,
  0xbc, 0xe3, 0xfb, 0xbe, 0xd8, 0x2b, 0x99, 0x3e, 0xc0, 0x08, 0x15, 0x3e,
  0x48, 0xc3, 0xe6, 0xbc, 0xf7, 0x80, 0x2a, 0xbd, 0x8a, 0xfc, 0x66, 0xbd,
  0x2f, 0x6f, 0xc8, 0xbc, 0xa3, 0x12, 0xb5, 0x3e, 0xf1, 0x71, 0x62, 0xbe,
  0xc4, 0x50, 0xac, 0x3e, 0xe0, 0x00, 0x8c, 0x3d, 0xba, 0x07, 0xc2, 0xbd,
  0x10, 0x97, 0x80, 0xbe, 0xf5, 0x51, 0x23, 0x3d, 0x99, 0xee, 0x5b, 0x3c,
  0x7d, 0xf9, 0x00, 0xbd, 0xa6, 0x2a, 0xb2, 0xbe, 0xc4, 0xf0, 0x94, 0x3e,
  0x14, 0xee, 0xfc, 0x3d, 0x24, 0x15, 0x14, 0xbe, 0x88, 0x42, 0x2d, 0xbe,
  0x18, 0x8f, 0x12, 0x3d, 0x5f, 0xec, 0x0c, 0x3c, 0xda, 0xc8, 0x51, 0x3a,
  0x11, 0x75, 0xb1, 0xbe, 0xe2, 0x87, 0xa0, 0x3e, 0x9c, 0x17, 0x01, 0x3e,
  0xe8, 0x4a, 0xd5, 0xbd, 0xf1, 0x57, 0x6c, 0xbd, 0x3e, 0x1b, 0x39, 0xbc,
  0x0d, 0xf1, 0x1d, 0xbd, 0xc4, 0x95, 0xd1, 0x3e, 0x32, 0x38, 0xbc, 0xbd,
  0xf6, 0x2f, 0xc2, 0x3e, 0x70, 0x6d, 0x15, 0xbc, 0x6b, 0xf6, 0x82, 0xbe,
  0xc2, 0x1f, 0x90, 0xbe, 0x6a, 0x32, 0x1c, 0xbd, 0xb6, 0xdc, 0xf2, 0xbd,
  0x9e, 0xa6, 0x4d, 0xbd, 0x88, 0x92, 0xab, 0xbe, 0xef, 0xbe, 0xab, 0x3e,
  0x72, 0xfe, 0x23, 0xbe, 0x3b, 0xef, 0x47, 0xbe, 0x44, 0x88, 0x25, 0xbe,
  0xa0, 0xd8, 0x96, 0xbd, 0x75, 0x78, 0xf7, 0xbd, 0x23, 0xe8, 0x38, 0xbe,
  0x38, 0x9d, 0xfd, 0xbe, 0xa2, 0x26, 0xac, 0x3e, 0xcc, 0xcd, 0xa3, 0xbd,
  0xe7, 0x05, 0x08, 0xbe, 0x25, 0x7a, 0x33, 0xbe, 0x4c, 0xca, 0x55, 0xbc,
  0x72, 0x96, 0x10, 0xbe, 0xae, 0xba, 0x5c, 0x3e, 0x0c, 0x22, 0x95, 0xbe,
  0x91, 0xb8, 0xc3, 0x3e, 0x1c, 0x30, 0x1f, 0x3e, 0x7c, 0x41, 0x0a, 0xbe,
  0x8c, 0x1a, 0x57, 0x3b, 0x78, 0xb0, 0x8c, 0xbd, 0xdf, 0x88, 0x06, 0xbe,
  0xc3, 0xa9, 0x98, 0xbd, 0xe4, 0x59, 0xcf, 0xbe, 0xef, 0x4e, 0xa3, 0x3e,
  0xbd, 0xe7, 0xbe, 0xbd, 0xc6, 0x56, 0x0b, 0xbe, 0xfb, 0xe2, 0x8a, 0x3b,
  0x09, 0xc1, 0x99, 0x3d, 0xe7, 0x80, 0x06, 0xbe, 0x6c, 0xb1, 0x59, 0xbe,
  0xb3, 0x5d, 0xe0, 0xbe, 0xca, 0xda, 0xcc, 0x3e, 0xb0, 0x6a, 0xe0, 0x3d,
  0x74, 0x81, 0x0e, 0xbe, 0x03, 0x1c, 0xb3, 0xbd, 0x3c, 0x97, 0xe0, 0xbc,
  0x51, 0x9f, 0x0f, 0xbe, 0x4e, 0xcb, 0x1a, 0x3e, 0x37, 0x00, 0x48, 0xbe,
  0x00, 0xe5, 0x95, 0x3e, 0xac, 0x6d, 0x0a, 0x3e, 0x49, 0x9d, 0x05, 0xbe,
  0x1d, 0xf3, 0x70, 0xbd, 0x29, 0xca, 0x70, 0xbd, 0x03, 0x7b, 0x12, 0xbd,
  0x6e, 0x46, 0x12, 0xbe, 0xff, 0x7a, 0x9b, 0xbe, 0xed, 0x48, 0xe2, 0x3e,
  0x64, 0xbf, 0xa5, 0xbd, 0xe8, 0xc7, 0x83, 0xbd, 0x23, 0x9e, 0xd7, 0xbd,
  0xfc, 0x64, 0x5c, 0xbd, 0xd8, 0xe5, 0xd1, 0x3c, 0x0c, 0xad, 0x4b, 0xbe,
  0xd4, 0x20, 0xca, 0xbe, 0x3f, 0xe4, 0xda, 0x3e, 0x4e, 0xac, 0x9b, 0x3d,
  0xbc, 0x47, 0xc4, 0xbd, 0x52, 0x54, 0x98, 0xbd, 0x08, 0x4e, 0x9d, 0xbd,
  0x84, 0x35, 0xc5, 0xbc, 0x1c, 0x17, 0x5c, 0x3e, 0xed, 0xa3, 0xbf, 0xbd,
  0x3b, 0xe0, 0xda, 0x3e, 0x10, 0xc1, 0xec, 0x3c, 0x3d, 0x60, 0x9c, 0xbe,
  0x3d, 0x2d, 0xd5, 0xbe, 0xd2, 0xff, 0x04, 0xbe, 0x95, 0x64, 0xa7, 0xbe,
  0x9c, 0xa5, 0x30, 0xbe, 0xe7, 0x7c, 0x81, 0xbf, 0x60, 0x22, 0xcc, 0x3e,
  0xf0, 0x32, 0xed, 0x3d, 0x16, 0x08, 0xb9, 0xbe, 0xb1, 0x03, 0xc2, 0xbe,
  0xc9, 0x17, 0x92, 0xbd, 0x5b, 0x16, 0x78, 0xbe, 0x21, 0x8d, 0x22, 0xbe,
  0xa4, 0x3a, 0x8c, 0xbf, 0xcd, 0x7c, 0xd2, 0x3e, 0x3c, 0xe8, 0x98, 0x3d,
  0x63, 0x97, 0x45, 0xbe, 0x73, 0xeb, 0xb0, 0xbe, 0x1d, 0x10, 0xc8, 0xbd,
  0x28, 0x23, 0x5b, 0xbe, 0xfa, 0xa8, 0xc0, 0xbc, 0x3d, 0x70, 0x2a, 0xbf,
  0x4d, 0x80, 0x60, 0xbf, 0xef, 0xb8, 0x25, 0xbe, 0xa8, 0x96, 0x17, 0xbe,
  0x8a, 0xb1, 0x0d, 0xbe, 0xaa, 0x83, 0x84, 0x3e, 0x9c, 0x39, 0x9d, 0xbf,
  0x4d, 0x00, 0x03, 0x3f, 0x4e, 0x28, 0x0d, 0x3f, 0xb8, 0x60, 0x92, 0xbf,
  0x7c, 0xc7, 0x35, 0x3d, 0x2b, 0xb1, 0x5e, 0xbe, 0xab, 0x7d, 0xaa, 0xbf,
  0x4d, 0x10, 0x72, 0xbc, 0x61, 0x90, 0xdd, 0xbf, 0xa6, 0xfd, 0x4b, 0x3f,
  0xcf, 0x10, 0x2c, 0x3f, 0x33, 0x19, 0x3e, 0xc0, 0x9d, 0xaf, 0xa2, 0xbd,
  0x9c, 0x3a, 0x8e, 0xbf, 0x57, 0xc4, 0x2f, 0xc0, 0xbe, 0xd5, 0x64, 0xbf,
  0x8a, 0x48, 0x19, 0xc0, 0x83, 0x68, 0xef, 0x3e, 0xad, 0x94, 0xb2, 0x3e,
  0x46, 0xf0, 0xc0, 0xbd, 0x78, 0x9a, 0xc1, 0x3d, 0x5e, 0x34, 0x6a, 0xbf,
  0x71, 0xf4, 0x7c, 0xbd, 0xd3, 0xb9, 0x79, 0xbf, 0x35, 0x8b, 0x42, 0xbf,
  0xb1, 0x5a, 0x25, 0x3f, 0x5c, 0xf7, 0x4a, 0xbc, 0x2c, 0x59, 0xb7, 0xbc,
  0x31, 0x42, 0x09, 0xbe, 0xa9, 0x03, 0xd2, 0xbf, 0xa4, 0x46, 0x30, 0xbe,
  0x15, 0xc7, 0xe3, 0xbf, 0x43, 0xdb, 0x6c, 0xbf, 0xbc, 0x8f, 0x95, 0x3e,
  0x79, 0x73, 0x38, 0xbe, 0x57, 0x90, 0x7d, 0xbe, 0xbf, 0xd7, 0x90, 0xbd,
  0x7c, 0x7a, 0xb1, 0xbf, 0xa4, 0x9c, 0x00, 0x3f, 0x8a, 0xa8, 0xc0, 0xbf,
  0x40, 0x40, 0xf9, 0xbe, 0xe7, 0xff, 0x20, 0x3f, 0xd3, 0x54, 0x0a, 0x3f,
  0x6b, 0x6d, 0xb5, 0x3e, 0xa6, 0xe0, 0xad, 0xbd, 0x15, 0xa7, 0x53, 0xbd,
  0x46, 0xc8, 0x6d, 0x3d, 0xf5, 0x70, 0xd1, 0xbd, 0x1a, 0x66, 0xac, 0x3d,
  0xcb, 0x06, 0x22, 0xbd, 0xad, 0xb9, 0xf0, 0xbd, 0x25, 0xbd, 0x00, 0x3f,
  0x74, 0x8a, 0xb1, 0x3d, 0x3e, 0x7d, 0x18, 0xbe, 0x75, 0x6b, 0xde, 0x3d,
  0xfa, 0x30, 0x49, 0xbe, 0xd6, 0x1c, 0x97, 0x3d, 0x46, 0x98, 0x6b, 0xbe,
  0x60, 0xc1, 0x33, 0xbe, 0x98, 0x5b, 0x37, 0x3f, 0x6c, 0x26, 0xc7, 0xbd,
  0x27, 0x67, 0xd2, 0x3e, 0x00, 0xf6, 0x02, 0x3f, 0x58, 0xb6, 0xa6, 0x3e,
  0x91, 0xf7, 0xb6, 0x3e, 0x64, 0xc5, 0x3b, 0x3f, 0xe1, 0xc2, 0xe7, 0x3e,
  0x87, 0x13, 0x7d, 0x3e, 0x0a, 0xa9, 0x17, 0xbe, 0xf0, 0xa8, 0x23, 0x3e,
  0x07, 0x3e, 0x53, 0x3e, 0x83, 0x77, 0xef, 0x3d, 0x83, 0xcb, 0x0c, 0x3e,
  0x9e, 0x20, 0xbb, 0xbd, 0xfa, 0xa6, 0x64, 0x3c, 0x94, 0x29, 0xbc, 0x3e,
  0xf1, 0x6f, 0x04, 0xbe, 0x1a, 0x69, 0x2a, 0x3e, 0x6e, 0xa3, 0x3a, 0x3e,
  0x36, 0x5c, 0x63, 0x3e, 0x9a, 0x08, 0x3b, 0x3e, 0xaa, 0x61, 0xf3, 0xbd,
  0x32, 0x12, 0x9f, 0x3d, 0x0c, 0x9a, 0xb5, 0x3e, 0xde, 0xb7, 0xb7, 0xbd,
  0x48, 0x3f, 0x0a, 0x3f, 0x30, 0x70, 0xfa, 0x3d, 0x29, 0xe2, 0xff, 0x3e,
  0x40, 0xa5, 0x7e, 0x3e, 0x74, 0x3b, 0xb6, 0x3e, 0x03, 0xba, 0x04, 0xbe,
  0x18, 0x36, 0x44, 0xbc, 0x58, 0x3a, 0xb6, 0x3d, 0x08, 0xf3, 0x93, 0xbd,
  0x93, 0xf8, 0x52, 0x3d, 0xa7, 0x2a, 0x89, 0x3c, 0x9e, 0x09, 0xf5, 0x3c,
  0xdb, 0x63, 0xed, 0x3d, 0x16, 0x34, 0xd8, 0x3d, 0x71, 0x37, 0x34, 0x3e,
  0x95, 0x5c, 0x8e, 0xbd, 0x23, 0xa2, 0x5d, 0x3e, 0x0c, 0xe3, 0xb7, 0x3d,
  0xfb, 0x5a, 0x35, 0x3e, 0xd7, 0x18, 0x01, 0x3e, 0x09, 0x3f, 0xff, 0x3d,
  0x87, 0xec, 0x9e, 0x3c, 0x6c, 0xe0, 0x6c, 0xbe, 0x40, 0x8f, 0x8f, 0x3c,
  0xe5, 0xe5, 0x17, 0xbe, 0xba, 0x75, 0x88, 0xbe, 0xb6, 0x04, 0x03, 0xbd,
  0x69, 0xd8, 0xfe, 0xbd, 0xb8, 0x66, 0x0f, 0xbe, 0xbb, 0xb8, 0x9b, 0xbe,
  0x39, 0x39, 0x21, 0xbd, 0x60, 0x1d, 0xc0, 0x3c, 0x6a, 0x14, 0xc8, 0x3d,
  0x09, 0xfb, 0x9e, 0x3d, 0x9e, 0x22, 0xdf, 0x3c, 0x41, 0xd7, 0x71, 0x3d,
  0x84, 0xc5, 0x87, 0x3d, 0x4c, 0x0c, 0xf3, 0x3c, 0x4b, 0x6d, 0x0d, 0x3e,
  0x82, 0xb0, 0x9e, 0xbd, 0x57, 0x7b, 0xd3, 0x3d, 0x26, 0x53, 0x7b, 0x3d,
  0xdd, 0xef, 0xad, 0x3c, 0x9b, 0x0d, 0x2c, 0x3d, 0x59, 0x05, 0xa5, 0xbc,
  0xce, 0x68, 0xa0, 0x3d, 0x5b, 0xa5, 0x7b, 0xbe, 0xfe, 0x16, 0xde, 0xbd,
  0x2c, 0xf2, 0xc6, 0xbd, 0x34, 0xff, 0xbf, 0xbb, 0xf4, 0x35, 0x84, 0xbd,
  0xf4, 0xf9, 0x33, 0xba, 0xe4, 0xd6, 0xa1, 0xbd, 0xe2, 0x53, 0x62, 0xbe,
  0x80, 0x06, 0x43, 0xbd, 0x93, 0x4a, 0xad, 0xbd, 0x32, 0x0f, 0x71, 0x3d,
  0x35, 0xbe, 0x0e, 0x3e, 0x97, 0xbb, 0x99, 0x3d, 0xc1, 0xae, 0x5c, 0x3d,
  0xeb, 0x0d, 0xb2, 0xbd, 0x10, 0xfa, 0x11, 0xbe, 0x0f, 0xa6, 0x88, 0x3d,
  0xb8, 0x0b, 0x14, 0xbd, 0x63, 0x9a, 0x57, 0x3d, 0x94, 0x80, 0x64, 0x3b,
  0x5d, 0x5c, 0xf8, 0x3d, 0x37, 0x22, 0xb9, 0xbc, 0xfd, 0x3a, 0x5b, 0x3d,
  0x28, 0x75, 0x42, 0xbd, 0xf6, 0x19, 0x3d, 0xbe, 0xac, 0xdf, 0x4b, 0xbd,
  0x3b, 0x7a, 0x8f, 0x3d, 0x46, 0x78, 0xa7, 0x3d, 0xe1, 0x07, 0xa4, 0xbb,
  0xb7, 0x16, 0x8b, 0x3d, 0x88, 0xdb, 0x46, 0xbe, 0xfc, 0x10, 0x9f, 0xbd,
  0xf1, 0x25, 0x8f, 0x3b, 0x2c, 0x58, 0xf8, 0x3d, 0x1e, 0x45, 0xf5, 0xbd,
  0x31, 0x0c, 0x60, 0x3e, 0xd3, 0x7d, 0x91, 0xbd, 0x47, 0x40, 0x7e, 0x3d,
  0xcd, 0x7a, 0xec, 0xbd, 0xab, 0x5e, 0x10, 0xbe, 0x36, 0xe3, 0x59, 0x3d,
  0x06, 0x11, 0x9b, 0x3d, 0xf0, 0xe1, 0x2e, 0xbe, 0x9c, 0x29, 0xfd, 0x3d,
  0x0b, 0x01, 0x95, 0xbd, 0x84, 0xdd, 0x3e, 0xbd, 0x9d, 0xcb, 0x95, 0xbd,
  0x45, 0xc4, 0x49, 0x3d, 0x29, 0xad, 0xee, 0x3c, 0x7a, 0x17, 0x91, 0xbd,
  0xf7, 0x1a, 0x0e, 0x3d, 0xc5, 0xb8, 0xa5, 0x3e, 0x60, 0xfc, 0x69, 0xbc,
  0xeb, 0x6b, 0x3b, 0x3e, 0x5a, 0xdf, 0x1d, 0x3d, 0x94, 0xfb, 0xe4, 0x3c,
  0x43, 0xdd, 0xd1, 0xbc, 0x54, 0x12, 0x07, 0xbe, 0x07, 0xd6, 0x0f, 0xc0,
  0xf2, 0xcb, 0x01, 0xbe, 0x3b, 0x2d, 0x0e, 0xc0, 0x84, 0xcb, 0xd5, 0xbe,
  0x0e, 0x24, 0xea, 0xbe, 0x7d, 0xba, 0x96, 0xbe, 0xe9, 0xa6, 0xcd, 0x3d,
  0x28, 0x7b, 0x8b, 0xbc, 0xa2, 0x32, 0x1b, 0xc0, 0xb2, 0x61, 0x1d, 0xbe,
  0xda, 0x46, 0x10, 0xc0, 0x24, 0x19, 0xf4, 0xbe, 0x83, 0x5b, 0x00, 0xbf,
  0xb2, 0x6d, 0x92, 0xbe, 0xa6, 0x69, 0x56, 0x3f, 0x5d, 0xaa, 0xad, 0xbd,
  0xe6, 0xa7, 0x19, 0xc0, 0x46, 0x79, 0x6d, 0x3f, 0x4a, 0xb0, 0x03, 0xc0,
  0xaf, 0xf4, 0xa8, 0x3e, 0xdc, 0x82, 0x83, 0xbf, 0xac, 0x70, 0xe2, 0xbd,
  0x87, 0x7d, 0x01, 0x3f, 0x94, 0xfd, 0xa1, 0xbd, 0x62, 0x04, 0xc3, 0x3e,
  0x6f, 0xd3, 0x71, 0x3e, 0xd2, 0x24, 0xe0, 0x3e, 0xd0, 0x09, 0xd7, 0x3e,
  0x73, 0x15, 0xb0, 0xbb, 0x92, 0xf9, 0x81, 0x3d, 0x66, 0xe5, 0x15, 0x3f,
  0xc8, 0x3d, 0x0b, 0x3e, 0xb3, 0x1c, 0xb0, 0x3e, 0xfa, 0x63, 0x56, 0x3e,
  0xa1, 0x95, 0xb3, 0x3e, 0x3b, 0x1d, 0xcf, 0x3e, 0x28, 0x1a, 0x89, 0xbd,
  0xed, 0x37, 0xc4, 0x3d, 0xcc, 0xb1, 0x2c, 0x3f, 0xe0, 0x30, 0x4e, 0xbc,
  0x94, 0xf9, 0x69, 0x3f, 0x8a, 0x0d, 0xcd, 0x3e, 0xfc, 0x64, 0x79, 0x3f,
  0x06, 0x76, 0x3d, 0x3f, 0x35, 0xf3, 0x2f, 0x3f, 0x16, 0x65, 0x33, 0x3e,
  0x66, 0xdc, 0x43, 0x3e, 0xac, 0x94, 0x62, 0xbd, 0x0c, 0xec, 0xab, 0x3e,
  0xe2, 0x70, 0x96, 0x3e, 0xc1, 0x58, 0x97, 0x3e, 0x8e, 0x7d, 0x44, 0x3e,
  0x3f, 0x25, 0x0b, 0xbb, 0xbf, 0x19, 0x4c, 0x3d, 0x0a, 0xe7, 0x29, 0x3e,
  0xc8, 0x34, 0x26, 0x3e, 0x7c, 0xd8, 0xad, 0x3e, 0x78, 0x0f, 0x46, 0x3d,
  0x8b, 0xbb, 0x97, 0x3e, 0xe4, 0xc3, 0x5d, 0x3e, 0x80, 0x0f, 0xcb, 0x3d,
  0x10, 0x74, 0x57, 0x3e, 0x89, 0x97, 0xc3, 0x3d, 0x26, 0x87, 0x94, 0x3d,
  0x97, 0x07, 0x9b, 0x3e, 0x75, 0x1f, 0x65, 0xbe, 0xba, 0x06, 0xd9, 0x3e,
  0x26, 0x69, 0xef, 0x3d, 0x31, 0x48, 0x1d, 0x3d, 0x7e, 0x77, 0xcc, 0xbe,
  0x48, 0xfb, 0xe0, 0xbd, 0x1e, 0xc6, 0xef, 0xbd, 0x4d, 0x3c, 0x5b, 0x3d,
  0x83, 0xb2, 0x1a, 0xbd, 0x8b, 0xbd, 0xec, 0x3d, 0x01, 0xbc, 0xcf, 0x3d,
  0xc2, 0xf6, 0x3d, 0x3d, 0x6c, 0xb6, 0x16, 0x3d, 0x4c, 0x3b, 0x4c, 0x3d,
  0x90, 0x7c, 0x30, 0x3c, 0x40, 0x35, 0x87, 0x3d, 0xf0, 0xc3, 0x8f, 0x3d,
  0xcb, 0x5e, 0x08, 0x3e, 0x4b, 0xa8, 0x9f, 0x3d, 0x0e, 0x19, 0xec, 0x3d,
  0xf3, 0x8b, 0xcb, 0x3d, 0xf9, 0xa1, 0x40, 0xbe, 0x50, 0xd4, 0x17, 0x3e,
  0xd2, 0xa4, 0x66, 0xbe, 0xdc, 0xb4, 0x80, 0xbe, 0x50, 0x65, 0x93, 0xbe,
  0x2e, 0x1f, 0x1d, 0xbe, 0x84, 0xd9, 0xb4, 0xbe, 0x81, 0x60, 0xc6, 0xbe,
  0xd3, 0xcc, 0xce, 0xbd, 0x38, 0x36, 0x8e, 0x3c, 0x3b, 0xdd, 0x0c, 0x3e,
  0xb5, 0x49, 0x95, 0xbd, 0xe8, 0x92, 0xc1, 0x3d, 0x53, 0x8e, 0xf9, 0x3b,
  0xc7, 0x81, 0x97, 0x3d, 0x6d, 0xcb, 0x77, 0x3d, 0xaa, 0x03, 0x99, 0xbb,
  0xc0, 0xce, 0xaa, 0xbd, 0x85, 0x29, 0x6e, 0x3d, 0xc9, 0xc7, 0x9e, 0xbd,
  0xfa, 0x2c, 0x0d, 0x3d, 0x6e, 0xd8, 0x1f, 0xbd, 0x72, 0x2f, 0xb4, 0x3d,
  0x3c, 0x26, 0x88, 0x3c, 0xb3, 0x92, 0x18, 0xbe, 0xbc, 0xb3, 0x6c, 0xbd,
  0x86, 0xb1, 0xcb, 0xbc, 0x62, 0xc5, 0xae, 0xbb, 0xd7, 0x3c, 0x55, 0xbd,
  0x09, 0x95, 0xd0, 0xbd, 0xfc, 0x39, 0xa5, 0xbe, 0x11, 0x42, 0xa8, 0xbd,
  0xa5, 0xca, 0x11, 0xbd, 0x14, 0xff, 0xdf, 0x3d, 0xc9, 0x96, 0x1b, 0x3d,
  0xcb, 0xb2, 0x48, 0x3c, 0xcc, 0x4d, 0x56, 0x3d, 0xd4, 0x10, 0x50, 0x3c,
  0x43, 0xa6, 0x07, 0xbd, 0xb2, 0x49, 0xf3, 0xbc, 0x5a, 0xd7, 0xb1, 0xbc,
  0xf6, 0x01, 0x1e, 0x3e, 0x0f, 0xc4, 0xb9, 0x3d, 0x86, 0x91, 0xc8, 0xbd,
  0x13, 0x51, 0xaf, 0x3d, 0xa1, 0x94, 0x56, 0x3c, 0x38, 0x38, 0xed, 0x3c,
  0x9d, 0x05, 0x94, 0x3c, 0xaf, 0x0d, 0x48, 0xbd, 0x91, 0x6d, 0x91, 0xbd,
  0xeb, 0x91, 0x34, 0x3d, 0xc7, 0x76, 0xb2, 0xbd, 0x6c, 0x3c, 0xf0, 0x3c,
  0xf1, 0x29, 0xe1, 0x3a, 0x92, 0x74, 0x34, 0xbd, 0x7f, 0x25, 0x8f, 0xbd,
  0xf1, 0xb5, 0xd9, 0xbc, 0x88, 0xca, 0x0d, 0x3d, 0x6c, 0x2c, 0xfc, 0x3c,
  0xe2, 0x83, 0x45, 0x3b, 0x79, 0x24, 0xe4, 0x3d, 0xb4, 0x70, 0xb4, 0x3d,
  0xb4, 0xaa, 0x5d, 0x3a, 0x53, 0xcf, 0xec, 0x3a, 0x70, 0x0b, 0x51, 0x3d,
  0x2f, 0xbd, 0x26, 0xbe, 0x44, 0x9d, 0xe6, 0x3b, 0xaf, 0xeb, 0xfe, 0xbd,
  0x44, 0xbe, 0x9c, 0xbb, 0x7d, 0xe3, 0x10, 0x3d, 0xe0, 0x87, 0x1b, 0xbd,
  0xce, 0x99, 0x9d, 0x3d, 0x90, 0x3b, 0x3e, 0xbd, 0x7c, 0xac, 0x70, 0xbd,
  0xf2, 0x40, 0x23, 0x3e, 0xc8, 0x16, 0xc3, 0xbc, 0x7e, 0xee, 0xf3, 0x3d,
  0x2b, 0x46, 0xda, 0x3d, 0x96, 0x4e, 0x5f, 0xbd, 0x3c, 0x0d, 0xc0, 0xbd,
  0x9e, 0xbe, 0xa1, 0xbd, 0x37, 0xdd, 0x87, 0xbd, 0x54, 0xbb, 0xd0, 0x3c,
  0x8d, 0x08, 0x5e, 0xbe, 0xc9, 0xb5, 0x58, 0x3c, 0x75, 0x57, 0xda, 0xbd,
  0x4d, 0xfe, 0xc1, 0x3d, 0xe9, 0xac, 0x26, 0xbe, 0x20, 0x93, 0x0d, 0x3d,
  0xcc, 0xdb, 0x25, 0x3d, 0x5a, 0xc3, 0x3b, 0xbd, 0xc5, 0xb8, 0xc7, 0xbe,
  0x53, 0xd9, 0x1f, 0x3b, 0xd9, 0xb3, 0x41, 0xbb, 0x82, 0x10, 0x6b, 0xbd,
  0x0e, 0x1a, 0x22, 0xbe, 0xf7, 0xf9, 0xda, 0x3b, 0xdc, 0x55, 0x12, 0x3e,
  0x4c, 0x1e, 0x4b, 0x3d, 0x4b, 0x1b, 0x0e, 0xbe, 0x97, 0x75, 0x5a, 0x3d,
  0xca, 0x66, 0xa9, 0x3d, 0x7d, 0x50, 0x17, 0xbe, 0x13, 0x3a, 0x29, 0xbe,
  0x2c, 0xbb, 0x7d, 0x3e, 0xe8, 0xca, 0x80, 0xbc, 0xc6, 0xca, 0x03, 0xbe,
  0xd7, 0xf1, 0x96, 0xbd, 0x88, 0x75, 0xbd, 0xbd, 0xd9, 0xfd, 0xcf, 0xbe,
  0x81, 0x7d, 0x93, 0x3f, 0x8b, 0x09, 0x54, 0x3f, 0x26, 0xf0, 0xc3, 0x3e,
  0x08, 0x84, 0xed, 0xbc, 0x54, 0x42, 0x04, 0x3f, 0x4a, 0x70, 0x21, 0xbe,
  0x68, 0xbe, 0x41, 0x3e, 0x15, 0x56, 0x5d, 0x3e, 0xfd, 0x28, 0x38, 0x3f,
  0x2e, 0xc4, 0x0a, 0x3f, 0x30, 0xaf, 0x93, 0x3c, 0xc0, 0xd0, 0xdd, 0x3c,
  0x4e, 0xee, 0x9b, 0x3d, 0xff, 0x72, 0x4b, 0xbe, 0x10, 0x9c, 0x7e, 0xbe,
  0x3a, 0xff, 0x4c, 0xbe, 0x65, 0xe4, 0xca, 0x3f, 0x6c, 0xeb, 0x9b, 0x3f,
  0x9c, 0x63, 0x6f, 0x3e, 0x68, 0x3d, 0x27, 0xbe, 0x57, 0x89, 0x8b, 0xbe,
  0x42, 0xd4, 0x98, 0xbe, 0x27, 0x72, 0x49, 0xbe, 0xb9, 0xb7, 0xc7, 0xbe,
  0x92, 0xe5, 0x22, 0x3f, 0xea, 0x92, 0x07, 0x3f, 0x44, 0xd5, 0x40, 0x3e,
  0x9c, 0x39, 0x1a, 0x3e, 0x05, 0xa3, 0x6a, 0x3e, 0x81, 0xf6, 0xd6, 0xbe,
  0xde, 0x2e, 0xfb, 0xbc, 0x2d, 0x45, 0x05, 0x3c, 0x57, 0xff, 0xaf, 0x3e,
  0x37, 0xf0, 0x7b, 0x3e, 0xf9, 0x00, 0x9d, 0xbd, 0xbc, 0xab, 0x61, 0xbd,
  0x66, 0xc9, 0x9d, 0xbe, 0x4c, 0x57, 0x54, 0xbf, 0xca, 0xb8, 0xa6, 0xbe,
  0x98, 0x72, 0xdc, 0xbe, 0x26, 0xb4, 0x5c, 0x3f, 0x69, 0xcb, 0x55, 0x3f,
  0xf7, 0xb5, 0xc5, 0x3e, 0x60, 0x00, 0xb7, 0x3d, 0xe8, 0xbd, 0x90, 0xbe,
  0x15, 0x2b, 0x59, 0xbe, 0xdf, 0xa7, 0xb3, 0xbe, 0xaf, 0xb2, 0xf6, 0xbe,
  0x1c, 0xac, 0xcc, 0x3e, 0x5d, 0xc9, 0xd6, 0x3e, 0x65, 0xcb, 0x20, 0x3e,
  0xec, 0xa1, 0x1b, 0xbe, 0x94, 0x16, 0x29, 0xbd, 0xca, 0xd1, 0xf1, 0xbe,
  0x8c, 0xee, 0x07, 0xbc, 0xda, 0x85, 0xc9, 0x3c, 0x26, 0x27, 0x8d, 0x3e,
  0x7e, 0x6f, 0x5e, 0x3e, 0xc5, 0x56, 0x8d, 0x3e, 0x67, 0x2b, 0x20, 0xbe,
  0x1f, 0xf6, 0x82, 0xbe, 0xe4, 0x10, 0x0d, 0xbf, 0x59, 0xc6, 0xd1, 0xbe,
  0xab, 0xba, 0xcd, 0xbe, 0xa6, 0x35, 0x1d, 0x3f, 0xdf, 0x3d, 0x19, 0x3f,
  0xd6, 0x0e, 0xa3, 0x3e, 0x00, 0x5c, 0x7a, 0xbb, 0x77, 0xc0, 0x92, 0xbe,
  0xaa, 0x45, 0xb3, 0xbe, 0x1a, 0x65, 0xa9, 0xbe, 0xb7, 0xec, 0xe5, 0xbe,
  0x68, 0xc3, 0x77, 0x3e, 0x7a, 0xaf, 0xc8, 0x3e, 0x04, 0x72, 0x34, 0x3e,
  0x24, 0x2b, 0xd0, 0x3d, 0x9e, 0x95, 0x59, 0x3d, 0xd9, 0x91, 0x52, 0xbe,
  0xae, 0xea, 0xaf, 0xbd, 0x7d, 0x8b, 0x00, 0xbe, 0x61, 0x93, 0x4e, 0x3e,
  0x57, 0x16, 0x97, 0x3e, 0x0f, 0xaa, 0x4b, 0x3e, 0x28, 0x74, 0x0f, 0xbd,
  0x75, 0x23, 0xdc, 0xbe, 0x1a, 0xb8, 0x14, 0xbf, 0xe4, 0xd2, 0xc0, 0xbe,
  0x60, 0x0b, 0x0a, 0xbf, 0x7c, 0x2d, 0x18, 0x3f, 0x68, 0xee, 0xde, 0x3e,
  0x14, 0x93, 0x6b, 0x3e, 0xb4, 0xe7, 0xfd, 0xbd, 0x3e, 0x66, 0xb5, 0xbe,
  0x25, 0x95, 0x35, 0xbe, 0x09, 0x02, 0xc1, 0xbe, 0xff, 0x38, 0x0b, 0xbf,
  0x57, 0x4b, 0xc4, 0x3e, 0x7f, 0xb5, 0x9b, 0x3e, 0x8c, 0xd6, 0xc6, 0x3d,
  0x20, 0x4a, 0xa7, 0x3d, 0xbc, 0xda, 0x05, 0xbd, 0xe4, 0x69, 0x99, 0xbe,
  0xe9, 0x84, 0x39, 0xbd, 0x18, 0x19, 0x8c, 0xbd, 0xe0, 0x6f, 0xab, 0x3e,
  0xee, 0x80, 0x30, 0x3e, 0x8c, 0xf8, 0x0e, 0xbd, 0x20, 0x1a, 0xb0, 0x3b,
  0xe6, 0x97, 0xee, 0xbe, 0xe2, 0x3a, 0x87, 0xbe, 0x89, 0xf2, 0xeb, 0xbe,
  0xa9, 0x74, 0x09, 0xbf, 0x03, 0x88, 0xff, 0x3e, 0x78, 0xf6, 0xba, 0x3e,
  0xdc, 0x15, 0x44, 0x3e, 0x18, 0x8d, 0xa8, 0xbc, 0x9b, 0xc1, 0x9f, 0xbe,
  0x5b, 0x83, 0x2d, 0xbd, 0xc9, 0x10, 0xa6, 0xbe, 0x7e, 0x46, 0xbb, 0xbe,
  0x2f, 0x59, 0x61, 0x3d, 0x6e, 0xf9, 0xd9, 0x3e, 0x0d, 0xde, 0xec, 0x3d,
  0x7f, 0xc7, 0xe2, 0xbd, 0x98, 0x11, 0x93, 0x3c, 0xca, 0xa9, 0xb9, 0xbd,
  0xb4, 0x53, 0x5f, 0xbd, 0xc8, 0x8a, 0x68, 0x3c, 0xf3, 0x4d, 0x1a, 0x3e,
  0x2d, 0x57, 0xb0, 0x3d, 0xf2, 0xd1, 0x7a, 0x3e, 0x0a, 0xa4, 0xfa, 0xbd,
  0x14, 0xbb, 0x26, 0xbe, 0x55, 0xd8, 0x3c, 0xbe, 0xf3, 0xb9, 0x1a, 0xbe,
  0x7f, 0x9a, 0x55, 0xbe, 0x42, 0x72, 0x09, 0x3f, 0x3b, 0x64, 0xe4, 0x3e,
  0xde, 0x0c, 0x4e, 0xbd, 0x0a, 0x05, 0x02, 0x3e, 0xb0, 0xc6, 0x91, 0xbe,
  0x00, 0x2a, 0x3f, 0x3e, 0x75, 0xb6, 0x9b, 0xbe, 0x1e, 0xf4, 0x88, 0xbe,
  0x90, 0xe8, 0x8e, 0x3d, 0x67, 0x40, 0x85, 0x3e, 0x03, 0x0e, 0x84, 0x3d,
  0x5c, 0xe7, 0x08, 0xbe, 0x01, 0x5c, 0xb4, 0xbd, 0x7e, 0x03, 0x17, 0xbe,
  0xbb, 0xa8, 0x80, 0xbd, 0xfc, 0x82, 0xa3, 0xbd, 0x14, 0xe5, 0xef, 0x3d,
  0x42, 0x94, 0x38, 0x3e, 0x73, 0x0a, 0x01, 0x3d, 0x18, 0x7b, 0x8d, 0x3d,
  0xe1, 0x1e, 0x95, 0xbe, 0xbb, 0xd7, 0xb6, 0xbd, 0xea, 0x17, 0x5c, 0xbe,
  0xbd, 0x11, 0x7c, 0xbe, 0xfc, 0xe1, 0xcd, 0x3e, 0x09, 0x1f, 0xbe, 0x3e,
  0x4f, 0x22, 0x96, 0xbe, 0x48, 0x3d, 0xb6, 0x3c, 0xe4, 0x0c, 0x7f, 0xbe,
  0x6d, 0x22, 0xb3, 0xbe, 0x16, 0x55, 0x3f, 0xbe, 0x86, 0x32, 0xf8, 0xbe,
  0x61, 0x37, 0x98, 0xbd, 0xdd, 0x2f, 0x8c, 0x3e, 0x71, 0x31, 0x62, 0x3c,
  0x92, 0xee, 0x1a, 0x3e, 0xc1, 0xb8, 0x81, 0x3c, 0x1a, 0x99, 0x6c, 0xbe,
  0x2a, 0x5b, 0xc7, 0xbc, 0x52, 0x41, 0xa7, 0xbc, 0x5f, 0x14, 0x00, 0x3e,
  0x4c, 0x16, 0x97, 0x3e, 0x79, 0xdf, 0x27, 0xbe, 0x74, 0xa6, 0xd0, 0x3d,
  0x71, 0xc7, 0x9f, 0xbe, 0x7e, 0x38, 0x13, 0xbf, 0xd8, 0xc8, 0xa1, 0xbe,
  0x0c, 0xa5, 0x10, 0xbf, 0xcb, 0xbc, 0x99, 0x3e, 0x1c, 0xc1, 0xc1, 0x3e,
  0x0e, 0x76, 0xda, 0x3e, 0xde, 0x5b, 0x29, 0x3e, 0xb6, 0xb3, 0xc3, 0x3e,
  0xc6, 0x6f, 0xb8, 0x3c, 0x8e, 0x33, 0x88, 0x3e, 0xc2, 0xc7, 0xab, 0x3e,
  0x5b, 0xaa, 0x1a, 0xbe, 0x06, 0x6d, 0x78, 0xbe, 0x3b, 0x4c, 0xec, 0x3e,
  0x38, 0x62, 0x16, 0xbe, 0xfc, 0xe2, 0xaa, 0x3e, 0x04, 0x7e, 0x39, 0x3e,
  0xb5, 0x96, 0x23, 0x3e, 0xd4, 0x02, 0xbe, 0x3e, 0x18, 0x20, 0x7c, 0xbe,
  0x0c, 0x06, 0x88, 0xbe, 0x0b, 0x3d, 0xa3, 0x3e, 0x77, 0x94, 0x86, 0xbd,
  0xec, 0xe9, 0x59, 0x3e, 0x02, 0xfe, 0x7e, 0x3e, 0x11, 0xf3, 0x3a, 0x3e,
  0x3d, 0xd6, 0xf4, 0x3d, 0x10, 0x14, 0x8e, 0xbd, 0x7d, 0x50, 0x6a, 0xbe,
  0xf5, 0xd8, 0x1d, 0x3e, 0xc6, 0xd0, 0x95, 0x3d, 0x11, 0x42, 0x8f, 0x3e,
  0x8a, 0x45, 0xa1, 0xbe, 0x8e, 0xf1, 0x81, 0x3e, 0xf8, 0x9e, 0x44, 0x3e,
  0xdd, 0x28, 0x81, 0xbe, 0x28, 0x12, 0xfb, 0xbe, 0xee, 0xf0, 0x6a, 0x3e,
  0xdc, 0x42, 0x3e, 0x3d, 0xd0, 0xa4, 0xbf, 0x3e, 0xb0, 0xf0, 0x10, 0xbf,
  0xaf, 0x1e, 0x71, 0x3e, 0x45, 0x6b, 0xda, 0x3d, 0x6a, 0x95, 0x3b, 0xbe,
  0xef, 0x0c, 0xb6, 0xbe, 0xe5, 0x63, 0x7a, 0x3e, 0xa4, 0xed, 0x2a, 0xbd,
  0xed, 0x02, 0x48, 0x3e, 0xa8, 0xff, 0x24, 0x3d, 0x0a, 0x54, 0xe3, 0x3c,
  0x80, 0xc4, 0x48, 0x3c, 0xb9, 0xde, 0xb3, 0x3c, 0x59, 0xf1, 0x8f, 0xbe,
  0x9c, 0x10, 0x90, 0xbd, 0x20, 0xab, 0x6b, 0x3d, 0x75, 0xad, 0x8f, 0x3d,
  0xb3, 0x82, 0x12, 0xbf, 0x5a, 0xf9, 0xa4, 0x3c, 0x12, 0x24, 0x86, 0x3d,
  0x25, 0x08, 0xb7, 0xbe, 0x67, 0x48, 0x51, 0xbf, 0xe9, 0x50, 0x12, 0xbe,
  0x90, 0x88, 0xfc, 0x3c, 0xa5, 0x8a, 0xe5, 0x3d, 0x4d, 0xf8, 0x70, 0xbf,
  0x9c, 0x32, 0x02, 0xbd, 0x83, 0x2f, 0x41, 0xbe, 0x48, 0xf6, 0x23, 0xbf,
  0xed, 0xec, 0x58, 0xbf, 0x8e, 0x99, 0x3d, 0x3e, 0xe0, 0x6a, 0x27, 0x3d,
  0x3b, 0x83, 0xe5, 0x3d, 0x28, 0xae, 0x77, 0x3e, 0xba, 0xe3, 0xfe, 0x3d,
  0x92, 0xe4, 0xf5, 0x3d, 0xdd, 0x60, 0x28, 0xbe, 0x89, 0x0a, 0x31, 0xbe,
  0x10, 0x42, 0x93, 0xbe, 0x40, 0xcf, 0xdb, 0x3d, 0x2e, 0x78, 0xad, 0xbd,
  0x93, 0xcc, 0x1c, 0xbf, 0xde, 0xc7, 0x8e, 0xbb, 0x5a, 0x5d, 0xc1, 0xbd,
  0x62, 0x96, 0x23, 0xbf, 0x7a, 0xbd, 0x45, 0xbf, 0xba, 0x7e, 0x8b, 0xbe,
  0x68, 0x8b, 0x2d, 0xbd, 0x82, 0xa3, 0xfe, 0xbd, 0x04, 0x65, 0x61, 0xbf,
  0xc8, 0xa1, 0x64, 0xbe, 0xf9, 0x95, 0xea, 0xbd, 0xc0, 0xad, 0x13, 0xbf,
  0x85, 0xb4, 0x24, 0xbf, 0xa6, 0x59, 0x90, 0x3d, 0xf4, 0xbb, 0x1e, 0xbd,
  0xd2, 0xd9, 0xf6, 0x3d, 0xb4, 0xc4, 0x3e, 0xbb, 0x07, 0x29, 0xa2, 0x3d,
  0xc3, 0xd4, 0x1f, 0x3e, 0xb0, 0x75, 0x2f, 0xbe, 0xe5, 0x0b, 0xd6, 0xbe,
  0x05, 0x3b, 0xbe, 0xbe, 0x84, 0xc8, 0x26, 0xbd, 0x6a, 0x91, 0x12, 0xbd,
  0x3a, 0x2f, 0xc4, 0xbe, 0xfc, 0x49, 0xda, 0xbd, 0xba, 0x63, 0xfa, 0xbd,
  0x88, 0xb4, 0xf2, 0xbe, 0xc7, 0x6e, 0x07, 0xbf, 0x26, 0x70, 0xba, 0xbe,
  0xdc, 0x30, 0x2a, 0xbe, 0x56, 0x97, 0x88, 0xbe, 0x8f, 0x66, 0xaf, 0xbe,
  0x4d, 0x7a, 0x5e, 0xbe, 0x39, 0x7b, 0x05, 0xbe, 0xca, 0x7d, 0x26, 0xbf,
  0x69, 0x1b, 0xdd, 0xbe, 0x22, 0xc6, 0xcf, 0x3c, 0x66, 0x4f, 0xef, 0xbd,
  0x9d, 0x90, 0x02, 0x3e, 0x11, 0xf6, 0x9d, 0xbe, 0x0a, 0x77, 0x8e, 0x3c,
  0xad, 0xef, 0xc0, 0xbd, 0xfb, 0x7f, 0x13, 0xbf, 0x1d, 0x25, 0x16, 0xbf,
  0x42, 0xd3, 0xac, 0xbd, 0xd6, 0x85, 0xf9, 0xbd, 0x99, 0xcd, 0xfe, 0xbd,
  0x31, 0x83, 0x07, 0xbd, 0x13, 0x28, 0x64, 0xbe, 0xde, 0x03, 0x4d, 0xbd,
  0xd9, 0xf1, 0xce, 0xba, 0xac, 0xd9, 0x7c, 0xbc, 0x54, 0x37, 0x20, 0xbe,
  0x88, 0xc9, 0x69, 0xbd, 0xf9, 0x6b, 0xa2, 0xbd, 0x28, 0x6b, 0x18, 0x3e,
  0x5e, 0x33, 0x57, 0xbd, 0x8d, 0x9f, 0x24, 0xbd, 0xfb, 0x3f, 0x3c, 0x3d,
  0x98, 0xe2, 0x50, 0x3d, 0x90, 0x2b, 0xb7, 0x3d, 0xc4, 0xf0, 0x41, 0x3d,
  0x4d, 0xf1, 0x5c, 0xbe, 0x2a, 0xd7, 0x95, 0xbe, 0xe6, 0xaa, 0x64, 0xbe,
  0x7d, 0x74, 0x4c, 0xbe, 0x36, 0x94, 0x54, 0xbf, 0x46, 0x83, 0x26, 0xbf,
  0xaa, 0x30, 0xa6, 0x3d, 0x38, 0xa8, 0xc0, 0x3d, 0xd5, 0xf3, 0x31, 0x3e,
  0x1e, 0xbf, 0x46, 0x3e, 0x11, 0x55, 0xa9, 0x3d, 0x88, 0xc4, 0xbf, 0x3d,
  0x1a, 0x7a, 0xe5, 0x3e, 0xfb, 0x4f, 0x89, 0x3e, 0xa3, 0x53, 0x5e, 0x3d,
  0x58, 0xd3, 0x2c, 0x3e, 0x2b, 0x6c, 0x1d, 0x3e, 0xe1, 0x1a, 0x3d, 0x3e,
  0xa2, 0xea, 0x29, 0x3e, 0x74, 0x88, 0xf4, 0x3d, 0x61, 0x6e, 0xd8, 0x3e,
  0xa2, 0x89, 0x61, 0x3e, 0xb0, 0x0a, 0xae, 0x3d, 0x18, 0x4c, 0xac, 0x3c,
  0x8b, 0x5a, 0x0b, 0xbe, 0x5f, 0xc5, 0x10, 0xbe, 0x3a, 0x35, 0xf6, 0xbd,
  0xe9, 0x77, 0x9f, 0xbd, 0x8c, 0x71, 0xba, 0xbe, 0x7c, 0x1b, 0x6d, 0xbe,
  0x09, 0x38, 0xb2, 0x3e, 0x00, 0xfe, 0xa9, 0x3c, 0xc3, 0x54, 0x24, 0x3e,
  0xe8, 0x13, 0x18, 0x3f, 0x5a, 0x09, 0x22, 0x3e, 0xfc, 0x99, 0xbf, 0x3e,
  0x1e, 0x59, 0x64, 0x3e, 0x2d, 0xf7, 0x37, 0x3f, 0x0c, 0x1a, 0x9a, 0x3e,
  0x09, 0x2b, 0xb9, 0xbd, 0xd9, 0xed, 0x9a, 0x3e, 0x50, 0xd8, 0x06, 0x3f,
  0x11, 0xd6, 0x7e, 0x3e, 0x50, 0xbc, 0xb6, 0x3e, 0xec, 0xc0, 0xac, 0x3e,
  0xa8, 0xd0, 0x45, 0x3f, 0x9c, 0x19, 0x71, 0x3e, 0x5a, 0x3c, 0x04, 0xbe,
  0x2c, 0x57, 0xa1, 0x3d, 0xc1, 0xcb, 0xbf, 0x3e, 0x73, 0x7d, 0x0f, 0x3d,
  0xb6, 0xff, 0x1a, 0x3e, 0xd7, 0xaa, 0xb5, 0xbd, 0x28, 0xc5, 0x4a, 0x3e,
  0x88, 0x95, 0xd3, 0x3e, 0x94, 0xbb, 0x59, 0xbd, 0x52, 0x0c, 0x41, 0x3f,
  0x81, 0x4a, 0x86, 0x3e, 0x51, 0xe3, 0x33, 0x3f, 0x2e, 0x04, 0xe5, 0x3e,
  0x72, 0x7b, 0x5f, 0x3f, 0xe7, 0x22, 0x48, 0x3f, 0xc0, 0x3d, 0x42, 0x3f,
  0x10, 0x23, 0xa9, 0x3c, 0x94, 0x7c, 0x87, 0x3f, 0x48, 0x34, 0x9d, 0x3e,
  0xe4, 0xee, 0x55, 0x3f, 0x95, 0x8b, 0x51, 0x3f, 0x17, 0xdd, 0x55, 0x3f,
  0xa2, 0x13, 0x0d, 0x3f, 0x4a, 0x1a, 0x20, 0x3f, 0x70, 0xd8, 0xa4, 0x3c,
  0x0c, 0x0e, 0x9f, 0x3f, 0x2b, 0x2b, 0x51, 0x3d, 0x9a, 0x6e, 0x8a, 0x3f,
  0x00, 0x06, 0x38, 0x3f, 0x6a, 0xdd, 0x9a, 0x3f, 0x20, 0xfd, 0x7e, 0x3f,
  0xa5, 0x06, 0xb3, 0x3c, 0xb3, 0xbd, 0x8c, 0xbd, 0x7a, 0x9c, 0x63, 0x3e,
  0xa5, 0xcb, 0x71, 0xbe, 0x37, 0x78, 0x17, 0x3e, 0xcc, 0x7d, 0x35, 0x3a,
  0x39, 0x4e, 0xdd, 0x3e, 0x19, 0xf1, 0xa4, 0x3e, 0x17, 0xa3, 0xc3, 0x3d,
  0xa8, 0xdf, 0x8e, 0x3d, 0x9f, 0x59, 0x5a, 0x3e, 0xab, 0x86, 0x1a, 0xbe,
  0x4b, 0xc4, 0x9c, 0x3e, 0x7e, 0x49, 0x05, 0x3e, 0xeb, 0xa5, 0xd3, 0x3e,
  0x72, 0x35, 0x88, 0x3d, 0xd1, 0x7f, 0xfe, 0xbe, 0xa0, 0xe8, 0xd3, 0x3d,
  0x2d, 0x06, 0x37, 0x3d, 0x61, 0xbf, 0x93, 0xbf, 0xc8, 0x05, 0x19, 0x3d,
  0xbe, 0xa6, 0xcb, 0xbe, 0x09, 0x30, 0x5b, 0x3f, 0x5a, 0x62, 0xf7, 0x3e,
  0xf8, 0x25, 0x59, 0xbe, 0xd0, 0x4b, 0xf1, 0x3c, 0xf2, 0xb3, 0xb8, 0xbd,
  0x5f, 0x26, 0x46, 0xbd, 0x49, 0xd5, 0xe1, 0xbd, 0xdb, 0xa3, 0x04, 0xbe,
  0xa0, 0xc8, 0x4b, 0x3e, 0x66, 0xea, 0x2a, 0x3d, 0x7c, 0xd6, 0x6e, 0xbe,
  0x4e, 0xd7, 0x67, 0xbd, 0x4b, 0xd5, 0x5d, 0x3c, 0x34, 0x60, 0xc1, 0xbe,
  0x64, 0x39, 0x3a, 0x3d, 0xe3, 0xde, 0xd0, 0xbc, 0x17, 0x90, 0x5e, 0xbd,
  0x57, 0x94, 0x3a, 0x3d, 0x30, 0x0d, 0x3d, 0xbf, 0xb5, 0x94, 0x20, 0xbe,
  0x53, 0xe1, 0x47, 0xbe, 0xf9, 0xd2, 0x7f, 0xbf, 0xd0, 0x22, 0xa9, 0xbe,
  0x23, 0x50, 0xe9, 0xbe, 0x19, 0x7f, 0xb0, 0x3e, 0x70, 0xfe, 0x4a, 0x3e,
  0x44, 0xbd, 0xf2, 0xbe, 0x94, 0xf8, 0x18, 0xbd, 0x6c, 0x8e, 0x1a, 0xbe,
  0xf6, 0x04, 0x9d, 0xbe, 0x5e, 0x2a, 0x1a, 0xbe, 0xba, 0xe1, 0xa1, 0xbe,
  0xd5, 0x5b, 0x15, 0xbd, 0x10, 0x32, 0x85, 0x3d, 0x9a, 0x34, 0xcd, 0xbe,
  0xec, 0x94, 0x25, 0x3d, 0x8a, 0x2b, 0x90, 0xbd, 0x30, 0xd2, 0x63, 0xbe,
  0x8c, 0x4e, 0x3d, 0xbe, 0x64, 0xe9, 0x71, 0xbe, 0x8c, 0x62, 0xf5, 0xbd,
  0xae, 0x04, 0x02, 0x3e, 0x83, 0xe0, 0x9c, 0xbf, 0xa2, 0x72, 0x81, 0x3d,
  0x8e, 0x44, 0x1a, 0xbf, 0xe2, 0xcd, 0x62, 0xbf, 0x3c, 0xaa, 0x1d, 0xbf,
  0xf3, 0x58, 0x42, 0xbf, 0x78, 0xd5, 0x3b, 0x3e, 0x86, 0x0f, 0x4e, 0x3e,
  0xb9, 0x1c, 0x7c, 0xbe, 0x7c, 0x22, 0x56, 0xbd, 0x16, 0x14, 0x11, 0xbf,
  0x9e, 0x22, 0x00, 0xbf, 0xfb, 0xb4, 0x0c, 0xbf, 0x0e, 0xbd, 0xe4, 0xbe,
  0xd3, 0x51, 0xc9, 0x3d, 0x65, 0x7e, 0x13, 0xbe, 0x35, 0x2d, 0xaf, 0xbe,
  0xb0, 0x37, 0x71, 0xbc, 0x0e, 0x8a, 0xc0, 0xbe, 0xbe, 0x2a, 0x18, 0xbf,
  0xe7, 0xfd, 0xfa, 0xbe, 0x16, 0xa6, 0xbd, 0xbe, 0x31, 0xef, 0xd8, 0x3d,
  0x8d, 0x84, 0xec, 0xbd, 0xd4, 0x33, 0x36, 0xbf, 0x86, 0x12, 0x23, 0x3e,
  0xa5, 0x25, 0x56, 0xbf, 0x8a, 0x57, 0xda, 0xbe, 0x54, 0xc2, 0x5d, 0xbf,
  0x98, 0x4d, 0x32, 0xbf, 0x2c, 0x7f, 0x8b, 0x3e, 0x88, 0x3d, 0xc5, 0x3d,
  0xa0, 0x47, 0x5c, 0x3c, 0xe0, 0x54, 0xf3, 0x3c, 0xca, 0xd0, 0x3c, 0xbe,
  0xef, 0x94, 0xa2, 0x3c, 0x36, 0x63, 0x18, 0xbe, 0x79, 0xe3, 0x0c, 0xbd,
  0xb4, 0xbb, 0xee, 0xbd, 0x8a, 0xe2, 0x90, 0x3c, 0x35, 0xb6, 0xa3, 0xbc,
  0x80, 0xae, 0x9c, 0x3b, 0xa6, 0x3d, 0x83, 0xbd, 0x13, 0x3c, 0x00, 0xbe,
  0x9a, 0xa1, 0xf8, 0xbd, 0x3e, 0x94, 0xd1, 0xbd, 0x99, 0x24, 0xb1, 0xbd,
  0xcc, 0x1a, 0x9d, 0x3b, 0x7e, 0xae, 0x5d, 0x3e, 0xca, 0x56, 0x1b, 0xbe,
  0x68, 0x7c, 0x43, 0x3e, 0xb2, 0x1a, 0x70, 0x3e, 0x7c, 0x66, 0x52, 0x3e,
  0x43, 0xa7, 0x64, 0x3e, 0x24, 0x0f, 0xde, 0x3e, 0x62, 0xd7, 0x9e, 0x3e,
  0xf2, 0x6f, 0x01, 0x3d, 0x34, 0x07, 0x3e, 0x3d, 0x54, 0x21, 0xf4, 0xbc,
  0x79, 0xc1, 0x9c, 0x3c, 0x1d, 0xb4, 0xad, 0x3b, 0x2f, 0xed, 0x9c, 0x3d,
  0xca, 0x29, 0xdd, 0x3c, 0x25, 0xfd, 0xdd, 0x3a, 0xc3, 0x0b, 0xb8, 0x3c,
  0xc0, 0x74, 0xd2, 0x3b, 0x03, 0x47, 0x11, 0xbd, 0x61, 0x3f, 0x02, 0xbd,
  0xec, 0x02, 0x85, 0xbd, 0x9e, 0x6e, 0xc1, 0xbd, 0x79, 0x79, 0x51, 0x3c,
  0x94, 0x74, 0xc6, 0xbd, 0x91, 0x02, 0xb8, 0x3d, 0xec, 0x79, 0x1e, 0xbd,
  0x39, 0xc9, 0xb6, 0x3d, 0xcb, 0xa9, 0x13, 0xbd, 0x5c, 0x1f, 0xab, 0x3d,
  0xa1, 0xea, 0xd7, 0xbc, 0x6f, 0xbc, 0x85, 0x3e, 0x99, 0xad, 0x24, 0x3c,
  0x92, 0x74, 0x90, 0x3d, 0x80, 0x46, 0x0b, 0xbc, 0xfc, 0xd2, 0x46, 0xbd,
  0x48, 0x22, 0x87, 0x3e, 0x82, 0x37, 0xe9, 0xbd, 0x44, 0x38, 0xf5, 0x3d,
  0xe5, 0x07, 0x95, 0xbd, 0x11, 0x5a, 0xc8, 0x3c, 0xfa, 0x4c, 0x56, 0x3d,
  0x70, 0x9a, 0x78, 0xbd, 0x03, 0x82, 0xfe, 0xbd, 0x38, 0x58, 0xa1, 0x3e,
  0x98, 0x38, 0x03, 0xbe, 0xa7, 0x8f, 0xb5, 0x3d, 0x10, 0x2e, 0x07, 0xbe,
  0x49, 0xfd, 0xf7, 0x3d, 0x39, 0x0c, 0xe2, 0x3d, 0xf0, 0xb7, 0x4a, 0xbd,
  0x75, 0x38, 0x3b, 0xbb, 0xbd, 0x03, 0x2c, 0x3e, 0xb8, 0xba, 0x70, 0xbd,
  0x55, 0x27, 0x8a, 0x3d, 0x93, 0x88, 0x02, 0x3e, 0x1c, 0x13, 0x2c, 0x3e,
  0xbe, 0x62, 0xe1, 0x3d, 0x34, 0x2a, 0xb6, 0xbd, 0x0d, 0x29, 0xcb, 0xbc,
  0x3a, 0x11, 0x4f, 0xbf, 0xa6, 0xdf, 0x49, 0x3d, 0xeb, 0x53, 0xfe, 0x3e,
  0x70, 0xe4, 0x86, 0xbf, 0x2f, 0xff, 0x4c, 0xbf, 0x4a, 0x05, 0x1f, 0x3e,
  0x68, 0xf5, 0x8f, 0xbc, 0xf5, 0x5e, 0x34, 0xbe, 0xeb, 0x9b, 0x9c, 0xbf,
  0xf9, 0xc6, 0xde, 0x3d, 0x6d, 0xd5, 0x89, 0x3e, 0xb5, 0x23, 0x85, 0xbf,
  0x3d, 0xa2, 0x96, 0xbf, 0xb3, 0xdf, 0x10, 0x3f, 0x6e, 0xb2, 0xb7, 0xbd,
  0x7a, 0xe5, 0x3d, 0x3f, 0x27, 0x90, 0xc4, 0xbe, 0x24, 0x4a, 0x1c, 0x3f,
  0x27, 0xe7, 0x18, 0x3f, 0x1b, 0x8b, 0x61, 0xbf, 0x24, 0x0e, 0x74, 0xbf,
  0x65, 0x4a, 0xfb, 0xbe, 0xb0, 0xe7, 0x83, 0x3d, 0xcf, 0x7a, 0xe1, 0x3c,
  0xaf, 0x4b, 0xe4, 0xbe, 0x7a, 0x00, 0xef, 0xbc, 0xe4, 0x66, 0x1d, 0xbe,
  0x3e, 0xc7, 0x77, 0xbf, 0xbf, 0xc6, 0x5a, 0xbf, 0x52, 0x53, 0xa5, 0xbe,
  0xc0, 0xa5, 0x11, 0xbb, 0xdc, 0x75, 0x4f, 0xbe, 0xdd, 0x5a, 0xfd, 0xbe,
  0x46, 0xf5, 0x5c, 0xbe, 0x50, 0xfd, 0x4e, 0xbe, 0x52, 0x65, 0xb9, 0xbf,
  0x06, 0xed, 0x47, 0xbf, 0xc2, 0xe3, 0x59, 0x3e, 0xf8, 0xbc, 0x46, 0x3d,
  0x6a, 0xc4, 0x98, 0x3e, 0xa5, 0x67, 0x95, 0xbe, 0xac, 0xc7, 0x31, 0x3e,
  0x6f, 0xf4, 0x31, 0x3e, 0x1b, 0xba, 0x8a, 0xbf, 0x93, 0x2a, 0x4b, 0xbf,
  0x97, 0x7a, 0x42, 0xbe, 0x2d, 0x70, 0xc4, 0xbd, 0xa0, 0xc3, 0x15, 0x3d,
  0x78, 0x60, 0xdc, 0x3d, 0xff, 0x6d, 0x43, 0xbd, 0xd6, 0x68, 0x8b, 0xbc,
  0xf2, 0x78, 0xde, 0xbe, 0x34, 0xac, 0x5c, 0xbc, 0xfd, 0xf9, 0xa3, 0xbd,
  0xc0, 0x7d, 0xcb, 0x3b, 0x47, 0xe5, 0x14, 0x3e, 0x77, 0x21, 0x8c, 0x3e,
  0x12, 0x5a, 0x97, 0xbd, 0x36, 0xc8, 0xe5, 0x3d, 0x46, 0x3f, 0x7c, 0xbe,
  0x18, 0xd9, 0x6e, 0x3e, 0x90, 0x82, 0x68, 0x3d, 0x10, 0x00, 0x47, 0x3d,
  0x78, 0x3a, 0xe4, 0x3d, 0x35, 0x5b, 0x12, 0xbf, 0xa1, 0xaf, 0x05, 0xbc,
  0x19, 0xd7, 0x14, 0xbe, 0xf8, 0xaa, 0x47, 0xbf, 0xb2, 0x6c, 0x26, 0xbf,
  0xf8, 0xe1, 0x88, 0x3b, 0x97, 0xc7, 0x1f, 0xbe, 0x38, 0x02, 0xff, 0x3d,
  0x7e, 0xbc, 0x7a, 0x3e, 0x93, 0x89, 0xa8, 0x3d, 0xff, 0x9e, 0xb0, 0x3d,
  0x5a, 0xb0, 0xc9, 0x3e, 0x51, 0xec, 0xb0, 0x3d, 0x12, 0x8c, 0xc3, 0x3c,
  0xe1, 0x9d, 0x1e, 0xbe, 0x5c, 0x6c, 0xfe, 0x3d, 0xa9, 0x59, 0xbe, 0x3d,
  0xce, 0xf4, 0x1b, 0x3e, 0x5f, 0xb3, 0x70, 0x3c, 0x0a, 0x80, 0xd8, 0x3e,
  0x7a, 0x93, 0xa3, 0x3e, 0xc0, 0x18, 0x2f, 0x3d, 0xaa, 0x1b, 0x26, 0xbe,
  0x3e, 0xbd, 0x6d, 0xbe, 0xc3, 0xdf, 0xb0, 0xbe, 0x74, 0x74, 0xae, 0xbe,
  0x02, 0x3a, 0x66, 0xbe, 0xb3, 0x98, 0x4a, 0xbf, 0x55, 0x02, 0xfa, 0xbe,
  0x8c, 0xc4, 0x95, 0x3e, 0x80, 0xe9, 0x64, 0xbb, 0x10, 0xec, 0xb2, 0x3d,
  0x3b, 0xd7, 0xb1, 0x3e, 0x6e, 0x15, 0x29, 0x3e, 0x5a, 0xe2, 0xe3, 0x3d,
  0xa1, 0xb1, 0x2d, 0x3f, 0xdb, 0x50, 0xd6, 0x3e, 0x4b, 0x33, 0x88, 0x3e,
  0x60, 0xcf, 0x07, 0xbe, 0x76, 0xaf, 0xa2, 0x3e, 0x45, 0x14, 0xc7, 0x3e,
  0x92, 0xfe, 0x7c, 0x3e, 0xef, 0xa6, 0x58, 0x3e, 0x42, 0xa4, 0x2e, 0x3f,
  0x1f, 0x9a, 0x95, 0x3e, 0x24, 0x4f, 0x70, 0xbd, 0xc8, 0x3b, 0x1e, 0x3e,
  0x6c, 0x2d, 0x92, 0xbe, 0x1d, 0x67, 0x47, 0xbe, 0x94, 0x5f, 0x1c, 0xbe,
  0x90, 0x4a, 0x7a, 0xbe, 0x42, 0x4e, 0xdc, 0xbe, 0xee, 0x53, 0x88, 0xbe,
  0x73, 0x1c, 0xbe, 0x3e, 0x38, 0x59, 0x92, 0x3d, 0xcc, 0xa4, 0xa7, 0x3e,
  0xa7, 0x26, 0xbc, 0x3e, 0x30, 0x9e, 0x96, 0x3e, 0xef, 0x71, 0x52, 0x3e,
  0xfd, 0x42, 0x06, 0x3f, 0x35, 0xd7, 0x86, 0x3e, 0x14, 0x1d, 0xc3, 0x3e,
  0xde, 0x85, 0x45, 0xbd, 0x89, 0xd3, 0x84, 0x3e, 0x74, 0x90, 0x83, 0x3e,
  0xdc, 0x30, 0x46, 0x3e, 0x6c, 0x54, 0xda, 0x3d, 0x62, 0xe4, 0xfd, 0x3e,
  0x04, 0x52, 0xa6, 0x3e, 0xe9, 0xe0, 0x65, 0x3d, 0xc0, 0x99, 0x73, 0x3d,
  0xa0, 0x3a, 0xd1, 0xbd, 0x91, 0x7e, 0x0d, 0x3e, 0x8a, 0xdd, 0xfa, 0xbc,
  0xca, 0x73, 0x9d, 0xbc, 0x0b, 0xab, 0xcf, 0xbd, 0x16, 0xda, 0xf2, 0x3d,
  0xab, 0x41, 0x21, 0x3e, 0x40, 0x24, 0xd9, 0xbd, 0x07, 0xa7, 0x73, 0x3d,
  0x20, 0xc2, 0x17, 0x3d, 0x31, 0x43, 0x65, 0x3e, 0xa9, 0xe9, 0x43, 0x3c,
  0x3b, 0xef, 0x39, 0x3e, 0x86, 0xa5, 0x72, 0xbb, 0xa3, 0x26, 0x37, 0x3e,
  0xfc, 0xf2, 0x16, 0x3d, 0xa6, 0x50, 0x35, 0x3e, 0xcf, 0x54, 0xa4, 0xbd,
  0xb7, 0x35, 0x05, 0x3e, 0x94, 0x64, 0x96, 0x3c, 0x15, 0xb9, 0x72, 0x3d,
  0xc1, 0x81, 0xf5, 0xbd, 0x18, 0xdc, 0xd1, 0x3d, 0xb4, 0x11, 0x87, 0xbd,
  0x34, 0x40, 0x86, 0x3e, 0xaa, 0xaf, 0x86, 0x3e, 0x65, 0x68, 0x5c, 0x3e,
  0xf7, 0x0a, 0x6f, 0x3e, 0x87, 0x44, 0x87, 0x3e, 0x73, 0x2e, 0xaa, 0x3e,
  0xa7, 0x6b, 0xc0, 0xbe, 0x6a, 0x7a, 0x01, 0x3e, 0xb9, 0x05, 0x6a, 0xbe,
  0x9c, 0x11, 0x16, 0xbf, 0x5c, 0x43, 0x2d, 0xbe, 0xa7, 0xae, 0xc7, 0xbe,
  0xac, 0x31, 0xa9, 0xbd, 0x13, 0xa8, 0x14, 0xbf, 0x9b, 0xca, 0x84, 0xbe,
  0x40, 0xa3, 0x47, 0xbb, 0x09, 0x4a, 0x4b, 0xbe, 0x5a, 0xd1, 0x2e, 0xbf,
  0xc0, 0x25, 0x13, 0xbd, 0x44, 0xc8, 0xdf, 0xbe, 0x11, 0xfa, 0x14, 0xbe,
  0x11, 0xb3, 0x2e, 0xbf, 0xa1, 0x40, 0x38, 0xbe, 0xa8, 0x41, 0xbb, 0x3d,
  0x12, 0xf4, 0xaa, 0x3d, 0x36, 0x52, 0x75, 0xbc, 0x86, 0x3d, 0x80, 0x3e,
  0x39, 0x7e, 0x98, 0xbd, 0xae, 0x90, 0xae, 0x3e, 0x6d, 0xe8, 0x96, 0x3d,
  0x66, 0xfd, 0xff, 0xff, 0x10, 0x00, 0x00, 0x00, 0x07, 0x00, 0x00, 0x00,
  0x14, 0x00, 0x00, 0x00, 0x34, 0x00, 0x00, 0x00, 0x02, 0x00, 0x00, 0x00,
  0x10, 0x00, 0x00, 0x00, 0xc0, 0x00, 0x00, 0x00, 0x1d, 0x00, 0x00, 0x00,
  0x73, 0x65, 0x71, 0x75, 0x65, 0x6e, 0x74, 0x69, 0x61, 0x6c, 0x5f, 0x33,
  0x31, 0x2f, 0x64, 0x65, 0x6e, 0x73, 0x65, 0x5f, 0x35, 0x38, 0x2f, 0x4d,
  0x61, 0x74, 0x4d, 0x75, 0x6c, 0x00, 0x00, 0x00, 0xd8, 0xfc, 0xff, 0xff,
  0x02, 0xfe, 0xff, 0xff, 0x04, 0x00, 0x00, 0x00, 0x08, 0x00, 0x00, 0x00,
  0xff, 0xff, 0xff, 0xff, 0xc0, 0x00, 0x00, 0x00, 0x00, 0x00, 0x0e, 0x00,
  0x18, 0x00, 0x08, 0x00, 0x07, 0x00, 0x0c, 0x00, 0x10, 0x00, 0x14, 0x00,
  0x0e, 0x00, 0x00, 0x00, 0x00, 0x00, 0x00, 0x02, 0x10, 0x00, 0x00, 0x00,
  0x06, 0x00, 0x00, 0x00, 0x10, 0x00, 0x00, 0x00, 0x30, 0x00, 0x00, 0x00,
  0x01, 0x00, 0x00, 0x00, 0x02, 0x00, 0x00, 0x00, 0x1e, 0x00, 0x00, 0x00,
  0x73, 0x65, 0x71, 0x75, 0x65, 0x6e, 0x74, 0x69, 0x61, 0x6c, 0x5f, 0x33,
  0x31, 0x2f, 0x66, 0x6c, 0x61, 0x74, 0x74, 0x65, 0x6e, 0x5f, 0x32, 0x39,
  0x2f, 0x43, 0x6f, 0x6e, 0x73, 0x74, 0x00, 0x00, 0x44, 0xfd, 0xff, 0xff,
  0x6e, 0xfe, 0xff, 0xff, 0x04, 0x00, 0x00, 0x00, 0x20, 0x00, 0x00, 0x00,
  0xed, 0xe8, 0xc1, 0xbc, 0x00, 0x00, 0x00, 0x00, 0x81, 0x45, 0xab, 0xbb,
  0x33, 0x45, 0x86, 0xbe, 0x59, 0xd1, 0xdf, 0xbc, 0xbd, 0x90, 0x2a, 0xbc,
  0x4c, 0x64, 0x36, 0xbc, 0xb1, 0xc7, 0xa8, 0xbb, 0x46, 0xfe, 0xff, 0xff,
  0x10, 0x00, 0x00, 0x00, 0x05, 0x00, 0x00, 0x00, 0x10, 0x00, 0x00, 0x00,
  0x54, 0x00, 0x00, 0x00, 0x01, 0x00, 0x00, 0x00, 0x08, 0x00, 0x00, 0x00,
  0x41, 0x00, 0x00, 0x00, 0x73, 0x65, 0x71, 0x75, 0x65, 0x6e, 0x74, 0x69,
  0x61, 0x6c, 0x5f, 0x33, 0x31, 0x2f, 0x64, 0x65, 0x70, 0x74, 0x68, 0x77,
  0x69, 0x73, 0x65, 0x5f, 0x63, 0x6f, 0x6e, 0x76, 0x32, 0x64, 0x5f, 0x31,
  0x33, 0x2f, 0x42, 0x69, 0x61, 0x73, 0x41, 0x64, 0x64, 0x2f, 0x52, 0x65,
  0x61, 0x64, 0x56, 0x61, 0x72, 0x69, 0x61, 0x62, 0x6c, 0x65, 0x4f, 0x70,
  0x2f, 0x72, 0x65, 0x73, 0x6f, 0x75, 0x72, 0x63, 0x65, 0x00, 0x00, 0x00,
  0xd8, 0xfd, 0xff, 0xff, 0x02, 0xff, 0xff, 0xff, 0x04, 0x00, 0x00, 0x00,
  0x10, 0x00, 0x00, 0x00, 0xc5, 0x37, 0x84, 0xbe, 0x85, 0xba, 0x26, 0xbd,
  0xb3, 0x08, 0x85, 0xbc, 0x6a, 0x5f, 0xbf, 0xbd, 0xca, 0xfe, 0xff, 0xff,
  0x10, 0x00, 0x00, 0x00, 0x04, 0x00, 0x00, 0x00, 0x10, 0x00, 0x00, 0x00,
  0x54, 0x00, 0x00, 0x00, 0x01, 0x00, 0x00, 0x00, 0x04, 0x00, 0x00, 0x00,
  0x41, 0x00, 0x00, 0x00, 0x73, 0x65, 0x71, 0x75, 0x65, 0x6e, 0x74, 0x69,
  0x61, 0x6c, 0x5f, 0x33, 0x31, 0x2f, 0x64, 0x65, 0x70, 0x74, 0x68, 0x77,
  0x69, 0x73, 0x65, 0x5f, 0x63, 0x6f, 0x6e, 0x76, 0x32, 0x64, 0x5f, 0x31,
  0x32, 0x2f, 0x42, 0x69, 0x61, 0x73, 0x41, 0x64, 0x64, 0x2f, 0x52, 0x65,
  0x61, 0x64, 0x56, 0x61, 0x72, 0x69, 0x61, 0x62, 0x6c, 0x65, 0x4f, 0x70,
  0x2f, 0x72, 0x65, 0x73, 0x6f, 0x75, 0x72, 0x63, 0x65, 0x00, 0x00, 0x00,
  0x5c, 0xfe, 0xff, 0xff, 0x86, 0xff, 0xff, 0xff, 0x04, 0x00, 0x00, 0x00,
  0x0c, 0x00, 0x00, 0x00, 0x10, 0x52, 0x36, 0xbd, 0x59, 0x32, 0xd9, 0xbd,
  0xfc, 0xea, 0xba, 0x3e, 0x4a, 0xff, 0xff, 0xff, 0x10, 0x00, 0x00, 0x00,
  0x03, 0x00, 0x00, 0x00, 0x10, 0x00, 0x00, 0x00, 0x4c, 0x00, 0x00, 0x00,
  0x01, 0x00, 0x00, 0x00, 0x03, 0x00, 0x00, 0x00, 0x36, 0x00, 0x00, 0x00,
  0x73, 0x65, 0x71, 0x75, 0x65, 0x6e, 0x74, 0x69, 0x61, 0x6c, 0x5f, 0x33,
  0x31, 0x2f, 0x64, 0x65, 0x6e, 0x73, 0x65, 0x5f, 0x35, 0x39, 0x2f, 0x42,
  0x69, 0x61, 0x73, 0x41, 0x64, 0x64, 0x2f, 0x52, 0x65, 0x61, 0x64, 0x56,
  0x61, 0x72, 0x69, 0x61, 0x62, 0x6c, 0x65, 0x4f, 0x70, 0x2f, 0x72, 0x65,
  0x73, 0x6f, 0x75, 0x72, 0x63, 0x65, 0x00, 0x00, 0x04, 0x00, 0x06, 0x00,
  0x04, 0x00, 0x00, 0x00, 0x00, 0x00, 0x06, 0x00, 0x08, 0x00, 0x04, 0x00,
  0x06, 0x00, 0x00, 0x00, 0x04, 0x00, 0x00, 0x00, 0x40, 0x00, 0x00, 0x00,
  0x2f, 0x17, 0x01, 0x3e, 0x38, 0x88, 0x32, 0x3f, 0xa6, 0x60, 0x23, 0x3e,
  0x2c, 0x3b, 0x66, 0xbe, 0x70, 0x3d, 0xfa, 0x3c, 0x69, 0xd3, 0xdc, 0x3e,
  0xbb, 0x8d, 0x30, 0x3e, 0x3c, 0x4a, 0x4f, 0x3f, 0xbe, 0x4e, 0xd3, 0xbc,
  0x8a, 0x94, 0x58, 0x3f, 0xc7, 0x5a, 0x88, 0x3e, 0x22, 0x7d, 0x64, 0xbe,
  0x64, 0x56, 0xe4, 0x3e, 0x28, 0xcf, 0xbd, 0x3c, 0x47, 0xf0, 0x56, 0x3e,
  0x52, 0xc0, 0xc1, 0xbc, 0x00, 0x00, 0x0e, 0x00, 0x14, 0x00, 0x04, 0x00,
  0x00, 0x00, 0x08, 0x00, 0x0c, 0x00, 0x10, 0x00, 0x0e, 0x00, 0x00, 0x00,
  0x10, 0x00, 0x00, 0x00, 0x02, 0x00, 0x00, 0x00, 0x10, 0x00, 0x00, 0x00,
  0x48, 0x00, 0x00, 0x00, 0x01, 0x00, 0x00, 0x00, 0x10, 0x00, 0x00, 0x00,
  0x36, 0x00, 0x00, 0x00, 0x73, 0x65, 0x71, 0x75, 0x65, 0x6e, 0x74, 0x69,
  0x61, 0x6c, 0x5f, 0x33, 0x31, 0x2f, 0x64, 0x65, 0x6e, 0x73, 0x65, 0x5f,
  0x35, 0x38, 0x2f, 0x42, 0x69, 0x61, 0x73, 0x41, 0x64, 0x64, 0x2f, 0x52,
  0x65, 0x61, 0x64, 0x56, 0x61, 0x72, 0x69, 0x61, 0x62, 0x6c, 0x65, 0x4f,
  0x70, 0x2f, 0x72, 0x65, 0x73, 0x6f, 0x75, 0x72, 0x63, 0x65, 0x00, 0x00,
  0x94, 0xff, 0xff, 0xff, 0x14, 0x00, 0x18, 0x00, 0x04, 0x00, 0x00, 0x00,
  0x08, 0x00, 0x0c, 0x00, 0x10, 0x00, 0x00, 0x00, 0x00, 0x00, 0x14, 0x00,
  0x14, 0x00, 0x00, 0x00, 0x14, 0x00, 0x00, 0x00, 0x01, 0x00, 0x00, 0x00,
  0x20, 0x00, 0x00, 0x00, 0x40, 0x00, 0x00, 0x00, 0x28, 0x00, 0x00, 0x00,
  0x04, 0x00, 0x00, 0x00, 0x01, 0x00, 0x00, 0x00, 0x50, 0x00, 0x00, 0x00,
  0x03, 0x00, 0x00, 0x00, 0x01, 0x00, 0x00, 0x00, 0x08, 0x00, 0x00, 0x00,
  0x69, 0x6e, 0x70, 0x75, 0x74, 0x5f, 0x33, 0x32, 0x00, 0x00, 0x00, 0x00,
  0x04, 0x00, 0x00, 0x00, 0xff, 0xff, 0xff, 0xff, 0x50, 0x00, 0x00, 0x00,
  0x03, 0x00, 0x00, 0x00, 0x01, 0x00, 0x00, 0x00, 0xfc, 0xff, 0xff, 0xff,
  0x04, 0x00, 0x04, 0x00, 0x04, 0x00, 0x00, 0x00
};
