const unsigned char model[] __attribute__((aligned(4))) = {
  0x1c, 0x00, 0x00, 0x00, 0x54, 0x46, 0x4c, 0x33, 0x00, 0x00, 0x12, 0x00,
  0x1c, 0x00, 0x04, 0x00, 0x08, 0x00, 0x0c, 0x00, 0x10, 0x00, 0x14, 0x00,
  0x00, 0x00, 0x18, 0x00, 0x12, 0x00, 0x00, 0x00, 0x03, 0x00, 0x00, 0x00,
  0x14, 0x00, 0x00, 0x00, 0x28, 0x00, 0x00, 0x00, 0xd0, 0x00, 0x00, 0x00,
  0x28, 0x00, 0x00, 0x00, 0x78, 0x00, 0x00, 0x00, 0x05, 0x00, 0x00, 0x00,
  0xfc, 0x06, 0x00, 0x00, 0x18, 0x06, 0x00, 0x00, 0x7c, 0x03, 0x00, 0x00,
  0xc8, 0x02, 0x00, 0x00, 0xa8, 0x01, 0x00, 0x00, 0x01, 0x00, 0x00, 0x00,
  0xcc, 0x00, 0x00, 0x00, 0x14, 0x00, 0x00, 0x00, 0x50, 0x25, 0x00, 0x00,
  0x4c, 0x25, 0x00, 0x00, 0x5c, 0x24, 0x00, 0x00, 0xd4, 0x23, 0x00, 0x00,
  0x28, 0x23, 0x00, 0x00, 0xb0, 0x22, 0x00, 0x00, 0x40, 0x22, 0x00, 0x00,
  0xe8, 0x09, 0x00, 0x00, 0xd0, 0x08, 0x00, 0x00, 0x58, 0x08, 0x00, 0x00,
  0x98, 0x07, 0x00, 0x00, 0x24, 0x25, 0x00, 0x00, 0x20, 0x25, 0x00, 0x00,
  0x1c, 0x25, 0x00, 0x00, 0x18, 0x25, 0x00, 0x00, 0x14, 0x25, 0x00, 0x00,
  0x10, 0x25, 0x00, 0x00, 0x0c, 0x25, 0x00, 0x00, 0x08, 0x25, 0x00, 0x00,
  0x38, 0x00, 0x00, 0x00, 0x01, 0x00, 0x00, 0x00, 0x0c, 0x00, 0x00, 0x00,
  0x08, 0x00, 0x0c, 0x00, 0x04, 0x00, 0x08, 0x00, 0x08, 0x00, 0x00, 0x00,
  0x08, 0x00, 0x00, 0x00, 0x13, 0x00, 0x00, 0x00, 0x13, 0x00, 0x00, 0x00,
  0x6d, 0x69, 0x6e, 0x5f, 0x72, 0x75, 0x6e, 0x74, 0x69, 0x6d, 0x65, 0x5f,
  0x76, 0x65, 0x72, 0x73, 0x69, 0x6f, 0x6e, 0x00, 0x26, 0xdc, 0xff, 0xff,
  0x04, 0x00, 0x00, 0x00, 0x10, 0x00, 0x00, 0x00, 0x31, 0x2e, 0x35, 0x2e,
  0x30, 0x00, 0x00, 0x00, 0x00, 0x00, 0x00, 0x00, 0x00, 0x00, 0x00, 0x00,
  0x0f, 0x00, 0x00, 0x00, 0x4d, 0x4c, 0x49, 0x52, 0x20, 0x43, 0x6f, 0x6e,
  0x76, 0x65, 0x72, 0x74, 0x65, 0x64, 0x2e, 0x00, 0x00, 0x00, 0x0e, 0x00,
  0x18, 0x00, 0x04, 0x00, 0x08, 0x00, 0x0c, 0x00, 0x10, 0x00, 0x14, 0x00,
  0x0e, 0x00, 0x00, 0x00, 0x14, 0x00, 0x00, 0x00, 0x5c, 0x00, 0x00, 0x00,
  0x60, 0x00, 0x00, 0x00, 0x64, 0x00, 0x00, 0x00, 0x84, 0x00, 0x00, 0x00,
  0x12, 0x00, 0x00, 0x00, 0x18, 0x24, 0x00, 0x00, 0xa4, 0x23, 0x00, 0x00,
  0x14, 0x23, 0x00, 0x00, 0x98, 0x22, 0x00, 0x00, 0xec, 0x21, 0x00, 0x00,
  0x88, 0x21, 0x00, 0x00, 0x18, 0x21, 0x00, 0x00, 0xc0, 0x08, 0x00, 0x00,
  0xa0, 0x07, 0x00, 0x00, 0x28, 0x07, 0x00, 0x00, 0xe0, 0x05, 0x00, 0x00,
  0xfc, 0x04, 0x00, 0x00, 0xb4, 0x03, 0x00, 0x00, 0x04, 0x03, 0x00, 0x00,
  0x58, 0x02, 0x00, 0x00, 0xa4, 0x01, 0x00, 0x00, 0xfc, 0x00, 0x00, 0x00,
  0x80, 0x00, 0x00, 0x00, 0x01, 0x00, 0x00, 0x00, 0x00, 0x00, 0x00, 0x00,
  0x01, 0x00, 0x00, 0x00, 0x11, 0x00, 0x00, 0x00, 0x08, 0x00, 0x00, 0x00,
  0x4c, 0x05, 0x00, 0x00, 0x6c, 0x04, 0x00, 0x00, 0x44, 0x03, 0x00, 0x00,
  0x90, 0x02, 0x00, 0x00, 0xf4, 0x01, 0x00, 0x00, 0x24, 0x01, 0x00, 0x00,
  0x94, 0x00, 0x00, 0x00, 0x10, 0x00, 0x00, 0x00, 0x04, 0x00, 0x00, 0x00,
  0x6d, 0x61, 0x69, 0x6e, 0x00, 0x00, 0x00, 0x00, 0x9e, 0xfd, 0xff, 0xff,
  0x00, 0x00, 0x00, 0x09, 0x04, 0x00, 0x00, 0x00, 0x1c, 0x00, 0x00, 0x00,
  0x10, 0x00, 0x00, 0x00, 0x04, 0x00, 0x00, 0x00, 0x22, 0xdd, 0xff, 0xff,
  0x00, 0x00, 0x80, 0x3f, 0x01, 0x00, 0x00, 0x00, 0x11, 0x00, 0x00, 0x00,
  0x01, 0x00, 0x00, 0x00, 0x10, 0x00, 0x00, 0x00, 0xc6, 0xfa, 0xff, 0xff,
  0x00, 0x00, 0x00, 0x19, 0x01, 0x00, 0x00, 0x00, 0xc0, 0xdc, 0xff, 0xff,
  0x14, 0x00, 0x00, 0x00, 0x12, 0x00, 0x00, 0x00, 0x18, 0x00, 0x00, 0x00,
  0x30, 0x00, 0x00, 0x00, 0x20, 0x00, 0x00, 0x00, 0x02, 0x00, 0x00, 0x00,
  0x01, 0x00, 0x00, 0x00, 0x03, 0x00, 0x00, 0x00, 0x08, 0x00, 0x00, 0x00,
  0x49, 0x64, 0x65, 0x6e, 0x74, 0x69, 0x74, 0x79, 0x00, 0x00, 0x00, 0x00,
  0x02, 0x00, 0x00, 0x00, 0xff, 0xff, 0xff, 0xff, 0x03, 0x00, 0x00, 0x00,
  0x98, 0xdc, 0xff, 0xff, 0x1e, 0xfe, 0xff, 0xff, 0x00, 0x00, 0x00, 0x08,
  0x03, 0x00, 0x00, 0x00, 0x18, 0x00, 0x00, 0x00, 0x0c, 0x00, 0x00, 0x00,
  0x04, 0x00, 0x00, 0x00, 0xb4, 0xdc, 0xff, 0xff, 0x01, 0x00, 0x00, 0x00,
  0x10, 0x00, 0x00, 0x00, 0x03, 0x00, 0x00, 0x00, 0x0f, 0x00, 0x00, 0x00,
  0x07, 0x00, 0x00, 0x00, 0x04, 0x00, 0x00, 0x00, 0x38, 0xdd, 0xff, 0xff,
  0x14, 0x00, 0x00, 0x00, 0x11, 0x00, 0x00, 0x00, 0x18, 0x00, 0x00, 0x00,
  0x44, 0x00, 0x00, 0x00, 0x34, 0x00, 0x00, 0x00, 0x02, 0x00, 0x00, 0x00,
  0x01, 0x00, 0x00, 0x00, 0x03, 0x00, 0x00, 0x00, 0x1d, 0x00, 0x00, 0x00,
  0x73, 0x65, 0x71, 0x75, 0x65, 0x6e, 0x74, 0x69, 0x61, 0x6c, 0x5f, 0x39,
  0x2f, 0x64, 0x65, 0x6e, 0x73, 0x65, 0x5f, 0x31, 0x39, 0x2f, 0x42, 0x69,
  0x61, 0x73, 0x41, 0x64, 0x64, 0x00, 0x00, 0x00, 0x02, 0x00, 0x00, 0x00,
  0xff, 0xff, 0xff, 0xff, 0x03, 0x00, 0x00, 0x00, 0x24, 0xdd, 0xff, 0xff,
  0xd6, 0xfc, 0xff, 0xff, 0x00, 0x00, 0x00, 0x08, 0x03, 0x00, 0x00, 0x00,
  0x24, 0x00, 0x00, 0x00, 0x18, 0x00, 0x00, 0x00, 0x0c, 0x00, 0x00, 0x00,
  0x00, 0x00, 0x06, 0x00, 0x08, 0x00, 0x07, 0x00, 0x06, 0x00, 0x00, 0x00,
  0x00, 0x00, 0x00, 0x01, 0x01, 0x00, 0x00, 0x00, 0x0f, 0x00, 0x00, 0x00,
  0x03, 0x00, 0x00, 0x00, 0x0e, 0x00, 0x00, 0x00, 0x06, 0x00, 0x00, 0x00,
  0x03, 0x00, 0x00, 0x00, 0xe2, 0xfb, 0xff, 0xff, 0x00, 0x00, 0x00, 0x09,
  0x01, 0x00, 0x00, 0x00, 0xdc, 0xdd, 0xff, 0xff, 0x14, 0x00, 0x00, 0x00,
  0x10, 0x00, 0x00, 0x00, 0x18, 0x00, 0x00, 0x00, 0x60, 0x00, 0x00, 0x00,
  0x50, 0x00, 0x00, 0x00, 0x02, 0x00, 0x00, 0x00, 0x01, 0x00, 0x00, 0x00,
  0x10, 0x00, 0x00, 0x00, 0x38, 0x00, 0x00, 0x00, 0x73, 0x65, 0x71, 0x75,
  0x65, 0x6e, 0x74, 0x69, 0x61, 0x6c, 0x5f, 0x39, 0x2f, 0x64, 0x65, 0x6e,
  0x73, 0x65, 0x5f, 0x31, 0x38, 0x2f, 0x52, 0x65, 0x6c, 0x75, 0x3b, 0x73,
  0x65, 0x71, 0x75, 0x65, 0x6e, 0x74, 0x69, 0x61, 0x6c, 0x5f, 0x39, 0x2f,
  0x64, 0x65, 0x6e, 0x73, 0x65, 0x5f, 0x31, 0x38, 0x2f, 0x42, 0x69, 0x61,
  0x73, 0x41, 0x64, 0x64, 0x00, 0x00, 0x00, 0x00, 0x02, 0x00, 0x00, 0x00,
  0xff, 0xff, 0xff, 0xff, 0x10, 0x00, 0x00, 0x00, 0xdc, 0xde, 0xff, 0xff,
  0x00, 0x00, 0x0a, 0x00, 0x10, 0x00, 0x04, 0x00, 0x08, 0x00, 0x0c, 0x00,
  0x0a, 0x00, 0x00, 0x00, 0x02, 0x00, 0x00, 0x00, 0x10, 0x00, 0x00, 0x00,
  0x04, 0x00, 0x00, 0x00, 0x01, 0x00, 0x00, 0x00, 0x0e, 0x00, 0x00, 0x00,
  0x02, 0x00, 0x00, 0x00, 0x0d, 0x00, 0x00, 0x00, 0x05, 0x00, 0x00, 0x00,
  0x92, 0xfc, 0xff, 0xff, 0x00, 0x00, 0x00, 0x16, 0x01, 0x00, 0x00, 0x00,
  0x8c, 0xde, 0xff, 0xff, 0x14, 0x00, 0x00, 0x00, 0x0f, 0x00, 0x00, 0x00,
  0x18, 0x00, 0x00, 0x00, 0x44, 0x00, 0x00, 0x00, 0x34, 0x00, 0x00, 0x00,
  0x02, 0x00, 0x00, 0x00, 0x01, 0x00, 0x00, 0x00, 0x60, 0x00, 0x00, 0x00,
  0x1e, 0x00, 0x00, 0x00, 0x73, 0x65, 0x71, 0x75, 0x65, 0x6e, 0x74, 0x69,
  0x61, 0x6c, 0x5f, 0x39, 0x2f, 0x66, 0x6c, 0x61, 0x74, 0x74, 0x65, 0x6e,
  0x5f, 0x39, 0x2f, 0x52, 0x65, 0x73, 0x68, 0x61, 0x70, 0x65, 0x00, 0x00,
  0x02, 0x00, 0x00, 0x00, 0xff, 0xff, 0xff, 0xff, 0x60, 0x00, 0x00, 0x00,
  0x70, 0xdf, 0xff, 0xff, 0x00, 0x00, 0x0e, 0x00, 0x18, 0x00, 0x08, 0x00,
  0x0c, 0x00, 0x10, 0x00, 0x07, 0x00, 0x14, 0x00, 0x0e, 0x00, 0x00, 0x00,
  0x00, 0x00, 0x00, 0x05, 0x01, 0x00, 0x00, 0x00, 0x2c, 0x00, 0x00, 0x00,
  0x20, 0x00, 0x00, 0x00, 0x04, 0x00, 0x00, 0x00, 0x2a, 0xfe, 0xff, 0xff,
  0x03, 0x00, 0x00, 0x00, 0x01, 0x00, 0x00, 0x00, 0x03, 0x00, 0x00, 0x00,
  0x01, 0x00, 0x00, 0x00, 0x00, 0x00, 0x00, 0x01, 0x01, 0x00, 0x00, 0x00,
  0x0d, 0x00, 0x00, 0x00, 0x01, 0x00, 0x00, 0x00, 0x0c, 0x00, 0x00, 0x00,
  0x34, 0xdf, 0xff, 0xff, 0x14, 0x00, 0x00, 0x00, 0x0e, 0x00, 0x00, 0x00,
  0x20, 0x00, 0x00, 0x00, 0x5c, 0x00, 0x00, 0x00, 0x44, 0x00, 0x00, 0x00,
  0x04, 0x00, 0x00, 0x00, 0x01, 0x00, 0x00, 0x00, 0x08, 0x00, 0x00, 0x00,
  0x03, 0x00, 0x00, 0x00, 0x04, 0x00, 0x00, 0x00, 0x25, 0x00, 0x00, 0x00,
  0x73, 0x65, 0x71, 0x75, 0x65, 0x6e, 0x74, 0x69, 0x61, 0x6c, 0x5f, 0x39,
  0x2f, 0x6d, 0x61, 0x78, 0x5f, 0x70, 0x6f, 0x6f, 0x6c, 0x69, 0x6e, 0x67,
  0x32, 0x64, 0x5f, 0x31, 0x39, 0x2f, 0x4d, 0x61, 0x78, 0x50, 0x6f, 0x6f,
  0x6c, 0x00, 0x00, 0x00, 0x04, 0x00, 0x00, 0x00, 0xff, 0xff, 0xff, 0xff,
  0x08, 0x00, 0x00, 0x00, 0x03, 0x00, 0x00, 0x00, 0x04, 0x00, 0x00, 0x00,
  0x38, 0xdf, 0xff, 0xff, 0x0e, 0xfe, 0xff, 0xff, 0x00, 0x00, 0x00, 0x01,
  0x24, 0x00, 0x00, 0x00, 0x18, 0x00, 0x00, 0x00, 0x04, 0x00, 0x00, 0x00,
  0x00, 0xfe, 0xff, 0xff, 0x01, 0x00, 0x00, 0x00, 0x01, 0x00, 0x00, 0x00,
  0x00, 0x00, 0x01, 0x01, 0x01, 0x00, 0x00, 0x00, 0x0c, 0x00, 0x00, 0x00,
  0x03, 0x00, 0x00, 0x00, 0x0b, 0x00, 0x00, 0x00, 0x09, 0x00, 0x00, 0x00,
  0x02, 0x00, 0x00, 0x00, 0xe0, 0xdf, 0xff, 0xff, 0x14, 0x00, 0x00, 0x00,
  0x0d, 0x00, 0x00, 0x00, 0x20, 0x00, 0x00, 0x00, 0xc4, 0x00, 0x00, 0x00,
  0xac, 0x00, 0x00, 0x00, 0x04, 0x00, 0x00, 0x00, 0x01, 0x00, 0x00, 0x00,
  0x18, 0x00, 0x00, 0x00, 0x03, 0x00, 0x00, 0x00, 0x04, 0x00, 0x00, 0x00,
  0x8f, 0x00, 0x00, 0x00, 0x73, 0x65, 0x71, 0x75, 0x65, 0x6e, 0x74, 0x69,
  0x61, 0x6c, 0x5f, 0x39, 0x2f, 0x63, 0x6f, 0x6e, 0x76, 0x32, 0x64, 0x5f,
  0x31, 0x39, 0x2f, 0x52, 0x65, 0x6c, 0x75, 0x3b, 0x73, 0x65, 0x71, 0x75,
  0x65, 0x6e, 0x74, 0x69, 0x61, 0x6c, 0x5f, 0x39, 0x2f, 0x63, 0x6f, 0x6e,
  0x76, 0x32, 0x64, 0x5f, 0x31, 0x39, 0x2f, 0x42, 0x69, 0x61, 0x73, 0x41,
  0x64, 0x64, 0x3b, 0x73, 0x65, 0x71, 0x75, 0x65, 0x6e, 0x74, 0x69, 0x61,
  0x6c, 0x5f, 0x39, 0x2f, 0x63, 0x6f, 0x6e, 0x76, 0x32, 0x64, 0x5f, 0x31,
  0x39, 0x2f, 0x43, 0x6f, 0x6e, 0x76, 0x32, 0x44, 0x3b, 0x73, 0x65, 0x71,
  0x75, 0x65, 0x6e, 0x74, 0x69, 0x61, 0x6c, 0x5f, 0x39, 0x2f, 0x63, 0x6f,
  0x6e, 0x76, 0x32, 0x64, 0x5f, 0x31, 0x39, 0x2f, 0x42, 0x69, 0x61, 0x73,
  0x41, 0x64, 0x64, 0x2f, 0x52, 0x65, 0x61, 0x64, 0x56, 0x61, 0x72, 0x69,
  0x61, 0x62, 0x6c, 0x65, 0x4f, 0x70, 0x2f, 0x72, 0x65, 0x73, 0x6f, 0x75,
  0x72, 0x63, 0x65, 0x00, 0x04, 0x00, 0x00, 0x00, 0xff, 0xff, 0xff, 0xff,
  0x18, 0x00, 0x00, 0x00, 0x03, 0x00, 0x00, 0x00, 0x04, 0x00, 0x00, 0x00,
  0x44, 0xe1, 0xff, 0xff, 0x00, 0x00, 0x0e, 0x00, 0x1a, 0x00, 0x08, 0x00,
  0x0c, 0x00, 0x10, 0x00, 0x07, 0x00, 0x14, 0x00, 0x0e, 0x00, 0x00, 0x00,
  0x00, 0x00, 0x00, 0x05, 0x01, 0x00, 0x00, 0x00, 0x3c, 0x00, 0x00, 0x00,
  0x30, 0x00, 0x00, 0x00, 0x14, 0x00, 0x00, 0x00, 0x00, 0x00, 0x0e, 0x00,
  0x18, 0x00, 0x17, 0x00, 0x10, 0x00, 0x0c, 0x00, 0x08, 0x00, 0x04, 0x00,
  0x0e, 0x00, 0x00, 0x00, 0x03, 0x00, 0x00, 0x00, 0x01, 0x00, 0x00, 0x00,
  0x03, 0x00, 0x00, 0x00, 0x01, 0x00, 0x00, 0x00, 0x00, 0x00, 0x00, 0x01,
  0x01, 0x00, 0x00, 0x00, 0x0b, 0x00, 0x00, 0x00, 0x01, 0x00, 0x00, 0x00,
  0x0a, 0x00, 0x00, 0x00, 0x2a, 0xff, 0xff, 0xff, 0x00, 0x00, 0x00, 0x11,
  0x01, 0x00, 0x00, 0x00, 0x24, 0xe1, 0xff, 0xff, 0x14, 0x00, 0x00, 0x00,
  0x0c, 0x00, 0x00, 0x00, 0x20, 0x00, 0x00, 0x00, 0x5c, 0x00, 0x00, 0x00,
  0x44, 0x00, 0x00, 0x00, 0x04, 0x00, 0x00, 0x00, 0x01, 0x00, 0x00, 0x00,
  0x1a, 0x00, 0x00, 0x00, 0x03, 0x00, 0x00, 0x00, 0x02, 0x00, 0x00, 0x00,
  0x25, 0x00, 0x00, 0x00, 0x73, 0x65, 0x71, 0x75, 0x65, 0x6e, 0x74, 0x69,
  0x61, 0x6c, 0x5f, 0x39, 0x2f, 0x6d, 0x61, 0x78, 0x5f, 0x70, 0x6f, 0x6f,
  0x6c, 0x69, 0x6e, 0x67, 0x32, 0x64, 0x5f, 0x31, 0x38, 0x2f, 0x4d, 0x61,
  0x78, 0x50, 0x6f, 0x6f, 0x6c, 0x00, 0x00, 0x00, 0x04, 0x00, 0x00, 0x00,
  0xff, 0xff, 0xff, 0xff, 0x1a, 0x00, 0x00, 0x00, 0x03, 0x00, 0x00, 0x00,
  0x02, 0x00, 0x00, 0x00, 0x20, 0xe2, 0xff, 0xff, 0x00, 0x00, 0x0e, 0x00,
  0x14, 0x00, 0x00, 0x00, 0x08, 0x00, 0x0c, 0x00, 0x07, 0x00, 0x10, 0x00,
  0x0e, 0x00, 0x00, 0x00, 0x00, 0x00, 0x00, 0x01, 0x30, 0x00, 0x00, 0x00,
  0x24, 0x00, 0x00, 0x00, 0x10, 0x00, 0x00, 0x00, 0x0c, 0x00, 0x10, 0x00,
  0x0e, 0x00, 0x04, 0x00, 0x08, 0x00, 0x0f, 0x00, 0x0c, 0x00, 0x00, 0x00,
  0x01, 0x00, 0x00, 0x00, 0x01, 0x00, 0x00, 0x00, 0x00, 0x00, 0x01, 0x01,
  0x01, 0x00, 0x00, 0x00, 0x0a, 0x00, 0x00, 0x00, 0x03, 0x00, 0x00, 0x00,
  0x00, 0x00, 0x00, 0x00, 0x08, 0x00, 0x00, 0x00, 0x01, 0x00, 0x00, 0x00,
  0x00, 0x00, 0x0a, 0x00, 0x0c, 0x00, 0x07, 0x00, 0x00, 0x00, 0x08, 0x00,
  0x0a, 0x00, 0x00, 0x00, 0x00, 0x00, 0x00, 0x03, 0x01, 0x00, 0x00, 0x00,
  0x04, 0xe2, 0xff, 0xff, 0x14, 0x00, 0x00, 0x00, 0x0b, 0x00, 0x00, 0x00,
  0x20, 0x00, 0x00, 0x00, 0xc4, 0x00, 0x00, 0x00, 0xac, 0x00, 0x00, 0x00,
  0x04, 0x00, 0x00, 0x00, 0x01, 0x00, 0x00, 0x00, 0x4e, 0x00, 0x00, 0x00,
  0x03, 0x00, 0x00, 0x00, 0x02, 0x00, 0x00, 0x00, 0x8f, 0x00, 0x00, 0x00,
  0x73, 0x65, 0x71, 0x75, 0x65, 0x6e, 0x74, 0x69, 0x61, 0x6c, 0x5f, 0x39,
  0x2f, 0x63, 0x6f, 0x6e, 0x76, 0x32, 0x64, 0x5f, 0x31, 0x38, 0x2f, 0x52,
  0x65, 0x6c, 0x75, 0x3b, 0x73, 0x65, 0x71, 0x75, 0x65, 0x6e, 0x74, 0x69,
  0x61, 0x6c, 0x5f, 0x39, 0x2f, 0x63, 0x6f, 0x6e, 0x76, 0x32, 0x64, 0x5f,
  0x31, 0x38, 0x2f, 0x42, 0x69, 0x61, 0x73, 0x41, 0x64, 0x64, 0x3b, 0x73,
  0x65, 0x71, 0x75, 0x65, 0x6e, 0x74, 0x69, 0x61, 0x6c, 0x5f, 0x39, 0x2f,
  0x63, 0x6f, 0x6e, 0x76, 0x32, 0x64, 0x5f, 0x31, 0x38, 0x2f, 0x43, 0x6f,
  0x6e, 0x76, 0x32, 0x44, 0x3b, 0x73, 0x65, 0x71, 0x75, 0x65, 0x6e, 0x74,
  0x69, 0x61, 0x6c, 0x5f, 0x39, 0x2f, 0x63, 0x6f, 0x6e, 0x76, 0x32, 0x64,
  0x5f, 0x31, 0x38, 0x2f, 0x42, 0x69, 0x61, 0x73, 0x41, 0x64, 0x64, 0x2f,
  0x52, 0x65, 0x61, 0x64, 0x56, 0x61, 0x72, 0x69, 0x61, 0x62, 0x6c, 0x65,
  0x4f, 0x70, 0x2f, 0x72, 0x65, 0x73, 0x6f, 0x75, 0x72, 0x63, 0x65, 0x00,
  0x04, 0x00, 0x00, 0x00, 0xff, 0xff, 0xff, 0xff, 0x4e, 0x00, 0x00, 0x00,
  0x03, 0x00, 0x00, 0x00, 0x02, 0x00, 0x00, 0x00, 0x70, 0xe2, 0xff, 0xff,
  0x62, 0xe3, 0xff, 0xff, 0x04, 0x00, 0x00, 0x00, 0x60, 0x00, 0x00, 0x00,
  0x2a, 0x0d, 0x8d, 0x3f, 0xd2, 0x48, 0x97, 0xbe, 0x9e, 0x4f, 0x1e, 0x3f,
  0xe6, 0xff, 0xd6, 0xbd, 0x1d, 0xcb, 0x1c, 0x3e, 0x21, 0x43, 0xef, 0xbc,
  0x22, 0x0a, 0x3d, 0x3e, 0x69, 0x98, 0x4c, 0x3f, 0xb2, 0xda, 0x09, 0xbf,
  0x25, 0x87, 0x10, 0x3d, 0xb2, 0x59, 0x53, 0x3e, 0x7b, 0xe8, 0x32, 0x3d,
  0xfb, 0x77, 0x9c, 0xbe, 0x15, 0x6b, 0x1f, 0x3f, 0x11, 0x3c, 0x27, 0x3f,
  0xdf, 0x5b, 0x00, 0x3e, 0xf3, 0x74, 0x88, 0xbe, 0x7f, 0x2d, 0x75, 0xbc,
  0x72, 0xbf, 0x4a, 0xbe, 0x6f, 0x7e, 0x04, 0xbe, 0x74, 0xcd, 0xb5, 0xbe,
  0x3b, 0x59, 0x73, 0xbc, 0x1f, 0x3c, 0xea, 0xbd, 0x95, 0xc5, 0x50, 0x3f,
  0xb2, 0xe3, 0xff, 0xff, 0x10, 0x00, 0x00, 0x00, 0x0a, 0x00, 0x00, 0x00,
  0x1c, 0x00, 0x00, 0x00, 0x3c, 0x00, 0x00, 0x00, 0x04, 0x00, 0x00, 0x00,
  0x04, 0x00, 0x00, 0x00, 0x03, 0x00, 0x00, 0x00, 0x01, 0x00, 0x00, 0x00,
  0x02, 0x00, 0x00, 0x00, 0x1d, 0x00, 0x00, 0x00, 0x73, 0x65, 0x71, 0x75,
  0x65, 0x6e, 0x74, 0x69, 0x61, 0x6c, 0x5f, 0x39, 0x2f, 0x63, 0x6f, 0x6e,
  0x76, 0x32, 0x64, 0x5f, 0x31, 0x39, 0x2f, 0x43, 0x6f, 0x6e, 0x76, 0x32,
  0x44, 0x00, 0x00, 0x00, 0x2c, 0xe3, 0xff, 0xff, 0x1e, 0xe4, 0xff, 0xff,
  0x04, 0x00, 0x00, 0x00, 0x18, 0x00, 0x00, 0x00, 0xa0, 0x23, 0x7c, 0x3f,
  0x40, 0x3c, 0xad, 0x3d, 0x42, 0x73, 0xb8, 0x3e, 0x21, 0x08, 0x38, 0x3f,
  0xba, 0xf0, 0x27, 0x3e, 0xa8, 0xd0, 0x8b, 0xbf, 0x26, 0xe4, 0xff, 0xff,
  0x10, 0x00, 0x00, 0x00, 0x09, 0x00, 0x00, 0x00, 0x1c, 0x00, 0x00, 0x00,
  0x3c, 0x00, 0x00, 0x00, 0x04, 0x00, 0x00, 0x00, 0x02, 0x00, 0x00, 0x00,
  0x03, 0x00, 0x00, 0x00, 0x01, 0x00, 0x00, 0x00, 0x01, 0x00, 0x00, 0x00,
  0x1d, 0x00, 0x00, 0x00, 0x73, 0x65, 0x71, 0x75, 0x65, 0x6e, 0x74, 0x69,
  0x61, 0x6c, 0x5f, 0x39, 0x2f, 0x63, 0x6f, 0x6e, 0x76, 0x32, 0x64, 0x5f,
  0x31, 0x38, 0x2f, 0x43, 0x6f, 0x6e, 0x76, 0x32, 0x44, 0x00, 0x00, 0x00,
  0xa0, 0xe3, 0xff, 0xff, 0x92, 0xe4, 0xff, 0xff, 0x04, 0x00, 0x00, 0x00,
  0xc0, 0x00, 0x00, 0x00, 0x15, 0xe1, 0xb3, 0xbd, 0x84, 0x4e, 0x23, 0xbf,
  0x8e, 0x56, 0x56, 0x3f, 0xc8, 0x7e, 0x78, 0x3f, 0xaa, 0x1b, 0x03, 0xbf,
  0x18, 0xf6, 0x46, 0x3d, 0x0d, 0x90, 0xb0, 0xbe, 0xba, 0x4d, 0x12, 0xbf,
  0x8f, 0xc3, 0x09, 0xbf, 0x35, 0x58, 0x2b, 0x3e, 0xfa, 0x2f, 0x85, 0xbd,
  0xf5, 0xbd, 0xad, 0x3e, 0xa5, 0x6a, 0x35, 0x3f, 0x51, 0xee, 0xf4, 0x3e,
  0xcb, 0xf5, 0x72, 0xbe, 0xec, 0x71, 0x54, 0xbf, 0xe0, 0x50, 0x2c, 0xbe,
  0x13, 0x76, 0x83, 0x3e, 0xd0, 0xb7, 0x09, 0x3e, 0x70, 0x25, 0x88, 0xbe,
  0x8e, 0xb2, 0x1e, 0xbf, 0x1c, 0xc4, 0x80, 0x3e, 0x20, 0xbd, 0xc5, 0xbe,
  0x09, 0x5a, 0x34, 0xba, 0x62, 0x1e, 0xf1, 0xbd, 0x27, 0xd3, 0x14, 0x3e,
  0x80, 0x51, 0x83, 0x3e, 0x81, 0x57, 0x15, 0xbf, 0x34, 0xd2, 0xe3, 0x3e,
  0xa3, 0x9a, 0xe4, 0xbe, 0xee, 0xab, 0x8f, 0x3e, 0xda, 0xab, 0x06, 0xbd,
  0x6d, 0xee, 0x1e, 0x3f, 0x3c, 0x45, 0x6f, 0x3e, 0xf4, 0x98, 0x97, 0x3e,
  0x0b, 0xc3, 0xbd, 0xbe, 0x3e, 0x6e, 0x48, 0x3f, 0x43, 0x5d, 0x8a, 0xbf,
  0xba, 0xa4, 0xa0, 0x3d, 0xc5, 0x8f, 0x6f, 0x3e, 0x4a, 0x0b, 0x70, 0x3f,
  0xca, 0xd6, 0xa2, 0xbf, 0xab, 0x94, 0x9c, 0xbf, 0x14, 0x6b, 0x88, 0xbf,
  0x36, 0xe7, 0x34, 0xbf, 0x70, 0x6c, 0x96, 0xbf, 0x6b, 0x45, 0xe0, 0x3e,
  0xb8, 0x13, 0x10, 0xbf, 0x42, 0xe5, 0xff, 0xff, 0x10, 0x00, 0x00, 0x00,
  0x08, 0x00, 0x00, 0x00, 0x14, 0x00, 0x00, 0x00, 0x34, 0x00, 0x00, 0x00,
  0x02, 0x00, 0x00, 0x00, 0x03, 0x00, 0x00, 0x00, 0x10, 0x00, 0x00, 0x00,
  0x1c, 0x00, 0x00, 0x00, 0x73, 0x65, 0x71, 0x75, 0x65, 0x6e, 0x74, 0x69,
  0x61, 0x6c, 0x5f, 0x39, 0x2f, 0x64, 0x65, 0x6e, 0x73, 0x65, 0x5f, 0x31,
  0x39, 0x2f, 0x4d, 0x61, 0x74, 0x4d, 0x75, 0x6c, 0x00, 0x00, 0x00, 0x00,
  0xb4, 0xe4, 0xff, 0xff, 0xa6, 0xe5, 0xff, 0xff, 0x04, 0x00, 0x00, 0x00,
  0x00, 0x18, 0x00, 0x00, 0x3a, 0x91, 0x49, 0x3f, 0x17, 0xb1, 0x5c, 0x3e,
  0xd7, 0x74, 0x15, 0xbd, 0x82, 0xe2, 0x01, 0xbe, 0x96, 0x24, 0x40, 0x3f,
  0x40, 0xf8, 0x88, 0x3e, 0x66, 0x2d, 0xda, 0xbd, 0x7b, 0x2f, 0x71, 0xbe,
  0x57, 0xdc, 0x0e, 0x3f, 0x14, 0x30, 0x38, 0x3d, 0x42, 0xb5, 0xae, 0x3c,
  0x91, 0x8a, 0xc7, 0xbd, 0xf8, 0xad, 0x14, 0x3f, 0xd4, 0x13, 0x3a, 0x3d,
  0x69, 0x8e, 0x58, 0x3e, 0xeb, 0xb8, 0xac, 0x3d, 0xfb, 0x53, 0xd3, 0x3e,
  0x27, 0xe3, 0x83, 0xba, 0x29, 0xe2, 0x9a, 0x3d, 0x38, 0xfa, 0xe1, 0xbd,
  0x40, 0x05, 0x15, 0x3f, 0x7e, 0x91, 0xc5, 0x3d, 0x52, 0xd2, 0x1f, 0x3c,
  0xfb, 0xf9, 0xa0, 0xbd, 0xf1, 0x93, 0x0c, 0x3f, 0xcc, 0x40, 0xaa, 0xbd,
  0x7d, 0x94, 0x0a, 0x3d, 0x37, 0x32, 0xb7, 0xbc, 0x16, 0xfd, 0xf4, 0x3e,
  0xbd, 0xae, 0xb1, 0xbd, 0xe6, 0x99, 0x25, 0x3d, 0x23, 0x1e, 0x35, 0xbe,
  0x11, 0x34, 0xa6, 0x3e, 0x8e, 0xd9, 0x86, 0x3c, 0x36, 0x59, 0x03, 0xbe,
  0xe9, 0xa9, 0xfe, 0xbd, 0xc4, 0x73, 0x10, 0x3f, 0xf7, 0xcd, 0x6b, 0xbe,
  0xdc, 0x0e, 0x6e, 0x3d, 0x74, 0xf2, 0xee, 0xbd, 0x00, 0x12, 0x29, 0x3f,
  0xa0, 0x29, 0x57, 0xbe, 0xaa, 0x50, 0x8c, 0xbd, 0x3d, 0x59, 0x93, 0xbe,
  0x86, 0x53, 0xda, 0x3e, 0x55, 0x40, 0x7d, 0xba, 0xd2, 0xc9, 0x21, 0xbe,
  0x67, 0xbf, 0x07, 0xbe, 0xfd, 0x97, 0x02, 0x3f, 0x60, 0x8a, 0xaf, 0xbe,
  0x5c, 0x85, 0x26, 0x3d, 0xfd, 0x4a, 0x2c, 0xbe, 0xbd, 0x01, 0xd7, 0x3e,
  0x32, 0x5d, 0x3d, 0xbe, 0xca, 0x74, 0xf4, 0xbd, 0x09, 0x97, 0xb6, 0xbe,
  0xa1, 0x58, 0xc1, 0x3e, 0xe9, 0x96, 0xa9, 0xbd, 0x5a, 0xdf, 0x7c, 0xbd,
  0x76, 0x68, 0x83, 0xbd, 0xde, 0xb7, 0x01, 0x3f, 0x5c, 0x74, 0xb9, 0xbe,
  0x22, 0x80, 0x4b, 0x3c, 0xa6, 0x10, 0x33, 0xbe, 0x3d, 0xa4, 0xfe, 0x3e,
  0x0c, 0x30, 0x92, 0xbe, 0xbb, 0x92, 0xd8, 0xbd, 0x1b, 0xe5, 0xac, 0xbe,
  0x2e, 0xfd, 0xf8, 0x3e, 0x1e, 0x66, 0x2b, 0xbe, 0x6c, 0xa1, 0x4a, 0x3d,
  0xfa, 0x93, 0x07, 0xbe, 0x67, 0xcf, 0xff, 0x3e, 0xcf, 0xac, 0x8e, 0xbe,
  0x8f, 0xc1, 0x9f, 0x3a, 0x90, 0x10, 0x52, 0xbe, 0x2e, 0x57, 0x11, 0x3f,
  0xe2, 0x84, 0x5e, 0xbe, 0xbd, 0xa0, 0xea, 0xbd, 0xb7, 0x42, 0x9c, 0xbe,
  0xb3, 0xdc, 0xe2, 0x3e, 0x6b, 0xb1, 0x3a, 0xbe, 0xfa, 0x2a, 0xad, 0xbd,
  0xb9, 0xcd, 0x2f, 0xbe, 0x20, 0xa2, 0x28, 0x3f, 0xbf, 0xbf, 0xa2, 0xbe,
  0x2a, 0xe8, 0x81, 0x3d, 0xbd, 0x3f, 0x8f, 0xbe, 0x94, 0xbf, 0x1e, 0x3f,
  0x35, 0x06, 0x8e, 0xbe, 0xd7, 0x12, 0xd2, 0xbd, 0x6d, 0x96, 0xea, 0xbe,
  0x69, 0xb2, 0x19, 0x3f, 0x38, 0x29, 0x19, 0xbe, 0x79, 0xfd, 0xf2, 0xbd,
  0x20, 0xfc, 0x90, 0xbe, 0x54, 0x3c, 0x46, 0xbe, 0x50, 0xd1, 0xa8, 0x3f,
  0xfc, 0xc5, 0xbe, 0x3f, 0x33, 0xdd, 0xc1, 0x3e, 0x93, 0x15, 0x04, 0x3e,
  0x80, 0x5c, 0xa6, 0x3f, 0xdb, 0x08, 0xc6, 0x3f, 0x0a, 0x86, 0xb1, 0x3e,
  0xb4, 0x85, 0xa1, 0x3d, 0x3e, 0xe0, 0x06, 0x40, 0x0b, 0xc4, 0xc3, 0x3f,
  0x16, 0x28, 0xc2, 0xbe, 0x94, 0xbd, 0x46, 0x3d, 0x50, 0x02, 0xdb, 0x3d,
  0x93, 0x74, 0x38, 0x3e, 0x56, 0x43, 0x70, 0x3e, 0xeb, 0x4f, 0x48, 0x3e,
  0xc7, 0x72, 0xa9, 0x3e, 0xe0, 0x93, 0x85, 0x3e, 0x14, 0xec, 0x71, 0x3e,
  0x4b, 0x69, 0xdd, 0xbc, 0xe2, 0x88, 0x46, 0x3e, 0xab, 0x3d, 0xa4, 0xbc,
  0xda, 0xc2, 0x03, 0x3e, 0x92, 0x6d, 0x17, 0x3e, 0xf2, 0x31, 0x4c, 0x3d,
  0x22, 0x59, 0x4b, 0x3e, 0x1e, 0xcb, 0x81, 0xbc, 0xa3, 0xc3, 0xe5, 0x3c,
  0xf2, 0xdb, 0x27, 0x3e, 0xb6, 0x86, 0x1c, 0x3e, 0xec, 0xbc, 0x15, 0x3e,
  0x27, 0xee, 0x9d, 0x3e, 0x24, 0x53, 0x06, 0x3f, 0xbe, 0xd2, 0xee, 0x3d,
  0xdc, 0x81, 0x7c, 0xbd, 0x34, 0x42, 0x1a, 0xbd, 0xe2, 0x40, 0xdd, 0xbd,
  0x73, 0xfb, 0x16, 0x3d, 0xb5, 0xcb, 0xa3, 0x3d, 0x20, 0x8b, 0x2f, 0xbe,
  0x74, 0xc3, 0xb0, 0xbd, 0x1f, 0x5b, 0xce, 0x3c, 0x0c, 0x6a, 0xef, 0xbb,
  0x1d, 0xb9, 0x09, 0x3e, 0x26, 0xc4, 0x72, 0x3e, 0x33, 0x43, 0x0a, 0xbd,
  0x3d, 0xeb, 0xc5, 0xbd, 0x2f, 0x14, 0x48, 0xbe, 0xd6, 0xdd, 0xc5, 0xbd,
  0x54, 0x38, 0x38, 0xbe, 0x76, 0xdd, 0x56, 0xbb, 0xcf, 0x08, 0xb1, 0xbe,
  0x5d, 0xc2, 0x8f, 0xbe, 0xc4, 0x2b, 0xeb, 0xbd, 0xb9, 0x9a, 0x6f, 0xbd,
  0x76, 0x0d, 0x57, 0x3d, 0x59, 0x58, 0x2f, 0x3e, 0x43, 0xa7, 0x15, 0xbd,
  0x2f, 0xa8, 0x80, 0xbd, 0xfc, 0x4a, 0x6e, 0xbe, 0x2e, 0x15, 0xaf, 0xbc,
  0xbb, 0x86, 0x08, 0xbe, 0xca, 0x44, 0x24, 0xbd, 0x89, 0x04, 0x9a, 0xbe,
  0xd2, 0xc3, 0xdc, 0xbb, 0xd3, 0x9d, 0x82, 0xbd, 0xb9, 0xc5, 0x03, 0xbc,
  0xb5, 0xa4, 0x12, 0xbe, 0xcc, 0x43, 0xc8, 0x3d, 0x8a, 0xce, 0x1e, 0xbe,
  0xbf, 0x97, 0x86, 0xbe, 0xf8, 0xf7, 0x06, 0xbe, 0xea, 0xf0, 0xf8, 0x3d,
  0x4e, 0xd9, 0xc7, 0xbd, 0x2b, 0x48, 0x3d, 0xbd, 0xdc, 0x5b, 0xcf, 0x3b,
  0xf0, 0x5f, 0x0b, 0x3e, 0x08, 0x49, 0xc7, 0xbd, 0xc3, 0x29, 0xa2, 0x3c,
  0x2b, 0x41, 0x89, 0xbe, 0x60, 0x9a, 0x29, 0xbc, 0x7d, 0x28, 0x61, 0xbe,
  0x5f, 0x2b, 0x87, 0xbe, 0xac, 0xfc, 0xa0, 0x3c, 0xb8, 0xc7, 0x6f, 0x3e,
  0xb7, 0xbb, 0x4b, 0xbd, 0x2e, 0xb5, 0x21, 0xbd, 0xec, 0x43, 0xf1, 0x3b,
  0xca, 0x3f, 0x4c, 0x3e, 0x6e, 0xf4, 0x4a, 0xbc, 0x48, 0x38, 0x1c, 0xbd,
  0x71, 0x2e, 0xba, 0xbe, 0x0f, 0x35, 0xbf, 0xbd, 0x96, 0x8a, 0xca, 0xbe,
  0xdb, 0x40, 0xf4, 0xbe, 0xe7, 0xac, 0xda, 0x3e, 0xed, 0xf9, 0x45, 0x3e,
  0x1b, 0xc9, 0x3d, 0xbe, 0xf7, 0x09, 0x11, 0x3f, 0xa9, 0x9e, 0xc4, 0x3e,
  0xa7, 0x68, 0x86, 0x3e, 0xdd, 0x5a, 0xf1, 0x3c, 0x8e, 0x7d, 0xa1, 0x3e,
  0x77, 0x21, 0x0c, 0xbf, 0x38, 0xd6, 0x26, 0xbf, 0xa6, 0x0e, 0xaf, 0xbe,
  0xd5, 0x37, 0x20, 0x3f, 0xa5, 0xbe, 0x20, 0x3f, 0xca, 0xcc, 0xd6, 0x3e,
  0xb4, 0x76, 0x18, 0x3f, 0xc5, 0xfd, 0xe2, 0x3e, 0x5f, 0x9c, 0xda, 0x3e,
  0x4a, 0x0e, 0x14, 0x3f, 0xb6, 0x9a, 0xe8, 0x3e, 0x3b, 0xb3, 0xaf, 0x3e,
  0xce, 0xc6, 0x03, 0x3f, 0x32, 0x3d, 0x68, 0x3f, 0x3f, 0xb5, 0x38, 0x3f,
  0xb8, 0x01, 0xcb, 0x3d, 0x41, 0x71, 0x88, 0x3e, 0x16, 0x2d, 0x42, 0x3e,
  0x65, 0x88, 0x9b, 0x3e, 0x3b, 0xa2, 0xdb, 0xbd, 0x91, 0x56, 0xa9, 0x3e,
  0xc6, 0x0a, 0x94, 0x3e, 0x92, 0x94, 0x65, 0x3e, 0xe7, 0x21, 0xa8, 0xbd,
  0x67, 0x4e, 0x1d, 0x3d, 0xb8, 0x8d, 0x0f, 0x3d, 0x49, 0xb9, 0x1a, 0xbe,
  0x0b, 0xc4, 0x0b, 0xbf, 0xfa, 0x7c, 0x6c, 0x3c, 0x0e, 0x0a, 0xb2, 0xbd,
  0xe2, 0xb8, 0x9e, 0x3d, 0x51, 0x73, 0xef, 0x3c, 0xf3, 0x0c, 0xc4, 0x3d,
  0xf4, 0x1a, 0x8b, 0xbd, 0x05, 0xe7, 0x00, 0x3e, 0x07, 0xd2, 0xa6, 0xbd,
  0x50, 0x69, 0xb9, 0xbe, 0x16, 0xde, 0xd8, 0xbe, 0x98, 0xc1, 0x20, 0xbe,
  0xae, 0x07, 0x44, 0xbc, 0xb6, 0xb0, 0xa3, 0x3d, 0x65, 0x68, 0xc9, 0xbd,
  0x52, 0xf1, 0x68, 0x3d, 0xed, 0x84, 0xa9, 0x3d, 0x45, 0xd7, 0x00, 0xbe,
  0x42, 0x16, 0xcd, 0xbd, 0x61, 0x53, 0x39, 0x3e, 0xe2, 0xa9, 0x92, 0xbd,
  0xb9, 0xf4, 0x3d, 0x3d, 0xd9, 0x39, 0x84, 0xbd, 0xf6, 0xf5, 0x1a, 0xbc,
  0xba, 0x9c, 0x3a, 0x3e, 0xd3, 0x2a, 0x1d, 0x3d, 0xd4, 0xf0, 0x32, 0xbd,
  0x04, 0xa2, 0x0b, 0x3e, 0xb9, 0xd7, 0x13, 0x3c, 0xe4, 0x0e, 0xcb, 0x3d,
  0xcb, 0x91, 0xb6, 0x3d, 0x41, 0x11, 0xae, 0x3d, 0x52, 0xc6, 0xb4, 0x3d,
  0x39, 0x42, 0x20, 0x3d, 0x09, 0xdc, 0x25, 0x3d, 0x47, 0xd4, 0x65, 0x3d,
  0x35, 0x18, 0x50, 0xbe, 0x5e, 0x82, 0xf3, 0xbd, 0x93, 0x2e, 0x07, 0xbe,
  0x60, 0xc3, 0x08, 0xbe, 0x0f, 0x9f, 0xc1, 0xbd, 0x84, 0x19, 0x6c, 0x3d,
  0x12, 0x68, 0x22, 0xbe, 0x75, 0x74, 0xea, 0x3c, 0x09, 0xac, 0x25, 0xbe,
  0xd7, 0x94, 0x8a, 0xbe, 0x9d, 0x2c, 0x46, 0xbe, 0x33, 0xc7, 0x0c, 0xbc,
  0x98, 0xd1, 0xa5, 0xbd, 0x22, 0x8f, 0x89, 0xbe, 0xe5, 0xb8, 0xb5, 0xbe,
  0xfa, 0xf8, 0xe8, 0xbb, 0x0c, 0x5a, 0x86, 0xbe, 0xb3, 0xdb, 0x72, 0xbe,
  0xd6, 0x74, 0xad, 0xbe, 0x88, 0xc4, 0x15, 0xbe, 0xea, 0x14, 0xf0, 0xbe,
  0x2e, 0xf3, 0xc6, 0xbd, 0xec, 0xfe, 0x68, 0xbe, 0x6b, 0x1b, 0xd6, 0x3c,
  0xad, 0x2f, 0xd6, 0x3e, 0xbb, 0x3d, 0x8d, 0x3e, 0xef, 0xb9, 0x26, 0x3f,
  0x8d, 0x6e, 0x3b, 0x3f, 0xda, 0xb7, 0x84, 0x3d, 0xfb, 0x30, 0xe9, 0x3e,
  0xd1, 0x35, 0x45, 0x3f, 0x98, 0x77, 0x36, 0x3f, 0x36, 0x9c, 0x34, 0x3e,
  0x09, 0xb3, 0x18, 0x3f, 0x3c, 0x90, 0xb8, 0x3f, 0xab, 0x38, 0xaa, 0x3e,
  0x0b, 0xc5, 0xcc, 0xbd, 0x9a, 0xf3, 0xa5, 0x3d, 0xb3, 0xf3, 0x05, 0xbe,
  0x8c, 0xac, 0x13, 0xbd, 0xf6, 0x91, 0x60, 0x3d, 0x02, 0x24, 0xd9, 0x3d,
  0x41, 0xc3, 0x15, 0xbe, 0x15, 0xd7, 0xf7, 0x3c, 0x6f, 0x83, 0xa2, 0x3d,
  0xb6, 0x37, 0x84, 0xbe, 0x51, 0xee, 0x4f, 0xbf, 0x16, 0x1b, 0x18, 0xbf,
  0xaa, 0x3b, 0x19, 0xbe, 0xac, 0x15, 0x8c, 0x3d, 0xa6, 0x91, 0x62, 0xbe,
  0xdc, 0xcc, 0x10, 0xbe, 0xe3, 0x49, 0x1d, 0xbe, 0xa6, 0xc4, 0x95, 0x3d,
  0xd8, 0x9c, 0x11, 0xbe, 0x34, 0x4a, 0x6b, 0xbd, 0x17, 0x6e, 0xe7, 0xbd,
  0x5a, 0x7d, 0x70, 0xbe, 0x7f, 0x3c, 0xff, 0x3d, 0x76, 0x4b, 0x48, 0xbf,
  0x6e, 0x09, 0x46, 0xbf, 0x8e, 0x23, 0x1a, 0xbc, 0xb1, 0x94, 0xb4, 0x3c,
  0x87, 0x0b, 0xc7, 0xbe, 0x45, 0x77, 0xfd, 0xbe, 0xed, 0x13, 0x1a, 0xbe,
  0xec, 0x61, 0x59, 0x3c, 0x55, 0x55, 0x82, 0xbe, 0xa0, 0x69, 0x9d, 0xbe,
  0x49, 0x61, 0x7e, 0xbf, 0x5f, 0x74, 0xee, 0xbd, 0x9b, 0x59, 0xb7, 0xbf,
  0x9d, 0x23, 0xc1, 0xbf, 0x74, 0x5b, 0xb5, 0xbd, 0xa6, 0x00, 0xd4, 0xbd,
  0x98, 0x91, 0x06, 0xbf, 0x8c, 0x6e, 0x55, 0xbe, 0x15, 0x9b, 0x2b, 0xbe,
  0x51, 0xb9, 0xcb, 0xbd, 0x1b, 0x6e, 0xd1, 0xbe, 0x63, 0x84, 0x70, 0xbe,
  0xdb, 0x61, 0x48, 0xbf, 0xea, 0x9d, 0x83, 0xbd, 0xb4, 0x39, 0x99, 0xbf,
  0xac, 0x4f, 0x51, 0xbe, 0xe0, 0x6f, 0xfb, 0xbc, 0x38, 0xd5, 0x21, 0xbc,
  0x41, 0xef, 0x36, 0xbe, 0x73, 0xcd, 0x56, 0xba, 0xf6, 0xdf, 0x49, 0xbe,
  0x6f, 0xa4, 0xf1, 0x3b, 0x00, 0xe5, 0x22, 0xbe, 0x6a, 0x1f, 0xd3, 0xbd,
  0xc3, 0x30, 0xb0, 0x3e, 0x36, 0x67, 0x07, 0x3f, 0x4c, 0x52, 0x94, 0x3d,
  0x7f, 0xc8, 0x73, 0x3e, 0x45, 0x5a, 0xb5, 0xbc, 0x5a, 0xd2, 0x26, 0xbd,
  0x0b, 0x4f, 0x03, 0xbd, 0x78, 0x22, 0xf8, 0x3b, 0xf9, 0x5a, 0xa0, 0xbd,
  0x81, 0xa9, 0x5a, 0xbd, 0x1a, 0x83, 0xc9, 0xbd, 0x43, 0x83, 0x82, 0xbd,
  0x95, 0x11, 0x84, 0x3e, 0xf8, 0xe2, 0x8a, 0x3e, 0x02, 0x6c, 0xff, 0x3d,
  0xf6, 0x50, 0x76, 0x3e, 0x69, 0x26, 0x89, 0x3d, 0xb4, 0x16, 0xb3, 0xbc,
  0xd4, 0x80, 0x00, 0x3d, 0xe5, 0x4c, 0x90, 0x3e, 0xb7, 0xa2, 0x28, 0x3d,
  0xcd, 0x32, 0x6d, 0xbd, 0x57, 0xea, 0xc2, 0xba, 0x0a, 0xb1, 0x3e, 0x3e,
  0xe1, 0x3b, 0x0a, 0x3e, 0x83, 0xdd, 0xfd, 0x3d, 0x69, 0x65, 0x95, 0x3d,
  0xfa, 0xdd, 0x70, 0x3e, 0xdb, 0xad, 0xe9, 0x3e, 0x2b, 0xb6, 0x05, 0x3f,
  0xbe, 0x6d, 0x11, 0xbf, 0x34, 0xf4, 0x9a, 0xbf, 0xdf, 0x27, 0xe2, 0x3e,
  0x5a, 0xd3, 0xf2, 0x3e, 0xdc, 0x42, 0x8c, 0x3c, 0x27, 0xc2, 0x2f, 0xbe,
  0xa2, 0xa7, 0xf1, 0x3e, 0xf0, 0xc3, 0x0a, 0x3f, 0xc0, 0x2f, 0x35, 0x3e,
  0xad, 0x88, 0x5a, 0x3d, 0x0b, 0xbe, 0xb6, 0x3e, 0xcd, 0xeb, 0x69, 0xbf,
  0x92, 0x76, 0x4f, 0xbf, 0x3b, 0x83, 0x56, 0xbf, 0x1c, 0x8f, 0x57, 0x3e,
  0xb3, 0xf1, 0xe4, 0x3d, 0x6f, 0x54, 0xe5, 0x3d, 0x61, 0x84, 0x15, 0xbd,
  0x1b, 0x4e, 0x21, 0x3e, 0x9e, 0x74, 0x47, 0x3e, 0xc6, 0x02, 0x49, 0x3e,
  0x4c, 0xa3, 0x5d, 0xbd, 0x41, 0xeb, 0x5d, 0x3f, 0xbe, 0xdc, 0x7d, 0xbe,
  0xdb, 0x9f, 0x55, 0xbf, 0x9b, 0x64, 0x93, 0xbf, 0x66, 0x2a, 0x8f, 0x3e,
  0x65, 0x5d, 0x8c, 0xbd, 0xf0, 0x60, 0x95, 0x3d, 0x8f, 0x8b, 0x9e, 0xbe,
  0x1e, 0x3e, 0x65, 0x3e, 0xe2, 0xa7, 0x8f, 0x3d, 0x78, 0x9e, 0xd2, 0x3c,
  0x32, 0x99, 0x15, 0xbe, 0xa1, 0x2e, 0x09, 0x3f, 0x42, 0x21, 0x72, 0xbe,
  0x58, 0xb0, 0x4b, 0xbf, 0xc5, 0x0f, 0x88, 0xbf, 0x7d, 0x19, 0x36, 0x3e,
  0xbf, 0xe5, 0x3f, 0xbd, 0x15, 0x7e, 0x7f, 0x3c, 0x0a, 0x2c, 0x3d, 0xbe,
  0xbe, 0x1b, 0xb9, 0x3d, 0x12, 0xf6, 0xa5, 0xbd, 0xc8, 0x81, 0xda, 0xbc,
  0x20, 0x37, 0x17, 0xbe, 0xc3, 0xd9, 0x3e, 0x3f, 0x16, 0xe1, 0xa3, 0xbd,
  0x76, 0xf0, 0x46, 0xbf, 0x19, 0x68, 0x92, 0xbf, 0xe8, 0x92, 0xa2, 0x3d,
  0x9e, 0xc9, 0xce, 0xbc, 0x7e, 0x04, 0x2d, 0x3d, 0x5c, 0xe6, 0x26, 0xbe,
  0x42, 0x2d, 0xc4, 0x3d, 0xe7, 0x8a, 0x7c, 0x3c, 0xe5, 0x95, 0x7d, 0xbb,
  0x05, 0xbd, 0x9d, 0xbc, 0xbf, 0xdc, 0x3d, 0x3f, 0x63, 0x55, 0x9f, 0xbe,
  0xde, 0x41, 0x42, 0xbf, 0x26, 0x50, 0xc3, 0xbf, 0xf1, 0x1e, 0x2f, 0x3e,
  0x16, 0xea, 0xfe, 0xbd, 0x64, 0x3e, 0x5b, 0x3c, 0x50, 0xf7, 0x4e, 0xbe,
  0x51, 0xe0, 0x2b, 0x3e, 0xa2, 0xfd, 0x87, 0xbc, 0x02, 0x71, 0x09, 0x3d,
  0x0a, 0x7f, 0x28, 0xbe, 0x53, 0x6b, 0x0b, 0x3f, 0x24, 0xf2, 0xd3, 0x3d,
  0xbf, 0xec, 0x5c, 0xbf, 0x2c, 0x88, 0xb6, 0xbf, 0x15, 0xae, 0x5b, 0x3e,
  0xb6, 0x48, 0x4a, 0xbe, 0x5e, 0x34, 0x9f, 0xbc, 0xa1, 0x29, 0x28, 0xbe,
  0x7c, 0x7b, 0x4c, 0x3e, 0x8c, 0x0d, 0x56, 0xbe, 0x65, 0x24, 0xf7, 0x3b,
  0x22, 0xf1, 0x64, 0xbe, 0x53, 0xff, 0x1d, 0x3f, 0x97, 0xcf, 0x56, 0xbf,
  0x39, 0x83, 0xa6, 0xbf, 0xbf, 0x31, 0xa0, 0xbe, 0x69, 0x11, 0xbb, 0x3e,
  0x05, 0xaa, 0x59, 0xbe, 0xb0, 0x51, 0x6e, 0xbd, 0xca, 0x0f, 0xfe, 0xbd,
  0x22, 0x35, 0x3c, 0x3d, 0xe7, 0xc3, 0x88, 0xbe, 0xb4, 0xd4, 0x2e, 0xbe,
  0xa5, 0x1a, 0x55, 0xbe, 0xc4, 0x60, 0x0f, 0xbf, 0xb6, 0x89, 0x36, 0xbf,
  0xd0, 0xc6, 0x06, 0xbe, 0x5c, 0x70, 0x18, 0x3e, 0x61, 0xae, 0xf1, 0xbe,
  0x22, 0x41, 0x43, 0xbf, 0xf1, 0x67, 0x40, 0xbe, 0x8a, 0x95, 0x0c, 0xbd,
  0x3a, 0xcf, 0x89, 0x3e, 0x82, 0x14, 0x14, 0x3f, 0x47, 0xb1, 0x18, 0x3f,
  0x63, 0xd5, 0x87, 0x3d, 0xf2, 0x69, 0x2d, 0xbf, 0x87, 0x3f, 0x44, 0xbf,
  0xce, 0x2b, 0x4e, 0xbe, 0xfe, 0x0c, 0x72, 0xbe, 0xc7, 0x6d, 0x41, 0xbf,
  0x04, 0xac, 0x82, 0xbf, 0xa5, 0x1d, 0xac, 0xbe, 0x53, 0xc5, 0xae, 0xbe,
  0x06, 0xca, 0x11, 0x3e, 0x71, 0x80, 0x50, 0x3e, 0xb9, 0x8c, 0x35, 0x3e,
  0x1c, 0x24, 0xa0, 0x3d, 0x23, 0xeb, 0x44, 0xbf, 0x12, 0xc0, 0x7b, 0xbf,
  0xbc, 0x04, 0x80, 0xbe, 0xcf, 0x69, 0x1a, 0xbe, 0x89, 0x37, 0x2a, 0xbf,
  0x46, 0x45, 0x71, 0xbf, 0x57, 0xb4, 0xc1, 0xbe, 0x7a, 0x72, 0x37, 0xbe,
  0xc5, 0xf8, 0x33, 0xbc, 0x9d, 0xaa, 0x06, 0x3e, 0x97, 0xd4, 0xe3, 0xbc,
  0xf4, 0xf4, 0xd8, 0xbd, 0x3a, 0xd4, 0xea, 0xbe, 0xfa, 0x9b, 0xb7, 0xbe,
  0xe0, 0x31, 0x09, 0xbe, 0x51, 0xfc, 0x35, 0x3d, 0x3e, 0x7a, 0x89, 0xbe,
  0x64, 0x32, 0x66, 0xbe, 0x9c, 0x4b, 0x2c, 0xbd, 0x66, 0x4b, 0x23, 0x3e,
  0xe0, 0xd3, 0x11, 0xbe, 0x35, 0xd2, 0xda, 0xbd, 0x90, 0x2b, 0x93, 0xbd,
  0x91, 0xe1, 0x9d, 0xbe, 0x9a, 0x23, 0xe5, 0x3d, 0x39, 0x1e, 0x12, 0x3c,
  0xd2, 0x06, 0xea, 0x3d, 0x81, 0x3e, 0x8b, 0x3e, 0xe6, 0x81, 0x1b, 0x3e,
  0x1e, 0x79, 0x97, 0x3e, 0x83, 0x68, 0x02, 0x3c, 0x30, 0xe8, 0xa6, 0x3e,
  0x39, 0x0c, 0x4e, 0xbe, 0x21, 0xf4, 0x59, 0xbe, 0x30, 0x4b, 0xe1, 0xbd,
  0x03, 0x71, 0x56, 0xbe, 0xca, 0xf6, 0x5e, 0x3e, 0x69, 0xce, 0x85, 0x3e,
  0x1a, 0x72, 0x2d, 0x3e, 0x61, 0xa3, 0xbe, 0x3e, 0xf8, 0xe7, 0x86, 0x3e,
  0xe1, 0xbc, 0xc2, 0x3e, 0x77, 0x55, 0x59, 0x3e, 0x49, 0x2a, 0xb8, 0x3e,
  0x26, 0x75, 0x0a, 0x3c, 0xe2, 0x08, 0x7b, 0xbe, 0x87, 0x62, 0xba, 0xbd,
  0xa0, 0xe4, 0x4c, 0x3c, 0xa8, 0x66, 0x83, 0x3e, 0x14, 0x35, 0x94, 0x3e,
  0x19, 0x3a, 0x5d, 0x3e, 0x98, 0xb5, 0x88, 0x3e, 0x5c, 0xf9, 0xa9, 0x3e,
  0xa6, 0xfa, 0x58, 0x3e, 0x4b, 0x3b, 0x21, 0x3e, 0xdb, 0x0f, 0x87, 0x3e,
  0xfe, 0x9f, 0x91, 0xbd, 0xb7, 0x30, 0xd1, 0xbc, 0x77, 0x11, 0x68, 0xbd,
  0xe4, 0x8c, 0x7f, 0xbb, 0xa3, 0x6c, 0x85, 0x3d, 0xf0, 0x3b, 0x47, 0x3e,
  0x54, 0xee, 0x23, 0x3e, 0x59, 0xcc, 0x58, 0x3e, 0x32, 0xee, 0x0f, 0x3e,
  0x8b, 0xb5, 0x48, 0x3e, 0x4d, 0xb8, 0x07, 0x3e, 0x95, 0x5f, 0x31, 0x3d,
  0xfb, 0x34, 0x6b, 0xbb, 0x2e, 0xb0, 0xe5, 0x3d, 0x46, 0xf0, 0xa4, 0xbd,
  0x58, 0xcc, 0x60, 0x3d, 0xab, 0x08, 0x70, 0x3f, 0x7e, 0x51, 0x36, 0x3f,
  0xd1, 0x40, 0x93, 0x3e, 0x99, 0xfa, 0x11, 0x3e, 0x3c, 0xa6, 0xa5, 0x3f,
  0xba, 0xc8, 0x66, 0x3f, 0x75, 0x4d, 0xb7, 0x3e, 0x12, 0xd8, 0x04, 0x3e,
  0xfc, 0xb5, 0x8b, 0x3d, 0xe3, 0x5d, 0xb2, 0x3c, 0xa1, 0xf0, 0xce, 0xbe,
  0xa4, 0x27, 0x27, 0xbe, 0xc9, 0xdb, 0xde, 0x3e, 0xc8, 0xf1, 0xf7, 0x3d,
  0xf5, 0x97, 0xfe, 0x3d, 0x8e, 0xf1, 0xf3, 0x3d, 0xee, 0x92, 0x18, 0x3f,
  0xad, 0x0a, 0xaa, 0x3e, 0x04, 0xb7, 0xbc, 0x3e, 0x79, 0xb6, 0xa7, 0x3d,
  0x32, 0xe2, 0x8e, 0xbe, 0x92, 0x5e, 0x4e, 0xbd, 0xb6, 0xa1, 0x24, 0xbe,
  0xfc, 0x95, 0x12, 0xbe, 0x1f, 0x4d, 0x38, 0x3e, 0x5c, 0x25, 0x4a, 0x3d,
  0x99, 0x8d, 0x87, 0x3e, 0xce, 0xeb, 0x3a, 0xbd, 0x85, 0x17, 0xf3, 0x3e,
  0x0b, 0x33, 0x2a, 0x3e, 0xfc, 0x2d, 0xc8, 0x3e, 0xf9, 0xf2, 0xe0, 0x3c,
  0x8a, 0x88, 0x23, 0xbb, 0x56, 0xee, 0xcd, 0x3d, 0x02, 0x07, 0x24, 0xbe,
  0x34, 0x0f, 0xdd, 0xbd, 0x75, 0xba, 0x9f, 0xbd, 0xd3, 0xe4, 0xaa, 0xbb,
  0x65, 0xaf, 0xc6, 0x3d, 0x89, 0x50, 0xbf, 0xbd, 0xf7, 0x37, 0x53, 0xbd,
  0xe7, 0xfd, 0xf3, 0x3c, 0x8e, 0x55, 0x6f, 0x3e, 0x1d, 0x0d, 0x1a, 0x3e,
  0x94, 0x67, 0x24, 0xbe, 0x40, 0x20, 0x02, 0x3e, 0x42, 0x74, 0xeb, 0xbd,
  0xfb, 0x3c, 0x41, 0xbe, 0x89, 0x80, 0x00, 0x3e, 0x39, 0x4c, 0x09, 0xbd,
  0x82, 0xb9, 0xec, 0x3d, 0x02, 0x16, 0xcb, 0xbd, 0xe8, 0x29, 0x17, 0x3e,
  0x4e, 0xdf, 0xde, 0xbd, 0xd2, 0x1a, 0x2e, 0x3e, 0xbf, 0x1f, 0xfd, 0x3d,
  0x47, 0x83, 0xd9, 0xbc, 0xfe, 0x54, 0xe0, 0x3c, 0x9b, 0xea, 0x2f, 0xbd,
  0xa6, 0xf9, 0x75, 0xbd, 0x82, 0x36, 0xd5, 0xbd, 0x07, 0x01, 0x58, 0xbd,
  0xa9, 0x62, 0x14, 0x3d, 0x9b, 0x77, 0x11, 0xbd, 0x23, 0x7a, 0x82, 0xbd,
  0xad, 0x7a, 0xa4, 0xbd, 0x5c, 0x38, 0x87, 0x3e, 0x5c, 0x0f, 0x17, 0x3e,
  0xc8, 0x32, 0x0b, 0x3d, 0x20, 0x15, 0xbc, 0x3d, 0xe5, 0xf8, 0x6a, 0x3d,
  0xd6, 0x79, 0xa2, 0xbd, 0x90, 0xa8, 0xa1, 0x3d, 0x6d, 0x92, 0x12, 0xbe,
  0xbe, 0x86, 0xa0, 0x3e, 0x33, 0xd8, 0xa4, 0x3d, 0xe8, 0x40, 0xc7, 0x3d,
  0x03, 0x03, 0x04, 0x3d, 0xa4, 0x9c, 0xb9, 0x3e, 0xbe, 0xab, 0x66, 0x3e,
  0x11, 0xeb, 0x06, 0xbd, 0x57, 0x7a, 0xe6, 0xbd, 0x35, 0xa4, 0x30, 0xbd,
  0xb1, 0x9e, 0x9a, 0xbe, 0xe8, 0x88, 0xd9, 0xbe, 0xec, 0x6e, 0xa2, 0xbd,
  0xdd, 0xd4, 0x57, 0x3e, 0x12, 0x74, 0xcf, 0xbc, 0x13, 0x20, 0x1d, 0xbe,
  0xe6, 0xf8, 0x1f, 0xbe, 0x20, 0x1d, 0x90, 0x3e, 0x45, 0xe9, 0x5b, 0x3d,
  0x04, 0x9b, 0x91, 0xbe, 0xab, 0xf6, 0xcd, 0xbd, 0xd1, 0x5c, 0xb2, 0xbd,
  0x26, 0xbe, 0x85, 0xbe, 0xea, 0x4e, 0x53, 0x3e, 0x88, 0x96, 0x18, 0x3f,
  0xf0, 0x1d, 0x5a, 0x3f, 0x49, 0x70, 0x31, 0xbc, 0x6f, 0x33, 0x75, 0x3e,
  0x36, 0xe9, 0x6d, 0x3e, 0x59, 0x74, 0x6a, 0x3f, 0x62, 0x61, 0x1e, 0x3e,
  0xbc, 0x8d, 0xc9, 0x3d, 0x1e, 0x96, 0x11, 0x3f, 0x6d, 0x8d, 0xa5, 0x3e,
  0xd8, 0x6b, 0xbc, 0xbd, 0xe5, 0xe3, 0x16, 0xbe, 0x8b, 0x1c, 0xbd, 0xbe,
  0x02, 0x9d, 0xdb, 0x3d, 0x4a, 0x7f, 0x40, 0xbc, 0xbc, 0x85, 0x60, 0xbe,
  0xc7, 0xbd, 0x97, 0xbe, 0xb3, 0x83, 0x1d, 0x3e, 0x32, 0x7d, 0x5f, 0xbd,
  0x21, 0xc3, 0x4e, 0xbe, 0xc0, 0x79, 0x55, 0xbe, 0x4c, 0x36, 0x83, 0x3d,
  0xb1, 0x74, 0x88, 0xbd, 0x92, 0xce, 0x4f, 0xbe, 0x5b, 0xda, 0x9d, 0xbe,
  0xaf, 0xbf, 0xe2, 0xbc, 0xf7, 0x13, 0x23, 0x3e, 0x87, 0x83, 0x14, 0xbe,
  0xad, 0xe5, 0xa0, 0xbe, 0x40, 0xc0, 0x19, 0x3b, 0x9f, 0x6e, 0xb8, 0x3d,
  0x8a, 0xa9, 0x56, 0xbd, 0xb9, 0x8d, 0x44, 0xbe, 0xd8, 0xb1, 0x34, 0xbe,
  0xb1, 0x86, 0xb6, 0xbe, 0xa9, 0x05, 0xa8, 0x3d, 0x25, 0xf6, 0x5f, 0x3e,
  0x59, 0x7f, 0x92, 0x3b, 0x0f, 0xfa, 0x21, 0x3e, 0x91, 0x41, 0x22, 0x3e,
  0x15, 0x79, 0xa4, 0x3e, 0xee, 0x75, 0x45, 0x3e, 0x12, 0xe3, 0xa3, 0x3e,
  0xa0, 0x03, 0x39, 0xbe, 0x5c, 0xc7, 0xa9, 0xbd, 0x54, 0xc3, 0xe0, 0xbd,
  0x3d, 0x96, 0x19, 0xbe, 0xa7, 0xf3, 0x9c, 0x3e, 0xdf, 0xa9, 0xce, 0x3e,
  0x97, 0x4b, 0x1d, 0x3e, 0x43, 0x61, 0x13, 0x3e, 0x32, 0x73, 0xd6, 0x3e,
  0x4c, 0xdc, 0xec, 0x3e, 0x71, 0xf8, 0x9a, 0x3e, 0x39, 0x71, 0x75, 0x3e,
  0x7f, 0x55, 0x32, 0xbd, 0xae, 0x53, 0x65, 0x3e, 0x03, 0xcf, 0x87, 0xbd,
  0x6c, 0xd2, 0x3d, 0xbe, 0x71, 0x10, 0xa6, 0x3e, 0x60, 0x16, 0xf1, 0x3e,
  0xce, 0x8f, 0x82, 0x3e, 0xac, 0xc7, 0xf0, 0x3d, 0x63, 0x29, 0xc8, 0x3e,
  0xb4, 0x2a, 0xd4, 0x3e, 0x7f, 0xc2, 0x5d, 0x3e, 0x51, 0x46, 0x08, 0x3e,
  0x7b, 0x59, 0x22, 0xbd, 0x5e, 0x31, 0x88, 0x3e, 0xae, 0x92, 0x22, 0xbd,
  0x98, 0xdd, 0x5b, 0x3e, 0x29, 0x35, 0x94, 0xbc, 0x3b, 0x56, 0x58, 0x3e,
  0x83, 0x56, 0xdd, 0xbc, 0xfa, 0x32, 0x45, 0xbe, 0x85, 0xe6, 0x95, 0xbb,
  0xa6, 0x81, 0x59, 0x3e, 0x11, 0xc5, 0xe1, 0x3b, 0xae, 0x69, 0x57, 0xbe,
  0xd2, 0xce, 0x8e, 0x3d, 0xe1, 0x3d, 0xd3, 0x3e, 0x8f, 0x3c, 0x10, 0x3e,
  0xd3, 0x8e, 0xdb, 0x3d, 0x4c, 0x15, 0x23, 0xbf, 0xa9, 0x96, 0xab, 0xbe,
  0x7e, 0x0c, 0xb9, 0xbe, 0x94, 0x45, 0x1f, 0xbf, 0x5a, 0xea, 0x00, 0xbf,
  0x3a, 0x28, 0xc7, 0xbe, 0xbd, 0xc5, 0x8c, 0xbe, 0xc9, 0x67, 0x21, 0xbf,
  0x49, 0x7d, 0xca, 0xbe, 0x59, 0x5e, 0x4c, 0x3d, 0x96, 0xb9, 0x4c, 0xbe,
  0xa0, 0x7d, 0x31, 0xbf, 0x05, 0xad, 0x2d, 0x3f, 0xf2, 0xc7, 0x2e, 0x3f,
  0x9c, 0x5e, 0x23, 0x3f, 0xa4, 0x4f, 0x45, 0x3d, 0xbb, 0xc0, 0xa5, 0x3f,
  0xcd, 0xf2, 0x6d, 0x3f, 0x1e, 0x4c, 0xa4, 0xbd, 0x49, 0x1f, 0x18, 0xc0,
  0xb4, 0xad, 0x13, 0x3f, 0x6f, 0x18, 0x43, 0x3f, 0x7d, 0x00, 0x0f, 0x3f,
  0xce, 0xcf, 0x29, 0xbd, 0xe9, 0xa2, 0x83, 0x3e, 0x41, 0xca, 0xc0, 0xbd,
  0xa3, 0xb2, 0x22, 0x3e, 0x5d, 0xd3, 0x13, 0xbd, 0xda, 0xdc, 0x48, 0x3f,
  0xbe, 0x76, 0x16, 0xc0, 0x99, 0x9c, 0xae, 0xbf, 0x24, 0x7a, 0xc1, 0xbf,
  0x5b, 0x01, 0x13, 0x3e, 0x62, 0xde, 0x89, 0x3d, 0x22, 0xb7, 0x9d, 0x3d,
  0x13, 0x85, 0x03, 0xbe, 0xc6, 0x01, 0x09, 0x3e, 0x2a, 0x0e, 0xc1, 0xbd,
  0x52, 0xa7, 0xef, 0x3d, 0x85, 0x4b, 0x9f, 0xbd, 0x86, 0x21, 0x6f, 0x3f,
  0x00, 0x05, 0x02, 0xbf, 0x51, 0x96, 0x7d, 0xbf, 0x9d, 0x73, 0xde, 0xbf,
  0xac, 0xdd, 0x9c, 0x3d, 0x42, 0x9d, 0xc2, 0x3d, 0x98, 0xf4, 0x67, 0xbd,
  0x54, 0x69, 0xf1, 0xbd, 0xd1, 0x9f, 0x22, 0x3d, 0x77, 0x06, 0x4f, 0xbe,
  0xa1, 0x50, 0x80, 0x3c, 0x5a, 0xbc, 0x40, 0xbe, 0x5d, 0x00, 0xa0, 0x3f,
  0x27, 0x92, 0x04, 0xbe, 0x9b, 0xf4, 0xa2, 0xbf, 0xa9, 0x57, 0x05, 0xc0,
  0xcd, 0x95, 0x84, 0xbc, 0x22, 0xd8, 0xce, 0xbd, 0x6c, 0xfe, 0x91, 0xbc,
  0x02, 0x81, 0x4a, 0xbe, 0x3f, 0x44, 0x08, 0x3d, 0xeb, 0x5d, 0x84, 0xbd,
  0xfc, 0x46, 0xd2, 0x3d, 0x67, 0x40, 0x1a, 0xbe, 0xee, 0xea, 0x32, 0x3f,
  0x0f, 0x34, 0x72, 0xbf, 0x1a, 0xbd, 0xcc, 0xbf, 0x0f, 0xf4, 0xe2, 0xbf,
  0x9b, 0x3a, 0x8a, 0xbd, 0x7a, 0x9c, 0xc8, 0xbd, 0xd9, 0x4c, 0x18, 0xbd,
  0x04, 0x13, 0x09, 0xbe, 0x27, 0xc7, 0x53, 0x3c, 0x5c, 0x58, 0x2e, 0x3d,
  0x54, 0xb8, 0x8e, 0x3d, 0xd0, 0xf0, 0x81, 0x3d, 0xa4, 0xf5, 0x8c, 0x3f,
  0xe9, 0x7b, 0x6a, 0xbd, 0x01, 0x71, 0xb1, 0xbf, 0x1c, 0xfc, 0xee, 0xbf,
  0x3e, 0xdf, 0x12, 0x3e, 0x08, 0xd9, 0x57, 0x3d, 0xd6, 0xf4, 0x16, 0xbd,
  0x35, 0x62, 0xaf, 0xbd, 0x59, 0x0a, 0x46, 0x3c, 0x30, 0xc1, 0x47, 0xbd,
  0xa0, 0xf2, 0x8f, 0x3d, 0xda, 0xf9, 0x03, 0xbd, 0xcf, 0xfe, 0xea, 0x3e,
  0x88, 0xd8, 0x26, 0xbf, 0xae, 0xca, 0xb9, 0xbf, 0xd3, 0xdb, 0x04, 0xc0,
  0x13, 0xc4, 0xb1, 0xbd, 0x96, 0xb8, 0x09, 0x3d, 0xd4, 0x92, 0x27, 0x3d,
  0x0b, 0x3a, 0xca, 0xbd, 0x58, 0x00, 0x17, 0xbc, 0x70, 0x33, 0x6f, 0xbd,
  0xd8, 0xe6, 0x90, 0x3d, 0xf0, 0x9d, 0x44, 0x3e, 0xab, 0xc4, 0x22, 0x3f,
  0xfa, 0x10, 0x63, 0xc0, 0x8b, 0x13, 0x3f, 0xc0, 0x7d, 0xe2, 0x1e, 0xbe,
  0x1d, 0x8c, 0x8e, 0xbe, 0xab, 0x58, 0x2b, 0xbe, 0x65, 0xb7, 0x44, 0xbe,
  0x03, 0xae, 0x89, 0xbe, 0x6a, 0x16, 0x3d, 0x3d, 0x7b, 0x3e, 0xc3, 0x3d,
  0x5a, 0x90, 0x3b, 0x3e, 0x9c, 0xa0, 0xb6, 0xbc, 0x51, 0x4b, 0xe4, 0x3d,
  0x16, 0x9d, 0xa9, 0x3d, 0x08, 0xe9, 0xe9, 0x3d, 0x87, 0x52, 0xb6, 0x3d,
  0x86, 0x36, 0x18, 0xbe, 0xe9, 0x0c, 0xbe, 0xbd, 0x16, 0x71, 0x89, 0xbd,
  0xeb, 0x9b, 0x1f, 0xbe, 0x93, 0x0e, 0x23, 0xbd, 0xa2, 0x53, 0x33, 0xbe,
  0x39, 0x05, 0x6d, 0x3d, 0x72, 0xba, 0x76, 0x3a, 0x3c, 0x55, 0x04, 0x3d,
  0xca, 0xdc, 0x0d, 0xbd, 0x99, 0x77, 0x45, 0x3d, 0x9d, 0x90, 0x05, 0x3d,
  0x0f, 0x17, 0x09, 0xbe, 0x5c, 0x2c, 0x93, 0xbe, 0xca, 0xa0, 0x4c, 0xbe,
  0xb0, 0xba, 0x9b, 0xbe, 0x5c, 0x8b, 0x3e, 0xbe, 0x03, 0x54, 0xe6, 0xbd,
  0x2f, 0x25, 0x4f, 0x3d, 0x4f, 0x92, 0x14, 0xbe, 0x61, 0x7b, 0x03, 0xbe,
  0x9c, 0xb3, 0x8b, 0xbe, 0x4b, 0xac, 0xaa, 0x3c, 0x57, 0x92, 0x4f, 0xbe,
  0xb8, 0xcc, 0x41, 0xbe, 0x1f, 0x2a, 0xaa, 0xbe, 0xd1, 0xaa, 0x57, 0xbe,
  0x08, 0x6c, 0x61, 0xbd, 0x1d, 0xbf, 0x90, 0xbe, 0x63, 0x35, 0xb1, 0xbe,
  0xa3, 0xb4, 0xa1, 0xbd, 0xb9, 0xee, 0x8e, 0xbe, 0x06, 0x03, 0xbb, 0xbe,
  0xea, 0x37, 0xeb, 0xbe, 0xef, 0x36, 0x68, 0xbe, 0x46, 0x80, 0x5c, 0xbe,
  0x30, 0xf4, 0x16, 0xbe, 0x88, 0xea, 0x86, 0xbe, 0x83, 0x02, 0x41, 0xbe,
  0xad, 0xae, 0xf6, 0x3c, 0xb4, 0x38, 0xcc, 0xbe, 0x0b, 0x40, 0x01, 0xbf,
  0x26, 0x55, 0x4b, 0xbe, 0x47, 0x30, 0x6c, 0xbe, 0x9b, 0x09, 0xa2, 0xbe,
  0x02, 0xbd, 0x22, 0xbf, 0xb1, 0x6d, 0xa4, 0xbe, 0x4e, 0x1b, 0x21, 0xbe,
  0xaa, 0xcd, 0x89, 0xbc, 0xa7, 0x4e, 0xd5, 0x3c, 0x30, 0x46, 0x9c, 0xbd,
  0x45, 0xb3, 0x3b, 0x3e, 0x23, 0xe5, 0x90, 0xbe, 0x1b, 0xc1, 0xf7, 0xbe,
  0x73, 0x90, 0x08, 0xbe, 0xf6, 0xd2, 0x63, 0xbd, 0x5f, 0xf9, 0xd7, 0xbd,
  0x8f, 0x04, 0xf1, 0xbe, 0xd2, 0xf7, 0x56, 0xbe, 0xd5, 0xf1, 0xda, 0xbc,
  0xc8, 0x6a, 0x3c, 0x3e, 0x1d, 0xba, 0x29, 0x3e, 0xa6, 0xf4, 0xca, 0x3d,
  0xcd, 0x6d, 0xac, 0x3d, 0xb2, 0xa6, 0x4e, 0x3d, 0xb3, 0x38, 0x39, 0xbe,
  0xb6, 0x26, 0xd4, 0xbd, 0x98, 0xd1, 0x30, 0x3e, 0x3d, 0x9c, 0x77, 0x3d,
  0xc9, 0xed, 0x07, 0xbe, 0x13, 0x67, 0x9a, 0xbd, 0x39, 0x75, 0x44, 0x3e,
  0x69, 0xfb, 0x72, 0x3e, 0xd2, 0x2d, 0x2a, 0x3d, 0x77, 0xd8, 0xbd, 0x3d,
  0x21, 0x79, 0x4e, 0x3e, 0x9f, 0x3c, 0xb8, 0x3e, 0x18, 0x85, 0x0a, 0x3e,
  0xcf, 0x34, 0x60, 0x3e, 0x67, 0x7e, 0x8d, 0x3f, 0x68, 0xec, 0xdd, 0x3e,
  0x3c, 0x85, 0xbc, 0x3d, 0xe2, 0x27, 0x4d, 0x3e, 0xa1, 0xff, 0x88, 0x3f,
  0x9d, 0x99, 0xb3, 0x3e, 0x2d, 0xc8, 0x32, 0x3d, 0xcb, 0x32, 0x0c, 0x3e,
  0xa1, 0x38, 0x0a, 0x3f, 0x24, 0x9b, 0x8d, 0xbe, 0xdb, 0x34, 0x90, 0xbf,
  0xf8, 0x3d, 0xeb, 0xbe, 0x0c, 0x97, 0xd0, 0x3e, 0x4c, 0x2e, 0x4f, 0xbe,
  0x6b, 0x4a, 0x9b, 0xbf, 0xca, 0xa7, 0xde, 0xbe, 0x54, 0x35, 0xe1, 0x3e,
  0xc0, 0x1e, 0xa6, 0x3e, 0x7a, 0x39, 0xf3, 0xbd, 0x37, 0xbd, 0xc5, 0x3e,
  0xc7, 0xaf, 0xd2, 0x3e, 0x9f, 0xa1, 0x2f, 0x3f, 0x01, 0x92, 0xaf, 0x3e,
  0xaf, 0x28, 0x06, 0x3f, 0x4e, 0x55, 0xe3, 0x3e, 0x9a, 0x73, 0x16, 0x3f,
  0x5f, 0xf7, 0x02, 0x3f, 0xfc, 0xe6, 0x04, 0x3f, 0x38, 0x14, 0xd1, 0x3e,
  0x0f, 0x4d, 0x2d, 0x3f, 0x22, 0x57, 0xaf, 0x3e, 0xda, 0xbd, 0x02, 0x3f,
  0xba, 0x19, 0x5b, 0x3e, 0x9d, 0x53, 0xd0, 0x3e, 0xaa, 0x9e, 0xee, 0x3d,
  0xc3, 0x4c, 0xa2, 0x3e, 0x34, 0x09, 0x93, 0x3d, 0x6d, 0x37, 0xb2, 0x3e,
  0xb6, 0x75, 0x38, 0x3e, 0x9a, 0x0b, 0x8b, 0x3e, 0xcd, 0xb2, 0xe2, 0x3d,
  0x85, 0xf6, 0xeb, 0x3e, 0xa0, 0x55, 0x01, 0x3e, 0x30, 0x2c, 0xaf, 0x3e,
  0x98, 0x2d, 0x58, 0x3e, 0x3a, 0x7d, 0x02, 0x3d, 0x40, 0xf3, 0x1a, 0xbe,
  0x6e, 0xc6, 0x3d, 0x3e, 0x41, 0x8f, 0x0a, 0xbe, 0x43, 0xe9, 0x1d, 0x3c,
  0xc8, 0xd2, 0x16, 0xbe, 0x3b, 0x94, 0x4b, 0x3e, 0x4d, 0xb3, 0x17, 0x3e,
  0x73, 0x24, 0x60, 0x3e, 0x66, 0xaa, 0x1d, 0xbd, 0x7b, 0x41, 0x73, 0x3e,
  0x79, 0x5b, 0xd8, 0xbd, 0xe9, 0xb4, 0x04, 0xbe, 0xe3, 0xf1, 0x8a, 0xbe,
  0x27, 0x6c, 0x8d, 0x3d, 0x4c, 0x5d, 0xa3, 0xbe, 0xdd, 0x9a, 0x05, 0xbe,
  0x54, 0xa4, 0xf3, 0xbd, 0x4f, 0x22, 0x3e, 0x3d, 0x1f, 0x86, 0xef, 0xbd,
  0x6b, 0xb8, 0x26, 0xbd, 0x8e, 0xe0, 0x84, 0xbe, 0x0e, 0xa0, 0x1e, 0xbc,
  0x95, 0xa9, 0x79, 0xbe, 0x26, 0x22, 0x40, 0xbe, 0x6c, 0x90, 0x2e, 0xbe,
  0x8c, 0xef, 0x37, 0xbd, 0x1b, 0xf1, 0x0a, 0xbe, 0xe9, 0x01, 0x4a, 0xbe,
  0x76, 0x0a, 0xfc, 0xbd, 0x3a, 0x08, 0x54, 0xbd, 0xe0, 0x99, 0x3e, 0xbe,
  0x55, 0xea, 0x79, 0xbe, 0x4d, 0x15, 0xf9, 0xbe, 0xd8, 0x52, 0xc5, 0xbd,
  0x4a, 0xae, 0xa2, 0xbe, 0x0b, 0x6c, 0x79, 0xbe, 0x1e, 0x01, 0xa1, 0xbe,
  0x34, 0x6e, 0x2f, 0xbe, 0x2f, 0xb6, 0x29, 0xbe, 0xdc, 0x58, 0x94, 0xbe,
  0xf9, 0x9e, 0xf7, 0xbe, 0x0b, 0x58, 0xcf, 0xbd, 0x9c, 0xee, 0x80, 0xbe,
  0x8c, 0xca, 0xdb, 0xbe, 0xd4, 0xc9, 0x36, 0xbf, 0xf7, 0x0c, 0x47, 0xbe,
  0xfc, 0xc3, 0xd4, 0xbe, 0x55, 0x01, 0xeb, 0xbe, 0xe6, 0x47, 0xae, 0xbe,
  0xc6, 0x6e, 0x12, 0xbe, 0x9d, 0xd0, 0x4a, 0xbf, 0x1a, 0x9f, 0xfb, 0xbe,
  0x99, 0xff, 0x05, 0xbf, 0xf6, 0xd1, 0x76, 0xbe, 0x70, 0x31, 0x58, 0xbf,
  0x9b, 0xf2, 0x03, 0xbf, 0xd6, 0xb6, 0x44, 0xbf, 0x8a, 0x7b, 0xb5, 0xbe,
  0x53, 0x0e, 0x78, 0xbf, 0x3f, 0x68, 0x8f, 0xbb, 0xf0, 0xd3, 0x1e, 0x3e,
  0x56, 0x07, 0xc9, 0xbf, 0x41, 0xe4, 0x0c, 0xc0, 0x8e, 0x34, 0xa3, 0x3e,
  0x3a, 0x84, 0x5e, 0xbe, 0xec, 0x3a, 0xc0, 0xbf, 0x56, 0x37, 0x07, 0xc0,
  0x5d, 0xbc, 0xc5, 0xbe, 0x84, 0x94, 0xb4, 0xbf, 0x60, 0xf0, 0x34, 0xc0,
  0x40, 0xb5, 0x20, 0xc0, 0x12, 0x7b, 0xb0, 0xbe, 0x8c, 0x85, 0x9a, 0xbe,
  0x2a, 0x2d, 0x7d, 0xbe, 0xd8, 0xee, 0x9e, 0xbd, 0x95, 0xeb, 0xa4, 0xbe,
  0xac, 0x7c, 0x13, 0xbf, 0x10, 0x3b, 0x18, 0xbf, 0xf0, 0xad, 0x76, 0xbd,
  0xd0, 0x9a, 0x08, 0xbf, 0xb3, 0x8d, 0x5c, 0xbe, 0x5d, 0xca, 0xd2, 0xbd,
  0x00, 0x96, 0x05, 0x3f, 0x18, 0x49, 0x7a, 0x3e, 0x9b, 0xee, 0x94, 0x3d,
  0x8d, 0x4e, 0x4b, 0x3e, 0x16, 0x88, 0x02, 0x3e, 0x79, 0x16, 0xd2, 0xbd,
  0x5a, 0xa1, 0xcc, 0xbc, 0xd2, 0xfb, 0x46, 0x3e, 0xf0, 0xaf, 0x05, 0x3e,
  0xa7, 0x93, 0x04, 0x3f, 0x0c, 0xec, 0x6d, 0x3f, 0xdd, 0xce, 0x37, 0x3f,
  0xd6, 0xf7, 0xe9, 0x3e, 0xb4, 0xcf, 0x1a, 0x3e, 0x3d, 0x4a, 0x83, 0x3e,
  0x8f, 0x6d, 0x81, 0x3e, 0xe8, 0x64, 0xcf, 0x3d, 0xa6, 0x1c, 0xbf, 0x3d,
  0x92, 0x38, 0x8c, 0x3e, 0x22, 0xbb, 0x82, 0x3e, 0xeb, 0x62, 0xee, 0x3d,
  0xc5, 0x25, 0x22, 0xbb, 0x9f, 0xae, 0x95, 0x3e, 0x96, 0x4c, 0x3f, 0x3e,
  0xe6, 0xc0, 0xcf, 0xbe, 0x5c, 0x0d, 0x9f, 0xbb, 0xe5, 0x9a, 0x1d, 0x3e,
  0xab, 0xdd, 0x84, 0x3d, 0x14, 0x62, 0x62, 0xbd, 0xc9, 0x49, 0x19, 0x3e,
  0x70, 0xcc, 0x3f, 0x3e, 0xc8, 0x2b, 0xfa, 0x3d, 0x96, 0x50, 0xa8, 0xbd,
  0xc6, 0x7f, 0xb6, 0xbe, 0xa2, 0x6e, 0xf5, 0x3b, 0xff, 0x6e, 0x5c, 0xbe,
  0xb4, 0x63, 0xa2, 0xbe, 0xd5, 0x6b, 0x34, 0xbd, 0x17, 0x62, 0xf0, 0x3d,
  0x61, 0x9b, 0x84, 0x3d, 0xd7, 0x79, 0x29, 0xbd, 0x06, 0xe1, 0x54, 0x3d,
  0x8b, 0x9a, 0x9d, 0x3d, 0x67, 0xef, 0x91, 0x3b, 0xec, 0x48, 0xa2, 0xbd,
  0x67, 0xa2, 0x92, 0xbe, 0x65, 0x6a, 0x42, 0x3c, 0x87, 0xb4, 0x21, 0xbe,
  0x2d, 0xea, 0xc0, 0xbd, 0xbd, 0x58, 0x97, 0xbd, 0x20, 0x0a, 0x12, 0x3d,
  0xb2, 0x40, 0xa5, 0xbc, 0x54, 0x1a, 0xa4, 0xbc, 0x00, 0xfa, 0x29, 0x3d,
  0x68, 0x90, 0x9c, 0x3c, 0x9c, 0x4c, 0xc7, 0xbc, 0x3b, 0xef, 0x5d, 0xbd,
  0x13, 0x30, 0x87, 0xbd, 0x19, 0x83, 0x16, 0x3e, 0xac, 0xca, 0x16, 0xbc,
  0x24, 0xc8, 0x34, 0x3e, 0xe3, 0xf1, 0x68, 0xbd, 0x90, 0x0b, 0xe9, 0x3c,
  0xfd, 0xfd, 0x58, 0xbd, 0x0b, 0x5b, 0x7a, 0x3d, 0xfe, 0x97, 0x94, 0x3c,
  0x28, 0xe7, 0x01, 0xbd, 0x5f, 0xfb, 0x00, 0xbd, 0xba, 0x8e, 0xa6, 0x3c,
  0xa5, 0xb5, 0x42, 0x3a, 0xb5, 0xdc, 0x10, 0x3e, 0x36, 0x09, 0xa1, 0x3a,
  0xa4, 0x9c, 0x02, 0x3e, 0x88, 0xf5, 0x82, 0xbf, 0x14, 0x70, 0xf5, 0xbf,
  0xda, 0xcb, 0x9e, 0xbf, 0xac, 0x3f, 0x2b, 0xbf, 0xd6, 0x63, 0x5d, 0xbf,
  0x7c, 0xc6, 0xf0, 0xbf, 0x1c, 0x08, 0xb7, 0xbf, 0x3d, 0xbf, 0x17, 0xbf,
  0xda, 0xd9, 0x8d, 0xbe, 0xbe, 0x03, 0x19, 0xbf, 0xb6, 0x75, 0x03, 0xbf,
  0x26, 0xc8, 0xc0, 0xbd, 0x8e, 0x99, 0x25, 0xbf, 0xeb, 0x0f, 0x37, 0xbf,
  0xaa, 0x6b, 0x7e, 0xbe, 0xf0, 0x1a, 0x12, 0x3e, 0xb0, 0x77, 0xeb, 0xbe,
  0x77, 0xba, 0xc8, 0xbe, 0x1e, 0x98, 0x33, 0xbd, 0xe6, 0x7d, 0x14, 0x3e,
  0xbc, 0x57, 0x94, 0x3c, 0x09, 0x81, 0x50, 0xbd, 0x0d, 0x91, 0x13, 0xbd,
  0xc2, 0x4c, 0xce, 0x3d, 0xdc, 0x48, 0xe5, 0x3d, 0x2b, 0x0e, 0xc2, 0x3c,
  0x24, 0x13, 0x6c, 0x3d, 0xe1, 0x58, 0x9b, 0x3e, 0xc6, 0x2e, 0x8c, 0x3e,
  0x94, 0x30, 0x12, 0x3e, 0xe3, 0x32, 0x2e, 0x3e, 0x0a, 0x9f, 0x5f, 0x3e,
  0xdc, 0x25, 0x2d, 0x3e, 0x95, 0x72, 0xa6, 0x3c, 0xe3, 0x6c, 0xe6, 0x3c,
  0xf8, 0xd9, 0x5f, 0x3d, 0x58, 0xc9, 0xad, 0x3e, 0x77, 0xf7, 0xaa, 0x3d,
  0x27, 0x9e, 0x40, 0x3e, 0x72, 0x10, 0x78, 0x3e, 0xca, 0x81, 0xb7, 0x3e,
  0xcb, 0xf5, 0x8d, 0x3e, 0xb4, 0x7f, 0x78, 0x3e, 0xbe, 0xec, 0x85, 0x3e,
  0xd7, 0x2b, 0x85, 0x3e, 0xed, 0x4e, 0x81, 0x3d, 0x48, 0x84, 0xb6, 0x3d,
  0xf5, 0x18, 0x18, 0x3e, 0xc2, 0xec, 0x92, 0x3e, 0x08, 0xd7, 0x0c, 0x3e,
  0x39, 0x22, 0x66, 0x3e, 0x4e, 0x18, 0x2f, 0x3e, 0x21, 0x1d, 0x83, 0x3e,
  0x25, 0x06, 0xc2, 0x3c, 0xf5, 0x09, 0x9f, 0x3e, 0x4c, 0x16, 0xe2, 0x3d,
  0xd5, 0xf7, 0x75, 0x3e, 0x95, 0x98, 0xb6, 0x3d, 0x7d, 0x8c, 0x75, 0x3e,
  0x4e, 0xbe, 0x66, 0x3e, 0x2d, 0xbe, 0x3b, 0x3e, 0x78, 0xf3, 0x71, 0x3d,
  0x23, 0xf0, 0x49, 0x3e, 0xc5, 0x46, 0x39, 0x3e, 0xf9, 0xa6, 0xb1, 0x3d,
  0x28, 0xf9, 0x9c, 0x3b, 0x81, 0x51, 0x7d, 0x3e, 0x87, 0x4f, 0xe0, 0x3d,
  0x33, 0x05, 0x89, 0x3e, 0xa7, 0x91, 0x35, 0x3e, 0xdc, 0x8b, 0x92, 0x3e,
  0x63, 0x2e, 0x13, 0x3e, 0x9d, 0x22, 0x8a, 0x3d, 0x5b, 0xbc, 0x77, 0x3c,
  0x25, 0x5c, 0x7e, 0x3e, 0x14, 0x5a, 0x3b, 0xbc, 0x1e, 0x38, 0x93, 0x3d,
  0xd5, 0xcb, 0x8a, 0x3d, 0x1e, 0xbd, 0x46, 0x3e, 0xd1, 0x5e, 0x33, 0x3d,
  0x8a, 0x0e, 0xed, 0x3d, 0x10, 0x6a, 0xb1, 0xbd, 0xbe, 0x24, 0x11, 0x3e,
  0xe6, 0xc9, 0x3f, 0xbe, 0xc6, 0x2e, 0xf9, 0xbd, 0x03, 0xbd, 0x3e, 0xbd,
  0x78, 0x7c, 0xf2, 0x3d, 0x28, 0x3c, 0x1f, 0xbd, 0x7a, 0x04, 0x8e, 0xbd,
  0x38, 0x57, 0x21, 0xbe, 0x62, 0xc3, 0xcd, 0x3d, 0x02, 0xdf, 0xc8, 0xbd,
  0x86, 0x08, 0x9c, 0xbe, 0x3e, 0x9e, 0xbc, 0xbe, 0xe4, 0x51, 0x1a, 0xbe,
  0x89, 0xba, 0x11, 0xbf, 0x07, 0xd1, 0xa8, 0x3e, 0x53, 0x5c, 0x30, 0x3f,
  0xcc, 0xbb, 0xb2, 0x3e, 0x03, 0x10, 0x7e, 0xbe, 0x24, 0xe5, 0xc0, 0x3e,
  0xcf, 0x6b, 0xcd, 0x3e, 0x9d, 0x53, 0x4d, 0x3e, 0xca, 0x53, 0xb0, 0xbe,
  0xd0, 0x77, 0xfa, 0x3d, 0x14, 0x6f, 0xc8, 0x3e, 0x15, 0xfa, 0x82, 0xbf,
  0x95, 0x16, 0xd0, 0xbf, 0x38, 0x96, 0xb5, 0xbc, 0x7c, 0x97, 0x73, 0x3d,
  0x9a, 0x77, 0x04, 0xbf, 0xc1, 0x50, 0x66, 0xbf, 0x15, 0x3b, 0xce, 0xbd,
  0x18, 0x2b, 0x8a, 0x3e, 0x06, 0xa6, 0x0a, 0xbf, 0x8a, 0x05, 0x5d, 0xbf,
  0x04, 0xd5, 0xa7, 0xbf, 0xa7, 0xff, 0x70, 0xbf, 0x51, 0x46, 0xf7, 0xbf,
  0x46, 0xd6, 0x04, 0xc0, 0xf3, 0xa7, 0xcc, 0xbd, 0x50, 0x3c, 0x28, 0xbe,
  0xe4, 0xbd, 0x29, 0xbf, 0xc1, 0xfb, 0xa7, 0xbe, 0x27, 0x88, 0x75, 0xbe,
  0x4f, 0x55, 0x11, 0xbf, 0x40, 0x26, 0x27, 0xbf, 0x4d, 0x1b, 0xbf, 0xbe,
  0x6f, 0xc1, 0x49, 0xbf, 0xd4, 0x42, 0x10, 0xbf, 0xaa, 0x5d, 0xa4, 0xbf,
  0x88, 0x39, 0x5a, 0xbe, 0x01, 0x07, 0x61, 0x3c, 0xab, 0x7b, 0x74, 0xbd,
  0xa9, 0x57, 0x13, 0xbe, 0x72, 0xf5, 0xad, 0xbd, 0x24, 0xdd, 0x8f, 0x3c,
  0xab, 0x4a, 0x00, 0xbe, 0x4b, 0x4d, 0xf4, 0xbd, 0xcd, 0x3d, 0x5b, 0xbd,
  0x7a, 0x29, 0xca, 0x3e, 0x6d, 0x07, 0x27, 0x3f, 0x45, 0xb7, 0x85, 0x3e,
  0xfc, 0x85, 0xe5, 0x3e, 0x0e, 0x58, 0x34, 0x3e, 0x60, 0xcc, 0x46, 0x3d,
  0x68, 0x7a, 0x0b, 0x3e, 0xb4, 0x72, 0xca, 0x3c, 0x88, 0xda, 0x85, 0x3d,
  0x91, 0x69, 0xb1, 0x3d, 0xe7, 0xb1, 0xfe, 0x3d, 0x0a, 0x69, 0x93, 0x3d,
  0xef, 0x2c, 0xfa, 0x3e, 0xaf, 0x16, 0x29, 0x3f, 0x82, 0x9d, 0xd9, 0x3e,
  0xfc, 0x28, 0xa2, 0x3e, 0xcd, 0x4a, 0xe6, 0x3d, 0x34, 0xab, 0x5d, 0x3e,
  0xfc, 0x71, 0x2c, 0x3e, 0x7b, 0x8c, 0x8e, 0xbc, 0x4f, 0xb6, 0x4b, 0x3e,
  0x94, 0xb0, 0x4b, 0x3e, 0x9f, 0xde, 0xb2, 0x3d, 0xb2, 0x62, 0xb9, 0x3d,
  0x29, 0x57, 0xad, 0x3d, 0xa9, 0x28, 0x9f, 0x3e, 0x2b, 0x5d, 0x0e, 0x3e,
  0xcb, 0xfd, 0x46, 0x3d, 0x4d, 0x75, 0x12, 0xbd, 0xa6, 0x8c, 0xe7, 0x3d,
  0x46, 0x32, 0x47, 0x3d, 0x1c, 0x4a, 0x89, 0x3b, 0x07, 0x2d, 0xba, 0x3d,
  0xac, 0x67, 0xcc, 0x3d, 0x44, 0xb7, 0xae, 0x3d, 0xd7, 0x38, 0xe2, 0x3c,
  0x6f, 0xfe, 0xa0, 0xbe, 0x70, 0xd2, 0x6f, 0x3d, 0x84, 0x19, 0x2e, 0xbc,
  0x44, 0xac, 0xd3, 0xbc, 0x2c, 0x8b, 0x87, 0xbd, 0x70, 0x3a, 0x8b, 0xbc,
  0xa1, 0x5a, 0x3a, 0xbc, 0x73, 0x9c, 0x5a, 0x3d, 0xa8, 0x21, 0x29, 0x3d,
  0x1d, 0xdc, 0xf7, 0x3a, 0x36, 0xed, 0xfd, 0xbc, 0x70, 0x7f, 0x2a, 0xbd,
  0xd4, 0xf6, 0x50, 0xbe, 0x1c, 0xb4, 0x9a, 0x3c, 0xbc, 0x83, 0x2c, 0x3d,
  0x85, 0x54, 0x05, 0x3e, 0xa7, 0x0c, 0x3d, 0xbf, 0x7d, 0x2d, 0xf2, 0xbb,
  0x45, 0xc0, 0x35, 0x3f, 0xb6, 0xae, 0x9b, 0xbe, 0xa5, 0x4b, 0x7a, 0xbf,
  0xd7, 0xe5, 0xa3, 0xbe, 0x97, 0xb3, 0xd0, 0x3e, 0x0e, 0x08, 0x52, 0xbe,
  0x3f, 0xc0, 0x8f, 0x3e, 0x8c, 0x1e, 0x06, 0x40, 0x6d, 0x04, 0xf2, 0x3f,
  0x35, 0x99, 0x16, 0x3d, 0x26, 0x3a, 0x83, 0xbe, 0x4a, 0xc2, 0x5a, 0xbe,
  0x64, 0xcf, 0x5c, 0xbc, 0x84, 0x96, 0x69, 0xbd, 0x7c, 0xec, 0x48, 0xbe,
  0x54, 0x56, 0x24, 0xbe, 0xbf, 0x67, 0x1d, 0xbe, 0x0d, 0xd1, 0x09, 0xbc,
  0x75, 0x8e, 0x82, 0xbe, 0x2a, 0x5b, 0x8c, 0xbe, 0xca, 0x96, 0x1d, 0x3e,
  0x80, 0x4e, 0x4c, 0x3e, 0x39, 0x8f, 0xa3, 0x3c, 0x09, 0xcd, 0x99, 0x3e,
  0xec, 0x4e, 0x0c, 0x3d, 0x07, 0x6a, 0x8a, 0x3c, 0xd6, 0xce, 0x9c, 0x3c,
  0xe4, 0xcd, 0x56, 0x3e, 0xde, 0x07, 0x8e, 0xbb, 0x49, 0x81, 0x43, 0xbe,
  0x89, 0xe3, 0x5d, 0xbd, 0xce, 0x55, 0x38, 0x3e, 0xb4, 0x95, 0x03, 0x3f,
  0xbc, 0x84, 0xf6, 0x3e, 0x96, 0x9f, 0xbe, 0xbd, 0x47, 0x04, 0xeb, 0xbc,
  0x71, 0xef, 0x93, 0xbc, 0xe6, 0xd5, 0xc5, 0xbd, 0xef, 0x61, 0xcd, 0x3d,
  0x47, 0x3e, 0x53, 0x3d, 0x97, 0x18, 0x19, 0xbd, 0x86, 0x5b, 0x1b, 0xbd,
  0xcf, 0x99, 0x1a, 0x3e, 0xff, 0x2c, 0x9c, 0x3e, 0xe1, 0x20, 0xcc, 0x3e,
  0x41, 0x36, 0x92, 0x3e, 0x67, 0x3e, 0x1a, 0xbe, 0xe2, 0x03, 0x06, 0x3c,
  0x4a, 0x67, 0xac, 0xbd, 0x44, 0x9e, 0x15, 0xbe, 0x1b, 0x2a, 0x65, 0x3a,
  0x81, 0x9c, 0xa8, 0xbd, 0xaf, 0xee, 0x45, 0xbd, 0x84, 0x1f, 0x1f, 0xbe,
  0xab, 0x59, 0x94, 0x3d, 0x79, 0x8b, 0xb8, 0x3e, 0xf0, 0xc2, 0x12, 0x3e,
  0xc6, 0x63, 0x69, 0x3e, 0x04, 0xab, 0xaf, 0xbd, 0x67, 0x6b, 0x17, 0xbc,
  0x8d, 0x7e, 0xea, 0xbd, 0x3e, 0x1f, 0x07, 0xbd, 0x06, 0xb9, 0xa9, 0x3b,
  0xac, 0x2b, 0x7b, 0x3d, 0xdc, 0x32, 0x6d, 0xbe, 0x7c, 0xae, 0x3f, 0x3c,
  0xe2, 0x52, 0x42, 0x3e, 0xb6, 0xe6, 0xfd, 0x3e, 0x49, 0x12, 0x6e, 0x3e,
  0x6a, 0x49, 0x6e, 0x3e, 0xf2, 0x93, 0x1d, 0xbd, 0xd6, 0x56, 0xb2, 0x3d,
  0x67, 0x25, 0x19, 0xbd, 0x93, 0xd7, 0x8c, 0x3b, 0x3d, 0x20, 0x07, 0xbd,
  0xe2, 0x80, 0xb1, 0x3d, 0x31, 0x37, 0x05, 0xbc, 0xad, 0xbf, 0x21, 0xbc,
  0x39, 0x4b, 0x35, 0x3d, 0x74, 0x67, 0xab, 0x3e, 0x44, 0x25, 0x94, 0x3d,
  0x79, 0x61, 0x76, 0x3e, 0x20, 0xda, 0x5b, 0xbd, 0x0f, 0x9a, 0xd5, 0x3d,
  0x4c, 0xee, 0x89, 0xbc, 0x95, 0xef, 0x0a, 0xbd, 0xe2, 0x55, 0x95, 0xbc,
  0x11, 0xf2, 0x21, 0x3d, 0x56, 0xb6, 0xa2, 0xbd, 0x61, 0xe4, 0x2b, 0xbe,
  0xa2, 0x3b, 0x98, 0x3c, 0x32, 0xa3, 0xb9, 0x3e, 0x42, 0x91, 0x5c, 0x3e,
  0x9a, 0x16, 0xcf, 0x3e, 0x52, 0x33, 0x08, 0xbf, 0x0e, 0xe8, 0x83, 0xbf,
  0x46, 0xdf, 0xad, 0x3e, 0x6d, 0x82, 0x15, 0xbe, 0x06, 0xf4, 0x20, 0xbf,
  0x7e, 0xaa, 0x1f, 0xbf, 0x8b, 0x8b, 0xd7, 0x3e, 0xf9, 0x12, 0xaf, 0xbd,
  0x38, 0x4c, 0x41, 0x3e, 0xbc, 0x9e, 0xd0, 0x3e, 0x7f, 0x7d, 0x49, 0x3f,
  0x55, 0xfa, 0x95, 0xbe, 0x09, 0x2b, 0x77, 0x3d, 0x5f, 0x22, 0x32, 0x3d,
  0xd9, 0xcf, 0xb9, 0xbd, 0x1d, 0xd0, 0x23, 0x3e, 0xb0, 0x63, 0x88, 0x3d,
  0x8e, 0x75, 0x55, 0xbd, 0xdc, 0x24, 0x20, 0xbe, 0x6d, 0x2e, 0x3b, 0x3e,
  0x85, 0x38, 0xe9, 0xbe, 0x30, 0x69, 0x0b, 0xbf, 0x4d, 0x5f, 0x2d, 0xbe,
  0x89, 0xbf, 0x48, 0xbe, 0x08, 0x54, 0xc9, 0x3e, 0x6f, 0x5a, 0xaf, 0x3e,
  0x5e, 0x94, 0x10, 0x3e, 0xd4, 0x42, 0x16, 0x3e, 0xba, 0x42, 0xba, 0x3e,
  0xdb, 0xc3, 0xc1, 0x3e, 0xee, 0x19, 0x54, 0x3e, 0x38, 0xce, 0xbb, 0x3e,
  0xa3, 0x49, 0x85, 0xbe, 0x88, 0xca, 0x47, 0xbd, 0xf3, 0x02, 0x0e, 0xbe,
  0xb2, 0x8d, 0x3c, 0xbe, 0xdf, 0x58, 0xd7, 0x3e, 0x88, 0x3b, 0x00, 0x3f,
  0x6d, 0xeb, 0x1f, 0x3e, 0x93, 0x7d, 0x59, 0x3e, 0x3d, 0x5c, 0xd9, 0x3e,
  0xf0, 0xcf, 0xf0, 0x3e, 0x57, 0x3a, 0x62, 0x3e, 0x89, 0x5e, 0x57, 0x3d,
  0x1c, 0x4c, 0x72, 0xbd, 0x90, 0x76, 0xf3, 0x3d, 0xfc, 0xe4, 0x3d, 0xbd,
  0x0f, 0xfe, 0x56, 0x3d, 0xcc, 0xd8, 0x99, 0x3e, 0x02, 0x24, 0x56, 0x3e,
  0x8f, 0xa5, 0x27, 0x3e, 0xdd, 0x5e, 0x64, 0x3e, 0x9b, 0xd8, 0x83, 0x3e,
  0x4d, 0x63, 0x78, 0x3e, 0xda, 0x9a, 0x22, 0x3e, 0x3e, 0x93, 0x5e, 0x3c,
  0x92, 0xe0, 0x8d, 0x3e, 0xe0, 0xfd, 0xc2, 0x3e, 0x52, 0xbf, 0x12, 0x3e,
  0xbb, 0x6f, 0x9c, 0x3e, 0x8e, 0x0e, 0xcc, 0x3c, 0x1f, 0x78, 0x92, 0x3d,
  0x10, 0x9e, 0x9a, 0x3d, 0x73, 0xcc, 0xb2, 0xbd, 0x66, 0xcf, 0x26, 0x3d,
  0x64, 0x77, 0xf3, 0xbd, 0x2a, 0xf2, 0xb9, 0xbd, 0x39, 0x2a, 0x2a, 0xbe,
  0x2a, 0x4a, 0x28, 0x3e, 0x14, 0x5f, 0xe0, 0x3e, 0x63, 0xe8, 0xf9, 0x3d,
  0x38, 0x25, 0xe4, 0x3d, 0xd8, 0xac, 0xa7, 0xbe, 0x34, 0xde, 0x82, 0xbe,
  0xd2, 0x49, 0xa9, 0xbe, 0xe7, 0x50, 0x4b, 0xbe, 0xaf, 0x1a, 0x65, 0xbe,
  0x80, 0xf2, 0xcc, 0xbe, 0x31, 0x27, 0x58, 0xbe, 0x8b, 0xd8, 0xc3, 0xbe,
  0xd3, 0x1a, 0x3f, 0xbd, 0xab, 0xb6, 0x6f, 0x3e, 0xe0, 0x19, 0xbd, 0xbd,
  0x24, 0xb7, 0x8a, 0xbd, 0x47, 0x02, 0x43, 0xbf, 0x8a, 0x46, 0x0c, 0xbf,
  0xef, 0xdc, 0x14, 0xbf, 0x7a, 0xe0, 0x5d, 0xbf, 0x52, 0xe2, 0x4f, 0xbf,
  0xa5, 0x72, 0x17, 0xbf, 0x3e, 0x71, 0x13, 0xbf, 0xd9, 0x99, 0x5f, 0xbf,
  0x31, 0xec, 0x18, 0xbf, 0xda, 0x03, 0x03, 0xbe, 0x0c, 0xce, 0xbf, 0xbe,
  0xa3, 0x4f, 0x35, 0xbf, 0x96, 0xfd, 0xff, 0xff, 0x10, 0x00, 0x00, 0x00,
  0x07, 0x00, 0x00, 0x00, 0x14, 0x00, 0x00, 0x00, 0x34, 0x00, 0x00, 0x00,
  0x02, 0x00, 0x00, 0x00, 0x10, 0x00, 0x00, 0x00, 0x60, 0x00, 0x00, 0x00,
  0x1c, 0x00, 0x00, 0x00, 0x73, 0x65, 0x71, 0x75, 0x65, 0x6e, 0x74, 0x69,
  0x61, 0x6c, 0x5f, 0x39, 0x2f, 0x64, 0x65, 0x6e, 0x73, 0x65, 0x5f, 0x31,
  0x38, 0x2f, 0x4d, 0x61, 0x74, 0x4d, 0x75, 0x6c, 0x00, 0x00, 0x00, 0x00,
  0x08, 0xfd, 0xff, 0xff, 0xfa, 0xfd, 0xff, 0xff, 0x04, 0x00, 0x00, 0x00,
  0x08, 0x00, 0x00, 0x00, 0xff, 0xff, 0xff, 0xff, 0x60, 0x00, 0x00, 0x00,
  0x00, 0x00, 0x0e, 0x00, 0x18, 0x00, 0x08, 0x00, 0x07, 0x00, 0x0c, 0x00,
  0x10, 0x00, 0x14, 0x00, 0x0e, 0x00, 0x00, 0x00, 0x00, 0x00, 0x00, 0x02,
  0x10, 0x00, 0x00, 0x00, 0x06, 0x00, 0x00, 0x00, 0x10, 0x00, 0x00, 0x00,
  0x30, 0x00, 0x00, 0x00, 0x01, 0x00, 0x00, 0x00, 0x02, 0x00, 0x00, 0x00,
  0x1c, 0x00, 0x00, 0x00, 0x73, 0x65, 0x71, 0x75, 0x65, 0x6e, 0x74, 0x69,
  0x61, 0x6c, 0x5f, 0x39, 0x2f, 0x66, 0x6c, 0x61, 0x74, 0x74, 0x65, 0x6e,
  0x5f, 0x39, 0x2f, 0x43, 0x6f, 0x6e, 0x73, 0x74, 0x00, 0x00, 0x00, 0x00,
  0x74, 0xfd, 0xff, 0xff, 0x66, 0xfe, 0xff, 0xff, 0x04, 0x00, 0x00, 0x00,
  0x0c, 0x00, 0x00, 0x00, 0x11, 0xca, 0xd7, 0x3d, 0xcf, 0x52, 0x8f, 0x3c,
  0x8a, 0x60, 0xb4, 0xbe, 0x62, 0xfe, 0xff, 0xff, 0x10, 0x00, 0x00, 0x00,
  0x05, 0x00, 0x00, 0x00, 0x10, 0x00, 0x00, 0x00, 0x48, 0x00, 0x00, 0x00,
  0x01, 0x00, 0x00, 0x00, 0x03, 0x00, 0x00, 0x00, 0x35, 0x00, 0x00, 0x00,
  0x73, 0x65, 0x71, 0x75, 0x65, 0x6e, 0x74, 0x69, 0x61, 0x6c, 0x5f, 0x39,
  0x2f, 0x64, 0x65, 0x6e, 0x73, 0x65, 0x5f, 0x31, 0x39, 0x2f, 0x42, 0x69,
  0x61, 0x73, 0x41, 0x64, 0x64, 0x2f, 0x52, 0x65, 0x61, 0x64, 0x56, 0x61,
  0x72, 0x69, 0x61, 0x62, 0x6c, 0x65, 0x4f, 0x70, 0x2f, 0x72, 0x65, 0x73,
  0x6f, 0x75, 0x72, 0x63, 0x65, 0x00, 0x00, 0x00, 0xe8, 0xfd, 0xff, 0xff,
  0xda, 0xfe, 0xff, 0xff, 0x04, 0x00, 0x00, 0x00, 0x40, 0x00, 0x00, 0x00,
  0x73, 0xbf, 0x55, 0x3c, 0x9c, 0xcb, 0x52, 0x3e, 0xfd, 0xe4, 0xec, 0xbe,
  0x2a, 0x80, 0x3e, 0x3f, 0x75, 0xe3, 0x76, 0x3f, 0xef, 0x93, 0xc7, 0x3e,
  0xf2, 0x3a, 0x86, 0xbe, 0x7a, 0xf4, 0x88, 0x3e, 0x93, 0xc7, 0x1b, 0x3f,
  0xdf, 0x1e, 0x02, 0x3f, 0xc9, 0xbc, 0x3c, 0x3e, 0x54, 0xec, 0x95, 0x3e,
  0xcb, 0x90, 0xb3, 0x3e, 0x64, 0x3a, 0x84, 0x3e, 0x98, 0x5f, 0xe2, 0xbe,
  0x17, 0x8c, 0xb5, 0x3e, 0x0a, 0xff, 0xff, 0xff, 0x10, 0x00, 0x00, 0x00,
  0x04, 0x00, 0x00, 0x00, 0x10, 0x00, 0x00, 0x00, 0x48, 0x00, 0x00, 0x00,
  0x01, 0x00, 0x00, 0x00, 0x10, 0x00, 0x00, 0x00, 0x35, 0x00, 0x00, 0x00,
  0x73, 0x65, 0x71, 0x75, 0x65, 0x6e, 0x74, 0x69, 0x61, 0x6c, 0x5f, 0x39,
  0x2f, 0x64, 0x65, 0x6e, 0x73, 0x65, 0x5f, 0x31, 0x38, 0x2f, 0x42, 0x69,
  0x61, 0x73, 0x41, 0x64, 0x64, 0x2f, 0x52, 0x65, 0x61, 0x64, 0x56, 0x61,
  0x72, 0x69, 0x61, 0x62, 0x6c, 0x65, 0x4f, 0x70, 0x2f, 0x72, 0x65, 0x73,
  0x6f, 0x75, 0x72, 0x63, 0x65, 0x00, 0x00, 0x00, 0x90, 0xfe, 0xff, 0xff,
  0x82, 0xff, 0xff, 0xff, 0x04, 0x00, 0x00, 0x00, 0x10, 0x00, 0x00, 0x00,
  0x9f, 0xfb, 0x10, 0xbe, 0x4c, 0xe1, 0x78, 0xbe, 0x63, 0x6b, 0xbf, 0xbc,
  0xbb, 0xe0, 0xc1, 0xbb, 0x82, 0xff, 0xff, 0xff, 0x10, 0x00, 0x00, 0x00,
  0x03, 0x00, 0x00, 0x00, 0x10, 0x00, 0x00, 0x00, 0x4c, 0x00, 0x00, 0x00,
  0x01, 0x00, 0x00, 0x00, 0x04, 0x00, 0x00, 0x00, 0x36, 0x00, 0x00, 0x00,
  0x73, 0x65, 0x71, 0x75, 0x65, 0x6e, 0x74, 0x69, 0x61, 0x6c, 0x5f, 0x39,
  0x2f, 0x63, 0x6f, 0x6e, 0x76, 0x32, 0x64, 0x5f, 0x31, 0x39, 0x2f, 0x42,
  0x69, 0x61, 0x73, 0x41, 0x64, 0x64, 0x2f, 0x52, 0x65, 0x61, 0x64, 0x56,
  0x61, 0x72, 0x69, 0x61, 0x62, 0x6c, 0x65, 0x4f, 0x70, 0x2f, 0x72, 0x65,
  0x73, 0x6f, 0x75, 0x72, 0x63, 0x65, 0x00, 0x00, 0x04, 0x00, 0x06, 0x00,
  0x04, 0x00, 0x00, 0x00, 0x00, 0x00, 0x06, 0x00, 0x08, 0x00, 0x04, 0x00,
  0x06, 0x00, 0x00, 0x00, 0x04, 0x00, 0x00, 0x00, 0x08, 0x00, 0x00, 0x00,
  0x75, 0xb6, 0x95, 0xbd, 0xe0, 0x50, 0xb7, 0xbc, 0x00, 0x00, 0x0e, 0x00,
  0x14, 0x00, 0x04, 0x00, 0x00, 0x00, 0x08, 0x00, 0x0c, 0x00, 0x10, 0x00,
  0x0e, 0x00, 0x00, 0x00, 0x10, 0x00, 0x00, 0x00, 0x02, 0x00, 0x00, 0x00,
  0x10, 0x00, 0x00, 0x00, 0x48, 0x00, 0x00, 0x00, 0x01, 0x00, 0x00, 0x00,
  0x02, 0x00, 0x00, 0x00, 0x36, 0x00, 0x00, 0x00, 0x73, 0x65, 0x71, 0x75,
  0x65, 0x6e, 0x74, 0x69, 0x61, 0x6c, 0x5f, 0x39, 0x2f, 0x63, 0x6f, 0x6e,
  0x76, 0x32, 0x64, 0x5f, 0x31, 0x38, 0x2f, 0x42, 0x69, 0x61, 0x73, 0x41,
  0x64, 0x64, 0x2f, 0x52, 0x65, 0x61, 0x64, 0x56, 0x61, 0x72, 0x69, 0x61,
  0x62, 0x6c, 0x65, 0x4f, 0x70, 0x2f, 0x72, 0x65, 0x73, 0x6f, 0x75, 0x72,
  0x63, 0x65, 0x00, 0x00, 0x94, 0xff, 0xff, 0xff, 0x14, 0x00, 0x18, 0x00,
  0x04, 0x00, 0x00, 0x00, 0x08, 0x00, 0x0c, 0x00, 0x10, 0x00, 0x00, 0x00,
  0x00, 0x00, 0x14, 0x00, 0x14, 0x00, 0x00, 0x00, 0x14, 0x00, 0x00, 0x00,
  0x01, 0x00, 0x00, 0x00, 0x20, 0x00, 0x00, 0x00, 0x40, 0x00, 0x00, 0x00,
  0x28, 0x00, 0x00, 0x00, 0x04, 0x00, 0x00, 0x00, 0x01, 0x00, 0x00, 0x00,
  0x50, 0x00, 0x00, 0x00, 0x03, 0x00, 0x00, 0x00, 0x01, 0x00, 0x00, 0x00,
  0x08, 0x00, 0x00, 0x00, 0x69, 0x6e, 0x70, 0x75, 0x74, 0x5f, 0x31, 0x30,
  0x00, 0x00, 0x00, 0x00, 0x04, 0x00, 0x00, 0x00, 0xff, 0xff, 0xff, 0xff,
  0x50, 0x00, 0x00, 0x00, 0x03, 0x00, 0x00, 0x00, 0x01, 0x00, 0x00, 0x00,
  0xfc, 0xff, 0xff, 0xff, 0x04, 0x00, 0x04, 0x00, 0x04, 0x00, 0x00, 0x00
};
