const unsigned char model[] __attribute__((aligned(4))) = {
  0x1c, 0x00, 0x00, 0x00, 0x54, 0x46, 0x4c, 0x33, 0x00, 0x00, 0x12, 0x00,
  0x1c, 0x00, 0x04, 0x00, 0x08, 0x00, 0x0c, 0x00, 0x10, 0x00, 0x14, 0x00,
  0x00, 0x00, 0x18, 0x00, 0x12, 0x00, 0x00, 0x00, 0x03, 0x00, 0x00, 0x00,
  0x14, 0x00, 0x00, 0x00, 0x28, 0x00, 0x00, 0x00, 0xd0, 0x00, 0x00, 0x00,
  0x28, 0x00, 0x00, 0x00, 0x78, 0x00, 0x00, 0x00, 0x05, 0x00, 0x00, 0x00,
  0x04, 0x07, 0x00, 0x00, 0x20, 0x06, 0x00, 0x00, 0x7c, 0x03, 0x00, 0x00,
  0xc8, 0x02, 0x00, 0x00, 0xa8, 0x01, 0x00, 0x00, 0x01, 0x00, 0x00, 0x00,
  0xcc, 0x00, 0x00, 0x00, 0x14, 0x00, 0x00, 0x00, 0xfc, 0x25, 0x00, 0x00,
  0xf8, 0x25, 0x00, 0x00, 0x00, 0x25, 0x00, 0x00, 0x78, 0x24, 0x00, 0x00,
  0xcc, 0x23, 0x00, 0x00, 0x54, 0x23, 0x00, 0x00, 0xe4, 0x22, 0x00, 0x00,
  0x8c, 0x0a, 0x00, 0x00, 0x74, 0x09, 0x00, 0x00, 0xe4, 0x08, 0x00, 0x00,
  0xc4, 0x07, 0x00, 0x00, 0xd0, 0x25, 0x00, 0x00, 0xcc, 0x25, 0x00, 0x00,
  0xc8, 0x25, 0x00, 0x00, 0xc4, 0x25, 0x00, 0x00, 0xc0, 0x25, 0x00, 0x00,
  0xbc, 0x25, 0x00, 0x00, 0xb8, 0x25, 0x00, 0x00, 0xb4, 0x25, 0x00, 0x00,
  0x38, 0x00, 0x00, 0x00, 0x01, 0x00, 0x00, 0x00, 0x0c, 0x00, 0x00, 0x00,
  0x08, 0x00, 0x0c, 0x00, 0x04, 0x00, 0x08, 0x00, 0x08, 0x00, 0x00, 0x00,
  0x08, 0x00, 0x00, 0x00, 0x13, 0x00, 0x00, 0x00, 0x13, 0x00, 0x00, 0x00,
  0x6d, 0x69, 0x6e, 0x5f, 0x72, 0x75, 0x6e, 0x74, 0x69, 0x6d, 0x65, 0x5f,
  0x76, 0x65, 0x72, 0x73, 0x69, 0x6f, 0x6e, 0x00, 0x82, 0xdb, 0xff, 0xff,
  0x04, 0x00, 0x00, 0x00, 0x10, 0x00, 0x00, 0x00, 0x31, 0x2e, 0x35, 0x2e,
  0x30, 0x00, 0x00, 0x00, 0x00, 0x00, 0x00, 0x00, 0x00, 0x00, 0x00, 0x00,
  0x0f, 0x00, 0x00, 0x00, 0x4d, 0x4c, 0x49, 0x52, 0x20, 0x43, 0x6f, 0x6e,
  0x76, 0x65, 0x72, 0x74, 0x65, 0x64, 0x2e, 0x00, 0x00, 0x00, 0x0e, 0x00,
  0x18, 0x00, 0x04, 0x00, 0x08, 0x00, 0x0c, 0x00, 0x10, 0x00, 0x14, 0x00,
  0x0e, 0x00, 0x00, 0x00, 0x14, 0x00, 0x00, 0x00, 0x5c, 0x00, 0x00, 0x00,
  0x60, 0x00, 0x00, 0x00, 0x64, 0x00, 0x00, 0x00, 0x84, 0x00, 0x00, 0x00,
  0x12, 0x00, 0x00, 0x00, 0xc4, 0x24, 0x00, 0x00, 0x50, 0x24, 0x00, 0x00,
  0xb8, 0x23, 0x00, 0x00, 0x3c, 0x23, 0x00, 0x00, 0x90, 0x22, 0x00, 0x00,
  0x2c, 0x22, 0x00, 0x00, 0xbc, 0x21, 0x00, 0x00, 0x64, 0x09, 0x00, 0x00,
  0x44, 0x08, 0x00, 0x00, 0xb4, 0x07, 0x00, 0x00, 0xe8, 0x05, 0x00, 0x00,
  0x04, 0x05, 0x00, 0x00, 0xb8, 0x03, 0x00, 0x00, 0x08, 0x03, 0x00, 0x00,
  0x58, 0x02, 0x00, 0x00, 0xa4, 0x01, 0x00, 0x00, 0xfc, 0x00, 0x00, 0x00,
  0x80, 0x00, 0x00, 0x00, 0x01, 0x00, 0x00, 0x00, 0x00, 0x00, 0x00, 0x00,
  0x01, 0x00, 0x00, 0x00, 0x11, 0x00, 0x00, 0x00, 0x08, 0x00, 0x00, 0x00,
  0x54, 0x05, 0x00, 0x00, 0x74, 0x04, 0x00, 0x00, 0x48, 0x03, 0x00, 0x00,
  0x94, 0x02, 0x00, 0x00, 0xf4, 0x01, 0x00, 0x00, 0x24, 0x01, 0x00, 0x00,
  0x94, 0x00, 0x00, 0x00, 0x10, 0x00, 0x00, 0x00, 0x04, 0x00, 0x00, 0x00,
  0x6d, 0x61, 0x69, 0x6e, 0x00, 0x00, 0x00, 0x00, 0x9a, 0xfd, 0xff, 0xff,
  0x00, 0x00, 0x00, 0x09, 0x04, 0x00, 0x00, 0x00, 0x1c, 0x00, 0x00, 0x00,
  0x10, 0x00, 0x00, 0x00, 0x04, 0x00, 0x00, 0x00, 0x7e, 0xdc, 0xff, 0xff,
  0x00, 0x00, 0x80, 0x3f, 0x01, 0x00, 0x00, 0x00, 0x11, 0x00, 0x00, 0x00,
  0x01, 0x00, 0x00, 0x00, 0x10, 0x00, 0x00, 0x00, 0xbe, 0xfa, 0xff, 0xff,
  0x00, 0x00, 0x00, 0x19, 0x01, 0x00, 0x00, 0x00, 0x14, 0xdc, 0xff, 0xff,
  0x14, 0x00, 0x00, 0x00, 0x12, 0x00, 0x00, 0x00, 0x18, 0x00, 0x00, 0x00,
  0x30, 0x00, 0x00, 0x00, 0x20, 0x00, 0x00, 0x00, 0x02, 0x00, 0x00, 0x00,
  0x01, 0x00, 0x00, 0x00, 0x03, 0x00, 0x00, 0x00, 0x08, 0x00, 0x00, 0x00,
  0x49, 0x64, 0x65, 0x6e, 0x74, 0x69, 0x74, 0x79, 0x00, 0x00, 0x00, 0x00,
  0x02, 0x00, 0x00, 0x00, 0xff, 0xff, 0xff, 0xff, 0x03, 0x00, 0x00, 0x00,
  0xec, 0xdb, 0xff, 0xff, 0x1a, 0xfe, 0xff, 0xff, 0x00, 0x00, 0x00, 0x08,
  0x03, 0x00, 0x00, 0x00, 0x18, 0x00, 0x00, 0x00, 0x0c, 0x00, 0x00, 0x00,
  0x04, 0x00, 0x00, 0x00, 0x08, 0xdc, 0xff, 0xff, 0x01, 0x00, 0x00, 0x00,
  0x10, 0x00, 0x00, 0x00, 0x03, 0x00, 0x00, 0x00, 0x0f, 0x00, 0x00, 0x00,
  0x07, 0x00, 0x00, 0x00, 0x04, 0x00, 0x00, 0x00, 0x8c, 0xdc, 0xff, 0xff,
  0x14, 0x00, 0x00, 0x00, 0x11, 0x00, 0x00, 0x00, 0x18, 0x00, 0x00, 0x00,
  0x44, 0x00, 0x00, 0x00, 0x34, 0x00, 0x00, 0x00, 0x02, 0x00, 0x00, 0x00,
  0x01, 0x00, 0x00, 0x00, 0x03, 0x00, 0x00, 0x00, 0x1e, 0x00, 0x00, 0x00,
  0x73, 0x65, 0x71, 0x75, 0x65, 0x6e, 0x74, 0x69, 0x61, 0x6c, 0x5f, 0x31,
  0x31, 0x2f, 0x64, 0x65, 0x6e, 0x73, 0x65, 0x5f, 0x32, 0x33, 0x2f, 0x42,
  0x69, 0x61, 0x73, 0x41, 0x64, 0x64, 0x00, 0x00, 0x02, 0x00, 0x00, 0x00,
  0xff, 0xff, 0xff, 0xff, 0x03, 0x00, 0x00, 0x00, 0x78, 0xdc, 0xff, 0xff,
  0xce, 0xfc, 0xff, 0xff, 0x00, 0x00, 0x00, 0x08, 0x03, 0x00, 0x00, 0x00,
  0x24, 0x00, 0x00, 0x00, 0x18, 0x00, 0x00, 0x00, 0x0c, 0x00, 0x00, 0x00,
  0x00, 0x00, 0x06, 0x00, 0x08, 0x00, 0x07, 0x00, 0x06, 0x00, 0x00, 0x00,
  0x00, 0x00, 0x00, 0x01, 0x01, 0x00, 0x00, 0x00, 0x0f, 0x00, 0x00, 0x00,
  0x03, 0x00, 0x00, 0x00, 0x0e, 0x00, 0x00, 0x00, 0x06, 0x00, 0x00, 0x00,
  0x03, 0x00, 0x00, 0x00, 0xda, 0xfb, 0xff, 0xff, 0x00, 0x00, 0x00, 0x09,
  0x01, 0x00, 0x00, 0x00, 0x30, 0xdd, 0xff, 0xff, 0x14, 0x00, 0x00, 0x00,
  0x10, 0x00, 0x00, 0x00, 0x18, 0x00, 0x00, 0x00, 0x60, 0x00, 0x00, 0x00,
  0x50, 0x00, 0x00, 0x00, 0x02, 0x00, 0x00, 0x00, 0x01, 0x00, 0x00, 0x00,
  0x10, 0x00, 0x00, 0x00, 0x3a, 0x00, 0x00, 0x00, 0x73, 0x65, 0x71, 0x75,
  0x65, 0x6e, 0x74, 0x69, 0x61, 0x6c, 0x5f, 0x31, 0x31, 0x2f, 0x64, 0x65,
  0x6e, 0x73, 0x65, 0x5f, 0x32, 0x32, 0x2f, 0x52, 0x65, 0x6c, 0x75, 0x3b,
  0x73, 0x65, 0x71, 0x75, 0x65, 0x6e, 0x74, 0x69, 0x61, 0x6c, 0x5f, 0x31,
  0x31, 0x2f, 0x64, 0x65, 0x6e, 0x73, 0x65, 0x5f, 0x32, 0x32, 0x2f, 0x42,
  0x69, 0x61, 0x73, 0x41, 0x64, 0x64, 0x00, 0x00, 0x02, 0x00, 0x00, 0x00,
  0xff, 0xff, 0xff, 0xff, 0x10, 0x00, 0x00, 0x00, 0x38, 0xde, 0xff, 0xff,
  0x00, 0x00, 0x0a, 0x00, 0x10, 0x00, 0x04, 0x00, 0x08, 0x00, 0x0c, 0x00,
  0x0a, 0x00, 0x00, 0x00, 0x02, 0x00, 0x00, 0x00, 0x10, 0x00, 0x00, 0x00,
  0x04, 0x00, 0x00, 0x00, 0x01, 0x00, 0x00, 0x00, 0x0e, 0x00, 0x00, 0x00,
  0x02, 0x00, 0x00, 0x00, 0x0d, 0x00, 0x00, 0x00, 0x05, 0x00, 0x00, 0x00,
  0x8a, 0xfc, 0xff, 0xff, 0x00, 0x00, 0x00, 0x16, 0x01, 0x00, 0x00, 0x00,
  0xe0, 0xdd, 0xff, 0xff, 0x14, 0x00, 0x00, 0x00, 0x0f, 0x00, 0x00, 0x00,
  0x18, 0x00, 0x00, 0x00, 0x48, 0x00, 0x00, 0x00, 0x38, 0x00, 0x00, 0x00,
  0x02, 0x00, 0x00, 0x00, 0x01, 0x00, 0x00, 0x00, 0x60, 0x00, 0x00, 0x00,
  0x20, 0x00, 0x00, 0x00, 0x73, 0x65, 0x71, 0x75, 0x65, 0x6e, 0x74, 0x69,
  0x61, 0x6c, 0x5f, 0x31, 0x31, 0x2f, 0x66, 0x6c, 0x61, 0x74, 0x74, 0x65,
  0x6e, 0x5f, 0x31, 0x31, 0x2f, 0x52, 0x65, 0x73, 0x68, 0x61, 0x70, 0x65,
  0x00, 0x00, 0x00, 0x00, 0x02, 0x00, 0x00, 0x00, 0xff, 0xff, 0xff, 0xff,
  0x60, 0x00, 0x00, 0x00, 0xd0, 0xde, 0xff, 0xff, 0x00, 0x00, 0x0e, 0x00,
  0x18, 0x00, 0x08, 0x00, 0x0c, 0x00, 0x10, 0x00, 0x07, 0x00, 0x14, 0x00,
  0x0e, 0x00, 0x00, 0x00, 0x00, 0x00, 0x00, 0x05, 0x01, 0x00, 0x00, 0x00,
  0x2c, 0x00, 0x00, 0x00, 0x20, 0x00, 0x00, 0x00, 0x04, 0x00, 0x00, 0x00,
  0x26, 0xfe, 0xff, 0xff, 0x03, 0x00, 0x00, 0x00, 0x01, 0x00, 0x00, 0x00,
  0x03, 0x00, 0x00, 0x00, 0x01, 0x00, 0x00, 0x00, 0x00, 0x00, 0x00, 0x01,
  0x01, 0x00, 0x00, 0x00, 0x0d, 0x00, 0x00, 0x00, 0x01, 0x00, 0x00, 0x00,
  0x0c, 0x00, 0x00, 0x00, 0x8c, 0xde, 0xff, 0xff, 0x14, 0x00, 0x00, 0x00,
  0x0e, 0x00, 0x00, 0x00, 0x20, 0x00, 0x00, 0x00, 0x5c, 0x00, 0x00, 0x00,
  0x44, 0x00, 0x00, 0x00, 0x04, 0x00, 0x00, 0x00, 0x01, 0x00, 0x00, 0x00,
  0x08, 0x00, 0x00, 0x00, 0x03, 0x00, 0x00, 0x00, 0x04, 0x00, 0x00, 0x00,
  0x26, 0x00, 0x00, 0x00, 0x73, 0x65, 0x71, 0x75, 0x65, 0x6e, 0x74, 0x69,
  0x61, 0x6c, 0x5f, 0x31, 0x31, 0x2f, 0x6d, 0x61, 0x78, 0x5f, 0x70, 0x6f,
  0x6f, 0x6c, 0x69, 0x6e, 0x67, 0x32, 0x64, 0x5f, 0x32, 0x33, 0x2f, 0x4d,
  0x61, 0x78, 0x50, 0x6f, 0x6f, 0x6c, 0x00, 0x00, 0x04, 0x00, 0x00, 0x00,
  0xff, 0xff, 0xff, 0xff, 0x08, 0x00, 0x00, 0x00, 0x03, 0x00, 0x00, 0x00,
  0x04, 0x00, 0x00, 0x00, 0x90, 0xde, 0xff, 0xff, 0x0a, 0xfe, 0xff, 0xff,
  0x00, 0x00, 0x00, 0x01, 0x24, 0x00, 0x00, 0x00, 0x18, 0x00, 0x00, 0x00,
  0x04, 0x00, 0x00, 0x00, 0xfc, 0xfd, 0xff, 0xff, 0x01, 0x00, 0x00, 0x00,
  0x01, 0x00, 0x00, 0x00, 0x00, 0x00, 0x01, 0x01, 0x01, 0x00, 0x00, 0x00,
  0x0c, 0x00, 0x00, 0x00, 0x03, 0x00, 0x00, 0x00, 0x0b, 0x00, 0x00, 0x00,
  0x09, 0x00, 0x00, 0x00, 0x02, 0x00, 0x00, 0x00, 0x38, 0xdf, 0xff, 0xff,
  0x14, 0x00, 0x00, 0x00, 0x0d, 0x00, 0x00, 0x00, 0x20, 0x00, 0x00, 0x00,
  0xc8, 0x00, 0x00, 0x00, 0xb0, 0x00, 0x00, 0x00, 0x04, 0x00, 0x00, 0x00,
  0x01, 0x00, 0x00, 0x00, 0x18, 0x00, 0x00, 0x00, 0x03, 0x00, 0x00, 0x00,
  0x04, 0x00, 0x00, 0x00, 0x93, 0x00, 0x00, 0x00, 0x73, 0x65, 0x71, 0x75,
  0x65, 0x6e, 0x74, 0x69, 0x61, 0x6c, 0x5f, 0x31, 0x31, 0x2f, 0x63, 0x6f,
  0x6e, 0x76, 0x32, 0x64, 0x5f, 0x32, 0x33, 0x2f, 0x52, 0x65, 0x6c, 0x75,
  0x3b, 0x73, 0x65, 0x71, 0x75, 0x65, 0x6e, 0x74, 0x69, 0x61, 0x6c, 0x5f,
  0x31, 0x31, 0x2f, 0x63, 0x6f, 0x6e, 0x76, 0x32, 0x64, 0x5f, 0x32, 0x33,
  0x2f, 0x42, 0x69, 0x61, 0x73, 0x41, 0x64, 0x64, 0x3b, 0x73, 0x65, 0x71,
  0x75, 0x65, 0x6e, 0x74, 0x69, 0x61, 0x6c, 0x5f, 0x31, 0x31, 0x2f, 0x63,
  0x6f, 0x6e, 0x76, 0x32, 0x64, 0x5f, 0x32, 0x33, 0x2f, 0x43, 0x6f, 0x6e,
  0x76, 0x32, 0x44, 0x3b, 0x73, 0x65, 0x71, 0x75, 0x65, 0x6e, 0x74, 0x69,
  0x61, 0x6c, 0x5f, 0x31, 0x31, 0x2f, 0x63, 0x6f, 0x6e, 0x76, 0x32, 0x64,
  0x5f, 0x32, 0x33, 0x2f, 0x42, 0x69, 0x61, 0x73, 0x41, 0x64, 0x64, 0x2f,
  0x52, 0x65, 0x61, 0x64, 0x56, 0x61, 0x72, 0x69, 0x61, 0x62, 0x6c, 0x65,
  0x4f, 0x70, 0x2f, 0x72, 0x65, 0x73, 0x6f, 0x75, 0x72, 0x63, 0x65, 0x00,
  0x04, 0x00, 0x00, 0x00, 0xff, 0xff, 0xff, 0xff, 0x18, 0x00, 0x00, 0x00,
  0x03, 0x00, 0x00, 0x00, 0x04, 0x00, 0x00, 0x00, 0xa8, 0xe0, 0xff, 0xff,
  0x00, 0x00, 0x0e, 0x00, 0x1a, 0x00, 0x08, 0x00, 0x0c, 0x00, 0x10, 0x00,
  0x07, 0x00, 0x14, 0x00, 0x0e, 0x00, 0x00, 0x00, 0x00, 0x00, 0x00, 0x05,
  0x01, 0x00, 0x00, 0x00, 0x3c, 0x00, 0x00, 0x00, 0x30, 0x00, 0x00, 0x00,
  0x14, 0x00, 0x00, 0x00, 0x00, 0x00, 0x0e, 0x00, 0x18, 0x00, 0x17, 0x00,
  0x10, 0x00, 0x0c, 0x00, 0x08, 0x00, 0x04, 0x00, 0x0e, 0x00, 0x00, 0x00,
  0x03, 0x00, 0x00, 0x00, 0x01, 0x00, 0x00, 0x00, 0x03, 0x00, 0x00, 0x00,
  0x01, 0x00, 0x00, 0x00, 0x00, 0x00, 0x00, 0x01, 0x01, 0x00, 0x00, 0x00,
  0x0b, 0x00, 0x00, 0x00, 0x01, 0x00, 0x00, 0x00, 0x0a, 0x00, 0x00, 0x00,
  0x2a, 0xff, 0xff, 0xff, 0x00, 0x00, 0x00, 0x11, 0x01, 0x00, 0x00, 0x00,
  0x80, 0xe0, 0xff, 0xff, 0x14, 0x00, 0x00, 0x00, 0x0c, 0x00, 0x00, 0x00,
  0x20, 0x00, 0x00, 0x00, 0x5c, 0x00, 0x00, 0x00, 0x44, 0x00, 0x00, 0x00,
  0x04, 0x00, 0x00, 0x00, 0x01, 0x00, 0x00, 0x00, 0x1a, 0x00, 0x00, 0x00,
  0x03, 0x00, 0x00, 0x00, 0x04, 0x00, 0x00, 0x00, 0x26, 0x00, 0x00, 0x00,
  0x73, 0x65, 0x71, 0x75, 0x65, 0x6e, 0x74, 0x69, 0x61, 0x6c, 0x5f, 0x31,
  0x31, 0x2f, 0x6d, 0x61, 0x78, 0x5f, 0x70, 0x6f, 0x6f, 0x6c, 0x69, 0x6e,
  0x67, 0x32, 0x64, 0x5f, 0x32, 0x32, 0x2f, 0x4d, 0x61, 0x78, 0x50, 0x6f,
  0x6f, 0x6c, 0x00, 0x00, 0x04, 0x00, 0x00, 0x00, 0xff, 0xff, 0xff, 0xff,
  0x1a, 0x00, 0x00, 0x00, 0x03, 0x00, 0x00, 0x00, 0x04, 0x00, 0x00, 0x00,
  0x84, 0xe1, 0xff, 0xff, 0x00, 0x00, 0x0e, 0x00, 0x14, 0x00, 0x00, 0x00,
  0x08, 0x00, 0x0c, 0x00, 0x07, 0x00, 0x10, 0x00, 0x0e, 0x00, 0x00, 0x00,
  0x00, 0x00, 0x00, 0x01, 0x30, 0x00, 0x00, 0x00, 0x24, 0x00, 0x00, 0x00,
  0x10, 0x00, 0x00, 0x00, 0x0c, 0x00, 0x10, 0x00, 0x0e, 0x00, 0x04, 0x00,
  0x08, 0x00, 0x0f, 0x00, 0x0c, 0x00, 0x00, 0x00, 0x01, 0x00, 0x00, 0x00,
  0x01, 0x00, 0x00, 0x00, 0x00, 0x00, 0x01, 0x01, 0x01, 0x00, 0x00, 0x00,
  0x0a, 0x00, 0x00, 0x00, 0x03, 0x00, 0x00, 0x00, 0x00, 0x00, 0x00, 0x00,
  0x08, 0x00, 0x00, 0x00, 0x01, 0x00, 0x00, 0x00, 0x00, 0x00, 0x0a, 0x00,
  0x0c, 0x00, 0x07, 0x00, 0x00, 0x00, 0x08, 0x00, 0x0a, 0x00, 0x00, 0x00,
  0x00, 0x00, 0x00, 0x03, 0x01, 0x00, 0x00, 0x00, 0x60, 0xe1, 0xff, 0xff,
  0x14, 0x00, 0x00, 0x00, 0x0b, 0x00, 0x00, 0x00, 0x20, 0x00, 0x00, 0x00,
  0xe8, 0x00, 0x00, 0x00, 0xd0, 0x00, 0x00, 0x00, 0x04, 0x00, 0x00, 0x00,
  0x01, 0x00, 0x00, 0x00, 0x4e, 0x00, 0x00, 0x00, 0x03, 0x00, 0x00, 0x00,
  0x04, 0x00, 0x00, 0x00, 0xb2, 0x00, 0x00, 0x00, 0x73, 0x65, 0x71, 0x75,
  0x65, 0x6e, 0x74, 0x69, 0x61, 0x6c, 0x5f, 0x31, 0x31, 0x2f, 0x63, 0x6f,
  0x6e, 0x76, 0x32, 0x64, 0x5f, 0x32, 0x32, 0x2f, 0x52, 0x65, 0x6c, 0x75,
  0x3b, 0x73, 0x65, 0x71, 0x75, 0x65, 0x6e, 0x74, 0x69, 0x61, 0x6c, 0x5f,
  0x31, 0x31, 0x2f, 0x63, 0x6f, 0x6e, 0x76, 0x32, 0x64, 0x5f, 0x32, 0x32,
  0x2f, 0x42, 0x69, 0x61, 0x73, 0x41, 0x64, 0x64, 0x3b, 0x73, 0x65, 0x71,
  0x75, 0x65, 0x6e, 0x74, 0x69, 0x61, 0x6c, 0x5f, 0x31, 0x31, 0x2f, 0x63,
  0x6f, 0x6e, 0x76, 0x32, 0x64, 0x5f, 0x32, 0x33, 0x2f, 0x43, 0x6f, 0x6e,
  0x76, 0x32, 0x44, 0x3b, 0x73, 0x65, 0x71, 0x75, 0x65, 0x6e, 0x74, 0x69,
  0x61, 0x6c, 0x5f, 0x31, 0x31, 0x2f, 0x63, 0x6f, 0x6e, 0x76, 0x32, 0x64,
  0x5f, 0x32, 0x32, 0x2f, 0x43, 0x6f, 0x6e, 0x76, 0x32, 0x44, 0x3b, 0x73,
  0x65, 0x71, 0x75, 0x65, 0x6e, 0x74, 0x69, 0x61, 0x6c, 0x5f, 0x31, 0x31,
  0x2f, 0x63, 0x6f, 0x6e, 0x76, 0x32, 0x64, 0x5f, 0x32, 0x32, 0x2f, 0x42,
  0x69, 0x61, 0x73, 0x41, 0x64, 0x64, 0x2f, 0x52, 0x65, 0x61, 0x64, 0x56,
  0x61, 0x72, 0x69, 0x61, 0x62, 0x6c, 0x65, 0x4f, 0x70, 0x2f, 0x72, 0x65,
  0x73, 0x6f, 0x75, 0x72, 0x63, 0x65, 0x00, 0x00, 0x04, 0x00, 0x00, 0x00,
  0xff, 0xff, 0xff, 0xff, 0x4e, 0x00, 0x00, 0x00, 0x03, 0x00, 0x00, 0x00,
  0x04, 0x00, 0x00, 0x00, 0xf0, 0xe1, 0xff, 0xff, 0xea, 0xe2, 0xff, 0xff,
  0x04, 0x00, 0x00, 0x00, 0xc0, 0x00, 0x00, 0x00, 0x37, 0xf1, 0xcf, 0x3e,
  0x68, 0x6a, 0x57, 0xbf, 0xe6, 0x0b, 0xff, 0x3d, 0xfd, 0xf9, 0x88, 0x3f,
  0xea, 0x08, 0xd0, 0xbd, 0xcb, 0x3e, 0x74, 0xbe, 0xc7, 0x62, 0x11, 0x3e,
  0xf6, 0x66, 0x24, 0xbd, 0x48, 0x2e, 0xac, 0xbd, 0xd1, 0x92, 0x8e, 0xbe,
  0xe7, 0x65, 0x57, 0x3d, 0x2e, 0x0f, 0x10, 0xba, 0x20, 0x34, 0x52, 0xbe,
  0x13, 0xd2, 0x2d, 0xbe, 0xd9, 0x77, 0x2a, 0x3e, 0x5f, 0xc2, 0x16, 0x3c,
  0xba, 0x51, 0x81, 0xbe, 0xb5, 0x18, 0x37, 0xbd, 0x78, 0xb9, 0x63, 0x3f,
  0x02, 0x56, 0x1a, 0x3e, 0xee, 0x62, 0x9e, 0xbe, 0xdd, 0x86, 0xcb, 0x3d,
  0x19, 0xd6, 0x5f, 0x3e, 0xf8, 0x5c, 0x93, 0x3e, 0xa9, 0xda, 0x82, 0x3d,
  0xa5, 0xff, 0x9d, 0x3f, 0x85, 0x37, 0xcb, 0x3b, 0x26, 0x41, 0x26, 0xbd,
  0x9b, 0x1d, 0x3e, 0xbd, 0x49, 0x8c, 0xfa, 0x3e, 0xa0, 0x4e, 0x89, 0xbd,
  0xb4, 0x72, 0x6f, 0xbd, 0xe8, 0x00, 0xf6, 0xba, 0xcf, 0x6c, 0x19, 0x3e,
  0x29, 0x6a, 0xb6, 0xbd, 0x4f, 0x2b, 0x94, 0xbd, 0xed, 0x47, 0x12, 0x3e,
  0xf2, 0x66, 0x9c, 0x3c, 0x2e, 0xc2, 0x19, 0x3d, 0x79, 0xbb, 0x82, 0x3d,
  0x5b, 0x33, 0x9e, 0x3e, 0x50, 0xc3, 0xaa, 0x3c, 0x35, 0x13, 0x25, 0x3d,
  0xd6, 0x9e, 0xcc, 0xbc, 0x11, 0x27, 0x69, 0x3f, 0xf2, 0xe3, 0x00, 0x3e,
  0x1b, 0x44, 0x79, 0x3e, 0x75, 0x02, 0xfe, 0xbd, 0x92, 0xe3, 0xff, 0xff,
  0x10, 0x00, 0x00, 0x00, 0x0a, 0x00, 0x00, 0x00, 0x1c, 0x00, 0x00, 0x00,
  0x3c, 0x00, 0x00, 0x00, 0x04, 0x00, 0x00, 0x00, 0x04, 0x00, 0x00, 0x00,
  0x03, 0x00, 0x00, 0x00, 0x01, 0x00, 0x00, 0x00, 0x04, 0x00, 0x00, 0x00,
  0x1e, 0x00, 0x00, 0x00, 0x73, 0x65, 0x71, 0x75, 0x65, 0x6e, 0x74, 0x69,
  0x61, 0x6c, 0x5f, 0x31, 0x31, 0x2f, 0x63, 0x6f, 0x6e, 0x76, 0x32, 0x64,
  0x5f, 0x32, 0x33, 0x2f, 0x43, 0x6f, 0x6e, 0x76, 0x32, 0x44, 0x00, 0x00,
  0x0c, 0xe3, 0xff, 0xff, 0x06, 0xe4, 0xff, 0xff, 0x04, 0x00, 0x00, 0x00,
  0x30, 0x00, 0x00, 0x00, 0x8d, 0x11, 0x12, 0x3f, 0xd9, 0x0b, 0x0e, 0xbf,
  0xa3, 0x31, 0x42, 0x3f, 0xe4, 0x17, 0x5f, 0x3f, 0x9a, 0x23, 0x90, 0x3f,
  0xa4, 0xea, 0x45, 0x3f, 0x14, 0x28, 0x40, 0x3f, 0xbc, 0xb4, 0x16, 0xbe,
  0x33, 0x70, 0x3b, 0xbf, 0x87, 0xb5, 0x22, 0x3f, 0x3f, 0x2c, 0x50, 0x3f,
  0xc4, 0x71, 0x3b, 0xbf, 0x1e, 0xe4, 0xff, 0xff, 0x10, 0x00, 0x00, 0x00,
  0x09, 0x00, 0x00, 0x00, 0x1c, 0x00, 0x00, 0x00, 0x3c, 0x00, 0x00, 0x00,
  0x04, 0x00, 0x00, 0x00, 0x04, 0x00, 0x00, 0x00, 0x03, 0x00, 0x00, 0x00,
  0x01, 0x00, 0x00, 0x00, 0x01, 0x00, 0x00, 0x00, 0x1e, 0x00, 0x00, 0x00,
  0x73, 0x65, 0x71, 0x75, 0x65, 0x6e, 0x74, 0x69, 0x61, 0x6c, 0x5f, 0x31,
  0x31, 0x2f, 0x63, 0x6f, 0x6e, 0x76, 0x32, 0x64, 0x5f, 0x32, 0x32, 0x2f,
  0x43, 0x6f, 0x6e, 0x76, 0x32, 0x44, 0x00, 0x00, 0x98, 0xe3, 0xff, 0xff,
  0x92, 0xe4, 0xff, 0xff, 0x04, 0x00, 0x00, 0x00, 0xc0, 0x00, 0x00, 0x00,
  0x80, 0x2b, 0xcf, 0xbe, 0x03, 0xcd, 0x53, 0x3f, 0xdb, 0xd6, 0x5c, 0xbf,
  0x2e, 0x3e, 0xb9, 0x3e, 0x95, 0xb1, 0xbb, 0xbe, 0xfc, 0xa7, 0xa4, 0xbe,
  0x1b, 0xde, 0x97, 0x3e, 0xad, 0x6d, 0x18, 0x3d, 0xd6, 0x73, 0xd7, 0xbe,
  0xc2, 0xca, 0x31, 0xbf, 0x27, 0xf5, 0xc3, 0x3e, 0x50, 0xb2, 0x21, 0x3f,
  0xa1, 0xa2, 0x01, 0x3f, 0x4f, 0x1e, 0xa4, 0x3e, 0x29, 0x17, 0x6d, 0x3e,
  0xd6, 0xeb, 0x07, 0xbf, 0x6d, 0x03, 0xd8, 0xbe, 0x3d, 0x16, 0xa4, 0xbd,
  0x7d, 0x74, 0x42, 0xbf, 0xd1, 0x2a, 0xcb, 0xbe, 0x50, 0x56, 0x7b, 0x3e,
  0x26, 0x31, 0x3d, 0x3e, 0x94, 0xf1, 0x08, 0x3f, 0x61, 0x8c, 0xcd, 0xbd,
  0x68, 0x1e, 0x68, 0xbe, 0x08, 0x06, 0x0e, 0x3d, 0xab, 0xa4, 0x7b, 0x3f,
  0xff, 0x25, 0x0a, 0xbe, 0x90, 0xa5, 0x4c, 0xbf, 0xa8, 0x5a, 0xfd, 0xbe,
  0x03, 0x69, 0x08, 0xbd, 0xf0, 0xbc, 0x55, 0x3d, 0x09, 0x5e, 0xc6, 0x3e,
  0x7a, 0x92, 0x48, 0xbf, 0x6e, 0x93, 0x40, 0x3f, 0x1f, 0xaa, 0x2a, 0xbf,
  0x52, 0x5f, 0x6f, 0x3e, 0x13, 0x19, 0xd0, 0x3e, 0x26, 0x8a, 0x3a, 0xbf,
  0xeb, 0x27, 0xa1, 0xbf, 0xa0, 0xf9, 0x71, 0x3e, 0xc5, 0x10, 0xcd, 0x3e,
  0x59, 0xea, 0x7a, 0xbe, 0xe0, 0xf0, 0x84, 0xbf, 0xa1, 0xa6, 0xa9, 0x3d,
  0xe7, 0x64, 0x67, 0xbf, 0xac, 0x5f, 0x29, 0x3f, 0xa3, 0x7c, 0x32, 0xbf,
  0x3a, 0xe5, 0xff, 0xff, 0x10, 0x00, 0x00, 0x00, 0x08, 0x00, 0x00, 0x00,
  0x14, 0x00, 0x00, 0x00, 0x34, 0x00, 0x00, 0x00, 0x02, 0x00, 0x00, 0x00,
  0x03, 0x00, 0x00, 0x00, 0x10, 0x00, 0x00, 0x00, 0x1d, 0x00, 0x00, 0x00,
  0x73, 0x65, 0x71, 0x75, 0x65, 0x6e, 0x74, 0x69, 0x61, 0x6c, 0x5f, 0x31,
  0x31, 0x2f, 0x64, 0x65, 0x6e, 0x73, 0x65, 0x5f, 0x32, 0x33, 0x2f, 0x4d,
  0x61, 0x74, 0x4d, 0x75, 0x6c, 0x00, 0x00, 0x00, 0xac, 0xe4, 0xff, 0xff,
  0xa6, 0xe5, 0xff, 0xff, 0x04, 0x00, 0x00, 0x00, 0x00, 0x18, 0x00, 0x00,
  0x8f, 0x91, 0x84, 0x3e, 0x35, 0xf8, 0x98, 0xbe, 0x6c, 0x50, 0x9f, 0x3e,
  0x1b, 0x4b, 0x92, 0x3e, 0xd3, 0x88, 0x56, 0x3e, 0x4f, 0xf1, 0xe6, 0x3c,
  0x88, 0xaa, 0x8c, 0x3d, 0xac, 0x5a, 0x8e, 0x3e, 0x62, 0xda, 0xe3, 0x3e,
  0x63, 0xb0, 0x56, 0xbe, 0x0c, 0x11, 0x4d, 0x3e, 0x48, 0x26, 0xd8, 0x3e,
  0xbd, 0xde, 0x51, 0xbe, 0x54, 0x01, 0x0c, 0xbf, 0x70, 0x59, 0xd3, 0x3e,
  0x86, 0x23, 0xee, 0x3d, 0x52, 0x3d, 0xf6, 0x3d, 0x64, 0x6d, 0x30, 0xbe,
  0x9e, 0x0e, 0x73, 0x3e, 0xac, 0x61, 0x79, 0x3e, 0x1c, 0x73, 0x79, 0x3d,
  0xca, 0x38, 0x92, 0xbe, 0x94, 0x07, 0x1d, 0x3e, 0x4b, 0xc3, 0xb5, 0x3d,
  0xf0, 0x7f, 0x4a, 0xbe, 0x20, 0x5f, 0x11, 0xbf, 0xbc, 0x11, 0x81, 0x3e,
  0x07, 0x99, 0x18, 0x3e, 0x62, 0x0e, 0xd3, 0xbc, 0x52, 0x97, 0xb8, 0xbe,
  0xf5, 0xdd, 0xa4, 0x3e, 0x1a, 0xe0, 0x7e, 0x3e, 0x13, 0x75, 0xc4, 0xbc,
  0x0c, 0x35, 0xcc, 0xbe, 0xa3, 0x66, 0x85, 0x3e, 0x1c, 0x31, 0x7d, 0x3e,
  0xfb, 0xa8, 0xd3, 0xbd, 0xf8, 0xfd, 0x28, 0xbf, 0x64, 0xd7, 0x74, 0x3e,
  0x80, 0xb5, 0x2a, 0x3e, 0xf4, 0xd5, 0x9b, 0x3d, 0xe0, 0xcd, 0x84, 0xbe,
  0x57, 0xa1, 0x94, 0x3e, 0x4a, 0x0f, 0x2f, 0x3e, 0x9b, 0x47, 0xaa, 0x3d,
  0x8b, 0x2c, 0xa1, 0xbe, 0x7d, 0x0e, 0x2f, 0x3e, 0x62, 0xc8, 0x59, 0x3e,
  0x1c, 0x53, 0x95, 0xbd, 0x90, 0xb0, 0x31, 0xbf, 0xb9, 0x94, 0xa8, 0x3e,
  0xd6, 0x14, 0xf8, 0x3d, 0x95, 0x76, 0xf1, 0x3d, 0x77, 0xa0, 0x9e, 0xbe,
  0xb1, 0x68, 0xb8, 0x3e, 0xcb, 0x10, 0x74, 0x3e, 0x87, 0x02, 0x8d, 0x3d,
  0x80, 0xbd, 0xf1, 0xbe, 0xa6, 0x6f, 0x74, 0x3e, 0xb1, 0x78, 0x4f, 0x3e,
  0x4d, 0xc6, 0x66, 0xbe, 0x50, 0xd7, 0x3e, 0xbf, 0x67, 0x4f, 0x83, 0x3e,
  0x42, 0xa0, 0x74, 0x3e, 0x50, 0x10, 0xf8, 0x3b, 0xdd, 0xda, 0xaa, 0xbe,
  0x82, 0x72, 0x50, 0x3e, 0xba, 0xf0, 0x3a, 0x3e, 0x9e, 0x3c, 0xec, 0xbc,
  0x01, 0x10, 0xf2, 0xbe, 0xab, 0xcc, 0xc0, 0x3b, 0x4d, 0xf4, 0x28, 0x3e,
  0xa5, 0x8a, 0x0f, 0xbe, 0x6b, 0x0a, 0x54, 0xbf, 0x11, 0xec, 0x28, 0x3e,
  0xcc, 0xa0, 0x90, 0x3c, 0x21, 0x9c, 0x23, 0x3d, 0xc7, 0x88, 0xe6, 0xbe,
  0xee, 0x08, 0x26, 0x3e, 0xcc, 0x65, 0x80, 0x3e, 0xf9, 0x44, 0xbf, 0xbd,
  0x7f, 0xf1, 0xf1, 0xbe, 0xc1, 0x3c, 0x99, 0x3d, 0x55, 0x8a, 0x5f, 0x3e,
  0xfc, 0x61, 0x98, 0xbe, 0x08, 0x08, 0x71, 0xbf, 0xaa, 0x82, 0xd6, 0x3d,
  0x61, 0xae, 0xd1, 0x3d, 0x52, 0x7b, 0x9c, 0xbd, 0x92, 0xca, 0xc7, 0xbe,
  0xc0, 0xa0, 0x48, 0x3e, 0x43, 0x5d, 0x9d, 0x3e, 0x46, 0xc3, 0x05, 0xbd,
  0x99, 0x90, 0x09, 0xbf, 0xa3, 0x4a, 0x3d, 0x3e, 0x46, 0xb8, 0x7a, 0x3e,
  0xba, 0xee, 0x91, 0x3e, 0xd2, 0x39, 0x04, 0x3f, 0xe6, 0x9e, 0xeb, 0x3d,
  0x0f, 0x60, 0x18, 0x3f, 0xd7, 0x05, 0x7b, 0x3e, 0xed, 0x99, 0xd9, 0x3e,
  0x68, 0x90, 0x0f, 0x3d, 0x42, 0xa8, 0xf5, 0x3e, 0x86, 0xd1, 0x73, 0x3f,
  0x4d, 0xd6, 0x77, 0x3f, 0xb2, 0x89, 0x8c, 0x3e, 0x61, 0x85, 0x94, 0x3f,
  0x50, 0x3e, 0x32, 0x3e, 0x14, 0xe0, 0x83, 0xbd, 0x4f, 0xdd, 0x16, 0x3e,
  0xe2, 0xff, 0xb2, 0xbb, 0x26, 0xf7, 0x44, 0x3e, 0xf2, 0xeb, 0x24, 0x3a,
  0x9a, 0xcd, 0xd2, 0xbd, 0x86, 0xe8, 0x8c, 0xbd, 0x48, 0x24, 0xa6, 0x3e,
  0x73, 0x95, 0xbe, 0xbc, 0x69, 0x7a, 0x94, 0x3e, 0xcf, 0xd1, 0xf8, 0xbc,
  0xf7, 0x2d, 0x88, 0xbc, 0xbd, 0x4b, 0xcd, 0x3c, 0xe8, 0xd5, 0x22, 0xbb,
  0x09, 0xd7, 0x8f, 0xbd, 0x56, 0x03, 0x45, 0x3c, 0x76, 0x63, 0x7e, 0x3d,
  0x69, 0xe1, 0x7e, 0x3d, 0x5e, 0xe8, 0x0f, 0xbd, 0xc1, 0xd8, 0x8a, 0x3d,
  0x75, 0xe1, 0x22, 0xbe, 0xc6, 0x63, 0x60, 0xbd, 0x94, 0xfa, 0xd5, 0xbd,
  0x13, 0x33, 0x43, 0xbc, 0x38, 0x83, 0x05, 0xbe, 0x37, 0xcd, 0x90, 0x3d,
  0x29, 0xe8, 0xc6, 0xbd, 0xc4, 0xd0, 0xb9, 0xbd, 0xd1, 0x62, 0xad, 0x3d,
  0x3e, 0x9e, 0xa6, 0x3c, 0x39, 0x4e, 0x0f, 0xbe, 0x2c, 0x8c, 0xac, 0xbd,
  0x23, 0x7f, 0xd0, 0xbe, 0x7e, 0xd8, 0x4a, 0xbe, 0x14, 0xe5, 0xdb, 0xbe,
  0x99, 0xd2, 0x82, 0xbd, 0x56, 0xb5, 0xbf, 0x3c, 0x09, 0x27, 0xba, 0x3c,
  0xad, 0x16, 0x15, 0xbe, 0x69, 0xdb, 0x00, 0xba, 0x1b, 0x67, 0x52, 0xbd,
  0xde, 0x87, 0x82, 0x3d, 0x0f, 0xbc, 0x8f, 0xbd, 0xa6, 0x58, 0x9f, 0xbe,
  0xa6, 0x45, 0x4e, 0xbf, 0x64, 0x18, 0x86, 0xbe, 0xe3, 0x26, 0x46, 0xbf,
  0xe6, 0x62, 0x9d, 0xbd, 0x43, 0x7e, 0x8b, 0xbe, 0x85, 0x2f, 0x48, 0x3c,
  0x7f, 0xe4, 0xdf, 0xbc, 0x4a, 0xba, 0xb6, 0xbd, 0xa3, 0xbe, 0x0b, 0xbe,
  0xe9, 0xa0, 0xc0, 0x3d, 0x2c, 0x27, 0x1a, 0xbe, 0xa9, 0xb9, 0x4d, 0xbf,
  0xe4, 0x6f, 0x8b, 0xbf, 0xd3, 0x3a, 0xba, 0xbe, 0x50, 0xcb, 0x5f, 0xbf,
  0x1b, 0x78, 0x52, 0xbe, 0x96, 0xc4, 0xb7, 0xbe, 0x37, 0x42, 0xee, 0x3b,
  0xf1, 0xbc, 0x89, 0xbe, 0x0c, 0x3f, 0x1c, 0xbe, 0x48, 0x91, 0xa1, 0xbe,
  0x46, 0x0d, 0x8d, 0xbd, 0x6b, 0x04, 0x97, 0xbe, 0x7a, 0xce, 0x0e, 0xbf,
  0x6e, 0xe0, 0xd2, 0xbb, 0x05, 0xd7, 0x40, 0xbe, 0x65, 0x00, 0xef, 0x3d,
  0x00, 0x9d, 0x2f, 0xbe, 0x1d, 0x17, 0x1b, 0x3e, 0x64, 0xfb, 0xe0, 0xbd,
  0x87, 0x43, 0x03, 0x3e, 0x7d, 0x79, 0x55, 0xbe, 0xe8, 0x26, 0x9a, 0x3d,
  0x13, 0xf8, 0x0b, 0xbe, 0x0f, 0x74, 0xaf, 0x3d, 0x12, 0x04, 0x25, 0x3e,
  0xfa, 0x1f, 0x0d, 0x3f, 0xf5, 0x39, 0xdc, 0x3e, 0xe3, 0x83, 0xae, 0x3e,
  0x80, 0x5c, 0x9d, 0x3e, 0xd2, 0xd8, 0xe9, 0x3c, 0xdf, 0x03, 0x6c, 0x3e,
  0xeb, 0x12, 0xbc, 0x3e, 0x18, 0x30, 0x5a, 0x3f, 0xb8, 0xc2, 0x35, 0xc0,
  0xd1, 0xf3, 0x35, 0x3f, 0xc6, 0xf8, 0x18, 0x3e, 0x88, 0xf5, 0xe9, 0x3e,
  0x53, 0xa4, 0x10, 0x3e, 0x37, 0xe1, 0xaf, 0x3e, 0xc4, 0xdc, 0xbe, 0x3e,
  0x0f, 0x58, 0x1e, 0xbd, 0xb8, 0x2b, 0x85, 0xbe, 0xef, 0x83, 0x2a, 0xbd,
  0x3e, 0xa8, 0x0b, 0x3e, 0x22, 0x36, 0xf3, 0xbe, 0xea, 0xbb, 0x19, 0xc0,
  0x09, 0x6f, 0x2d, 0x3d, 0x9a, 0x17, 0x01, 0x3d, 0xf6, 0x89, 0x7b, 0x3b,
  0x0d, 0x9c, 0xa3, 0xbd, 0xb6, 0x83, 0x3e, 0x3e, 0xc0, 0x69, 0x22, 0x3e,
  0x9a, 0x2d, 0x42, 0xbd, 0x8b, 0xfd, 0x4a, 0xbe, 0xce, 0xba, 0x36, 0x3d,
  0x2c, 0x8e, 0x36, 0x3e, 0xf5, 0x7b, 0x3c, 0xbc, 0x18, 0xda, 0x0d, 0xc0,
  0xdf, 0x03, 0x8b, 0x3e, 0xbd, 0x3b, 0x05, 0x3d, 0xaf, 0x66, 0x25, 0x3d,
  0xdc, 0xd2, 0x49, 0xbd, 0xfd, 0xfa, 0xfc, 0x3d, 0x38, 0xd1, 0x21, 0x3e,
  0xdb, 0x32, 0xe7, 0x3c, 0x01, 0x0c, 0x7d, 0xbe, 0xb8, 0x1a, 0x76, 0x3d,
  0x6a, 0x41, 0x14, 0x3e, 0xd6, 0xa6, 0x23, 0xbe, 0xa3, 0x3b, 0xfe, 0xbf,
  0x91, 0x21, 0xc9, 0x3e, 0xe4, 0x4f, 0xae, 0x3e, 0x9c, 0x85, 0xbb, 0x3d,
  0xdd, 0x63, 0x2e, 0xbe, 0x2e, 0xa9, 0xf0, 0x3d, 0x1a, 0x37, 0x29, 0x3e,
  0x42, 0x98, 0x09, 0x3d, 0x21, 0x5c, 0x85, 0xbe, 0x73, 0xa4, 0x54, 0x3d,
  0x1c, 0x53, 0xe8, 0x3d, 0xd2, 0x5d, 0x29, 0x3c, 0x73, 0x95, 0x16, 0xc0,
  0x30, 0xb8, 0xaf, 0x3e, 0xdf, 0x2d, 0x2c, 0x3e, 0x9a, 0x4a, 0x5f, 0x3c,
  0xd3, 0xfe, 0x60, 0xbe, 0xc8, 0xf0, 0x44, 0xbd, 0x46, 0x09, 0x72, 0x3d,
  0x6e, 0x88, 0x77, 0x3d, 0xb6, 0x5f, 0x62, 0xbe, 0x69, 0xf7, 0xb4, 0x3d,
  0x62, 0x84, 0x1b, 0x3e, 0x50, 0x2b, 0x9a, 0xbc, 0xd2, 0xc7, 0x14, 0xc0,
  0x07, 0xc8, 0xc5, 0x3e, 0x1a, 0xc5, 0xc6, 0xbc, 0x1c, 0x40, 0xca, 0xbd,
  0x59, 0xa7, 0x83, 0xbe, 0x0c, 0x00, 0xc9, 0xb9, 0x99, 0xef, 0x25, 0x3c,
  0xb0, 0xd8, 0xf1, 0x3c, 0x06, 0x20, 0x96, 0xbe, 0xc8, 0x8c, 0x8c, 0x3d,
  0xe0, 0x37, 0xeb, 0x3d, 0x48, 0xc4, 0xd0, 0xbe, 0x6f, 0x50, 0x19, 0xc0,
  0x14, 0x9b, 0x13, 0x3f, 0x5b, 0x0c, 0x54, 0xbe, 0xd2, 0x78, 0x8b, 0xbd,
  0x09, 0xbd, 0x93, 0xbe, 0xc3, 0xdb, 0x4d, 0xbd, 0x16, 0xc1, 0x2f, 0xbd,
  0x6c, 0x75, 0xb6, 0xbd, 0x37, 0x94, 0x3c, 0xbe, 0xf7, 0xe7, 0x12, 0x3d,
  0xe9, 0xd0, 0x9d, 0x3e, 0x56, 0x8c, 0x81, 0xbf, 0xcb, 0x79, 0x1f, 0xc0,
  0xb6, 0x1b, 0xe4, 0x3e, 0xbb, 0xef, 0xeb, 0x3e, 0x86, 0xf9, 0xc3, 0xbd,
  0x0c, 0xf2, 0xd7, 0xbe, 0xe9, 0x12, 0x8e, 0xbd, 0xb0, 0xd8, 0xb2, 0xbd,
  0x12, 0x9d, 0xca, 0x3e, 0xf9, 0xca, 0x24, 0xbe, 0xfa, 0x14, 0x0d, 0x3f,
  0x9b, 0xdb, 0x58, 0x3d, 0xae, 0x9c, 0x7e, 0x3e, 0x5f, 0x80, 0x0a, 0xbe,
  0x3f, 0x83, 0x19, 0x3f, 0xc1, 0xbc, 0xa5, 0xbe, 0x35, 0x82, 0x2b, 0xbe,
  0x04, 0x2b, 0x33, 0xbf, 0xcb, 0xe3, 0x4d, 0x3f, 0x5d, 0xa3, 0xf2, 0xbf,
  0x77, 0x84, 0xb5, 0xbe, 0x01, 0xb2, 0xaa, 0xbe, 0x6f, 0x85, 0xaf, 0x3e,
  0xf1, 0xcf, 0x90, 0xbe, 0x96, 0x10, 0xae, 0xbe, 0x79, 0xd6, 0x28, 0xbe,
  0x56, 0x09, 0xf4, 0x3e, 0x6d, 0x0b, 0x98, 0xbe, 0xd1, 0x67, 0xac, 0xbf,
  0x7b, 0xb8, 0x79, 0xbf, 0xab, 0x94, 0x61, 0x3e, 0xe1, 0x7e, 0x25, 0xc0,
  0xb5, 0x23, 0xef, 0xbe, 0x3e, 0xde, 0xbf, 0xbe, 0x14, 0x61, 0x49, 0x3e,
  0x99, 0x7f, 0x38, 0xbe, 0x00, 0xab, 0x1e, 0xbf, 0xb5, 0xf5, 0xc2, 0xbe,
  0x26, 0xb7, 0xb0, 0x3d, 0x38, 0xc5, 0x43, 0xbe, 0x85, 0x09, 0xe6, 0xbf,
  0x5f, 0x22, 0x17, 0xbf, 0x73, 0xb5, 0xda, 0xbd, 0x12, 0x25, 0x37, 0xbf,
  0x89, 0x02, 0x18, 0xbe, 0x57, 0x4e, 0x61, 0xbd, 0x86, 0x60, 0x3f, 0x3d,
  0xd1, 0xbc, 0x17, 0x3d, 0x38, 0x6c, 0x85, 0xbd, 0xa3, 0xd8, 0x3d, 0xbe,
  0xf7, 0x74, 0xb4, 0x3d, 0xbc, 0x7b, 0x98, 0x3d, 0xcb, 0xa2, 0x81, 0xbd,
  0x7e, 0xbc, 0x2f, 0x3e, 0x46, 0x9a, 0x09, 0x3f, 0xb1, 0xb7, 0x1f, 0x3e,
  0x7b, 0x45, 0x26, 0xbc, 0x0a, 0xef, 0xb6, 0xbd, 0x8b, 0xe0, 0xa1, 0xbc,
  0x44, 0x41, 0xe9, 0x3d, 0x4e, 0x39, 0x27, 0x3c, 0xc8, 0x4a, 0xac, 0xbc,
  0x2d, 0x53, 0x2c, 0xbc, 0xc3, 0x2e, 0xd9, 0x3d, 0x30, 0xe3, 0x15, 0x3e,
  0xf7, 0x51, 0x19, 0x3e, 0x9a, 0x6d, 0xac, 0x3e, 0x64, 0x2f, 0xd9, 0x3d,
  0x81, 0xd1, 0x00, 0xbd, 0x12, 0xb8, 0x06, 0x3d, 0x85, 0x05, 0x82, 0xbd,
  0xab, 0xaa, 0x98, 0x3d, 0xec, 0xe7, 0x9c, 0x3c, 0x38, 0xca, 0xf4, 0xbc,
  0xeb, 0x09, 0xac, 0xbc, 0x08, 0xc2, 0xc3, 0x3b, 0x86, 0x62, 0x12, 0x3e,
  0x9d, 0x81, 0xb1, 0x3d, 0xd6, 0x7b, 0x5b, 0x3d, 0xf6, 0x25, 0x05, 0x3e,
  0x6e, 0xe5, 0xe3, 0xbb, 0x65, 0x29, 0x18, 0xbd, 0xda, 0x9d, 0xfc, 0xbd,
  0x13, 0x93, 0x20, 0x3c, 0x1d, 0xf3, 0xb6, 0x3d, 0xef, 0xa9, 0xf9, 0xbc,
  0xfb, 0x5a, 0x8b, 0xbd, 0xd9, 0xd9, 0x3e, 0xbd, 0x33, 0x8b, 0x48, 0x3e,
  0x27, 0x05, 0x49, 0x3d, 0x58, 0x2c, 0x62, 0x3e, 0x7a, 0x12, 0x84, 0x3e,
  0x1a, 0xb0, 0x53, 0x3d, 0xc4, 0xb6, 0x36, 0x3e, 0x0d, 0xa7, 0x52, 0xbe,
  0x92, 0x57, 0xb0, 0x3e, 0x93, 0xbf, 0x05, 0x3d, 0x84, 0xe4, 0xdd, 0x3d,
  0x7e, 0xd3, 0xf7, 0xbd, 0xae, 0x7b, 0xa9, 0x3e, 0xe0, 0xe6, 0x78, 0x3e,
  0x3c, 0xcd, 0x7d, 0x3e, 0x12, 0xb0, 0xd6, 0x3c, 0xb3, 0x78, 0xf9, 0x3e,
  0xca, 0xb7, 0xf1, 0x3e, 0xb7, 0x55, 0x80, 0x3e, 0x0f, 0x11, 0x63, 0x3f,
  0x9c, 0x93, 0xa5, 0xbe, 0xc2, 0x34, 0x8e, 0x3f, 0x22, 0xd0, 0x07, 0x3f,
  0x1b, 0xce, 0x55, 0x3f, 0x71, 0xb9, 0xf0, 0xbd, 0xba, 0x10, 0x9d, 0x3f,
  0x76, 0x84, 0x4e, 0x3f, 0xee, 0xa5, 0xfe, 0x3f, 0x15, 0x57, 0xa3, 0x3e,
  0x24, 0x01, 0xb2, 0xbd, 0xb4, 0x3a, 0x81, 0x3d, 0x3f, 0x23, 0x18, 0x3f,
  0x16, 0x55, 0xb9, 0x3e, 0x1b, 0x66, 0x2b, 0x3e, 0x2d, 0x0a, 0x24, 0x3e,
  0xb1, 0xbc, 0xcb, 0x3e, 0xe7, 0xe8, 0x0a, 0x3c, 0x30, 0xd7, 0x5a, 0x3c,
  0x65, 0x9c, 0x37, 0x3e, 0x74, 0xd5, 0x15, 0x3f, 0xc0, 0xfa, 0xf7, 0xbd,
  0xbd, 0x25, 0x11, 0x3d, 0x22, 0x93, 0x1f, 0xbd, 0x54, 0xb8, 0xcf, 0x3e,
  0x37, 0xe3, 0xa1, 0x3d, 0x69, 0x35, 0x58, 0x3d, 0x15, 0x74, 0x49, 0x3d,
  0xf5, 0x30, 0x49, 0x3c, 0x32, 0x14, 0xba, 0xbd, 0x36, 0x82, 0x2b, 0xbe,
  0x4d, 0x19, 0xd0, 0x3d, 0x08, 0x72, 0x27, 0x3e, 0x1f, 0xa3, 0xae, 0xbc,
  0x21, 0xcb, 0xa5, 0xbe, 0x34, 0xe7, 0xdc, 0xbd, 0xa7, 0xdc, 0xcd, 0x3d,
  0xa0, 0x43, 0x8b, 0xbe, 0x12, 0xe8, 0x6d, 0xbd, 0x61, 0x84, 0x8b, 0xbd,
  0x3d, 0xee, 0xa9, 0x3d, 0xe1, 0x50, 0x7c, 0xbe, 0x3c, 0x16, 0xec, 0xbc,
  0x24, 0x64, 0x1c, 0x3e, 0xfa, 0x34, 0xb3, 0x3e, 0x83, 0x49, 0x17, 0xbd,
  0x22, 0x44, 0x8c, 0xbe, 0xa0, 0xd1, 0x0e, 0xbe, 0x99, 0x86, 0x91, 0x3d,
  0x77, 0x20, 0x99, 0xbe, 0x53, 0x97, 0xb0, 0xbd, 0x20, 0xf0, 0x5c, 0x3d,
  0x93, 0x48, 0x98, 0x3d, 0x31, 0x33, 0x04, 0xbe, 0xd1, 0xb9, 0x08, 0xbe,
  0xb4, 0x1c, 0x51, 0xbb, 0xb0, 0x34, 0x0d, 0x3e, 0x08, 0xb8, 0x36, 0xbe,
  0xbe, 0x44, 0x4d, 0xbe, 0xd3, 0x43, 0x27, 0xbd, 0x36, 0x11, 0xcd, 0x3d,
  0x2b, 0x46, 0x23, 0xbe, 0xc6, 0xe5, 0x84, 0xbd, 0x61, 0x69, 0x52, 0x3d,
  0x43, 0x45, 0x6f, 0x3d, 0xf5, 0x18, 0x62, 0xbd, 0xc0, 0x0b, 0x34, 0xbe,
  0xf2, 0x69, 0x83, 0x3d, 0x66, 0xb0, 0x55, 0x3e, 0xac, 0x75, 0x09, 0xbe,
  0x3b, 0x93, 0xfe, 0xbd, 0x63, 0x5a, 0x69, 0xbd, 0x35, 0x79, 0x42, 0x3e,
  0xe0, 0x62, 0x78, 0xbe, 0x9a, 0xb9, 0x28, 0xbd, 0x03, 0xca, 0xa9, 0xbd,
  0x3f, 0x46, 0x67, 0x3e, 0x3b, 0x59, 0x45, 0xbe, 0xf0, 0x7b, 0x0f, 0xbe,
  0x78, 0xb4, 0xc1, 0x3d, 0x5f, 0x64, 0x21, 0x3e, 0x25, 0x58, 0xd7, 0xbd,
  0x63, 0x85, 0x79, 0xbe, 0x0c, 0xba, 0x81, 0xbe, 0xed, 0x54, 0xc2, 0x3d,
  0x2a, 0xcc, 0x55, 0xbf, 0x32, 0x3e, 0xee, 0xbd, 0xd1, 0x97, 0xb3, 0xbd,
  0x68, 0x58, 0x49, 0x3e, 0xe8, 0xb7, 0x0e, 0xbf, 0x48, 0x3b, 0xcc, 0xbd,
  0x08, 0xfd, 0xa2, 0xbd, 0xad, 0x7e, 0x5e, 0x3e, 0x5a, 0x02, 0x17, 0xbf,
  0x9b, 0x53, 0x61, 0x3f, 0x43, 0xc2, 0x04, 0x3f, 0x77, 0x81, 0x35, 0xbf,
  0xad, 0x81, 0x09, 0x3e, 0x07, 0x37, 0x82, 0x3e, 0xd4, 0x0a, 0xb4, 0xbd,
  0x52, 0x5b, 0x5d, 0xbf, 0xc4, 0xc6, 0x61, 0xbd, 0x7c, 0xa0, 0x02, 0x40,
  0x81, 0x93, 0x52, 0x3f, 0xb4, 0xd9, 0x5d, 0xbf, 0xe3, 0x24, 0x74, 0x3f,
  0x8b, 0x7f, 0x8c, 0x3c, 0x05, 0x9a, 0x02, 0x3e, 0x90, 0xb2, 0x47, 0xbf,
  0xb5, 0x60, 0xcb, 0x3c, 0x49, 0x01, 0x49, 0xbe, 0x5e, 0xe6, 0x51, 0xbc,
  0xd4, 0x13, 0x23, 0xbf, 0x92, 0x27, 0x03, 0x3e, 0x8e, 0x2a, 0xba, 0x3e,
  0xa3, 0xa5, 0xad, 0x3e, 0xe3, 0x74, 0x3e, 0xbf, 0x7b, 0xe5, 0xbd, 0x3e,
  0x19, 0xb7, 0x74, 0x3e, 0xa7, 0x49, 0x8b, 0x3e, 0x7d, 0x47, 0x7a, 0xbe,
  0x32, 0xf2, 0x2c, 0x3d, 0xb6, 0x67, 0xcd, 0x3d, 0x61, 0xb4, 0x75, 0x3c,
  0xf3, 0x63, 0x58, 0xbe, 0x83, 0x44, 0x28, 0x3e, 0xf3, 0x40, 0xd0, 0x3e,
  0x07, 0x2c, 0x04, 0x3f, 0xa3, 0x7e, 0x78, 0xbe, 0x39, 0xd3, 0x31, 0x3f,
  0x82, 0x6c, 0x3b, 0x3e, 0x55, 0x90, 0x10, 0x3e, 0xc4, 0xb3, 0xa6, 0xbe,
  0x83, 0xa9, 0x4e, 0xbe, 0x5b, 0x28, 0xe7, 0xbb, 0x0b, 0x7b, 0xa9, 0x3c,
  0xbe, 0x43, 0xa5, 0xbe, 0x59, 0xb1, 0x69, 0x3c, 0x50, 0x23, 0x1b, 0x3f,
  0x75, 0x98, 0x89, 0x3e, 0x60, 0x76, 0xa0, 0xbe, 0x95, 0x7d, 0xcc, 0x3e,
  0x00, 0x2c, 0x66, 0xbd, 0x61, 0xf4, 0x6f, 0x3e, 0x11, 0x4d, 0x27, 0xbe,
  0x50, 0xe5, 0x2a, 0x3d, 0xa6, 0x2f, 0x87, 0xbc, 0x17, 0x84, 0x68, 0xbd,
  0xe0, 0x24, 0x54, 0x3c, 0xbe, 0xb7, 0xba, 0xbd, 0x5b, 0x26, 0xb6, 0x3d,
  0xbd, 0x6c, 0x54, 0x3e, 0x6e, 0x5f, 0x3f, 0xbe, 0x99, 0x89, 0xf2, 0x3d,
  0x60, 0xe8, 0xfc, 0xbd, 0x56, 0x23, 0x12, 0x3e, 0x04, 0x43, 0xda, 0xbd,
  0xc2, 0x16, 0x42, 0x3d, 0xe1, 0x44, 0x0d, 0xbe, 0x77, 0x37, 0x09, 0x3c,
  0x1a, 0x72, 0xe3, 0x3b, 0x67, 0x4e, 0x8c, 0x3c, 0x0e, 0x51, 0x8c, 0x3c,
  0x43, 0xb0, 0xad, 0x3d, 0x67, 0x13, 0x70, 0xbe, 0xe3, 0x62, 0x42, 0x3d,
  0x03, 0x5d, 0x52, 0x3c, 0x19, 0x9a, 0x22, 0x3c, 0x48, 0xba, 0x76, 0x3d,
  0x81, 0x1b, 0x0a, 0x3c, 0x0d, 0x9e, 0x6b, 0xbd, 0x4c, 0x42, 0x00, 0x3d,
  0xda, 0x94, 0x82, 0x3d, 0x5c, 0x39, 0x21, 0xbd, 0x5a, 0xee, 0xb6, 0xbd,
  0x0a, 0xbd, 0x6c, 0x3e, 0xf1, 0x12, 0x1e, 0xbe, 0xd2, 0x4a, 0x87, 0x3b,
  0x32, 0x04, 0x13, 0x3b, 0x6d, 0x74, 0x70, 0x3e, 0xae, 0x81, 0x54, 0x3d,
  0xce, 0xba, 0x2d, 0x3e, 0x1e, 0x64, 0xee, 0xba, 0x94, 0x7f, 0xc8, 0xbd,
  0x54, 0x57, 0xa1, 0xbd, 0x22, 0x7e, 0x6f, 0xbd, 0x55, 0xce, 0x52, 0x3e,
  0xed, 0xc3, 0xd9, 0x3e, 0xbc, 0xda, 0x85, 0xbd, 0x49, 0xd3, 0xb0, 0x3d,
  0xc8, 0x68, 0xd2, 0x3e, 0x8b, 0x5c, 0x76, 0x3e, 0x4b, 0x6f, 0xc1, 0xbb,
  0xf2, 0x79, 0xd5, 0x3d, 0x04, 0xe2, 0x99, 0x3e, 0xdc, 0xb9, 0x90, 0x3e,
  0xbc, 0x7e, 0x31, 0xbe, 0x01, 0xc2, 0x1c, 0x3e, 0xcf, 0x4b, 0x76, 0x3e,
  0x1e, 0x78, 0x02, 0xbe, 0x06, 0x3c, 0x57, 0xbe, 0x6a, 0xd7, 0x23, 0x3d,
  0xda, 0x3f, 0x8f, 0x3d, 0xce, 0x4a, 0xbc, 0xbd, 0xc1, 0x91, 0xb2, 0xbe,
  0x2f, 0x75, 0x4e, 0xbe, 0x8a, 0x1a, 0x14, 0x3e, 0x0b, 0xca, 0xba, 0xbd,
  0xf2, 0x9a, 0x87, 0xbe, 0x70, 0xd2, 0x21, 0xbe, 0x27, 0x61, 0x89, 0xbd,
  0xae, 0x28, 0xb1, 0xbe, 0xfc, 0x8c, 0xcf, 0xbe, 0xf2, 0xfa, 0x32, 0xbe,
  0x5a, 0x16, 0x99, 0x3c, 0x51, 0xc1, 0x01, 0xbe, 0xba, 0x37, 0xd9, 0xbe,
  0xe7, 0x9b, 0x7d, 0xbe, 0x3e, 0x62, 0x40, 0x3c, 0x14, 0xe2, 0x9e, 0xbe,
  0xe0, 0x37, 0x16, 0xbf, 0x6b, 0x8d, 0xc9, 0xbe, 0x28, 0x04, 0x88, 0xbd,
  0x51, 0x0b, 0x12, 0xbe, 0xc4, 0x3e, 0xa2, 0xbe, 0x78, 0x78, 0x0e, 0xbe,
  0x75, 0x94, 0x22, 0xbd, 0xe5, 0x8b, 0x88, 0xbe, 0x82, 0xc1, 0x0f, 0xbf,
  0x02, 0x87, 0xe0, 0xbe, 0x66, 0xf3, 0xd1, 0xbd, 0xa1, 0xac, 0xa3, 0xbe,
  0xc3, 0x14, 0x02, 0xbf, 0x13, 0x42, 0xb9, 0xbe, 0x86, 0x44, 0x44, 0x3c,
  0xc7, 0xda, 0x8e, 0xbd, 0xb7, 0xe7, 0x40, 0xbe, 0x73, 0x0f, 0xe4, 0xbd,
  0x4e, 0x8d, 0x48, 0xbe, 0x0b, 0x81, 0xa2, 0xbe, 0x55, 0x67, 0xfb, 0xbe,
  0xf2, 0x93, 0xe6, 0xbe, 0x86, 0xd0, 0xae, 0xbe, 0x3d, 0x5b, 0x71, 0xbe,
  0x4e, 0x2b, 0x88, 0xbe, 0x70, 0xf5, 0xbd, 0xbe, 0x34, 0x95, 0xb4, 0xbc,
  0x07, 0xa4, 0x17, 0xbe, 0x01, 0xdf, 0x12, 0xbe, 0xd1, 0x5e, 0xa8, 0xbd,
  0xfb, 0xff, 0xc2, 0xbd, 0xe8, 0xae, 0x5a, 0x3d, 0xa8, 0x4e, 0x7f, 0xbd,
  0x2c, 0x99, 0x97, 0xbd, 0xc0, 0x93, 0xdd, 0xbd, 0xee, 0xa2, 0x6b, 0x3d,
  0x8a, 0xd1, 0x83, 0x3d, 0x6c, 0x8f, 0x88, 0xbc, 0x03, 0xcd, 0x58, 0x3d,
  0x76, 0xe0, 0x9e, 0x3d, 0x78, 0xf2, 0xfe, 0xbc, 0xb3, 0x48, 0x31, 0x3e,
  0xd3, 0x72, 0x26, 0x3d, 0x5e, 0x33, 0x18, 0x3e, 0x17, 0x92, 0x3c, 0x3e,
  0xae, 0xc3, 0x13, 0x3e, 0xce, 0x57, 0x97, 0x3c, 0xcd, 0x0e, 0xdc, 0x3d,
  0x54, 0x2a, 0x52, 0x3e, 0x5f, 0xde, 0x69, 0x3d, 0xb9, 0x9d, 0x12, 0x3e,
  0x17, 0x42, 0x77, 0x3d, 0xc9, 0x0a, 0xc0, 0x3d, 0x20, 0xdc, 0x68, 0x3e,
  0xff, 0xdf, 0xcb, 0x3c, 0x46, 0x9f, 0x4f, 0x3f, 0x2d, 0x0a, 0xae, 0x3e,
  0x69, 0xf5, 0x24, 0x3f, 0xad, 0x12, 0x34, 0xbc, 0xed, 0xc2, 0x30, 0x3f,
  0x09, 0xdb, 0xd9, 0x3e, 0x89, 0x22, 0x1e, 0x3f, 0xc1, 0xdb, 0x2d, 0x3d,
  0x42, 0x35, 0xa9, 0x3e, 0xc9, 0x0b, 0xce, 0x3d, 0x1c, 0xac, 0x05, 0x3f,
  0x71, 0x80, 0xcd, 0xbe, 0x25, 0x9e, 0x12, 0xbf, 0xac, 0x50, 0x2f, 0xbf,
  0xde, 0x26, 0x82, 0xbf, 0x79, 0x7c, 0x2d, 0xbf, 0xda, 0xf5, 0x6b, 0xbf,
  0x0a, 0x44, 0x67, 0xbf, 0xb3, 0x85, 0xb0, 0xbf, 0xe8, 0x95, 0xb3, 0x3e,
  0x64, 0x94, 0x8b, 0x3c, 0x54, 0x02, 0x52, 0x3d, 0x7d, 0x71, 0xb6, 0x3d,
  0xa6, 0x42, 0xf5, 0xbe, 0xdf, 0x6a, 0x06, 0xbf, 0xdb, 0x11, 0x1a, 0xbf,
  0x78, 0xc0, 0x2c, 0xbf, 0x67, 0x9b, 0x01, 0xbf, 0x5d, 0xb2, 0x08, 0xbf,
  0x96, 0x4b, 0x5b, 0xbf, 0x56, 0x72, 0x2a, 0xbf, 0x48, 0x77, 0x71, 0x3d,
  0x38, 0xa7, 0x59, 0x3e, 0x54, 0xe8, 0xde, 0x3d, 0xdf, 0x16, 0x29, 0x3e,
  0xfb, 0x15, 0x39, 0xbe, 0x77, 0x45, 0x0f, 0xbd, 0x90, 0xb4, 0x56, 0xbe,
  0x93, 0x1b, 0xb0, 0xbd, 0xd3, 0xe0, 0x43, 0xbd, 0x97, 0x00, 0x6e, 0x3c,
  0xe8, 0x85, 0x05, 0xbe, 0x97, 0xf5, 0x0b, 0xbe, 0x3f, 0xd1, 0x7d, 0x3d,
  0x6b, 0xc7, 0xc9, 0x3d, 0x67, 0xa3, 0x47, 0x3e, 0xc3, 0xb3, 0x69, 0x3e,
  0x01, 0x08, 0x06, 0xbc, 0x50, 0x7c, 0xb4, 0x3d, 0xf5, 0xd8, 0x13, 0x3d,
  0x78, 0xfb, 0x32, 0x3e, 0x7c, 0xfc, 0x01, 0x3d, 0x47, 0x08, 0x14, 0x3e,
  0xe8, 0xc8, 0x9a, 0x3d, 0x8c, 0x5c, 0x44, 0x3d, 0xf8, 0x17, 0x00, 0x3e,
  0x4a, 0x44, 0x11, 0x3d, 0xee, 0xad, 0x08, 0x3e, 0x95, 0x1e, 0x9c, 0x3e,
  0x37, 0xb3, 0xd3, 0x3d, 0x0e, 0x70, 0x95, 0x3e, 0xbd, 0x09, 0x2f, 0x3e,
  0xbd, 0xe7, 0x86, 0x3e, 0xb1, 0xfb, 0xe0, 0x3d, 0xc8, 0x33, 0x79, 0x3e,
  0x77, 0x67, 0xe3, 0x3d, 0xe7, 0x04, 0xfb, 0x3d, 0xbb, 0x04, 0xe3, 0x3d,
  0x5f, 0xe5, 0xf1, 0x38, 0x93, 0x43, 0x13, 0x3d, 0x41, 0xa4, 0x82, 0x3e,
  0x59, 0x46, 0xd1, 0x3d, 0xb3, 0x2f, 0x1e, 0x3e, 0x38, 0xfc, 0x23, 0x3e,
  0xcc, 0x0b, 0x64, 0x3e, 0x71, 0x51, 0x01, 0x3e, 0x5a, 0xc0, 0x72, 0x3e,
  0xc9, 0xa0, 0x21, 0x3e, 0x09, 0x9f, 0x18, 0x3e, 0x78, 0xcc, 0x7e, 0xbd,
  0x85, 0x00, 0x64, 0xbe, 0x80, 0xcf, 0xbb, 0xbd, 0xa8, 0x4b, 0x2e, 0x3d,
  0x5e, 0xde, 0xfe, 0x3d, 0x95, 0x07, 0x40, 0x3e, 0x7c, 0x37, 0x39, 0x3e,
  0xdc, 0x2a, 0x37, 0x3e, 0xc1, 0x6a, 0x08, 0x3e, 0x45, 0x97, 0x69, 0x3e,
  0xa2, 0x1d, 0x63, 0x3e, 0x4d, 0x0b, 0x23, 0x3e, 0x4c, 0x5e, 0x78, 0xbe,
  0xb8, 0x45, 0x80, 0xbe, 0xcd, 0xb2, 0x39, 0xbe, 0xad, 0xff, 0x8c, 0xbd,
  0xdc, 0xa8, 0xff, 0x3d, 0xf9, 0x02, 0x8a, 0x3e, 0x54, 0xf3, 0x4c, 0x3e,
  0xac, 0xd8, 0x00, 0x3e, 0xbf, 0x78, 0x18, 0x3e, 0x1a, 0x3a, 0x95, 0x3e,
  0x7d, 0x4b, 0xb9, 0x3d, 0x21, 0x3d, 0xbb, 0x3d, 0x58, 0xb6, 0x98, 0xbd,
  0x64, 0x0e, 0xb2, 0xbe, 0xd3, 0x40, 0x1a, 0xbe, 0x25, 0x1b, 0xb8, 0xbe,
  0x46, 0xf6, 0x84, 0x3f, 0x74, 0x7e, 0x34, 0x3f, 0xd8, 0x49, 0x59, 0x3f,
  0xc5, 0x9b, 0x3a, 0x3f, 0xff, 0x11, 0x46, 0x3f, 0x86, 0xdb, 0xe5, 0x3e,
  0x28, 0x86, 0x46, 0x3f, 0xbb, 0xd0, 0x23, 0x3f, 0x0c, 0x0b, 0x00, 0xbe,
  0xda, 0x45, 0x84, 0xbe, 0xb0, 0xf5, 0xbe, 0x3e, 0xda, 0x07, 0xf1, 0xbd,
  0xa5, 0x8e, 0xc0, 0x3e, 0x5d, 0x79, 0x08, 0x3e, 0xf7, 0x6a, 0x99, 0x3e,
  0x7c, 0xae, 0x6f, 0x3d, 0xbf, 0x70, 0xf4, 0x3d, 0x7e, 0x28, 0xa1, 0x3c,
  0x56, 0x8c, 0x8d, 0x3d, 0xca, 0x9d, 0x09, 0x3e, 0x97, 0x5e, 0xa2, 0xbe,
  0xac, 0xaf, 0x9d, 0xbe, 0x74, 0x36, 0x23, 0x3e, 0x29, 0xc8, 0x15, 0xbe,
  0x8b, 0x1c, 0xa7, 0x3e, 0x68, 0xc6, 0x82, 0x3e, 0x0b, 0xd7, 0xac, 0x3d,
  0x17, 0x8e, 0x28, 0x3e, 0x39, 0x4e, 0x36, 0x3e, 0xda, 0x84, 0xec, 0x3d,
  0xa8, 0x30, 0x94, 0x3c, 0x9e, 0x9a, 0x08, 0x3e, 0xfb, 0x8a, 0x5d, 0xbe,
  0x42, 0x24, 0x92, 0xbe, 0xca, 0xd5, 0x02, 0x3d, 0xef, 0xda, 0x21, 0xbe,
  0x7f, 0x81, 0x85, 0x3d, 0xed, 0xae, 0x56, 0x3e, 0x54, 0xdd, 0x8a, 0x3d,
  0x7e, 0x99, 0x94, 0x3e, 0x2c, 0x28, 0x94, 0x3e, 0x8a, 0x91, 0xc7, 0x3e,
  0xe7, 0xe8, 0x73, 0x3e, 0xf9, 0x19, 0x4c, 0x3e, 0x67, 0xda, 0x92, 0xbe,
  0x99, 0x87, 0xae, 0xbe, 0x0a, 0xa2, 0x4d, 0x3e, 0xff, 0x0a, 0x42, 0xbe,
  0x78, 0x57, 0x67, 0x3e, 0xf5, 0xca, 0x8b, 0x3e, 0x11, 0x86, 0x93, 0xbc,
  0x1d, 0x00, 0xaa, 0x3d, 0xbc, 0xdb, 0xec, 0xbd, 0xf8, 0x3e, 0xa9, 0x3e,
  0xdf, 0xf8, 0x11, 0xbd, 0x71, 0xb6, 0x51, 0x3d, 0x9b, 0x9f, 0x82, 0xbe,
  0x52, 0xaf, 0x37, 0xbe, 0xa0, 0xa8, 0xea, 0x3d, 0xd5, 0x45, 0x31, 0xbe,
  0x62, 0x89, 0x48, 0x3d, 0x68, 0xb0, 0x11, 0x3e, 0xf8, 0xfc, 0x47, 0x3d,
  0x43, 0x5f, 0xc2, 0x3b, 0x64, 0xf9, 0xc4, 0xbd, 0xfa, 0x94, 0x0a, 0x3e,
  0x30, 0x3d, 0xc8, 0x3d, 0xc6, 0xd6, 0x91, 0xbc, 0x6b, 0xe0, 0x67, 0xbe,
  0x77, 0xd4, 0x4e, 0xbe, 0x8e, 0x08, 0x0b, 0x3e, 0xe9, 0x4e, 0xdb, 0xbd,
  0x33, 0xc7, 0xef, 0xbd, 0xa2, 0xbe, 0xbb, 0x3e, 0x51, 0x60, 0x08, 0xbe,
  0x53, 0x6c, 0x83, 0x3d, 0xea, 0x55, 0xc9, 0xbd, 0x49, 0x85, 0x57, 0x3e,
  0xd3, 0xff, 0x71, 0xbd, 0x3f, 0x3a, 0xc6, 0xbc, 0x26, 0x7b, 0xb0, 0xbe,
  0x62, 0xd8, 0x9f, 0xbd, 0x3d, 0xc8, 0x29, 0x3e, 0x91, 0xdc, 0x12, 0xbd,
  0x25, 0xf8, 0x1f, 0x3e, 0x0c, 0x80, 0x0d, 0x3e, 0x9a, 0x6c, 0x95, 0xbe,
  0x89, 0x4f, 0x9e, 0xbe, 0x35, 0x23, 0x6a, 0x3d, 0xd4, 0xf0, 0xa0, 0xbd,
  0xfa, 0x3a, 0xad, 0xbe, 0xe4, 0xf6, 0x96, 0xbe, 0xb1, 0xff, 0x23, 0xbe,
  0x84, 0x33, 0xf8, 0xbe, 0x88, 0xa5, 0x08, 0x3d, 0x81, 0x21, 0xb8, 0xbe,
  0xaf, 0x17, 0x60, 0x3f, 0x0d, 0xd3, 0xd3, 0x3e, 0x1d, 0x1e, 0xc4, 0xbf,
  0x79, 0x83, 0x8e, 0xbe, 0xe3, 0x82, 0x61, 0x3f, 0x7d, 0x96, 0x32, 0x3f,
  0x7b, 0xd9, 0xb7, 0xbf, 0x38, 0x38, 0x60, 0xbe, 0xbd, 0xb2, 0xb9, 0x3f,
  0x63, 0x10, 0x1e, 0x3f, 0x9a, 0x5f, 0xc2, 0xbf, 0xce, 0xd1, 0x14, 0xbe,
  0xc7, 0xa5, 0x6a, 0xbe, 0x77, 0xe9, 0x8c, 0xbd, 0xa0, 0xbf, 0x1f, 0xc0,
  0x65, 0xd0, 0xd4, 0xbd, 0x3e, 0x22, 0xac, 0x3e, 0x7f, 0x3d, 0xfb, 0x3d,
  0x86, 0x64, 0xd8, 0xbf, 0x92, 0xb9, 0x19, 0xbe, 0x93, 0x94, 0x0d, 0xbe,
  0x08, 0xdd, 0x7c, 0x3d, 0x24, 0xc9, 0x0f, 0xc0, 0xe0, 0xb7, 0x4d, 0xbe,
  0x3b, 0x4a, 0x4c, 0x3e, 0xf7, 0x37, 0x0e, 0xbe, 0x27, 0x87, 0xad, 0xbf,
  0xf6, 0x8f, 0xa4, 0x3d, 0x30, 0x11, 0x61, 0x3e, 0x15, 0x7d, 0x1c, 0x3e,
  0x97, 0x4a, 0x8b, 0xbf, 0x0c, 0xf3, 0x31, 0xbe, 0xe6, 0xae, 0x48, 0x3e,
  0xe5, 0x2c, 0x9e, 0x3d, 0x7d, 0x6c, 0x9e, 0xbf, 0xe1, 0xff, 0xe5, 0x3d,
  0xb1, 0xdb, 0xe0, 0x3d, 0x1c, 0x9d, 0xa9, 0xbd, 0x55, 0xe1, 0x7e, 0xbf,
  0x34, 0xe3, 0x3e, 0xbe, 0xd9, 0x49, 0x11, 0x3e, 0x9c, 0x0f, 0x6c, 0x3d,
  0xc8, 0xa1, 0x66, 0xbf, 0xf7, 0x81, 0xc1, 0xbd, 0x53, 0xc3, 0x89, 0x3e,
  0xb3, 0xa6, 0xd3, 0x3d, 0xd5, 0xac, 0x41, 0xbf, 0xa6, 0x2b, 0xb6, 0x3d,
  0x0f, 0xd2, 0xa8, 0x3d, 0x37, 0x9e, 0x2c, 0xbe, 0x4a, 0x53, 0x1c, 0xbf,
  0x37, 0xd3, 0xd8, 0xbd, 0xdc, 0x81, 0x85, 0x3d, 0xd6, 0xf1, 0x41, 0x3e,
  0xa9, 0x58, 0x19, 0xbf, 0xea, 0xf8, 0xad, 0xbd, 0x60, 0x46, 0xb1, 0x3d,
  0xd9, 0xfe, 0x0d, 0xbe, 0xe9, 0x2e, 0x52, 0xbf, 0xc7, 0x4d, 0x85, 0xbe,
  0xc4, 0x3c, 0x94, 0x3d, 0x4b, 0x5f, 0xae, 0x3d, 0xdd, 0xe3, 0xbe, 0x3c,
  0x0e, 0x7f, 0xea, 0x3d, 0x61, 0x50, 0x0b, 0x3e, 0x01, 0x98, 0xb5, 0x3d,
  0x8e, 0xfc, 0x49, 0xbd, 0x20, 0x19, 0x33, 0x3d, 0x3e, 0x5a, 0x31, 0xbc,
  0xfb, 0xbc, 0x6b, 0x3d, 0xb2, 0xce, 0xdd, 0xbe, 0x7e, 0x07, 0xb1, 0xbd,
  0xc6, 0xd4, 0xb1, 0x3d, 0xb4, 0x93, 0x1f, 0xbd, 0x61, 0x72, 0x3f, 0x3d,
  0x3a, 0xa4, 0x93, 0x3d, 0x33, 0x00, 0x70, 0x3e, 0x3c, 0xb8, 0xc1, 0x3d,
  0xf5, 0x41, 0xe2, 0x3d, 0xce, 0x3f, 0x05, 0x3e, 0x9d, 0x6f, 0x8d, 0xbb,
  0x7d, 0x2e, 0xcb, 0x3d, 0xca, 0x7a, 0x5d, 0xbe, 0x87, 0xe6, 0xdb, 0x3c,
  0x6e, 0xd2, 0x0a, 0x3e, 0x52, 0xad, 0x20, 0xbd, 0x7a, 0x01, 0x0e, 0xbe,
  0x6c, 0x05, 0x5b, 0x3d, 0x45, 0x26, 0xee, 0x3d, 0x94, 0x2e, 0xe6, 0x3d,
  0x51, 0x34, 0x4f, 0x3d, 0xb8, 0x23, 0x14, 0x3e, 0x4a, 0x13, 0xba, 0x3b,
  0xb0, 0xf2, 0x8c, 0x3e, 0xe5, 0xe0, 0x5d, 0xbd, 0x56, 0xbc, 0x1b, 0x3e,
  0xa5, 0x4d, 0x2e, 0xbe, 0x6c, 0x7f, 0x3b, 0xbe, 0x19, 0xe5, 0x3b, 0xbf,
  0x15, 0xff, 0xcf, 0x3e, 0x47, 0x4a, 0x81, 0xbe, 0xae, 0x63, 0x5a, 0xbd,
  0x5b, 0x42, 0x63, 0xbf, 0xc9, 0xce, 0x6b, 0x3e, 0xaf, 0x03, 0xcb, 0x3e,
  0xc5, 0x3b, 0x61, 0xbe, 0xe4, 0xd0, 0xc6, 0xbe, 0xc2, 0x7b, 0xb8, 0x3e,
  0x0d, 0xaa, 0x7b, 0x3e, 0x01, 0x6c, 0xb5, 0x3e, 0x5d, 0x96, 0xd1, 0x3e,
  0x6c, 0x8c, 0x33, 0x3f, 0x0a, 0xc3, 0xac, 0x3e, 0xc2, 0x97, 0xfd, 0x3e,
  0x3e, 0xf4, 0x02, 0x3f, 0x87, 0xcb, 0x1a, 0x3f, 0xbc, 0x86, 0x0d, 0x3e,
  0xbc, 0xe3, 0xd5, 0x3c, 0xd6, 0x89, 0x23, 0xbe, 0x7a, 0x31, 0xd2, 0x3e,
  0x0a, 0xe2, 0x9f, 0x3e, 0x65, 0x4e, 0x77, 0x3e, 0xb9, 0x67, 0xbe, 0x3e,
  0xeb, 0x28, 0x12, 0x3f, 0x45, 0x08, 0xdb, 0x3e, 0x8f, 0x2a, 0xb8, 0x3e,
  0x42, 0x45, 0xa2, 0x3e, 0xbc, 0x7f, 0xd2, 0x3e, 0x23, 0x11, 0x61, 0x3e,
  0x5c, 0xa2, 0x98, 0x3e, 0xa7, 0x39, 0x47, 0x3e, 0x13, 0x2a, 0x02, 0x3f,
  0x5e, 0x14, 0xa8, 0x3e, 0x4f, 0x49, 0xaf, 0x3d, 0xb2, 0xf3, 0xf4, 0x3d,
  0x06, 0xee, 0xb2, 0x3e, 0xb9, 0x6c, 0x95, 0x3e, 0x7b, 0xd2, 0x6f, 0x3e,
  0x06, 0xf0, 0xca, 0x3d, 0x46, 0xfa, 0x34, 0x3e, 0x5e, 0x5d, 0x85, 0x3e,
  0x4f, 0x93, 0x92, 0x3e, 0x49, 0xb8, 0xa1, 0x3e, 0x0f, 0x01, 0xf8, 0x3e,
  0x63, 0xe5, 0x62, 0x3d, 0x13, 0xc8, 0x50, 0xbe, 0x3d, 0x81, 0x13, 0xbe,
  0x76, 0x29, 0x20, 0xbe, 0x15, 0x9f, 0xa4, 0xbb, 0x26, 0xf9, 0xcd, 0xbd,
  0x3a, 0x98, 0x62, 0xbe, 0x08, 0x2e, 0x3f, 0xbe, 0x03, 0x4f, 0x33, 0x3e,
  0xe7, 0x97, 0xe7, 0x3c, 0x3b, 0x12, 0x23, 0x3e, 0xb7, 0x78, 0x0b, 0x3e,
  0xea, 0x15, 0xc2, 0xbd, 0x13, 0x3e, 0x37, 0xbe, 0x2f, 0x96, 0x7f, 0xbe,
  0xbd, 0xa4, 0x90, 0xbe, 0x62, 0x51, 0xd8, 0xbd, 0x7f, 0xef, 0x6d, 0xbe,
  0xcc, 0xa3, 0xc2, 0xbe, 0x2f, 0xe4, 0x92, 0xbe, 0x83, 0xfa, 0x9c, 0xbd,
  0xa0, 0xff, 0x3f, 0xbe, 0x5f, 0x56, 0x36, 0xbe, 0x1c, 0xf5, 0x04, 0xbe,
  0xb6, 0x72, 0x86, 0xbe, 0x57, 0x4d, 0x8d, 0xbe, 0x6c, 0x25, 0xca, 0xbe,
  0x57, 0xc3, 0xa3, 0xbe, 0x9a, 0x17, 0x81, 0xbe, 0x76, 0x95, 0x96, 0xbe,
  0xca, 0x1a, 0xc2, 0xbe, 0xc9, 0x18, 0xd2, 0xbe, 0x9c, 0x38, 0x2a, 0xbe,
  0xbe, 0x5f, 0xf6, 0xbe, 0x70, 0x54, 0xa7, 0xbe, 0xe8, 0xac, 0xd8, 0xbe,
  0xc3, 0x48, 0xe2, 0xbd, 0x96, 0x69, 0x20, 0xbf, 0x3d, 0xc7, 0xc0, 0xbe,
  0x03, 0x5a, 0x43, 0xbf, 0xeb, 0x00, 0xa9, 0xbe, 0xa0, 0x0b, 0x1a, 0xbf,
  0x13, 0x8b, 0xfa, 0xbe, 0xe3, 0xbc, 0x5e, 0xbf, 0x9f, 0x85, 0xb2, 0xbe,
  0x36, 0x72, 0x83, 0xbf, 0xe9, 0xc8, 0x3c, 0xbf, 0xd6, 0xc2, 0x5b, 0xbf,
  0x54, 0x4e, 0xbe, 0xbe, 0x75, 0x60, 0x60, 0xbf, 0xc4, 0xec, 0x01, 0x3e,
  0x35, 0xf8, 0x70, 0xbf, 0xe6, 0x56, 0x87, 0xbe, 0xd9, 0x36, 0x8b, 0xbf,
  0x53, 0xc5, 0x99, 0x3e, 0xcd, 0x99, 0x5f, 0xbf, 0xdc, 0x71, 0x99, 0xbf,
  0x80, 0x1d, 0x0a, 0xc0, 0x08, 0x47, 0x7c, 0xbe, 0x33, 0x45, 0x4f, 0xc0,
  0x96, 0x59, 0xc9, 0xbf, 0xfd, 0x7f, 0x0e, 0xbf, 0xd7, 0xba, 0x77, 0xbe,
  0x83, 0xd4, 0x48, 0xbe, 0x33, 0xbb, 0xcb, 0xbf, 0x7c, 0xd2, 0x33, 0xbf,
  0x4c, 0x72, 0x9f, 0xbe, 0xf9, 0x26, 0x9c, 0xbe, 0x1b, 0x1b, 0x11, 0xc0,
  0xae, 0x36, 0x17, 0xbf, 0x00, 0x91, 0x07, 0xbf, 0x76, 0xe1, 0xc0, 0xbd,
  0xae, 0x20, 0xb8, 0xbd, 0xfd, 0x20, 0x93, 0x3d, 0x83, 0x7e, 0xd0, 0xbd,
  0xc0, 0x70, 0x93, 0x3e, 0xbf, 0x93, 0x63, 0xbe, 0xb3, 0xc2, 0x6d, 0x3d,
  0xb1, 0x09, 0x59, 0xbe, 0x39, 0x18, 0x53, 0x3e, 0x8c, 0xe4, 0xb9, 0x3e,
  0xb8, 0x4e, 0x11, 0x3f, 0x4c, 0x39, 0xc2, 0x3e, 0xc5, 0xc4, 0x59, 0x3f,
  0xf2, 0x78, 0xff, 0x3d, 0x29, 0x45, 0x7a, 0x3d, 0xb6, 0x72, 0xd7, 0x3a,
  0x98, 0x32, 0x0d, 0x3e, 0xc2, 0xe8, 0xe9, 0x3b, 0x4b, 0x84, 0x61, 0x3e,
  0x4e, 0x9b, 0xcc, 0xbd, 0x33, 0xdc, 0x43, 0x3e, 0xb0, 0xbc, 0xd6, 0x3e,
  0x12, 0xa4, 0xe1, 0x3d, 0xb3, 0xed, 0x10, 0x3e, 0x26, 0xb0, 0x82, 0x3e,
  0x00, 0xac, 0xc0, 0x3d, 0xbe, 0x79, 0x69, 0x3e, 0x42, 0x22, 0x87, 0xbc,
  0xad, 0x44, 0xfa, 0x3d, 0x60, 0x84, 0x92, 0x3c, 0x35, 0x9d, 0x52, 0x3e,
  0xf5, 0xeb, 0x36, 0x3b, 0xea, 0x97, 0x1a, 0x3e, 0x64, 0x9f, 0x00, 0x3e,
  0x3f, 0xb8, 0x4c, 0x3e, 0x49, 0x33, 0x06, 0xbd, 0x95, 0x19, 0x12, 0xbd,
  0x5c, 0x0e, 0xe1, 0x3d, 0x08, 0xb1, 0x1b, 0x3e, 0x82, 0x1d, 0x59, 0x3d,
  0x4c, 0xeb, 0xa7, 0x3d, 0xfa, 0x21, 0xd4, 0x3c, 0x97, 0x9c, 0xff, 0x3d,
  0x16, 0xf5, 0x1c, 0x3c, 0x02, 0x36, 0x49, 0x3e, 0x43, 0xe6, 0x36, 0x3d,
  0x15, 0x79, 0x07, 0x3e, 0x2c, 0xcc, 0x18, 0x3c, 0xbb, 0x92, 0x76, 0xbe,
  0x80, 0x9b, 0x76, 0x3d, 0x78, 0xad, 0x91, 0x3d, 0xb1, 0x6f, 0x89, 0xbd,
  0x5c, 0x61, 0xce, 0x3c, 0x0b, 0xaa, 0xf0, 0x3d, 0x18, 0x8b, 0x13, 0x3a,
  0x3c, 0xdd, 0xa1, 0x3d, 0x45, 0x7f, 0xa6, 0x3d, 0x94, 0xf2, 0xf7, 0xbd,
  0x2d, 0xd4, 0x34, 0x3e, 0x54, 0xd2, 0x40, 0xbe, 0xca, 0xd7, 0x63, 0xbe,
  0x35, 0xb5, 0xa1, 0xbd, 0xe8, 0xc8, 0x01, 0x3e, 0xca, 0x78, 0xc8, 0xbd,
  0x01, 0x50, 0x17, 0x3d, 0x2c, 0x28, 0x91, 0xbd, 0x96, 0x45, 0xcd, 0x3a,
  0xbd, 0x04, 0xbc, 0x3c, 0x37, 0xe2, 0x06, 0x3d, 0x72, 0x88, 0xd8, 0xbd,
  0x28, 0x5f, 0x4f, 0x3e, 0x27, 0xcd, 0x36, 0xbd, 0xd6, 0x56, 0x67, 0xbd,
  0xb3, 0x5b, 0xbb, 0x3e, 0x7d, 0x80, 0x41, 0x3e, 0xee, 0xbe, 0x8d, 0x3e,
  0x53, 0xbd, 0xfb, 0xbe, 0x27, 0x8c, 0x38, 0x3f, 0x0b, 0xc0, 0x48, 0x3d,
  0x73, 0x87, 0x32, 0x3e, 0x02, 0x5c, 0xda, 0x3d, 0xaa, 0x0e, 0xf5, 0x3e,
  0x77, 0xed, 0x4e, 0xbe, 0x89, 0x1d, 0x40, 0x3d, 0x67, 0x2a, 0xba, 0xbe,
  0x3c, 0x7a, 0x12, 0xbe, 0x53, 0x15, 0x7d, 0x3c, 0x76, 0xfd, 0xca, 0x3d,
  0xb7, 0x06, 0xb2, 0xbe, 0xce, 0xc0, 0x33, 0x3e, 0x8c, 0x8d, 0x9a, 0x3d,
  0x68, 0x4f, 0xa4, 0x3d, 0x78, 0xf7, 0x8a, 0xbe, 0xd0, 0xe9, 0xbb, 0xbd,
  0x9d, 0xfe, 0x23, 0xbe, 0xb2, 0xfa, 0xcc, 0x3d, 0xb6, 0x68, 0x35, 0xbe,
  0xeb, 0x88, 0x42, 0x3c, 0x1f, 0xf7, 0xb4, 0x3d, 0x44, 0x5e, 0x93, 0x3e,
  0x32, 0xe3, 0x25, 0xbf, 0x4c, 0x1f, 0xcd, 0x3d, 0x7c, 0x23, 0x87, 0x3b,
  0xbe, 0xae, 0x43, 0x3d, 0xdd, 0x3b, 0xee, 0xbe, 0xfe, 0x63, 0x60, 0xbd,
  0xbb, 0x81, 0xec, 0xbe, 0x23, 0xcb, 0xa9, 0x3e, 0xd2, 0xbf, 0x0f, 0xc0,
  0x6d, 0xee, 0x39, 0xbf, 0xdb, 0x88, 0xcd, 0xbe, 0xa5, 0xfd, 0xf7, 0x3c,
  0xb8, 0xe1, 0xb6, 0xbf, 0x21, 0x8c, 0x18, 0xbf, 0x24, 0xf0, 0xa7, 0xbe,
  0x67, 0xba, 0x92, 0x3d, 0xef, 0x94, 0x57, 0xbf, 0xe0, 0xba, 0x00, 0xc0,
  0x5d, 0x95, 0x97, 0xbf, 0xa7, 0x31, 0x70, 0xbe, 0xce, 0x70, 0x62, 0xc0,
  0x49, 0x76, 0x9b, 0xbf, 0x9f, 0xb7, 0xbb, 0xbe, 0xa7, 0x2f, 0x19, 0xbe,
  0x96, 0x2c, 0xc8, 0x3d, 0x9e, 0x8d, 0x56, 0xbf, 0xed, 0xc7, 0x2c, 0xbe,
  0xde, 0x18, 0xdd, 0xbd, 0xfd, 0xfc, 0x8b, 0xbe, 0xa5, 0x60, 0x2b, 0xc0,
  0xfa, 0xc0, 0xce, 0xbe, 0x1c, 0x9a, 0x63, 0x3d, 0xd1, 0x95, 0x22, 0xbe,
  0x02, 0xc6, 0xfa, 0xbc, 0x8e, 0x8f, 0x7e, 0xbd, 0x47, 0x14, 0x26, 0xbd,
  0x8a, 0xb8, 0x1c, 0xba, 0x0d, 0xd0, 0x1f, 0xbd, 0xcc, 0xe7, 0xfd, 0xbc,
  0x18, 0xd2, 0x97, 0xbd, 0x56, 0xbe, 0x9a, 0x3c, 0x26, 0xaf, 0xf1, 0x3c,
  0xe9, 0x73, 0x7e, 0x3e, 0xba, 0x99, 0xe3, 0x3e, 0xc6, 0x36, 0x8c, 0x3e,
  0x16, 0xfe, 0x82, 0x3c, 0xd2, 0x95, 0x94, 0x3d, 0x34, 0x28, 0x2c, 0x3a,
  0x4d, 0x5a, 0xac, 0x3d, 0x5e, 0x07, 0x37, 0xbd, 0xea, 0x16, 0x10, 0x3d,
  0x93, 0xcf, 0x24, 0xbd, 0x15, 0x89, 0x90, 0x3d, 0xdb, 0x8f, 0x09, 0x3e,
  0xe1, 0xb0, 0xb1, 0x3e, 0xb0, 0x8e, 0x4a, 0x3e, 0x5d, 0x84, 0x9f, 0x3d,
  0x9a, 0xce, 0x61, 0x3d, 0xc4, 0x97, 0xfe, 0x3d, 0x98, 0x32, 0xc8, 0x3c,
  0x18, 0xdd, 0x0f, 0x3e, 0x1b, 0x80, 0x78, 0x3c, 0xe0, 0xab, 0x82, 0x3d,
  0x00, 0x44, 0x04, 0x3d, 0x5c, 0x1b, 0x43, 0x3e, 0x7c, 0xcd, 0x6f, 0x3b,
  0x97, 0x7b, 0x7c, 0x3d, 0x4e, 0x4b, 0xb3, 0x3c, 0xcb, 0xcb, 0x99, 0xbd,
  0x6f, 0x51, 0x25, 0xc0, 0x85, 0x09, 0x80, 0xbf, 0x2e, 0x08, 0xa4, 0xbf,
  0x2c, 0x7a, 0xe3, 0xbe, 0xf2, 0x1a, 0x21, 0xc0, 0xb9, 0x89, 0x87, 0xbf,
  0xae, 0x5f, 0xa2, 0xbf, 0x06, 0x49, 0xfe, 0xbe, 0xbc, 0x79, 0x2b, 0xc0,
  0x61, 0xff, 0x55, 0xbe, 0x85, 0xfb, 0xba, 0xbf, 0x23, 0xbb, 0x23, 0x3e,
  0x12, 0x49, 0xb5, 0x3e, 0xee, 0x7d, 0xd3, 0x3e, 0x2e, 0x63, 0x1b, 0x3e,
  0x2c, 0x67, 0x0b, 0x3f, 0xc0, 0x2c, 0x19, 0x3e, 0x7e, 0xe3, 0xd7, 0x3e,
  0x37, 0x47, 0x82, 0x3d, 0xab, 0x47, 0x10, 0x3f, 0x17, 0x6c, 0x26, 0x3f,
  0x58, 0x21, 0x41, 0x3f, 0x6a, 0x0f, 0x47, 0x3f, 0xee, 0xcc, 0x01, 0x3f,
  0xaf, 0xb4, 0xf8, 0x3e, 0x18, 0xda, 0xae, 0x3e, 0x5c, 0x70, 0x96, 0x3e,
  0x5d, 0xde, 0xb3, 0x3e, 0x5d, 0xc7, 0x9b, 0x3e, 0x28, 0x38, 0x48, 0x3e,
  0x6d, 0xfa, 0x42, 0x3e, 0x47, 0xe1, 0x8f, 0x3e, 0x00, 0x68, 0x93, 0x3e,
  0x5f, 0x04, 0x01, 0x3e, 0xab, 0x1b, 0x95, 0x3c, 0x16, 0x77, 0x5c, 0x3e,
  0x75, 0x04, 0x89, 0x3e, 0x93, 0xd3, 0x78, 0x3e, 0x8d, 0xbe, 0xd2, 0x3c,
  0x14, 0x59, 0xa9, 0x3c, 0xc0, 0x85, 0xab, 0x3e, 0x51, 0xfd, 0x5e, 0x3e,
  0x74, 0x94, 0x2d, 0x3e, 0xd1, 0x26, 0x0e, 0x3e, 0xe0, 0x16, 0xa4, 0x3e,
  0xa6, 0xc0, 0xb6, 0xbd, 0x12, 0x59, 0x4d, 0xbe, 0xb4, 0x07, 0xde, 0xbd,
  0x2f, 0x3a, 0xb0, 0x3d, 0x5a, 0xeb, 0x59, 0x3c, 0x58, 0x2e, 0x62, 0x3c,
  0x7a, 0x6d, 0xc2, 0xbc, 0x2c, 0x8c, 0x0d, 0x3d, 0x1f, 0xab, 0xa5, 0x3d,
  0x63, 0x64, 0x94, 0x3d, 0xef, 0x97, 0x60, 0x3c, 0x24, 0xc7, 0x0d, 0xbe,
  0x60, 0x70, 0x6f, 0xbe, 0x0e, 0x7a, 0xf0, 0xbe, 0xc7, 0xae, 0x85, 0xbe,
  0xbe, 0xfb, 0xbc, 0xbc, 0x07, 0x94, 0x52, 0x3d, 0xcb, 0x01, 0xd8, 0xbc,
  0xab, 0xd5, 0x6c, 0x3c, 0x68, 0x8f, 0x1a, 0xba, 0x8e, 0xa4, 0x8b, 0xbb,
  0xe6, 0x8e, 0xa6, 0x3c, 0x84, 0xb5, 0x0c, 0xbd, 0xb7, 0xfe, 0x35, 0xbd,
  0x62, 0x5f, 0x14, 0xbd, 0xbe, 0xcf, 0x61, 0xbe, 0x57, 0x98, 0xb7, 0x3c,
  0x08, 0x00, 0xc3, 0xbc, 0x38, 0xf3, 0xa4, 0x3d, 0xb4, 0xa2, 0x8f, 0xbd,
  0xb5, 0x91, 0xa3, 0xbb, 0x88, 0xfd, 0x64, 0xbc, 0xaa, 0xca, 0xaf, 0x3b,
  0xfa, 0x4f, 0x33, 0xbc, 0x62, 0x0c, 0xb3, 0xbc, 0xfe, 0xed, 0xf9, 0x3d,
  0xb5, 0xcb, 0xc6, 0x3d, 0xb0, 0x84, 0x94, 0xbc, 0x10, 0xad, 0x39, 0x3d,
  0x0f, 0xc5, 0x46, 0x3d, 0x01, 0xe4, 0x77, 0xbd, 0x56, 0x58, 0x13, 0xbe,
  0x59, 0xea, 0x59, 0xbd, 0xcd, 0xa0, 0x63, 0xbb, 0x1a, 0x99, 0xee, 0xbd,
  0x2c, 0xbc, 0xe6, 0xbd, 0xff, 0x0f, 0x04, 0xbd, 0x5a, 0x11, 0xfd, 0x3d,
  0xf5, 0xaa, 0x1d, 0xbc, 0x9c, 0x37, 0xa7, 0xbd, 0x1b, 0xd3, 0x09, 0x3e,
  0x52, 0x2c, 0x58, 0x3e, 0x28, 0xcb, 0x90, 0x3b, 0x54, 0xff, 0x5a, 0x3f,
  0xdc, 0x58, 0xe2, 0x3e, 0x88, 0x9e, 0xe0, 0x3e, 0xd4, 0x1a, 0xbc, 0x3e,
  0xa1, 0xff, 0x6c, 0x3f, 0x16, 0xfc, 0xfe, 0x3e, 0x46, 0xca, 0x23, 0xbd,
  0x26, 0x2b, 0x80, 0x3e, 0x48, 0xa0, 0x51, 0x3f, 0x39, 0x5e, 0x9b, 0x3e,
  0xa9, 0xac, 0x1f, 0x3e, 0x4a, 0xa0, 0x3b, 0xbd, 0x58, 0xff, 0x23, 0xbe,
  0x7f, 0x91, 0xe0, 0x3e, 0x1e, 0xbb, 0xbe, 0x3e, 0xab, 0xf3, 0x00, 0x3e,
  0x6d, 0xac, 0x38, 0xbd, 0x7c, 0x87, 0xb1, 0x3e, 0xec, 0x09, 0x8b, 0x3e,
  0x1d, 0x33, 0x79, 0x3e, 0xf3, 0xa5, 0x58, 0x3e, 0xb3, 0xbc, 0x01, 0x3e,
  0x3f, 0x3a, 0x23, 0x3e, 0x5a, 0x40, 0xe0, 0xbc, 0x7b, 0x4f, 0xa0, 0xbe,
  0x1d, 0x34, 0xc2, 0x3e, 0x5a, 0x20, 0x9d, 0x3e, 0xd7, 0x7f, 0x0f, 0x3e,
  0xcc, 0x75, 0x91, 0xbe, 0xfd, 0xc1, 0xb2, 0x3e, 0x00, 0x4b, 0xb1, 0x3d,
  0xd1, 0x9c, 0xe1, 0x3d, 0x93, 0x1f, 0x9f, 0xbd, 0x4b, 0x4e, 0xdd, 0x3d,
  0xde, 0xe8, 0x85, 0x3e, 0x71, 0x8b, 0xa9, 0xbd, 0x30, 0xdd, 0xa6, 0xbe,
  0xf0, 0xb7, 0xa5, 0x3e, 0xf4, 0xeb, 0x2b, 0x3e, 0x5a, 0x80, 0xfe, 0xbb,
  0x87, 0x96, 0x9f, 0xbe, 0xdf, 0xf6, 0x91, 0x3e, 0x17, 0x61, 0x18, 0x3e,
  0x1d, 0xec, 0xac, 0x3d, 0x08, 0xff, 0xdf, 0xbd, 0x14, 0x71, 0xdd, 0x3d,
  0x0e, 0x16, 0x07, 0x3d, 0xa9, 0xe7, 0xd9, 0xbe, 0xef, 0xaa, 0xc6, 0xbe,
  0x09, 0x91, 0x4a, 0x3e, 0xb5, 0xfa, 0xb4, 0x3d, 0x9d, 0xa2, 0x4c, 0xbe,
  0xae, 0x8a, 0xdc, 0xbe, 0xcb, 0x40, 0x14, 0x3e, 0xc9, 0x98, 0x93, 0x3d,
  0xed, 0x49, 0xec, 0xbd, 0x47, 0xbd, 0x60, 0xbe, 0x35, 0x82, 0x81, 0x3b,
  0x64, 0x80, 0x18, 0x3e, 0x61, 0x5f, 0x2c, 0xbe, 0x14, 0xa2, 0xf0, 0xbe,
  0x98, 0x64, 0x68, 0x3e, 0x9c, 0x58, 0x29, 0x3e, 0x56, 0xd8, 0xe7, 0xbd,
  0xd5, 0x52, 0xea, 0xbe, 0x2c, 0xd0, 0x7a, 0x3e, 0x14, 0x56, 0xf7, 0xbc,
  0x64, 0x83, 0x36, 0xbd, 0x95, 0x87, 0x1d, 0xbe, 0x8c, 0x9f, 0x43, 0x3e,
  0xb3, 0xde, 0xc9, 0x3d, 0xd9, 0x01, 0x76, 0xbe, 0x3b, 0xdc, 0x02, 0xbf,
  0x7d, 0x60, 0x9b, 0x3e, 0x02, 0xcb, 0x44, 0x3e, 0x26, 0xab, 0x85, 0xbe,
  0x3a, 0xb4, 0xdf, 0xbe, 0xfb, 0x97, 0x25, 0x3e, 0xae, 0x65, 0xde, 0x3d,
  0x7b, 0x74, 0xeb, 0x3c, 0x10, 0xe2, 0x18, 0xbe, 0x1c, 0x2c, 0x85, 0x3e,
  0x93, 0x9f, 0x80, 0x3d, 0x63, 0x02, 0x04, 0xbf, 0x57, 0x46, 0x6f, 0xbf,
  0x16, 0x27, 0x25, 0x3e, 0x60, 0xa9, 0x5d, 0x3d, 0xa1, 0xb2, 0x05, 0xbf,
  0x4e, 0xe7, 0x5c, 0xbf, 0xca, 0x64, 0x14, 0x3e, 0xe8, 0x09, 0xc6, 0x3d,
  0x28, 0x0a, 0x9b, 0xbd, 0xbd, 0x4c, 0xfc, 0xbe, 0x5a, 0x40, 0x18, 0x3e,
  0xb9, 0x37, 0xf6, 0x3d, 0x12, 0x7e, 0x87, 0xbe, 0xed, 0x84, 0x82, 0xbf,
  0xa7, 0xe5, 0xf1, 0xbe, 0xab, 0xa9, 0xb8, 0x3d, 0x39, 0x64, 0x8a, 0xbe,
  0x64, 0x6c, 0x86, 0xbf, 0x40, 0x39, 0x98, 0xbe, 0xc1, 0x9b, 0xe8, 0x3e,
  0xd5, 0x02, 0x42, 0x3e, 0x92, 0xa9, 0x10, 0xbf, 0xe8, 0x29, 0x71, 0x3d,
  0x58, 0x6d, 0x7a, 0xbe, 0xe3, 0x72, 0xfa, 0xbd, 0xc6, 0xb1, 0x24, 0xbf,
  0x38, 0xc1, 0xcb, 0xbe, 0xbc, 0x18, 0x1b, 0xbe, 0x10, 0xe2, 0xc0, 0xbd,
  0x4d, 0x5a, 0xff, 0xbe, 0x36, 0x10, 0x88, 0xbe, 0xed, 0x63, 0x13, 0xbe,
  0x54, 0xe3, 0x8e, 0xbe, 0x91, 0x8d, 0x6f, 0xbf, 0x4f, 0x17, 0x80, 0xbe,
  0xc4, 0x65, 0xd0, 0x3c, 0xe3, 0x80, 0x57, 0x3e, 0x8a, 0xaf, 0x1e, 0x3e,
  0x1c, 0xf7, 0x3e, 0x3e, 0x10, 0xe8, 0xbb, 0xbd, 0x48, 0xbe, 0x57, 0x3e,
  0xb0, 0x6f, 0x9b, 0x3e, 0x99, 0xa5, 0x89, 0x3e, 0xfb, 0x68, 0xac, 0xbc,
  0xf6, 0xb8, 0x9f, 0xbe, 0x78, 0x64, 0x28, 0xbf, 0x2f, 0xb3, 0xa1, 0xbd,
  0x3e, 0xb4, 0xf2, 0x3d, 0x9c, 0xa1, 0x49, 0x3e, 0xf3, 0x17, 0xdd, 0x3e,
  0x1e, 0xbc, 0x8b, 0x3e, 0x48, 0x7f, 0x7e, 0x3e, 0x9a, 0x3d, 0xb1, 0x3e,
  0x20, 0x3d, 0xf4, 0x3e, 0xa3, 0x82, 0xf3, 0x3e, 0x8d, 0x11, 0x24, 0xbd,
  0x3f, 0x50, 0x33, 0xbe, 0x95, 0x92, 0xb9, 0xbe, 0xee, 0x48, 0xbc, 0xbd,
  0xbd, 0xf7, 0x38, 0x3e, 0xf8, 0x30, 0x28, 0x3e, 0xfc, 0xcf, 0xe4, 0x3e,
  0x65, 0x97, 0xe2, 0x3e, 0x7d, 0x36, 0x38, 0x3e, 0x0f, 0xc9, 0x9c, 0x3e,
  0xf2, 0xc7, 0xf0, 0x3e, 0x7f, 0xa2, 0xeb, 0x3e, 0x0f, 0x2c, 0x80, 0xbd,
  0x3d, 0xec, 0x58, 0xbd, 0x90, 0x1e, 0x0a, 0xbe, 0x4a, 0x9b, 0x90, 0x3c,
  0x81, 0x05, 0x81, 0x3e, 0x80, 0xd2, 0x2d, 0x3e, 0x0c, 0x0f, 0x9d, 0x3e,
  0x84, 0x06, 0x73, 0x3e, 0x7c, 0x75, 0x1d, 0x3e, 0x98, 0x65, 0x93, 0x3d,
  0x47, 0x22, 0x74, 0x3e, 0x1e, 0xdd, 0x76, 0x3e, 0x76, 0xc0, 0x6e, 0x3d,
  0x14, 0xdf, 0xa7, 0x3e, 0xca, 0xcf, 0x4b, 0x3e, 0x42, 0xa4, 0x68, 0x3e,
  0x29, 0xcb, 0x0b, 0x3d, 0x43, 0xcf, 0x18, 0xbd, 0x43, 0x34, 0x26, 0xbe,
  0xa2, 0xc8, 0x93, 0xbd, 0x0e, 0xa3, 0x28, 0x3e, 0x1f, 0xcf, 0x84, 0xbe,
  0xc9, 0x50, 0xf1, 0xbd, 0xb6, 0x7a, 0xcb, 0xbd, 0xa8, 0x4b, 0x6a, 0x3e,
  0xc9, 0x4c, 0xd7, 0x3e, 0xd9, 0xa9, 0x05, 0x3f, 0x77, 0xeb, 0x0d, 0x3e,
  0x6d, 0xa1, 0x63, 0xbe, 0x01, 0x2f, 0x11, 0xbf, 0x16, 0xe9, 0x0c, 0xbf,
  0xc4, 0x19, 0x3c, 0xbf, 0xeb, 0x4c, 0x4a, 0xbe, 0x1a, 0x67, 0x2f, 0xbf,
  0x55, 0xce, 0xf8, 0xbe, 0x8e, 0xf4, 0x23, 0xbf, 0xb6, 0xf4, 0x32, 0x3d,
  0x7d, 0xc9, 0xa2, 0x3c, 0x63, 0x61, 0x95, 0x3e, 0x2d, 0x38, 0x90, 0xbe,
  0x8e, 0xfd, 0xff, 0xff, 0x10, 0x00, 0x00, 0x00, 0x07, 0x00, 0x00, 0x00,
  0x14, 0x00, 0x00, 0x00, 0x34, 0x00, 0x00, 0x00, 0x02, 0x00, 0x00, 0x00,
  0x10, 0x00, 0x00, 0x00, 0x60, 0x00, 0x00, 0x00, 0x1d, 0x00, 0x00, 0x00,
  0x73, 0x65, 0x71, 0x75, 0x65, 0x6e, 0x74, 0x69, 0x61, 0x6c, 0x5f, 0x31,
  0x31, 0x2f, 0x64, 0x65, 0x6e, 0x73, 0x65, 0x5f, 0x32, 0x32, 0x2f, 0x4d,
  0x61, 0x74, 0x4d, 0x75, 0x6c, 0x00, 0x00, 0x00, 0x00, 0xfd, 0xff, 0xff,
  0xfa, 0xfd, 0xff, 0xff, 0x04, 0x00, 0x00, 0x00, 0x08, 0x00, 0x00, 0x00,
  0xff, 0xff, 0xff, 0xff, 0x60, 0x00, 0x00, 0x00, 0x00, 0x00, 0x0e, 0x00,
  0x18, 0x00, 0x08, 0x00, 0x07, 0x00, 0x0c, 0x00, 0x10, 0x00, 0x14, 0x00,
  0x0e, 0x00, 0x00, 0x00, 0x00, 0x00, 0x00, 0x02, 0x10, 0x00, 0x00, 0x00,
  0x06, 0x00, 0x00, 0x00, 0x10, 0x00, 0x00, 0x00, 0x30, 0x00, 0x00, 0x00,
  0x01, 0x00, 0x00, 0x00, 0x02, 0x00, 0x00, 0x00, 0x1e, 0x00, 0x00, 0x00,
  0x73, 0x65, 0x71, 0x75, 0x65, 0x6e, 0x74, 0x69, 0x61, 0x6c, 0x5f, 0x31,
  0x31, 0x2f, 0x66, 0x6c, 0x61, 0x74, 0x74, 0x65, 0x6e, 0x5f, 0x31, 0x31,
  0x2f, 0x43, 0x6f, 0x6e, 0x73, 0x74, 0x00, 0x00, 0x6c, 0xfd, 0xff, 0xff,
  0x66, 0xfe, 0xff, 0xff, 0x04, 0x00, 0x00, 0x00, 0x0c, 0x00, 0x00, 0x00,
  0x26, 0xa7, 0x84, 0xbb, 0xc2, 0xac, 0x14, 0x3e, 0xb1, 0x26, 0xf1, 0xbe,
  0x5a, 0xfe, 0xff, 0xff, 0x10, 0x00, 0x00, 0x00, 0x05, 0x00, 0x00, 0x00,
  0x10, 0x00, 0x00, 0x00, 0x48, 0x00, 0x00, 0x00, 0x01, 0x00, 0x00, 0x00,
  0x03, 0x00, 0x00, 0x00, 0x36, 0x00, 0x00, 0x00, 0x73, 0x65, 0x71, 0x75,
  0x65, 0x6e, 0x74, 0x69, 0x61, 0x6c, 0x5f, 0x31, 0x31, 0x2f, 0x64, 0x65,
  0x6e, 0x73, 0x65, 0x5f, 0x32, 0x33, 0x2f, 0x42, 0x69, 0x61, 0x73, 0x41,
  0x64, 0x64, 0x2f, 0x52, 0x65, 0x61, 0x64, 0x56, 0x61, 0x72, 0x69, 0x61,
  0x62, 0x6c, 0x65, 0x4f, 0x70, 0x2f, 0x72, 0x65, 0x73, 0x6f, 0x75, 0x72,
  0x63, 0x65, 0x00, 0x00, 0xe0, 0xfd, 0xff, 0xff, 0xda, 0xfe, 0xff, 0xff,
  0x04, 0x00, 0x00, 0x00, 0x40, 0x00, 0x00, 0x00, 0xbc, 0x66, 0x50, 0x3f,
  0x12, 0xc4, 0x6e, 0x3e, 0x4a, 0x71, 0x86, 0x3f, 0x8c, 0x8f, 0x03, 0x3f,
  0x92, 0x35, 0xb9, 0x3d, 0x64, 0x6b, 0xad, 0xbe, 0x68, 0x38, 0x07, 0x3f,
  0x22, 0xeb, 0x6a, 0x3f, 0x81, 0x89, 0x99, 0x3e, 0x0a, 0x5e, 0x38, 0xbd,
  0x2a, 0x9c, 0x92, 0x3d, 0x2d, 0xdd, 0xb2, 0x3e, 0x7d, 0xf2, 0xd8, 0x3e,
  0xb0, 0xc0, 0x44, 0xbe, 0x4f, 0xf9, 0xb7, 0x3d, 0x93, 0x22, 0xe3, 0x3d,
  0x02, 0xff, 0xff, 0xff, 0x10, 0x00, 0x00, 0x00, 0x04, 0x00, 0x00, 0x00,
  0x10, 0x00, 0x00, 0x00, 0x48, 0x00, 0x00, 0x00, 0x01, 0x00, 0x00, 0x00,
  0x10, 0x00, 0x00, 0x00, 0x36, 0x00, 0x00, 0x00, 0x73, 0x65, 0x71, 0x75,
  0x65, 0x6e, 0x74, 0x69, 0x61, 0x6c, 0x5f, 0x31, 0x31, 0x2f, 0x64, 0x65,
  0x6e, 0x73, 0x65, 0x5f, 0x32, 0x32, 0x2f, 0x42, 0x69, 0x61, 0x73, 0x41,
  0x64, 0x64, 0x2f, 0x52, 0x65, 0x61, 0x64, 0x56, 0x61, 0x72, 0x69, 0x61,
  0x62, 0x6c, 0x65, 0x4f, 0x70, 0x2f, 0x72, 0x65, 0x73, 0x6f, 0x75, 0x72,
  0x63, 0x65, 0x00, 0x00, 0x88, 0xfe, 0xff, 0xff, 0x82, 0xff, 0xff, 0xff,
  0x04, 0x00, 0x00, 0x00, 0x10, 0x00, 0x00, 0x00, 0xf0, 0xda, 0x65, 0xbc,
  0x08, 0xf4, 0x59, 0xbd, 0x5e, 0xbb, 0x5c, 0xbd, 0x3b, 0xba, 0x7e, 0xbd,
  0x7a, 0xff, 0xff, 0xff, 0x10, 0x00, 0x00, 0x00, 0x03, 0x00, 0x00, 0x00,
  0x10, 0x00, 0x00, 0x00, 0x4c, 0x00, 0x00, 0x00, 0x01, 0x00, 0x00, 0x00,
  0x04, 0x00, 0x00, 0x00, 0x37, 0x00, 0x00, 0x00, 0x73, 0x65, 0x71, 0x75,
  0x65, 0x6e, 0x74, 0x69, 0x61, 0x6c, 0x5f, 0x31, 0x31, 0x2f, 0x63, 0x6f,
  0x6e, 0x76, 0x32, 0x64, 0x5f, 0x32, 0x33, 0x2f, 0x42, 0x69, 0x61, 0x73,
  0x41, 0x64, 0x64, 0x2f, 0x52, 0x65, 0x61, 0x64, 0x56, 0x61, 0x72, 0x69,
  0x61, 0x62, 0x6c, 0x65, 0x4f, 0x70, 0x2f, 0x72, 0x65, 0x73, 0x6f, 0x75,
  0x72, 0x63, 0x65, 0x00, 0x04, 0x00, 0x06, 0x00, 0x04, 0x00, 0x00, 0x00,
  0x00, 0x00, 0x06, 0x00, 0x08, 0x00, 0x04, 0x00, 0x06, 0x00, 0x00, 0x00,
  0x04, 0x00, 0x00, 0x00, 0x10, 0x00, 0x00, 0x00, 0x90, 0xb6, 0x88, 0xbe,
  0x47, 0x21, 0xb1, 0xbd, 0x16, 0x26, 0x7e, 0xbc, 0xfb, 0x87, 0x19, 0xbd,
  0x00, 0x00, 0x0e, 0x00, 0x14, 0x00, 0x04, 0x00, 0x00, 0x00, 0x08, 0x00,
  0x0c, 0x00, 0x10, 0x00, 0x0e, 0x00, 0x00, 0x00, 0x10, 0x00, 0x00, 0x00,
  0x02, 0x00, 0x00, 0x00, 0x10, 0x00, 0x00, 0x00, 0x48, 0x00, 0x00, 0x00,
  0x01, 0x00, 0x00, 0x00, 0x04, 0x00, 0x00, 0x00, 0x37, 0x00, 0x00, 0x00,
  0x73, 0x65, 0x71, 0x75, 0x65, 0x6e, 0x74, 0x69, 0x61, 0x6c, 0x5f, 0x31,
  0x31, 0x2f, 0x63, 0x6f, 0x6e, 0x76, 0x32, 0x64, 0x5f, 0x32, 0x32, 0x2f,
  0x42, 0x69, 0x61, 0x73, 0x41, 0x64, 0x64, 0x2f, 0x52, 0x65, 0x61, 0x64,
  0x56, 0x61, 0x72, 0x69, 0x61, 0x62, 0x6c, 0x65, 0x4f, 0x70, 0x2f, 0x72,
  0x65, 0x73, 0x6f, 0x75, 0x72, 0x63, 0x65, 0x00, 0x94, 0xff, 0xff, 0xff,
  0x14, 0x00, 0x18, 0x00, 0x04, 0x00, 0x00, 0x00, 0x08, 0x00, 0x0c, 0x00,
  0x10, 0x00, 0x00, 0x00, 0x00, 0x00, 0x14, 0x00, 0x14, 0x00, 0x00, 0x00,
  0x14, 0x00, 0x00, 0x00, 0x01, 0x00, 0x00, 0x00, 0x20, 0x00, 0x00, 0x00,
  0x40, 0x00, 0x00, 0x00, 0x28, 0x00, 0x00, 0x00, 0x04, 0x00, 0x00, 0x00,
  0x01, 0x00, 0x00, 0x00, 0x50, 0x00, 0x00, 0x00, 0x03, 0x00, 0x00, 0x00,
  0x01, 0x00, 0x00, 0x00, 0x08, 0x00, 0x00, 0x00, 0x69, 0x6e, 0x70, 0x75,
  0x74, 0x5f, 0x31, 0x32, 0x00, 0x00, 0x00, 0x00, 0x04, 0x00, 0x00, 0x00,
  0xff, 0xff, 0xff, 0xff, 0x50, 0x00, 0x00, 0x00, 0x03, 0x00, 0x00, 0x00,
  0x01, 0x00, 0x00, 0x00, 0xfc, 0xff, 0xff, 0xff, 0x04, 0x00, 0x04, 0x00,
  0x04, 0x00, 0x00, 0x00
};
