const unsigned char model[] __attribute__((aligned(4))) = {
  0x1c, 0x00, 0x00, 0x00, 0x54, 0x46, 0x4c, 0x33, 0x00, 0x00, 0x12, 0x00,
  0x1c, 0x00, 0x04, 0x00, 0x08, 0x00, 0x0c, 0x00, 0x10, 0x00, 0x14, 0x00,
  0x00, 0x00, 0x18, 0x00, 0x12, 0x00, 0x00, 0x00, 0x03, 0x00, 0x00, 0x00,
  0x14, 0x00, 0x00, 0x00, 0x28, 0x00, 0x00, 0x00, 0xd0, 0x00, 0x00, 0x00,
  0x28, 0x00, 0x00, 0x00, 0x78, 0x00, 0x00, 0x00, 0x05, 0x00, 0x00, 0x00,
  0xfc, 0x06, 0x00, 0x00, 0x18, 0x06, 0x00, 0x00, 0x7c, 0x03, 0x00, 0x00,
  0xc8, 0x02, 0x00, 0x00, 0xa8, 0x01, 0x00, 0x00, 0x01, 0x00, 0x00, 0x00,
  0xcc, 0x00, 0x00, 0x00, 0x14, 0x00, 0x00, 0x00, 0x34, 0x19, 0x00, 0x00,
  0x30, 0x19, 0x00, 0x00, 0x44, 0x18, 0x00, 0x00, 0xc4, 0x17, 0x00, 0x00,
  0x18, 0x17, 0x00, 0x00, 0xa0, 0x16, 0x00, 0x00, 0x30, 0x16, 0x00, 0x00,
  0xd8, 0x09, 0x00, 0x00, 0xc0, 0x08, 0x00, 0x00, 0x48, 0x08, 0x00, 0x00,
  0xb8, 0x07, 0x00, 0x00, 0x08, 0x19, 0x00, 0x00, 0x04, 0x19, 0x00, 0x00,
  0x00, 0x19, 0x00, 0x00, 0xfc, 0x18, 0x00, 0x00, 0xf8, 0x18, 0x00, 0x00,
  0xf4, 0x18, 0x00, 0x00, 0xf0, 0x18, 0x00, 0x00, 0xec, 0x18, 0x00, 0x00,
  0x38, 0x00, 0x00, 0x00, 0x01, 0x00, 0x00, 0x00, 0x0c, 0x00, 0x00, 0x00,
  0x08, 0x00, 0x0c, 0x00, 0x04, 0x00, 0x08, 0x00, 0x08, 0x00, 0x00, 0x00,
  0x08, 0x00, 0x00, 0x00, 0x13, 0x00, 0x00, 0x00, 0x13, 0x00, 0x00, 0x00,
  0x6d, 0x69, 0x6e, 0x5f, 0x72, 0x75, 0x6e, 0x74, 0x69, 0x6d, 0x65, 0x5f,
  0x76, 0x65, 0x72, 0x73, 0x69, 0x6f, 0x6e, 0x00, 0x3e, 0xe8, 0xff, 0xff,
  0x04, 0x00, 0x00, 0x00, 0x10, 0x00, 0x00, 0x00, 0x31, 0x2e, 0x35, 0x2e,
  0x30, 0x00, 0x00, 0x00, 0x00, 0x00, 0x00, 0x00, 0x00, 0x00, 0x00, 0x00,
  0x0f, 0x00, 0x00, 0x00, 0x4d, 0x4c, 0x49, 0x52, 0x20, 0x43, 0x6f, 0x6e,
  0x76, 0x65, 0x72, 0x74, 0x65, 0x64, 0x2e, 0x00, 0x00, 0x00, 0x0e, 0x00,
  0x18, 0x00, 0x04, 0x00, 0x08, 0x00, 0x0c, 0x00, 0x10, 0x00, 0x14, 0x00,
  0x0e, 0x00, 0x00, 0x00, 0x14, 0x00, 0x00, 0x00, 0x5c, 0x00, 0x00, 0x00,
  0x60, 0x00, 0x00, 0x00, 0x64, 0x00, 0x00, 0x00, 0x84, 0x00, 0x00, 0x00,
  0x12, 0x00, 0x00, 0x00, 0x00, 0x18, 0x00, 0x00, 0x8c, 0x17, 0x00, 0x00,
  0xfc, 0x16, 0x00, 0x00, 0x88, 0x16, 0x00, 0x00, 0xdc, 0x15, 0x00, 0x00,
  0x78, 0x15, 0x00, 0x00, 0x08, 0x15, 0x00, 0x00, 0xb0, 0x08, 0x00, 0x00,
  0x90, 0x07, 0x00, 0x00, 0x18, 0x07, 0x00, 0x00, 0xe0, 0x05, 0x00, 0x00,
  0xfc, 0x04, 0x00, 0x00, 0xb4, 0x03, 0x00, 0x00, 0x04, 0x03, 0x00, 0x00,
  0x58, 0x02, 0x00, 0x00, 0xa4, 0x01, 0x00, 0x00, 0xfc, 0x00, 0x00, 0x00,
  0x80, 0x00, 0x00, 0x00, 0x01, 0x00, 0x00, 0x00, 0x00, 0x00, 0x00, 0x00,
  0x01, 0x00, 0x00, 0x00, 0x11, 0x00, 0x00, 0x00, 0x08, 0x00, 0x00, 0x00,
  0x4c, 0x05, 0x00, 0x00, 0x6c, 0x04, 0x00, 0x00, 0x44, 0x03, 0x00, 0x00,
  0x90, 0x02, 0x00, 0x00, 0xf4, 0x01, 0x00, 0x00, 0x24, 0x01, 0x00, 0x00,
  0x94, 0x00, 0x00, 0x00, 0x10, 0x00, 0x00, 0x00, 0x04, 0x00, 0x00, 0x00,
  0x6d, 0x61, 0x69, 0x6e, 0x00, 0x00, 0x00, 0x00, 0x9e, 0xfd, 0xff, 0xff,
  0x00, 0x00, 0x00, 0x09, 0x04, 0x00, 0x00, 0x00, 0x1c, 0x00, 0x00, 0x00,
  0x10, 0x00, 0x00, 0x00, 0x04, 0x00, 0x00, 0x00, 0x3a, 0xe9, 0xff, 0xff,
  0x00, 0x00, 0x80, 0x3f, 0x01, 0x00, 0x00, 0x00, 0x11, 0x00, 0x00, 0x00,
  0x01, 0x00, 0x00, 0x00, 0x10, 0x00, 0x00, 0x00, 0xc6, 0xfa, 0xff, 0xff,
  0x00, 0x00, 0x00, 0x19, 0x01, 0x00, 0x00, 0x00, 0xd8, 0xe8, 0xff, 0xff,
  0x14, 0x00, 0x00, 0x00, 0x12, 0x00, 0x00, 0x00, 0x18, 0x00, 0x00, 0x00,
  0x30, 0x00, 0x00, 0x00, 0x20, 0x00, 0x00, 0x00, 0x02, 0x00, 0x00, 0x00,
  0x01, 0x00, 0x00, 0x00, 0x03, 0x00, 0x00, 0x00, 0x08, 0x00, 0x00, 0x00,
  0x49, 0x64, 0x65, 0x6e, 0x74, 0x69, 0x74, 0x79, 0x00, 0x00, 0x00, 0x00,
  0x02, 0x00, 0x00, 0x00, 0xff, 0xff, 0xff, 0xff, 0x03, 0x00, 0x00, 0x00,
  0xb4, 0xe8, 0xff, 0xff, 0x1e, 0xfe, 0xff, 0xff, 0x00, 0x00, 0x00, 0x08,
  0x03, 0x00, 0x00, 0x00, 0x18, 0x00, 0x00, 0x00, 0x0c, 0x00, 0x00, 0x00,
  0x04, 0x00, 0x00, 0x00, 0xd0, 0xe8, 0xff, 0xff, 0x01, 0x00, 0x00, 0x00,
  0x10, 0x00, 0x00, 0x00, 0x03, 0x00, 0x00, 0x00, 0x0f, 0x00, 0x00, 0x00,
  0x07, 0x00, 0x00, 0x00, 0x04, 0x00, 0x00, 0x00, 0x50, 0xe9, 0xff, 0xff,
  0x14, 0x00, 0x00, 0x00, 0x11, 0x00, 0x00, 0x00, 0x18, 0x00, 0x00, 0x00,
  0x44, 0x00, 0x00, 0x00, 0x34, 0x00, 0x00, 0x00, 0x02, 0x00, 0x00, 0x00,
  0x01, 0x00, 0x00, 0x00, 0x03, 0x00, 0x00, 0x00, 0x1d, 0x00, 0x00, 0x00,
  0x73, 0x65, 0x71, 0x75, 0x65, 0x6e, 0x74, 0x69, 0x61, 0x6c, 0x5f, 0x38,
  0x2f, 0x64, 0x65, 0x6e, 0x73, 0x65, 0x5f, 0x31, 0x37, 0x2f, 0x42, 0x69,
  0x61, 0x73, 0x41, 0x64, 0x64, 0x00, 0x00, 0x00, 0x02, 0x00, 0x00, 0x00,
  0xff, 0xff, 0xff, 0xff, 0x03, 0x00, 0x00, 0x00, 0x40, 0xe9, 0xff, 0xff,
  0xd6, 0xfc, 0xff, 0xff, 0x00, 0x00, 0x00, 0x08, 0x03, 0x00, 0x00, 0x00,
  0x24, 0x00, 0x00, 0x00, 0x18, 0x00, 0x00, 0x00, 0x0c, 0x00, 0x00, 0x00,
  0x00, 0x00, 0x06, 0x00, 0x08, 0x00, 0x07, 0x00, 0x06, 0x00, 0x00, 0x00,
  0x00, 0x00, 0x00, 0x01, 0x01, 0x00, 0x00, 0x00, 0x0f, 0x00, 0x00, 0x00,
  0x03, 0x00, 0x00, 0x00, 0x0e, 0x00, 0x00, 0x00, 0x06, 0x00, 0x00, 0x00,
  0x03, 0x00, 0x00, 0x00, 0xe2, 0xfb, 0xff, 0xff, 0x00, 0x00, 0x00, 0x09,
  0x01, 0x00, 0x00, 0x00, 0xf4, 0xe9, 0xff, 0xff, 0x14, 0x00, 0x00, 0x00,
  0x10, 0x00, 0x00, 0x00, 0x18, 0x00, 0x00, 0x00, 0x60, 0x00, 0x00, 0x00,
  0x50, 0x00, 0x00, 0x00, 0x02, 0x00, 0x00, 0x00, 0x01, 0x00, 0x00, 0x00,
  0x10, 0x00, 0x00, 0x00, 0x38, 0x00, 0x00, 0x00, 0x73, 0x65, 0x71, 0x75,
  0x65, 0x6e, 0x74, 0x69, 0x61, 0x6c, 0x5f, 0x38, 0x2f, 0x64, 0x65, 0x6e,
  0x73, 0x65, 0x5f, 0x31, 0x36, 0x2f, 0x52, 0x65, 0x6c, 0x75, 0x3b, 0x73,
  0x65, 0x71, 0x75, 0x65, 0x6e, 0x74, 0x69, 0x61, 0x6c, 0x5f, 0x38, 0x2f,
  0x64, 0x65, 0x6e, 0x73, 0x65, 0x5f, 0x31, 0x36, 0x2f, 0x42, 0x69, 0x61,
  0x73, 0x41, 0x64, 0x64, 0x00, 0x00, 0x00, 0x00, 0x02, 0x00, 0x00, 0x00,
  0xff, 0xff, 0xff, 0xff, 0x10, 0x00, 0x00, 0x00, 0xf4, 0xea, 0xff, 0xff,
  0x00, 0x00, 0x0a, 0x00, 0x10, 0x00, 0x04, 0x00, 0x08, 0x00, 0x0c, 0x00,
  0x0a, 0x00, 0x00, 0x00, 0x02, 0x00, 0x00, 0x00, 0x10, 0x00, 0x00, 0x00,
  0x04, 0x00, 0x00, 0x00, 0x01, 0x00, 0x00, 0x00, 0x0e, 0x00, 0x00, 0x00,
  0x02, 0x00, 0x00, 0x00, 0x0d, 0x00, 0x00, 0x00, 0x05, 0x00, 0x00, 0x00,
  0x92, 0xfc, 0xff, 0xff, 0x00, 0x00, 0x00, 0x16, 0x01, 0x00, 0x00, 0x00,
  0xa4, 0xea, 0xff, 0xff, 0x14, 0x00, 0x00, 0x00, 0x0f, 0x00, 0x00, 0x00,
  0x18, 0x00, 0x00, 0x00, 0x44, 0x00, 0x00, 0x00, 0x34, 0x00, 0x00, 0x00,
  0x02, 0x00, 0x00, 0x00, 0x01, 0x00, 0x00, 0x00, 0x30, 0x00, 0x00, 0x00,
  0x1e, 0x00, 0x00, 0x00, 0x73, 0x65, 0x71, 0x75, 0x65, 0x6e, 0x74, 0x69,
  0x61, 0x6c, 0x5f, 0x38, 0x2f, 0x66, 0x6c, 0x61, 0x74, 0x74, 0x65, 0x6e,
  0x5f, 0x38, 0x2f, 0x52, 0x65, 0x73, 0x68, 0x61, 0x70, 0x65, 0x00, 0x00,
  0x02, 0x00, 0x00, 0x00, 0xff, 0xff, 0xff, 0xff, 0x30, 0x00, 0x00, 0x00,
  0x88, 0xeb, 0xff, 0xff, 0x00, 0x00, 0x0e, 0x00, 0x18, 0x00, 0x08, 0x00,
  0x0c, 0x00, 0x10, 0x00, 0x07, 0x00, 0x14, 0x00, 0x0e, 0x00, 0x00, 0x00,
  0x00, 0x00, 0x00, 0x05, 0x01, 0x00, 0x00, 0x00, 0x2c, 0x00, 0x00, 0x00,
  0x20, 0x00, 0x00, 0x00, 0x04, 0x00, 0x00, 0x00, 0x2a, 0xfe, 0xff, 0xff,
  0x03, 0x00, 0x00, 0x00, 0x01, 0x00, 0x00, 0x00, 0x03, 0x00, 0x00, 0x00,
  0x01, 0x00, 0x00, 0x00, 0x00, 0x00, 0x00, 0x01, 0x01, 0x00, 0x00, 0x00,
  0x0d, 0x00, 0x00, 0x00, 0x01, 0x00, 0x00, 0x00, 0x0c, 0x00, 0x00, 0x00,
  0x4c, 0xeb, 0xff, 0xff, 0x14, 0x00, 0x00, 0x00, 0x0e, 0x00, 0x00, 0x00,
  0x20, 0x00, 0x00, 0x00, 0x5c, 0x00, 0x00, 0x00, 0x44, 0x00, 0x00, 0x00,
  0x04, 0x00, 0x00, 0x00, 0x01, 0x00, 0x00, 0x00, 0x08, 0x00, 0x00, 0x00,
  0x03, 0x00, 0x00, 0x00, 0x02, 0x00, 0x00, 0x00, 0x25, 0x00, 0x00, 0x00,
  0x73, 0x65, 0x71, 0x75, 0x65, 0x6e, 0x74, 0x69, 0x61, 0x6c, 0x5f, 0x38,
  0x2f, 0x6d, 0x61, 0x78, 0x5f, 0x70, 0x6f, 0x6f, 0x6c, 0x69, 0x6e, 0x67,
  0x32, 0x64, 0x5f, 0x31, 0x37, 0x2f, 0x4d, 0x61, 0x78, 0x50, 0x6f, 0x6f,
  0x6c, 0x00, 0x00, 0x00, 0x04, 0x00, 0x00, 0x00, 0xff, 0xff, 0xff, 0xff,
  0x08, 0x00, 0x00, 0x00, 0x03, 0x00, 0x00, 0x00, 0x02, 0x00, 0x00, 0x00,
  0x54, 0xeb, 0xff, 0xff, 0x0e, 0xfe, 0xff, 0xff, 0x00, 0x00, 0x00, 0x01,
  0x24, 0x00, 0x00, 0x00, 0x18, 0x00, 0x00, 0x00, 0x04, 0x00, 0x00, 0x00,
  0x00, 0xfe, 0xff, 0xff, 0x01, 0x00, 0x00, 0x00, 0x01, 0x00, 0x00, 0x00,
  0x00, 0x00, 0x01, 0x01, 0x01, 0x00, 0x00, 0x00, 0x0c, 0x00, 0x00, 0x00,
  0x03, 0x00, 0x00, 0x00, 0x0b, 0x00, 0x00, 0x00, 0x09, 0x00, 0x00, 0x00,
  0x02, 0x00, 0x00, 0x00, 0xf8, 0xeb, 0xff, 0xff, 0x14, 0x00, 0x00, 0x00,
  0x0d, 0x00, 0x00, 0x00, 0x20, 0x00, 0x00, 0x00, 0xc4, 0x00, 0x00, 0x00,
  0xac, 0x00, 0x00, 0x00, 0x04, 0x00, 0x00, 0x00, 0x01, 0x00, 0x00, 0x00,
  0x18, 0x00, 0x00, 0x00, 0x03, 0x00, 0x00, 0x00, 0x02, 0x00, 0x00, 0x00,
  0x8f, 0x00, 0x00, 0x00, 0x73, 0x65, 0x71, 0x75, 0x65, 0x6e, 0x74, 0x69,
  0x61, 0x6c, 0x5f, 0x38, 0x2f, 0x63, 0x6f, 0x6e, 0x76, 0x32, 0x64, 0x5f,
  0x31, 0x37, 0x2f, 0x52, 0x65, 0x6c, 0x75, 0x3b, 0x73, 0x65, 0x71, 0x75,
  0x65, 0x6e, 0x74, 0x69, 0x61, 0x6c, 0x5f, 0x38, 0x2f, 0x63, 0x6f, 0x6e,
  0x76, 0x32, 0x64, 0x5f, 0x31, 0x37, 0x2f, 0x42, 0x69, 0x61, 0x73, 0x41,
  0x64, 0x64, 0x3b, 0x73, 0x65, 0x71, 0x75, 0x65, 0x6e, 0x74, 0x69, 0x61,
  0x6c, 0x5f, 0x38, 0x2f, 0x63, 0x6f, 0x6e, 0x76, 0x32, 0x64, 0x5f, 0x31,
  0x37, 0x2f, 0x43, 0x6f, 0x6e, 0x76, 0x32, 0x44, 0x3b, 0x73, 0x65, 0x71,
  0x75, 0x65, 0x6e, 0x74, 0x69, 0x61, 0x6c, 0x5f, 0x38, 0x2f, 0x63, 0x6f,
  0x6e, 0x76, 0x32, 0x64, 0x5f, 0x31, 0x37, 0x2f, 0x42, 0x69, 0x61, 0x73,
  0x41, 0x64, 0x64, 0x2f, 0x52, 0x65, 0x61, 0x64, 0x56, 0x61, 0x72, 0x69,
  0x61, 0x62, 0x6c, 0x65, 0x4f, 0x70, 0x2f, 0x72, 0x65, 0x73, 0x6f, 0x75,
  0x72, 0x63, 0x65, 0x00, 0x04, 0x00, 0x00, 0x00, 0xff, 0xff, 0xff, 0xff,
  0x18, 0x00, 0x00, 0x00, 0x03, 0x00, 0x00, 0x00, 0x02, 0x00, 0x00, 0x00,
  0x5c, 0xed, 0xff, 0xff, 0x00, 0x00, 0x0e, 0x00, 0x1a, 0x00, 0x08, 0x00,
  0x0c, 0x00, 0x10, 0x00, 0x07, 0x00, 0x14, 0x00, 0x0e, 0x00, 0x00, 0x00,
  0x00, 0x00, 0x00, 0x05, 0x01, 0x00, 0x00, 0x00, 0x3c, 0x00, 0x00, 0x00,
  0x30, 0x00, 0x00, 0x00, 0x14, 0x00, 0x00, 0x00, 0x00, 0x00, 0x0e, 0x00,
  0x18, 0x00, 0x17, 0x00, 0x10, 0x00, 0x0c, 0x00, 0x08, 0x00, 0x04, 0x00,
  0x0e, 0x00, 0x00, 0x00, 0x03, 0x00, 0x00, 0x00, 0x01, 0x00, 0x00, 0x00,
  0x03, 0x00, 0x00, 0x00, 0x01, 0x00, 0x00, 0x00, 0x00, 0x00, 0x00, 0x01,
  0x01, 0x00, 0x00, 0x00, 0x0b, 0x00, 0x00, 0x00, 0x01, 0x00, 0x00, 0x00,
  0x0a, 0x00, 0x00, 0x00, 0x2a, 0xff, 0xff, 0xff, 0x00, 0x00, 0x00, 0x11,
  0x01, 0x00, 0x00, 0x00, 0x3c, 0xed, 0xff, 0xff, 0x14, 0x00, 0x00, 0x00,
  0x0c, 0x00, 0x00, 0x00, 0x20, 0x00, 0x00, 0x00, 0x5c, 0x00, 0x00, 0x00,
  0x44, 0x00, 0x00, 0x00, 0x04, 0x00, 0x00, 0x00, 0x01, 0x00, 0x00, 0x00,
  0x1a, 0x00, 0x00, 0x00, 0x03, 0x00, 0x00, 0x00, 0x02, 0x00, 0x00, 0x00,
  0x25, 0x00, 0x00, 0x00, 0x73, 0x65, 0x71, 0x75, 0x65, 0x6e, 0x74, 0x69,
  0x61, 0x6c, 0x5f, 0x38, 0x2f, 0x6d, 0x61, 0x78, 0x5f, 0x70, 0x6f, 0x6f,
  0x6c, 0x69, 0x6e, 0x67, 0x32, 0x64, 0x5f, 0x31, 0x36, 0x2f, 0x4d, 0x61,
  0x78, 0x50, 0x6f, 0x6f, 0x6c, 0x00, 0x00, 0x00, 0x04, 0x00, 0x00, 0x00,
  0xff, 0xff, 0xff, 0xff, 0x1a, 0x00, 0x00, 0x00, 0x03, 0x00, 0x00, 0x00,
  0x02, 0x00, 0x00, 0x00, 0x38, 0xee, 0xff, 0xff, 0x00, 0x00, 0x0e, 0x00,
  0x14, 0x00, 0x00, 0x00, 0x08, 0x00, 0x0c, 0x00, 0x07, 0x00, 0x10, 0x00,
  0x0e, 0x00, 0x00, 0x00, 0x00, 0x00, 0x00, 0x01, 0x30, 0x00, 0x00, 0x00,
  0x24, 0x00, 0x00, 0x00, 0x10, 0x00, 0x00, 0x00, 0x0c, 0x00, 0x10, 0x00,
  0x0e, 0x00, 0x04, 0x00, 0x08, 0x00, 0x0f, 0x00, 0x0c, 0x00, 0x00, 0x00,
  0x01, 0x00, 0x00, 0x00, 0x01, 0x00, 0x00, 0x00, 0x00, 0x00, 0x01, 0x01,
  0x01, 0x00, 0x00, 0x00, 0x0a, 0x00, 0x00, 0x00, 0x03, 0x00, 0x00, 0x00,
  0x00, 0x00, 0x00, 0x00, 0x08, 0x00, 0x00, 0x00, 0x01, 0x00, 0x00, 0x00,
  0x00, 0x00, 0x0a, 0x00, 0x0c, 0x00, 0x07, 0x00, 0x00, 0x00, 0x08, 0x00,
  0x0a, 0x00, 0x00, 0x00, 0x00, 0x00, 0x00, 0x03, 0x01, 0x00, 0x00, 0x00,
  0x1c, 0xee, 0xff, 0xff, 0x14, 0x00, 0x00, 0x00, 0x0b, 0x00, 0x00, 0x00,
  0x20, 0x00, 0x00, 0x00, 0xe4, 0x00, 0x00, 0x00, 0xcc, 0x00, 0x00, 0x00,
  0x04, 0x00, 0x00, 0x00, 0x01, 0x00, 0x00, 0x00, 0x4e, 0x00, 0x00, 0x00,
  0x03, 0x00, 0x00, 0x00, 0x02, 0x00, 0x00, 0x00, 0xad, 0x00, 0x00, 0x00,
  0x73, 0x65, 0x71, 0x75, 0x65, 0x6e, 0x74, 0x69, 0x61, 0x6c, 0x5f, 0x38,
  0x2f, 0x63, 0x6f, 0x6e, 0x76, 0x32, 0x64, 0x5f, 0x31, 0x36, 0x2f, 0x52,
  0x65, 0x6c, 0x75, 0x3b, 0x73, 0x65, 0x71, 0x75, 0x65, 0x6e, 0x74, 0x69,
  0x61, 0x6c, 0x5f, 0x38, 0x2f, 0x63, 0x6f, 0x6e, 0x76, 0x32, 0x64, 0x5f,
  0x31, 0x36, 0x2f, 0x42, 0x69, 0x61, 0x73, 0x41, 0x64, 0x64, 0x3b, 0x73,
  0x65, 0x71, 0x75, 0x65, 0x6e, 0x74, 0x69, 0x61, 0x6c, 0x5f, 0x38, 0x2f,
  0x63, 0x6f, 0x6e, 0x76, 0x32, 0x64, 0x5f, 0x31, 0x37, 0x2f, 0x43, 0x6f,
  0x6e, 0x76, 0x32, 0x44, 0x3b, 0x73, 0x65, 0x71, 0x75, 0x65, 0x6e, 0x74,
  0x69, 0x61, 0x6c, 0x5f, 0x38, 0x2f, 0x63, 0x6f, 0x6e, 0x76, 0x32, 0x64,
  0x5f, 0x31, 0x36, 0x2f, 0x43, 0x6f, 0x6e, 0x76, 0x32, 0x44, 0x3b, 0x73,
  0x65, 0x71, 0x75, 0x65, 0x6e, 0x74, 0x69, 0x61, 0x6c, 0x5f, 0x38, 0x2f,
  0x63, 0x6f, 0x6e, 0x76, 0x32, 0x64, 0x5f, 0x31, 0x36, 0x2f, 0x42, 0x69,
  0x61, 0x73, 0x41, 0x64, 0x64, 0x2f, 0x52, 0x65, 0x61, 0x64, 0x56, 0x61,
  0x72, 0x69, 0x61, 0x62, 0x6c, 0x65, 0x4f, 0x70, 0x2f, 0x72, 0x65, 0x73,
  0x6f, 0x75, 0x72, 0x63, 0x65, 0x00, 0x00, 0x00, 0x04, 0x00, 0x00, 0x00,
  0xff, 0xff, 0xff, 0xff, 0x4e, 0x00, 0x00, 0x00, 0x03, 0x00, 0x00, 0x00,
  0x02, 0x00, 0x00, 0x00, 0xac, 0xee, 0xff, 0xff, 0x9a, 0xef, 0xff, 0xff,
  0x04, 0x00, 0x00, 0x00, 0x30, 0x00, 0x00, 0x00, 0xb7, 0x4e, 0x9b, 0x3c,
  0x42, 0x8b, 0x45, 0x3f, 0x10, 0x53, 0x22, 0x3e, 0x8e, 0x18, 0xd0, 0x3e,
  0x7e, 0x98, 0x47, 0x3e, 0xc6, 0x43, 0x90, 0x3e, 0xde, 0x25, 0xb2, 0x3f,
  0x66, 0xfb, 0x9b, 0xbe, 0xe8, 0x90, 0xdd, 0x3d, 0x20, 0x9e, 0xdd, 0xbc,
  0x61, 0xee, 0x4b, 0x3d, 0xee, 0x95, 0x10, 0xbe, 0xba, 0xef, 0xff, 0xff,
  0x10, 0x00, 0x00, 0x00, 0x0a, 0x00, 0x00, 0x00, 0x1c, 0x00, 0x00, 0x00,
  0x3c, 0x00, 0x00, 0x00, 0x04, 0x00, 0x00, 0x00, 0x02, 0x00, 0x00, 0x00,
  0x03, 0x00, 0x00, 0x00, 0x01, 0x00, 0x00, 0x00, 0x02, 0x00, 0x00, 0x00,
  0x1d, 0x00, 0x00, 0x00, 0x73, 0x65, 0x71, 0x75, 0x65, 0x6e, 0x74, 0x69,
  0x61, 0x6c, 0x5f, 0x38, 0x2f, 0x63, 0x6f, 0x6e, 0x76, 0x32, 0x64, 0x5f,
  0x31, 0x37, 0x2f, 0x43, 0x6f, 0x6e, 0x76, 0x32, 0x44, 0x00, 0x00, 0x00,
  0x38, 0xef, 0xff, 0xff, 0x26, 0xf0, 0xff, 0xff, 0x04, 0x00, 0x00, 0x00,
  0x18, 0x00, 0x00, 0x00, 0xb0, 0xc3, 0x07, 0x3f, 0x44, 0x2c, 0x8c, 0x3e,
  0x8b, 0x99, 0x48, 0xbf, 0xee, 0xd8, 0x99, 0x3f, 0xb9, 0xae, 0x08, 0x3e,
  0x73, 0x12, 0x30, 0x3f, 0x2e, 0xf0, 0xff, 0xff, 0x10, 0x00, 0x00, 0x00,
  0x09, 0x00, 0x00, 0x00, 0x1c, 0x00, 0x00, 0x00, 0x3c, 0x00, 0x00, 0x00,
  0x04, 0x00, 0x00, 0x00, 0x02, 0x00, 0x00, 0x00, 0x03, 0x00, 0x00, 0x00,
  0x01, 0x00, 0x00, 0x00, 0x01, 0x00, 0x00, 0x00, 0x1d, 0x00, 0x00, 0x00,
  0x73, 0x65, 0x71, 0x75, 0x65, 0x6e, 0x74, 0x69, 0x61, 0x6c, 0x5f, 0x38,
  0x2f, 0x63, 0x6f, 0x6e, 0x76, 0x32, 0x64, 0x5f, 0x31, 0x36, 0x2f, 0x43,
  0x6f, 0x6e, 0x76, 0x32, 0x44, 0x00, 0x00, 0x00, 0xac, 0xef, 0xff, 0xff,
  0x9a, 0xf0, 0xff, 0xff, 0x04, 0x00, 0x00, 0x00, 0xc0, 0x00, 0x00, 0x00,
  0x1e, 0xc5, 0xe1, 0xbe, 0x72, 0x97, 0xa1, 0xbe, 0xf9, 0x38, 0xfc, 0x3e,
  0x5c, 0x08, 0xa7, 0xbf, 0x6b, 0x3d, 0xd9, 0xbd, 0xae, 0xaa, 0x6a, 0x3f,
  0x34, 0xdc, 0xe0, 0xbe, 0x97, 0xae, 0xbe, 0x3e, 0x8d, 0xa9, 0xfa, 0xbe,
  0xde, 0xc2, 0x32, 0xbf, 0xad, 0x39, 0xc4, 0xbe, 0xd2, 0x6c, 0x5c, 0xbe,
  0xfa, 0xef, 0x3a, 0x3f, 0x53, 0x7e, 0x12, 0xbf, 0x89, 0x66, 0x01, 0xbf,
  0x81, 0x29, 0x2f, 0x3f, 0x1d, 0x18, 0x0c, 0x3f, 0xa1, 0x2c, 0x09, 0xbe,
  0xee, 0x01, 0xb0, 0x3e, 0x67, 0xb5, 0xcf, 0xbd, 0xb5, 0x84, 0x5f, 0xbe,
  0xe2, 0x62, 0x2c, 0xbe, 0x05, 0x80, 0x52, 0xbe, 0x2a, 0xdf, 0xd8, 0xbd,
  0x06, 0x92, 0xe8, 0xbe, 0x96, 0x6a, 0x34, 0x3e, 0xbd, 0xdb, 0x0b, 0xbf,
  0x5a, 0xd1, 0x4a, 0x3e, 0xa0, 0xd4, 0x1e, 0xbf, 0x43, 0x69, 0x34, 0x3c,
  0x70, 0x60, 0x03, 0xbf, 0x69, 0xf0, 0x7d, 0x3d, 0xfd, 0xa3, 0xf1, 0xbe,
  0xce, 0x71, 0xe5, 0x3e, 0x03, 0xa6, 0x9a, 0xbf, 0x7f, 0xe7, 0x93, 0x3e,
  0xee, 0xaf, 0xd5, 0x3e, 0x71, 0x94, 0xfe, 0xbe, 0x15, 0xbd, 0x9c, 0x3e,
  0xea, 0x9b, 0x96, 0xbf, 0x80, 0xab, 0xe3, 0x3d, 0x07, 0x4d, 0x3d, 0x3d,
  0xb4, 0xe6, 0x72, 0x3f, 0x5c, 0xc4, 0x86, 0xbf, 0x6e, 0x30, 0x03, 0xbf,
  0xa0, 0xa5, 0x71, 0x3e, 0x6f, 0x69, 0x8f, 0x3f, 0xb5, 0x2b, 0x96, 0xbf,
  0x4a, 0xf1, 0xff, 0xff, 0x10, 0x00, 0x00, 0x00, 0x08, 0x00, 0x00, 0x00,
  0x14, 0x00, 0x00, 0x00, 0x34, 0x00, 0x00, 0x00, 0x02, 0x00, 0x00, 0x00,
  0x03, 0x00, 0x00, 0x00, 0x10, 0x00, 0x00, 0x00, 0x1c, 0x00, 0x00, 0x00,
  0x73, 0x65, 0x71, 0x75, 0x65, 0x6e, 0x74, 0x69, 0x61, 0x6c, 0x5f, 0x38,
  0x2f, 0x64, 0x65, 0x6e, 0x73, 0x65, 0x5f, 0x31, 0x37, 0x2f, 0x4d, 0x61,
  0x74, 0x4d, 0x75, 0x6c, 0x00, 0x00, 0x00, 0x00, 0xc0, 0xf0, 0xff, 0xff,
  0xae, 0xf1, 0xff, 0xff, 0x04, 0x00, 0x00, 0x00, 0x00, 0x0c, 0x00, 0x00,
  0x20, 0x52, 0xcd, 0xbd, 0x69, 0x65, 0x25, 0xbe, 0x83, 0x05, 0xcb, 0xbe,
  0xfe, 0xed, 0x5e, 0xbe, 0x87, 0x30, 0x7d, 0x3e, 0x32, 0x4a, 0xef, 0x3e,
  0x4b, 0x52, 0x06, 0x3f, 0xb1, 0x59, 0xa9, 0x3e, 0x20, 0x16, 0xf5, 0x3e,
  0x78, 0x22, 0xad, 0x3e, 0x53, 0x3c, 0x06, 0x3e, 0x4d, 0xf2, 0xaa, 0xbd,
  0x49, 0xb1, 0xbb, 0x3e, 0xfa, 0x9e, 0x7a, 0x3e, 0xff, 0x86, 0xbb, 0x3e,
  0x01, 0x7e, 0x7a, 0x3e, 0x0b, 0x6f, 0x4c, 0x3d, 0xec, 0x28, 0x56, 0x3c,
  0x1c, 0x98, 0x76, 0x3e, 0x9e, 0xbf, 0xd8, 0x3d, 0xec, 0xba, 0x79, 0x3e,
  0x42, 0x4d, 0xd7, 0x3e, 0x0c, 0x62, 0x3a, 0x3e, 0xd3, 0xa7, 0xd5, 0xbc,
  0xde, 0x5a, 0x3c, 0x3e, 0xe9, 0x5e, 0x65, 0x3e, 0xf0, 0xee, 0x9c, 0x3d,
  0x8a, 0x0a, 0x3a, 0x3e, 0x06, 0xb9, 0xb9, 0x3e, 0x25, 0xb9, 0xa8, 0x3d,
  0x4e, 0xb9, 0x53, 0xbe, 0x7e, 0xb5, 0xdc, 0x3b, 0x31, 0x0e, 0x8f, 0xbe,
  0xee, 0xb6, 0x70, 0xbe, 0x7f, 0x02, 0x1c, 0x3e, 0x34, 0xc0, 0x72, 0x3e,
  0x79, 0x05, 0x0b, 0xbf, 0x6e, 0x77, 0xe8, 0xbe, 0x46, 0x66, 0x41, 0xbf,
  0x1a, 0x78, 0xdb, 0xbe, 0xf7, 0x92, 0x60, 0xbe, 0x08, 0x44, 0x9f, 0xbe,
  0x1c, 0x36, 0xa9, 0xbf, 0xe5, 0x91, 0x39, 0xbf, 0xec, 0xfb, 0xdc, 0xbf,
  0x0d, 0x46, 0x2b, 0xbf, 0x24, 0xc5, 0x4e, 0xbf, 0xe0, 0x02, 0x09, 0xbf,
  0x7d, 0x41, 0x3f, 0x3f, 0xde, 0xaf, 0x78, 0x3f, 0xde, 0x6b, 0x03, 0x3f,
  0x93, 0x5f, 0x7b, 0x3f, 0x6f, 0xbf, 0x0a, 0x3c, 0xc1, 0x10, 0x78, 0xbd,
  0x9b, 0x10, 0xd6, 0xbc, 0xc0, 0xc3, 0xb0, 0x3b, 0x31, 0x6a, 0xac, 0x3d,
  0x56, 0x7f, 0xb0, 0x3d, 0x7d, 0x46, 0x05, 0xbe, 0xc0, 0x96, 0x07, 0xbe,
  0x01, 0xfc, 0xde, 0x3c, 0xc9, 0x9f, 0x92, 0x3c, 0xf5, 0xbf, 0x03, 0xbe,
  0x2f, 0x6c, 0x33, 0xbd, 0x73, 0x5c, 0x92, 0xbe, 0x40, 0xf3, 0x98, 0xbd,
  0xc4, 0x49, 0xa6, 0x3e, 0x89, 0x31, 0x3f, 0xbe, 0x4c, 0x7c, 0x5a, 0x3e,
  0xce, 0xea, 0xe8, 0x3d, 0xf8, 0x37, 0xaa, 0x3b, 0xf2, 0x5d, 0xbe, 0xbe,
  0x27, 0xc3, 0x45, 0x3e, 0x13, 0x39, 0x20, 0x3e, 0x21, 0x94, 0x3f, 0xbc,
  0xe6, 0xab, 0x8b, 0x3e, 0x40, 0x0a, 0xd2, 0x3d, 0xa3, 0xd4, 0xc3, 0xbd,
  0x6a, 0x67, 0x42, 0x3d, 0xf4, 0xaf, 0x98, 0x3e, 0x9a, 0xfe, 0x86, 0x3e,
  0x08, 0xe5, 0x91, 0x3e, 0xe6, 0x29, 0x81, 0x3e, 0x59, 0xe5, 0xdd, 0x3d,
  0xdd, 0xdf, 0x15, 0x3e, 0x45, 0x3d, 0xd5, 0x3d, 0x82, 0x06, 0xc2, 0x3c,
  0x6e, 0xb2, 0xb0, 0x3e, 0x5c, 0x21, 0x2b, 0xbb, 0x86, 0xf5, 0x64, 0xbe,
  0xf9, 0xdd, 0x51, 0x3c, 0xad, 0x75, 0x52, 0xbb, 0xc9, 0xd3, 0x07, 0x3d,
  0x89, 0x49, 0x3b, 0x3e, 0x28, 0x90, 0xd7, 0x3d, 0x20, 0xab, 0x5a, 0xbd,
  0xcb, 0x35, 0x44, 0x3d, 0xfe, 0x8a, 0xd8, 0x3d, 0x8b, 0x99, 0xa6, 0xbf,
  0xea, 0x25, 0x2c, 0xbf, 0x89, 0xeb, 0x55, 0x3e, 0xb6, 0xb3, 0x97, 0x3e,
  0x5d, 0xe6, 0x08, 0x3c, 0x3a, 0xb2, 0x54, 0xbb, 0xa5, 0x43, 0xba, 0xbf,
  0x11, 0xc5, 0x1d, 0xbf, 0xf2, 0x21, 0x4c, 0x3e, 0x86, 0x3f, 0x04, 0x3e,
  0x71, 0xa0, 0xda, 0x3d, 0x0e, 0xfb, 0x88, 0x3e, 0x89, 0x84, 0x6d, 0xbf,
  0x60, 0x18, 0xe2, 0xbe, 0x00, 0x39, 0x39, 0x3e, 0xc5, 0xc9, 0x88, 0x3d,
  0xf5, 0xef, 0xa5, 0x3d, 0xda, 0x61, 0x21, 0x3e, 0xd7, 0xf4, 0xf6, 0xbe,
  0x24, 0x5e, 0x49, 0xbe, 0x41, 0xa8, 0x9c, 0x3d, 0x1a, 0xc6, 0x68, 0xbc,
  0x67, 0xe1, 0xf9, 0x3c, 0x88, 0x2d, 0xfd, 0xbc, 0xc6, 0x4d, 0x92, 0xbe,
  0x19, 0xb0, 0x6e, 0x3d, 0xa3, 0x87, 0x96, 0x3d, 0x61, 0x30, 0xb5, 0x3b,
  0x1b, 0x22, 0x89, 0xbd, 0x2e, 0xf7, 0x27, 0xbe, 0x50, 0xf2, 0x6f, 0xbe,
  0x09, 0x2e, 0x7d, 0x3e, 0x0d, 0xe3, 0x01, 0x3e, 0xd6, 0x3d, 0xa9, 0xbd,
  0xd7, 0xcc, 0x50, 0xbd, 0x83, 0xfe, 0x4c, 0xbd, 0x3f, 0xbd, 0x7c, 0xbe,
  0xf0, 0xf6, 0x86, 0x3c, 0xa2, 0x7e, 0x19, 0x3e, 0x0f, 0xb6, 0xf0, 0x3d,
  0xde, 0x4c, 0x9c, 0xbd, 0xbf, 0x84, 0xa3, 0xba, 0xe3, 0xff, 0x68, 0x3d,
  0x61, 0x3b, 0xba, 0x3e, 0xee, 0x18, 0x55, 0x3d, 0x4e, 0x83, 0x98, 0xbd,
  0x60, 0x4f, 0x12, 0x3f, 0xc8, 0xa6, 0x94, 0x3f, 0xe2, 0x3e, 0x78, 0x3f,
  0x8b, 0x8f, 0x79, 0x3f, 0x71, 0x76, 0xac, 0x3f, 0x11, 0xb1, 0xf8, 0xbe,
  0xa1, 0x41, 0x3e, 0xbe, 0x5b, 0x4e, 0xdb, 0x3e, 0xe2, 0xce, 0x87, 0xbe,
  0xe0, 0xb5, 0x11, 0x3e, 0x6d, 0x51, 0x16, 0xc0, 0x26, 0xc7, 0xef, 0xbf,
  0xdf, 0x17, 0x52, 0xbd, 0xf4, 0x56, 0xf6, 0x3d, 0xdc, 0x65, 0xc8, 0x3d,
  0xee, 0xfb, 0xc8, 0x3c, 0xaa, 0xb4, 0xce, 0xbe, 0x42, 0xe6, 0xef, 0xbf,
  0x8f, 0x07, 0xc8, 0xbc, 0x46, 0x38, 0x97, 0xbd, 0x1b, 0x73, 0x17, 0x3e,
  0x58, 0x1f, 0x25, 0xbe, 0x48, 0xe2, 0x26, 0x3e, 0xb6, 0xe3, 0xbb, 0xbf,
  0x7f, 0x51, 0x95, 0x3c, 0x61, 0x60, 0xe8, 0x3d, 0x55, 0x47, 0x89, 0xbd,
  0xe1, 0x36, 0x38, 0x3d, 0x3b, 0x36, 0xee, 0xbe, 0xf1, 0x6b, 0x1a, 0xbf,
  0x6a, 0x14, 0x70, 0x3d, 0x17, 0x19, 0x19, 0xbc, 0xd4, 0xbc, 0x27, 0x3d,
  0x60, 0x96, 0xe2, 0xbd, 0x7d, 0xa4, 0x96, 0x3e, 0x7d, 0x3c, 0xb7, 0xbf,
  0xf3, 0x01, 0xcd, 0x3c, 0x16, 0xb3, 0xee, 0x3c, 0xe4, 0x9f, 0x10, 0x3d,
  0xd0, 0x84, 0xf8, 0xbc, 0x1e, 0x18, 0xa2, 0xbe, 0xce, 0xb7, 0x8a, 0xbf,
  0xf7, 0x68, 0x4c, 0xbd, 0xb2, 0x53, 0xdf, 0x3c, 0xab, 0x64, 0x02, 0xbe,
  0x43, 0x64, 0x96, 0xbd, 0xe6, 0x96, 0x12, 0xc0, 0x66, 0x90, 0x75, 0xc0,
  0x6d, 0xad, 0x47, 0x3f, 0x74, 0x0d, 0x6f, 0xbe, 0x3a, 0x1b, 0x46, 0x3f,
  0xed, 0xfe, 0x79, 0x3e, 0x57, 0xc8, 0x8b, 0xbd, 0xab, 0x2b, 0x1a, 0xbf,
  0x56, 0x9d, 0xba, 0x3e, 0xa3, 0x18, 0x2f, 0xbe, 0xd8, 0x7a, 0xcc, 0x3d,
  0x7d, 0x28, 0x83, 0xbe, 0xd1, 0xe2, 0xa5, 0x3d, 0xc5, 0xca, 0x5e, 0xbe,
  0x00, 0xe4, 0x34, 0x3e, 0xaf, 0xb3, 0x07, 0xbe, 0x72, 0x3b, 0xa3, 0x3e,
  0xe1, 0x13, 0x70, 0xbe, 0xd0, 0x49, 0x7f, 0x3e, 0x30, 0x60, 0x28, 0xbe,
  0xa9, 0xa4, 0xff, 0x3d, 0xa2, 0x28, 0x29, 0x3e, 0x90, 0x49, 0x23, 0x3e,
  0x24, 0x5e, 0x0f, 0xbe, 0x5d, 0xfa, 0x14, 0x3e, 0x81, 0xd6, 0xc6, 0x3d,
  0x71, 0x98, 0xbf, 0x3e, 0x78, 0x29, 0x3a, 0xbd, 0xfa, 0x2f, 0xb7, 0x3e,
  0x47, 0xef, 0x7b, 0xbd, 0xc1, 0xf1, 0xb0, 0x3d, 0xf8, 0x09, 0x91, 0xbe,
  0x9d, 0x97, 0xdc, 0x3e, 0x71, 0x33, 0x58, 0xbd, 0x34, 0x1d, 0xf4, 0x3e,
  0xe8, 0x52, 0x1c, 0xbe, 0xf1, 0xe4, 0xc2, 0xbd, 0x45, 0x83, 0xeb, 0xbc,
  0x3f, 0xd4, 0xd2, 0x3e, 0x57, 0xb6, 0x81, 0xbd, 0xe5, 0x37, 0x90, 0x3e,
  0x4f, 0x87, 0x53, 0xbd, 0x7b, 0x95, 0x80, 0x3e, 0xc6, 0x58, 0x19, 0xbc,
  0xb4, 0xd8, 0xa4, 0x3e, 0x3d, 0x14, 0x2f, 0xbe, 0xa1, 0x5d, 0x7e, 0x3e,
  0xb8, 0x8c, 0xa4, 0xbc, 0x7e, 0x2a, 0x44, 0x3e, 0x22, 0xfe, 0x00, 0xbe,
  0xf0, 0xfe, 0xd3, 0xbe, 0x43, 0x0f, 0x27, 0xbf, 0xe0, 0xb7, 0xe8, 0xbe,
  0xf2, 0x20, 0x28, 0xbf, 0x83, 0xcd, 0xdd, 0xbc, 0x58, 0x7d, 0xfa, 0xbe,
  0xe6, 0x78, 0xc6, 0x3e, 0x3d, 0xe3, 0x18, 0x3f, 0xec, 0xad, 0xc1, 0x3e,
  0xf2, 0xf8, 0x13, 0x3f, 0x1c, 0x82, 0x5a, 0x3f, 0x62, 0x2d, 0xa8, 0x3f,
  0x29, 0xaf, 0x67, 0x3e, 0x30, 0x3b, 0xe3, 0x3e, 0x02, 0xa7, 0xb7, 0x3e,
  0xfa, 0x24, 0xd7, 0x3e, 0x78, 0x50, 0x1d, 0xbe, 0x49, 0x68, 0xd4, 0x3d,
  0x67, 0x29, 0x71, 0x3d, 0xa4, 0xa8, 0xa0, 0x3d, 0x33, 0xf2, 0xfd, 0x3d,
  0x87, 0x95, 0xa2, 0x3d, 0x9b, 0x8f, 0x16, 0xbf, 0xa4, 0x0b, 0x0c, 0xbf,
  0x36, 0x59, 0x30, 0xbd, 0x66, 0x27, 0xc1, 0xbb, 0xa8, 0x70, 0x94, 0x3b,
  0x97, 0x87, 0x13, 0x3d, 0x1e, 0xe8, 0x77, 0xbe, 0x0b, 0x65, 0xab, 0xbe,
  0xf1, 0x5f, 0xf9, 0xbb, 0x5b, 0x43, 0x5a, 0xbb, 0x59, 0xdf, 0xfe, 0x3c,
  0x85, 0x9c, 0x78, 0xbd, 0x15, 0x28, 0x91, 0xbd, 0xa2, 0x8f, 0x57, 0xbe,
  0x82, 0xf7, 0x2a, 0xbe, 0xb7, 0x5b, 0x05, 0xbe, 0x23, 0x77, 0x9e, 0xbe,
  0x31, 0xcc, 0x28, 0xbe, 0xff, 0x20, 0x62, 0xbd, 0xaf, 0x68, 0x20, 0xbe,
  0x0d, 0xee, 0xf5, 0xbd, 0x55, 0xdb, 0xf8, 0xbd, 0x11, 0xca, 0xf6, 0xbd,
  0xa3, 0x07, 0x45, 0xbe, 0x2b, 0xf8, 0xd0, 0x3e, 0x51, 0xa0, 0xa3, 0x3e,
  0xb3, 0xf9, 0x08, 0x3f, 0x46, 0x6b, 0x5a, 0x3f, 0xc0, 0xb6, 0x0d, 0x3e,
  0xbc, 0xb1, 0x5f, 0x3c, 0x7b, 0x9d, 0x85, 0x3e, 0xe4, 0x1b, 0x20, 0x3f,
  0xb9, 0x80, 0x10, 0xbd, 0x3b, 0x68, 0x09, 0x3e, 0xb9, 0xd4, 0x80, 0xbe,
  0x4d, 0xd0, 0x76, 0xbe, 0xc5, 0x86, 0x40, 0xbd, 0x45, 0xe8, 0x5c, 0x3e,
  0x4d, 0x93, 0x33, 0xbe, 0xdc, 0xbe, 0x4a, 0x3e, 0xce, 0xb2, 0x16, 0xbe,
  0xfa, 0x1f, 0xfd, 0xbd, 0x81, 0x63, 0x02, 0xbe, 0x48, 0x46, 0x59, 0x3e,
  0xa0, 0x43, 0x33, 0x3c, 0x9e, 0x82, 0x25, 0x3d, 0x54, 0xf5, 0x87, 0xbb,
  0x87, 0x1e, 0x00, 0xbe, 0x3c, 0x13, 0x9a, 0xbe, 0xe1, 0xcb, 0x17, 0x3d,
  0x31, 0xbb, 0x25, 0x3d, 0x0b, 0x10, 0x87, 0x3e, 0x9e, 0x1c, 0xf6, 0x3d,
  0x17, 0xea, 0xba, 0x3d, 0xa3, 0xd8, 0x38, 0x3e, 0x3a, 0x0e, 0xf8, 0x3e,
  0xe9, 0x6b, 0xa3, 0x3d, 0xd1, 0x59, 0x78, 0x3e, 0xe0, 0xc9, 0x92, 0x3d,
  0x60, 0x1e, 0x4f, 0xbe, 0xca, 0x1e, 0xe2, 0x3e, 0x9e, 0xdf, 0x2e, 0x3e,
  0x55, 0x22, 0x2f, 0x3e, 0xca, 0xc4, 0x7b, 0x3c, 0x09, 0xa0, 0x90, 0x3d,
  0xfc, 0xb4, 0x57, 0xbe, 0x62, 0xdd, 0x0f, 0x3e, 0x27, 0x27, 0xdf, 0x3d,
  0xd4, 0xb0, 0x7e, 0xbc, 0x4e, 0x2a, 0x4f, 0x3e, 0x99, 0x06, 0x50, 0xbe,
  0x08, 0xd2, 0x6c, 0xbe, 0x37, 0x82, 0x12, 0x3f, 0x59, 0x6f, 0xc1, 0x3e,
  0xb5, 0x77, 0x02, 0x3f, 0x4a, 0x55, 0x12, 0x3f, 0xa1, 0x7e, 0x07, 0x3f,
  0x82, 0xb1, 0x0d, 0x3f, 0xd5, 0x85, 0xd6, 0xbe, 0x23, 0x86, 0x36, 0xbe,
  0x55, 0x9b, 0x4b, 0xbe, 0x64, 0x19, 0x81, 0xbe, 0xbc, 0xc0, 0x8d, 0xbd,
  0x75, 0xf7, 0x26, 0xbe, 0x18, 0xd8, 0x43, 0xbf, 0xfb, 0x9f, 0x6c, 0xbf,
  0xa8, 0xf1, 0x91, 0xbe, 0xfd, 0xdc, 0x94, 0xbe, 0xfd, 0xd3, 0x83, 0xbe,
  0x21, 0xde, 0xe2, 0xbd, 0x8e, 0x8b, 0x06, 0xbf, 0xd7, 0x03, 0x10, 0xbf,
  0x93, 0x77, 0x80, 0xbe, 0x80, 0x59, 0xa2, 0xbd, 0xe6, 0x38, 0x88, 0xbe,
  0x34, 0x6c, 0x80, 0xbe, 0x7f, 0x50, 0x36, 0xbd, 0x0e, 0xbf, 0x9f, 0x3d,
  0x38, 0x02, 0x3d, 0xbe, 0x2d, 0xc4, 0x54, 0xbe, 0xc3, 0x80, 0x07, 0xbe,
  0xcd, 0x08, 0x30, 0xbe, 0x3b, 0x83, 0x4b, 0x3e, 0x48, 0xaf, 0x8a, 0x3e,
  0x32, 0x7a, 0xef, 0xbd, 0xf5, 0x0d, 0x41, 0xbd, 0x11, 0xcc, 0xb1, 0xbc,
  0x5a, 0x02, 0x13, 0xbd, 0xdd, 0x1d, 0x6b, 0x3e, 0xbe, 0x7c, 0x5c, 0x3e,
  0xd7, 0xd8, 0x5a, 0xbd, 0xbd, 0x51, 0x13, 0xbd, 0x1b, 0x37, 0xc5, 0xbc,
  0x47, 0xb6, 0x24, 0xbd, 0xb8, 0xe6, 0xa4, 0x3e, 0xc2, 0xb2, 0x9c, 0x3e,
  0x74, 0x2f, 0xbf, 0x3e, 0x7d, 0xfa, 0x87, 0x3e, 0xf7, 0x18, 0xc2, 0x3e,
  0x73, 0xc5, 0x91, 0xbd, 0xb1, 0xb8, 0x0e, 0x3f, 0x5c, 0xac, 0xd1, 0x3e,
  0x3a, 0xf9, 0x16, 0x3f, 0xfa, 0x12, 0xcc, 0x3e, 0x9f, 0x69, 0x4e, 0x3f,
  0xc0, 0x7d, 0xb9, 0x3e, 0x19, 0x6c, 0xb8, 0x3e, 0x30, 0x25, 0x29, 0x3e,
  0xcf, 0x2b, 0xc3, 0x3d, 0x2a, 0x94, 0xbf, 0xbe, 0xbe, 0xb1, 0x17, 0x3e,
  0x18, 0x37, 0x51, 0xbe, 0x83, 0x95, 0x69, 0x3e, 0x95, 0xef, 0x4d, 0xbe,
  0x28, 0x95, 0xf0, 0x3d, 0x02, 0xec, 0x2d, 0xbe, 0x8b, 0xd0, 0xa1, 0x3e,
  0x0f, 0x5b, 0x22, 0xbe, 0x6b, 0x4d, 0x91, 0x3e, 0x37, 0x6a, 0x37, 0xbe,
  0x6c, 0x0e, 0x45, 0x3e, 0x03, 0xa2, 0x71, 0xbe, 0x12, 0xee, 0x78, 0x3e,
  0xf8, 0xf1, 0x30, 0xbe, 0x9c, 0xc1, 0xdd, 0x3d, 0x5a, 0x36, 0x78, 0xbe,
  0xf3, 0x77, 0xc5, 0x3e, 0xe6, 0xa5, 0xa5, 0xbe, 0xb2, 0xfc, 0xab, 0x3e,
  0xd7, 0x81, 0x58, 0xbe, 0xaa, 0xb6, 0xd6, 0x3e, 0x56, 0xd8, 0x4f, 0xbe,
  0x0f, 0x3b, 0xba, 0x3e, 0xce, 0x79, 0x54, 0xbe, 0xd2, 0x28, 0x77, 0x3e,
  0x34, 0xa5, 0xd7, 0x3d, 0xc8, 0x34, 0xfa, 0x3e, 0xc8, 0x2f, 0xa4, 0x3d,
  0x64, 0xec, 0x05, 0x3e, 0xbe, 0x79, 0xb4, 0xbe, 0xb2, 0xbc, 0x5c, 0x3e,
  0xb1, 0x5c, 0x0b, 0xbe, 0x5c, 0x07, 0x18, 0x3e, 0xaa, 0x58, 0x0b, 0xbe,
  0xb6, 0xec, 0x8c, 0xbd, 0x6f, 0xc7, 0xca, 0xbe, 0x77, 0x19, 0x17, 0x3e,
  0x7f, 0x43, 0x19, 0xbe, 0xeb, 0x54, 0xf2, 0x3d, 0xe0, 0x45, 0xbf, 0xbb,
  0x9e, 0xf4, 0x4e, 0xbf, 0xbc, 0x55, 0x74, 0x3f, 0x30, 0x76, 0xbc, 0xbe,
  0xb5, 0x14, 0x95, 0x3f, 0x25, 0x26, 0x0f, 0x3e, 0x98, 0x09, 0xe8, 0x3f,
  0x64, 0x3d, 0x9e, 0xbe, 0xae, 0xc4, 0x07, 0x3e, 0xb6, 0xe0, 0xae, 0xbc,
  0x10, 0x38, 0x01, 0x3f, 0xa4, 0x7c, 0x21, 0x3d, 0xc8, 0xa4, 0x9d, 0x3e,
  0x72, 0xa2, 0x19, 0xbe, 0x7e, 0xad, 0x26, 0x3e, 0xc8, 0x60, 0x1f, 0x3d,
  0x02, 0x30, 0xb6, 0x3e, 0x9a, 0xd8, 0xb4, 0xbd, 0xdd, 0x8d, 0xb7, 0xbd,
  0xd0, 0xc4, 0x61, 0x3e, 0x0d, 0x2c, 0x77, 0x3e, 0x4e, 0x21, 0x13, 0xbb,
  0xd6, 0xed, 0xf0, 0x3d, 0x16, 0x2d, 0x68, 0xbe, 0xdd, 0x29, 0xeb, 0x3b,
  0x97, 0xad, 0x69, 0x3e, 0xc2, 0xfc, 0x27, 0x3d, 0xe2, 0xb4, 0x65, 0x3e,
  0x4f, 0xcd, 0x91, 0x3e, 0x0b, 0x70, 0x7f, 0xbd, 0xcd, 0x45, 0xb6, 0xbc,
  0x5a, 0x4b, 0x63, 0x3e, 0xed, 0xf8, 0x1c, 0x3e, 0x96, 0x36, 0x35, 0x3e,
  0x4d, 0x30, 0x97, 0x3e, 0xbf, 0x8b, 0xe3, 0x3d, 0xa4, 0xd4, 0x0e, 0x3d,
  0xed, 0x38, 0x44, 0xbe, 0xe9, 0x22, 0x03, 0xbd, 0x38, 0x5e, 0x59, 0xbe,
  0x62, 0xcd, 0xc3, 0x3c, 0xf5, 0xb9, 0xc3, 0x3d, 0xd6, 0xce, 0x2c, 0x3e,
  0x8f, 0x71, 0x1e, 0xbf, 0x3a, 0x6c, 0x69, 0xbe, 0x21, 0xe5, 0x0b, 0xbf,
  0xab, 0xa6, 0x91, 0xbe, 0xf1, 0x04, 0x09, 0xbf, 0xbb, 0xba, 0x5b, 0xbd,
  0x87, 0xa9, 0x06, 0x3f, 0x87, 0x17, 0x3d, 0xbf, 0xab, 0x88, 0x9f, 0x3e,
  0xf2, 0xfa, 0xa9, 0x3e, 0x16, 0xeb, 0x91, 0x3e, 0x1f, 0x31, 0x2e, 0x3e,
  0xaf, 0x3e, 0x2c, 0x3e, 0x8f, 0x78, 0xb1, 0xbf, 0x92, 0xf2, 0x9f, 0x3e,
  0x70, 0xb5, 0x5b, 0xbd, 0xd1, 0xa9, 0x90, 0x3d, 0xef, 0xfe, 0xd3, 0xbd,
  0x00, 0x9e, 0x05, 0x3f, 0x77, 0x9c, 0x82, 0xbf, 0x1c, 0x78, 0x41, 0x3e,
  0x04, 0x77, 0x33, 0xbe, 0x8f, 0xf5, 0x31, 0x3e, 0xd9, 0x33, 0x68, 0xbc,
  0xeb, 0x95, 0xe3, 0x3e, 0xaa, 0xed, 0x95, 0xbf, 0x57, 0xda, 0x46, 0x3e,
  0x33, 0xae, 0x1e, 0xbe, 0xe3, 0x0f, 0x3e, 0x3e, 0x92, 0x8b, 0x53, 0xbd,
  0xba, 0x0e, 0xe9, 0x3e, 0x83, 0xf6, 0x90, 0xbf, 0xec, 0x3a, 0x73, 0x3e,
  0x64, 0xe2, 0xee, 0xbd, 0xcf, 0xe6, 0x59, 0x3e, 0xa9, 0x0b, 0x91, 0xbd,
  0x44, 0xf9, 0xe0, 0x3e, 0x75, 0x3b, 0xa8, 0xbf, 0x6c, 0x96, 0x2c, 0x3e,
  0x18, 0x19, 0x7a, 0xbe, 0x80, 0x2d, 0x1d, 0x3e, 0x99, 0x30, 0xc8, 0xbd,
  0xb4, 0x94, 0xda, 0x3e, 0xd2, 0xcc, 0xa0, 0xbf, 0x4f, 0xb5, 0x57, 0x3e,
  0x6e, 0x8f, 0x6a, 0xbe, 0x7e, 0x10, 0x80, 0x3e, 0x92, 0x6d, 0x7b, 0xbe,
  0x8e, 0xfd, 0xc5, 0x3e, 0x45, 0x1e, 0xb8, 0xbf, 0x69, 0x10, 0xb0, 0x3e,
  0x89, 0xc9, 0x9e, 0xbe, 0x2f, 0x6f, 0x83, 0x3e, 0x19, 0xce, 0x8c, 0xbe,
  0x2c, 0x31, 0xbc, 0xbe, 0xcb, 0xc6, 0x8a, 0x3e, 0xf0, 0x87, 0xc0, 0xbd,
  0xb8, 0x59, 0xbf, 0x3e, 0xba, 0x09, 0x28, 0x3e, 0x86, 0x0d, 0xd8, 0x3e,
  0x72, 0x87, 0x4e, 0xbf, 0x18, 0x84, 0x39, 0xbe, 0x3d, 0x1a, 0xd2, 0xbe,
  0xd8, 0x87, 0x83, 0xbe, 0x21, 0x94, 0xde, 0xbc, 0x1c, 0xce, 0x68, 0x3e,
  0xde, 0x0b, 0x66, 0xbf, 0x95, 0x39, 0xc3, 0xbe, 0x08, 0x9f, 0xca, 0xbe,
  0x8a, 0x60, 0xf1, 0xbe, 0xa7, 0xdd, 0x92, 0xbe, 0x53, 0xec, 0xb9, 0x3c,
  0xb0, 0x90, 0xe9, 0xbe, 0x5c, 0xaf, 0xb9, 0xbe, 0x93, 0x16, 0xd1, 0xbd,
  0x82, 0x89, 0xf0, 0xbd, 0xfc, 0xf8, 0xa4, 0xbe, 0x21, 0x6a, 0xb4, 0xbe,
  0x4f, 0x88, 0x6a, 0xbc, 0x53, 0x97, 0xd6, 0x3d, 0x71, 0x51, 0xa5, 0x3d,
  0x35, 0xda, 0xa3, 0xbc, 0xa8, 0xaf, 0xa9, 0xbd, 0x36, 0x45, 0x47, 0xbe,
  0x86, 0xca, 0x2d, 0x3e, 0x47, 0xda, 0x92, 0x3e, 0x0b, 0x1e, 0x82, 0x3e,
  0xb2, 0x5e, 0x8a, 0xbc, 0xeb, 0x96, 0xa6, 0x3d, 0xd7, 0xec, 0x01, 0x3e,
  0x9a, 0x5a, 0x90, 0x3e, 0x32, 0x0e, 0x64, 0x3e, 0xf6, 0x0b, 0x62, 0x3e,
  0x63, 0x3c, 0x6c, 0x3e, 0x07, 0x02, 0x9f, 0xbd, 0x72, 0xc6, 0x4c, 0xbd,
  0x62, 0x7d, 0xcf, 0x3e, 0x8a, 0x42, 0x8a, 0x3e, 0x27, 0x14, 0xa3, 0x3e,
  0x9f, 0xe1, 0xc8, 0x3e, 0x4f, 0xeb, 0x67, 0x3e, 0xdf, 0xa2, 0x5f, 0x3e,
  0xe3, 0xb8, 0x1f, 0x3f, 0xdb, 0x10, 0x4f, 0x3f, 0x49, 0xae, 0x85, 0x3f,
  0x05, 0xab, 0x5e, 0x3f, 0x2d, 0x71, 0x64, 0x3f, 0xcb, 0x05, 0xfe, 0x3e,
  0x23, 0x5d, 0xcb, 0xbe, 0x76, 0x17, 0x34, 0xbe, 0xaf, 0xec, 0x6b, 0xbe,
  0x57, 0x1b, 0xbe, 0xbd, 0x94, 0xf7, 0xfb, 0xbf, 0x59, 0x06, 0x60, 0xbf,
  0x13, 0x4e, 0x82, 0xbe, 0xba, 0xf9, 0xd5, 0xbe, 0x23, 0x25, 0x61, 0xba,
  0x3c, 0xea, 0xa7, 0xbe, 0xf7, 0xf1, 0x05, 0xc0, 0x7e, 0x82, 0xc2, 0xbf,
  0x5f, 0xda, 0x76, 0x3d, 0x06, 0x0e, 0x0d, 0xbf, 0xe9, 0xee, 0x34, 0x3d,
  0xef, 0x3e, 0xd3, 0xbe, 0xe4, 0xa7, 0xa5, 0xbe, 0x5c, 0xa0, 0x00, 0xc0,
  0x6c, 0xd6, 0xe9, 0x3c, 0xaa, 0xc4, 0x35, 0xbd, 0xc1, 0xee, 0x70, 0x3c,
  0xff, 0x15, 0x46, 0xbd, 0xd4, 0xd8, 0x44, 0x3e, 0x40, 0x0e, 0xbe, 0xbc,
  0xbd, 0x25, 0x9f, 0x3c, 0xa6, 0xe5, 0x1c, 0xbd, 0xd7, 0x27, 0x98, 0x3c,
  0x02, 0x8e, 0xdd, 0xbd, 0xb2, 0x8b, 0x35, 0x3e, 0x68, 0x56, 0x4c, 0x3e,
  0xe9, 0x61, 0x57, 0xbd, 0xc5, 0xb0, 0x35, 0x3d, 0xf2, 0xc0, 0x97, 0xbd,
  0x03, 0x95, 0xb8, 0xbc, 0x6d, 0xd7, 0xdb, 0x3b, 0x24, 0xdf, 0x0a, 0x3e,
  0xcc, 0x9e, 0x1c, 0x3e, 0x80, 0x89, 0x9d, 0x3c, 0xc8, 0x48, 0x9a, 0x3d,
  0x2e, 0xa0, 0x57, 0x3c, 0xe4, 0x68, 0xce, 0x3d, 0x0b, 0x62, 0x10, 0x3e,
  0x42, 0x66, 0x84, 0xbe, 0x77, 0x12, 0xfb, 0x3e, 0x69, 0x6b, 0xd5, 0xbe,
  0x6e, 0xb0, 0x41, 0x3e, 0x9f, 0xbf, 0x5c, 0x3f, 0x12, 0xcf, 0x0b, 0x40,
  0x43, 0xa6, 0x32, 0x3d, 0xbc, 0xc2, 0x20, 0x3c, 0x79, 0x4f, 0x41, 0xbe,
  0x59, 0xb9, 0x14, 0xbe, 0x73, 0xe7, 0xb5, 0x3e, 0xc5, 0xfe, 0x51, 0x3f,
  0xea, 0xf6, 0x59, 0x3e, 0xee, 0xb1, 0xff, 0x3b, 0x9d, 0xc8, 0x3f, 0x3d,
  0xed, 0x6a, 0x16, 0xbc, 0xcb, 0x0e, 0x9b, 0x3d, 0x42, 0x25, 0x5b, 0x3e,
  0x03, 0x2f, 0x1d, 0xbe, 0xbc, 0xce, 0xe5, 0xbc, 0x95, 0x47, 0x35, 0x3e,
  0xc1, 0xd5, 0xec, 0xbd, 0xb4, 0xa9, 0x73, 0x3e, 0x8d, 0x28, 0x95, 0x3d,
  0x29, 0xb8, 0x4b, 0xbc, 0x29, 0x32, 0x3d, 0x3c, 0xa2, 0x54, 0x17, 0x3b,
  0x74, 0xb4, 0x26, 0xbe, 0x18, 0xad, 0xb4, 0x3e, 0xed, 0x8c, 0xd7, 0x3e,
  0xd9, 0x40, 0x0f, 0xbd, 0x1c, 0x11, 0xe6, 0xbd, 0x3e, 0x08, 0xf0, 0xbc,
  0xa8, 0x05, 0x95, 0xbd, 0xb7, 0x37, 0x04, 0xbc, 0x89, 0x50, 0xf7, 0x3e,
  0xe4, 0x08, 0xf8, 0xbb, 0x07, 0xf4, 0x74, 0xbb, 0xb6, 0x0e, 0x83, 0xbd,
  0x89, 0x59, 0x88, 0xbd, 0xd0, 0x19, 0x51, 0x3e, 0x99, 0xc5, 0x89, 0x3e,
  0x08, 0xdd, 0xaf, 0x3d, 0x40, 0x05, 0x33, 0xbd, 0x33, 0xf8, 0x34, 0xbc,
  0x00, 0xb9, 0xef, 0xbd, 0x6d, 0x7b, 0xc4, 0x3e, 0xa1, 0xbd, 0xa0, 0x3e,
  0x35, 0x80, 0x33, 0x3f, 0x22, 0xb3, 0xb7, 0x3e, 0x4d, 0xda, 0x2f, 0x3e,
  0x82, 0x20, 0x4c, 0x3f, 0x28, 0x67, 0x18, 0x3f, 0x6a, 0xa2, 0xb4, 0x3e,
  0x92, 0x08, 0xe2, 0x3e, 0xb6, 0xff, 0x52, 0xbd, 0x6a, 0x10, 0x09, 0xc0,
  0xfe, 0xf6, 0xff, 0xbf, 0x50, 0x50, 0x81, 0x3e, 0xf9, 0xab, 0x96, 0x3d,
  0x07, 0xf1, 0xaf, 0x3e, 0x70, 0xcb, 0x0d, 0x3e, 0xc2, 0xbf, 0xe4, 0xbe,
  0x23, 0xcc, 0xcb, 0xbf, 0x57, 0xaf, 0x07, 0x3e, 0x60, 0xca, 0xa0, 0x3b,
  0x98, 0x80, 0x59, 0x3e, 0x70, 0xb6, 0x0e, 0x3d, 0xc4, 0x2e, 0xe5, 0x3e,
  0x3b, 0x7f, 0xdd, 0xbf, 0x67, 0xb4, 0x42, 0x3e, 0x8b, 0x6b, 0xb3, 0xbc,
  0x2f, 0xd6, 0x5f, 0x3e, 0xb4, 0x85, 0xf6, 0xbd, 0x6a, 0xfd, 0x13, 0xbe,
  0x26, 0x68, 0x03, 0xc0, 0x35, 0xf4, 0x2b, 0x3e, 0x3b, 0x36, 0x2a, 0xbd,
  0x30, 0x59, 0xc7, 0x3d, 0x5f, 0x6c, 0x26, 0xbe, 0xdf, 0x68, 0x32, 0xbe,
  0x68, 0xef, 0xfc, 0xbf, 0x99, 0x10, 0x1b, 0x3e, 0x3a, 0xe0, 0x1c, 0x3c,
  0x3f, 0xc2, 0x24, 0x3d, 0x07, 0xd8, 0x20, 0xbe, 0xc2, 0x2b, 0x0c, 0xbf,
  0xae, 0x49, 0x40, 0xc0, 0xe7, 0xa1, 0x80, 0x3c, 0x31, 0x81, 0x1f, 0x3d,
  0xe6, 0x70, 0x00, 0x3b, 0x28, 0x90, 0x29, 0xbe, 0x12, 0xa8, 0x76, 0xc0,
  0x6b, 0xb0, 0x76, 0xc0, 0x10, 0x0f, 0x21, 0xbe, 0x72, 0x77, 0xd1, 0xbd,
  0x38, 0xc3, 0x91, 0xbf, 0x3d, 0xdd, 0x91, 0xbf, 0xb1, 0x2a, 0x79, 0xbf,
  0xdc, 0xc7, 0x8e, 0xbf, 0xf6, 0x5e, 0x12, 0xbf, 0x0f, 0xec, 0x47, 0xbf,
  0xab, 0x03, 0x54, 0xbf, 0xff, 0x71, 0x67, 0xbf, 0x53, 0xf9, 0x2d, 0xbf,
  0xb5, 0x44, 0x48, 0xbf, 0x38, 0xa7, 0x21, 0xbe, 0xde, 0xb3, 0xcd, 0xbe,
  0x20, 0x30, 0x24, 0x3d, 0xcc, 0xa2, 0x2d, 0xbd, 0x4c, 0x6c, 0x4d, 0x3e,
  0x5d, 0x36, 0x72, 0x3d, 0x99, 0x54, 0xad, 0x3e, 0xce, 0x47, 0xb2, 0x3e,
  0xbb, 0x40, 0xba, 0x3e, 0xc4, 0x09, 0x47, 0x3e, 0xdd, 0x18, 0xe2, 0x3e,
  0x44, 0xb9, 0x82, 0x3e, 0x37, 0xf0, 0xb2, 0x3e, 0x93, 0xab, 0x9f, 0x3e,
  0xac, 0x18, 0xdf, 0x3e, 0x9a, 0x91, 0xd8, 0x3e, 0x98, 0x08, 0xd3, 0x3e,
  0xc2, 0xf1, 0xc9, 0x3e, 0x07, 0xcf, 0xad, 0x3e, 0x60, 0x01, 0xc2, 0x3e,
  0xf0, 0x76, 0xa8, 0x3e, 0x13, 0x0f, 0xee, 0x3e, 0xea, 0xdb, 0xb5, 0x3e,
  0x6a, 0x51, 0x89, 0x3e, 0x51, 0x29, 0xc0, 0x3d, 0xd2, 0x12, 0xc1, 0x3e,
  0x59, 0xd2, 0x5b, 0x3e, 0x6c, 0x14, 0x34, 0x3e, 0x80, 0x7f, 0x60, 0x3e,
  0x39, 0x47, 0x6c, 0x3e, 0x5a, 0x21, 0x3d, 0xbe, 0x3b, 0x8e, 0x4d, 0xbe,
  0x7e, 0x3d, 0x3f, 0xbe, 0x2f, 0xe7, 0xca, 0x3b, 0xb8, 0xe4, 0x61, 0xbe,
  0x77, 0xd1, 0x8f, 0xbd, 0xee, 0xd1, 0x9a, 0xbe, 0x4a, 0xc5, 0x3c, 0xbe,
  0x9e, 0xfd, 0xff, 0xff, 0x10, 0x00, 0x00, 0x00, 0x07, 0x00, 0x00, 0x00,
  0x14, 0x00, 0x00, 0x00, 0x34, 0x00, 0x00, 0x00, 0x02, 0x00, 0x00, 0x00,
  0x10, 0x00, 0x00, 0x00, 0x30, 0x00, 0x00, 0x00, 0x1c, 0x00, 0x00, 0x00,
  0x73, 0x65, 0x71, 0x75, 0x65, 0x6e, 0x74, 0x69, 0x61, 0x6c, 0x5f, 0x38,
  0x2f, 0x64, 0x65, 0x6e, 0x73, 0x65, 0x5f, 0x31, 0x36, 0x2f, 0x4d, 0x61,
  0x74, 0x4d, 0x75, 0x6c, 0x00, 0x00, 0x00, 0x00, 0x14, 0xfd, 0xff, 0xff,
  0x02, 0xfe, 0xff, 0xff, 0x04, 0x00, 0x00, 0x00, 0x08, 0x00, 0x00, 0x00,
  0xff, 0xff, 0xff, 0xff, 0x30, 0x00, 0x00, 0x00, 0x00, 0x00, 0x0e, 0x00,
  0x18, 0x00, 0x08, 0x00, 0x07, 0x00, 0x0c, 0x00, 0x10, 0x00, 0x14, 0x00,
  0x0e, 0x00, 0x00, 0x00, 0x00, 0x00, 0x00, 0x02, 0x10, 0x00, 0x00, 0x00,
  0x06, 0x00, 0x00, 0x00, 0x10, 0x00, 0x00, 0x00, 0x30, 0x00, 0x00, 0x00,
  0x01, 0x00, 0x00, 0x00, 0x02, 0x00, 0x00, 0x00, 0x1c, 0x00, 0x00, 0x00,
  0x73, 0x65, 0x71, 0x75, 0x65, 0x6e, 0x74, 0x69, 0x61, 0x6c, 0x5f, 0x38,
  0x2f, 0x66, 0x6c, 0x61, 0x74, 0x74, 0x65, 0x6e, 0x5f, 0x38, 0x2f, 0x43,
  0x6f, 0x6e, 0x73, 0x74, 0x00, 0x00, 0x00, 0x00, 0x80, 0xfd, 0xff, 0xff,
  0x6e, 0xfe, 0xff, 0xff, 0x04, 0x00, 0x00, 0x00, 0x0c, 0x00, 0x00, 0x00,
  0x23, 0xb8, 0x57, 0x3e, 0x2f, 0xca, 0x12, 0x3d, 0x47, 0xd4, 0xe1, 0xbe,
  0x6a, 0xfe, 0xff, 0xff, 0x10, 0x00, 0x00, 0x00, 0x05, 0x00, 0x00, 0x00,
  0x10, 0x00, 0x00, 0x00, 0x48, 0x00, 0x00, 0x00, 0x01, 0x00, 0x00, 0x00,
  0x03, 0x00, 0x00, 0x00, 0x35, 0x00, 0x00, 0x00, 0x73, 0x65, 0x71, 0x75,
  0x65, 0x6e, 0x74, 0x69, 0x61, 0x6c, 0x5f, 0x38, 0x2f, 0x64, 0x65, 0x6e,
  0x73, 0x65, 0x5f, 0x31, 0x37, 0x2f, 0x42, 0x69, 0x61, 0x73, 0x41, 0x64,
  0x64, 0x2f, 0x52, 0x65, 0x61, 0x64, 0x56, 0x61, 0x72, 0x69, 0x61, 0x62,
  0x6c, 0x65, 0x4f, 0x70, 0x2f, 0x72, 0x65, 0x73, 0x6f, 0x75, 0x72, 0x63,
  0x65, 0x00, 0x00, 0x00, 0xf4, 0xfd, 0xff, 0xff, 0xe2, 0xfe, 0xff, 0xff,
  0x04, 0x00, 0x00, 0x00, 0x40, 0x00, 0x00, 0x00, 0x64, 0x24, 0x7b, 0x3e,
  0x97, 0x11, 0x75, 0xbe, 0xa4, 0x12, 0x93, 0x3f, 0x8d, 0x13, 0xec, 0x3e,
  0xe9, 0x1d, 0x9b, 0xbe, 0x58, 0xfe, 0x79, 0xbd, 0xdd, 0x06, 0xbc, 0xbe,
  0x9c, 0x6f, 0x07, 0x3f, 0x89, 0x8e, 0x7a, 0xbc, 0xc3, 0x6d, 0x51, 0x3e,
  0x55, 0x4a, 0x28, 0x3f, 0x34, 0xac, 0x12, 0x3e, 0x5b, 0x6d, 0x1d, 0x3f,
  0x61, 0x76, 0x63, 0xbe, 0x71, 0x02, 0x5f, 0x3f, 0x4c, 0x8e, 0x52, 0x3c,
  0x12, 0xff, 0xff, 0xff, 0x10, 0x00, 0x00, 0x00, 0x04, 0x00, 0x00, 0x00,
  0x10, 0x00, 0x00, 0x00, 0x48, 0x00, 0x00, 0x00, 0x01, 0x00, 0x00, 0x00,
  0x10, 0x00, 0x00, 0x00, 0x35, 0x00, 0x00, 0x00, 0x73, 0x65, 0x71, 0x75,
  0x65, 0x6e, 0x74, 0x69, 0x61, 0x6c, 0x5f, 0x38, 0x2f, 0x64, 0x65, 0x6e,
  0x73, 0x65, 0x5f, 0x31, 0x36, 0x2f, 0x42, 0x69, 0x61, 0x73, 0x41, 0x64,
  0x64, 0x2f, 0x52, 0x65, 0x61, 0x64, 0x56, 0x61, 0x72, 0x69, 0x61, 0x62,
  0x6c, 0x65, 0x4f, 0x70, 0x2f, 0x72, 0x65, 0x73, 0x6f, 0x75, 0x72, 0x63,
  0x65, 0x00, 0x00, 0x00, 0x9c, 0xfe, 0xff, 0xff, 0x8a, 0xff, 0xff, 0xff,
  0x04, 0x00, 0x00, 0x00, 0x08, 0x00, 0x00, 0x00, 0x41, 0x5e, 0xdb, 0xbd,
  0xd5, 0x5a, 0x0b, 0xbd, 0x82, 0xff, 0xff, 0xff, 0x10, 0x00, 0x00, 0x00,
  0x03, 0x00, 0x00, 0x00, 0x10, 0x00, 0x00, 0x00, 0x4c, 0x00, 0x00, 0x00,
  0x01, 0x00, 0x00, 0x00, 0x02, 0x00, 0x00, 0x00, 0x36, 0x00, 0x00, 0x00,
  0x73, 0x65, 0x71, 0x75, 0x65, 0x6e, 0x74, 0x69, 0x61, 0x6c, 0x5f, 0x38,
  0x2f, 0x63, 0x6f, 0x6e, 0x76, 0x32, 0x64, 0x5f, 0x31, 0x37, 0x2f, 0x42,
  0x69, 0x61, 0x73, 0x41, 0x64, 0x64, 0x2f, 0x52, 0x65, 0x61, 0x64, 0x56,
  0x61, 0x72, 0x69, 0x61, 0x62, 0x6c, 0x65, 0x4f, 0x70, 0x2f, 0x72, 0x65,
  0x73, 0x6f, 0x75, 0x72, 0x63, 0x65, 0x00, 0x00, 0x04, 0x00, 0x06, 0x00,
  0x04, 0x00, 0x00, 0x00, 0x00, 0x00, 0x06, 0x00, 0x08, 0x00, 0x04, 0x00,
  0x06, 0x00, 0x00, 0x00, 0x04, 0x00, 0x00, 0x00, 0x08, 0x00, 0x00, 0x00,
  0x74, 0x3a, 0xf6, 0xbc, 0xed, 0xbb, 0x7a, 0xbe, 0x00, 0x00, 0x0e, 0x00,
  0x14, 0x00, 0x04, 0x00, 0x00, 0x00, 0x08, 0x00, 0x0c, 0x00, 0x10, 0x00,
  0x0e, 0x00, 0x00, 0x00, 0x10, 0x00, 0x00, 0x00, 0x02, 0x00, 0x00, 0x00,
  0x10, 0x00, 0x00, 0x00, 0x48, 0x00, 0x00, 0x00, 0x01, 0x00, 0x00, 0x00,
  0x02, 0x00, 0x00, 0x00, 0x36, 0x00, 0x00, 0x00, 0x73, 0x65, 0x71, 0x75,
  0x65, 0x6e, 0x74, 0x69, 0x61, 0x6c, 0x5f, 0x38, 0x2f, 0x63, 0x6f, 0x6e,
  0x76, 0x32, 0x64, 0x5f, 0x31, 0x36, 0x2f, 0x42, 0x69, 0x61, 0x73, 0x41,
  0x64, 0x64, 0x2f, 0x52, 0x65, 0x61, 0x64, 0x56, 0x61, 0x72, 0x69, 0x61,
  0x62, 0x6c, 0x65, 0x4f, 0x70, 0x2f, 0x72, 0x65, 0x73, 0x6f, 0x75, 0x72,
  0x63, 0x65, 0x00, 0x00, 0x98, 0xff, 0xff, 0xff, 0x14, 0x00, 0x18, 0x00,
  0x04, 0x00, 0x00, 0x00, 0x08, 0x00, 0x0c, 0x00, 0x10, 0x00, 0x00, 0x00,
  0x00, 0x00, 0x14, 0x00, 0x14, 0x00, 0x00, 0x00, 0x14, 0x00, 0x00, 0x00,
  0x01, 0x00, 0x00, 0x00, 0x20, 0x00, 0x00, 0x00, 0x3c, 0x00, 0x00, 0x00,
  0x24, 0x00, 0x00, 0x00, 0x04, 0x00, 0x00, 0x00, 0x01, 0x00, 0x00, 0x00,
  0x50, 0x00, 0x00, 0x00, 0x03, 0x00, 0x00, 0x00, 0x01, 0x00, 0x00, 0x00,
  0x07, 0x00, 0x00, 0x00, 0x69, 0x6e, 0x70, 0x75, 0x74, 0x5f, 0x39, 0x00,
  0x04, 0x00, 0x00, 0x00, 0xff, 0xff, 0xff, 0xff, 0x50, 0x00, 0x00, 0x00,
  0x03, 0x00, 0x00, 0x00, 0x01, 0x00, 0x00, 0x00, 0xfc, 0xff, 0xff, 0xff,
  0x04, 0x00, 0x04, 0x00, 0x04, 0x00, 0x00, 0x00
};
