const unsigned char model[] __attribute__((aligned(4))) = {
  0x1c, 0x00, 0x00, 0x00, 0x54, 0x46, 0x4c, 0x33, 0x00, 0x00, 0x12, 0x00,
  0x1c, 0x00, 0x04, 0x00, 0x08, 0x00, 0x0c, 0x00, 0x10, 0x00, 0x14, 0x00,
  0x00, 0x00, 0x18, 0x00, 0x12, 0x00, 0x00, 0x00, 0x03, 0x00, 0x00, 0x00,
  0x14, 0x00, 0x00, 0x00, 0x28, 0x00, 0x00, 0x00, 0xd0, 0x00, 0x00, 0x00,
  0x28, 0x00, 0x00, 0x00, 0x78, 0x00, 0x00, 0x00, 0x05, 0x00, 0x00, 0x00,
  0x04, 0x07, 0x00, 0x00, 0x20, 0x06, 0x00, 0x00, 0x7c, 0x03, 0x00, 0x00,
  0xc8, 0x02, 0x00, 0x00, 0xa8, 0x01, 0x00, 0x00, 0x01, 0x00, 0x00, 0x00,
  0xcc, 0x00, 0x00, 0x00, 0x14, 0x00, 0x00, 0x00, 0x2c, 0x7a, 0x00, 0x00,
  0x28, 0x7a, 0x00, 0x00, 0x00, 0x79, 0x00, 0x00, 0x48, 0x78, 0x00, 0x00,
  0x9c, 0x77, 0x00, 0x00, 0x24, 0x77, 0x00, 0x00, 0xb4, 0x76, 0x00, 0x00,
  0x5c, 0x16, 0x00, 0x00, 0x44, 0x15, 0x00, 0x00, 0x24, 0x14, 0x00, 0x00,
  0xc4, 0x07, 0x00, 0x00, 0x00, 0x7a, 0x00, 0x00, 0xfc, 0x79, 0x00, 0x00,
  0xf8, 0x79, 0x00, 0x00, 0xf4, 0x79, 0x00, 0x00, 0xf0, 0x79, 0x00, 0x00,
  0xec, 0x79, 0x00, 0x00, 0xe8, 0x79, 0x00, 0x00, 0xe4, 0x79, 0x00, 0x00,
  0x38, 0x00, 0x00, 0x00, 0x01, 0x00, 0x00, 0x00, 0x0c, 0x00, 0x00, 0x00,
  0x08, 0x00, 0x0c, 0x00, 0x04, 0x00, 0x08, 0x00, 0x08, 0x00, 0x00, 0x00,
  0x08, 0x00, 0x00, 0x00, 0x13, 0x00, 0x00, 0x00, 0x13, 0x00, 0x00, 0x00,
  0x6d, 0x69, 0x6e, 0x5f, 0x72, 0x75, 0x6e, 0x74, 0x69, 0x6d, 0x65, 0x5f,
  0x76, 0x65, 0x72, 0x73, 0x69, 0x6f, 0x6e, 0x00, 0x82, 0x87, 0xff, 0xff,
  0x04, 0x00, 0x00, 0x00, 0x10, 0x00, 0x00, 0x00, 0x31, 0x2e, 0x35, 0x2e,
  0x30, 0x00, 0x00, 0x00, 0x00, 0x00, 0x00, 0x00, 0x00, 0x00, 0x00, 0x00,
  0x0f, 0x00, 0x00, 0x00, 0x4d, 0x4c, 0x49, 0x52, 0x20, 0x43, 0x6f, 0x6e,
  0x76, 0x65, 0x72, 0x74, 0x65, 0x64, 0x2e, 0x00, 0x00, 0x00, 0x0e, 0x00,
  0x18, 0x00, 0x04, 0x00, 0x08, 0x00, 0x0c, 0x00, 0x10, 0x00, 0x14, 0x00,
  0x0e, 0x00, 0x00, 0x00, 0x14, 0x00, 0x00, 0x00, 0x5c, 0x00, 0x00, 0x00,
  0x60, 0x00, 0x00, 0x00, 0x64, 0x00, 0x00, 0x00, 0x84, 0x00, 0x00, 0x00,
  0x12, 0x00, 0x00, 0x00, 0xf4, 0x78, 0x00, 0x00, 0x80, 0x78, 0x00, 0x00,
  0xb8, 0x77, 0x00, 0x00, 0x0c, 0x77, 0x00, 0x00, 0x60, 0x76, 0x00, 0x00,
  0xfc, 0x75, 0x00, 0x00, 0x8c, 0x75, 0x00, 0x00, 0x34, 0x15, 0x00, 0x00,
  0x14, 0x14, 0x00, 0x00, 0xf4, 0x12, 0x00, 0x00, 0xe8, 0x05, 0x00, 0x00,
  0x04, 0x05, 0x00, 0x00, 0xb8, 0x03, 0x00, 0x00, 0x08, 0x03, 0x00, 0x00,
  0x58, 0x02, 0x00, 0x00, 0xa4, 0x01, 0x00, 0x00, 0xfc, 0x00, 0x00, 0x00,
  0x80, 0x00, 0x00, 0x00, 0x01, 0x00, 0x00, 0x00, 0x00, 0x00, 0x00, 0x00,
  0x01, 0x00, 0x00, 0x00, 0x11, 0x00, 0x00, 0x00, 0x08, 0x00, 0x00, 0x00,
  0x54, 0x05, 0x00, 0x00, 0x74, 0x04, 0x00, 0x00, 0x48, 0x03, 0x00, 0x00,
  0x94, 0x02, 0x00, 0x00, 0xf4, 0x01, 0x00, 0x00, 0x24, 0x01, 0x00, 0x00,
  0x94, 0x00, 0x00, 0x00, 0x10, 0x00, 0x00, 0x00, 0x04, 0x00, 0x00, 0x00,
  0x6d, 0x61, 0x69, 0x6e, 0x00, 0x00, 0x00, 0x00, 0x9a, 0xfd, 0xff, 0xff,
  0x00, 0x00, 0x00, 0x09, 0x04, 0x00, 0x00, 0x00, 0x1c, 0x00, 0x00, 0x00,
  0x10, 0x00, 0x00, 0x00, 0x04, 0x00, 0x00, 0x00, 0x7e, 0x88, 0xff, 0xff,
  0x00, 0x00, 0x80, 0x3f, 0x01, 0x00, 0x00, 0x00, 0x11, 0x00, 0x00, 0x00,
  0x01, 0x00, 0x00, 0x00, 0x10, 0x00, 0x00, 0x00, 0xbe, 0xfa, 0xff, 0xff,
  0x00, 0x00, 0x00, 0x19, 0x01, 0x00, 0x00, 0x00, 0xe4, 0x87, 0xff, 0xff,
  0x14, 0x00, 0x00, 0x00, 0x12, 0x00, 0x00, 0x00, 0x18, 0x00, 0x00, 0x00,
  0x30, 0x00, 0x00, 0x00, 0x20, 0x00, 0x00, 0x00, 0x02, 0x00, 0x00, 0x00,
  0x01, 0x00, 0x00, 0x00, 0x03, 0x00, 0x00, 0x00, 0x08, 0x00, 0x00, 0x00,
  0x49, 0x64, 0x65, 0x6e, 0x74, 0x69, 0x74, 0x79, 0x00, 0x00, 0x00, 0x00,
  0x02, 0x00, 0x00, 0x00, 0xff, 0xff, 0xff, 0xff, 0x03, 0x00, 0x00, 0x00,
  0xbc, 0x87, 0xff, 0xff, 0x1a, 0xfe, 0xff, 0xff, 0x00, 0x00, 0x00, 0x08,
  0x03, 0x00, 0x00, 0x00, 0x18, 0x00, 0x00, 0x00, 0x0c, 0x00, 0x00, 0x00,
  0x04, 0x00, 0x00, 0x00, 0xd8, 0x87, 0xff, 0xff, 0x01, 0x00, 0x00, 0x00,
  0x10, 0x00, 0x00, 0x00, 0x03, 0x00, 0x00, 0x00, 0x0f, 0x00, 0x00, 0x00,
  0x07, 0x00, 0x00, 0x00, 0x04, 0x00, 0x00, 0x00, 0x5c, 0x88, 0xff, 0xff,
  0x14, 0x00, 0x00, 0x00, 0x11, 0x00, 0x00, 0x00, 0x18, 0x00, 0x00, 0x00,
  0x44, 0x00, 0x00, 0x00, 0x34, 0x00, 0x00, 0x00, 0x02, 0x00, 0x00, 0x00,
  0x01, 0x00, 0x00, 0x00, 0x03, 0x00, 0x00, 0x00, 0x1e, 0x00, 0x00, 0x00,
  0x73, 0x65, 0x71, 0x75, 0x65, 0x6e, 0x74, 0x69, 0x61, 0x6c, 0x5f, 0x31,
  0x37, 0x2f, 0x64, 0x65, 0x6e, 0x73, 0x65, 0x5f, 0x33, 0x35, 0x2f, 0x42,
  0x69, 0x61, 0x73, 0x41, 0x64, 0x64, 0x00, 0x00, 0x02, 0x00, 0x00, 0x00,
  0xff, 0xff, 0xff, 0xff, 0x03, 0x00, 0x00, 0x00, 0x48, 0x88, 0xff, 0xff,
  0xce, 0xfc, 0xff, 0xff, 0x00, 0x00, 0x00, 0x08, 0x03, 0x00, 0x00, 0x00,
  0x24, 0x00, 0x00, 0x00, 0x18, 0x00, 0x00, 0x00, 0x0c, 0x00, 0x00, 0x00,
  0x00, 0x00, 0x06, 0x00, 0x08, 0x00, 0x07, 0x00, 0x06, 0x00, 0x00, 0x00,
  0x00, 0x00, 0x00, 0x01, 0x01, 0x00, 0x00, 0x00, 0x0f, 0x00, 0x00, 0x00,
  0x03, 0x00, 0x00, 0x00, 0x0e, 0x00, 0x00, 0x00, 0x06, 0x00, 0x00, 0x00,
  0x03, 0x00, 0x00, 0x00, 0xda, 0xfb, 0xff, 0xff, 0x00, 0x00, 0x00, 0x09,
  0x01, 0x00, 0x00, 0x00, 0x00, 0x89, 0xff, 0xff, 0x14, 0x00, 0x00, 0x00,
  0x10, 0x00, 0x00, 0x00, 0x18, 0x00, 0x00, 0x00, 0x60, 0x00, 0x00, 0x00,
  0x50, 0x00, 0x00, 0x00, 0x02, 0x00, 0x00, 0x00, 0x01, 0x00, 0x00, 0x00,
  0x10, 0x00, 0x00, 0x00, 0x3a, 0x00, 0x00, 0x00, 0x73, 0x65, 0x71, 0x75,
  0x65, 0x6e, 0x74, 0x69, 0x61, 0x6c, 0x5f, 0x31, 0x37, 0x2f, 0x64, 0x65,
  0x6e, 0x73, 0x65, 0x5f, 0x33, 0x34, 0x2f, 0x52, 0x65, 0x6c, 0x75, 0x3b,
  0x73, 0x65, 0x71, 0x75, 0x65, 0x6e, 0x74, 0x69, 0x61, 0x6c, 0x5f, 0x31,
  0x37, 0x2f, 0x64, 0x65, 0x6e, 0x73, 0x65, 0x5f, 0x33, 0x34, 0x2f, 0x42,
  0x69, 0x61, 0x73, 0x41, 0x64, 0x64, 0x00, 0x00, 0x02, 0x00, 0x00, 0x00,
  0xff, 0xff, 0xff, 0xff, 0x10, 0x00, 0x00, 0x00, 0x38, 0x8a, 0xff, 0xff,
  0x00, 0x00, 0x0a, 0x00, 0x10, 0x00, 0x04, 0x00, 0x08, 0x00, 0x0c, 0x00,
  0x0a, 0x00, 0x00, 0x00, 0x02, 0x00, 0x00, 0x00, 0x10, 0x00, 0x00, 0x00,
  0x04, 0x00, 0x00, 0x00, 0x01, 0x00, 0x00, 0x00, 0x0e, 0x00, 0x00, 0x00,
  0x02, 0x00, 0x00, 0x00, 0x0d, 0x00, 0x00, 0x00, 0x05, 0x00, 0x00, 0x00,
  0x8a, 0xfc, 0xff, 0xff, 0x00, 0x00, 0x00, 0x16, 0x01, 0x00, 0x00, 0x00,
  0xb0, 0x89, 0xff, 0xff, 0x14, 0x00, 0x00, 0x00, 0x0f, 0x00, 0x00, 0x00,
  0x18, 0x00, 0x00, 0x00, 0x48, 0x00, 0x00, 0x00, 0x38, 0x00, 0x00, 0x00,
  0x02, 0x00, 0x00, 0x00, 0x01, 0x00, 0x00, 0x00, 0x80, 0x01, 0x00, 0x00,
  0x20, 0x00, 0x00, 0x00, 0x73, 0x65, 0x71, 0x75, 0x65, 0x6e, 0x74, 0x69,
  0x61, 0x6c, 0x5f, 0x31, 0x37, 0x2f, 0x66, 0x6c, 0x61, 0x74, 0x74, 0x65,
  0x6e, 0x5f, 0x31, 0x37, 0x2f, 0x52, 0x65, 0x73, 0x68, 0x61, 0x70, 0x65,
  0x00, 0x00, 0x00, 0x00, 0x02, 0x00, 0x00, 0x00, 0xff, 0xff, 0xff, 0xff,
  0x80, 0x01, 0x00, 0x00, 0xd0, 0x8a, 0xff, 0xff, 0x00, 0x00, 0x0e, 0x00,
  0x18, 0x00, 0x08, 0x00, 0x0c, 0x00, 0x10, 0x00, 0x07, 0x00, 0x14, 0x00,
  0x0e, 0x00, 0x00, 0x00, 0x00, 0x00, 0x00, 0x05, 0x01, 0x00, 0x00, 0x00,
  0x2c, 0x00, 0x00, 0x00, 0x20, 0x00, 0x00, 0x00, 0x04, 0x00, 0x00, 0x00,
  0x26, 0xfe, 0xff, 0xff, 0x03, 0x00, 0x00, 0x00, 0x01, 0x00, 0x00, 0x00,
  0x03, 0x00, 0x00, 0x00, 0x01, 0x00, 0x00, 0x00, 0x00, 0x00, 0x00, 0x01,
  0x01, 0x00, 0x00, 0x00, 0x0d, 0x00, 0x00, 0x00, 0x01, 0x00, 0x00, 0x00,
  0x0c, 0x00, 0x00, 0x00, 0x5c, 0x8a, 0xff, 0xff, 0x14, 0x00, 0x00, 0x00,
  0x0e, 0x00, 0x00, 0x00, 0x20, 0x00, 0x00, 0x00, 0x5c, 0x00, 0x00, 0x00,
  0x44, 0x00, 0x00, 0x00, 0x04, 0x00, 0x00, 0x00, 0x01, 0x00, 0x00, 0x00,
  0x08, 0x00, 0x00, 0x00, 0x03, 0x00, 0x00, 0x00, 0x10, 0x00, 0x00, 0x00,
  0x26, 0x00, 0x00, 0x00, 0x73, 0x65, 0x71, 0x75, 0x65, 0x6e, 0x74, 0x69,
  0x61, 0x6c, 0x5f, 0x31, 0x37, 0x2f, 0x6d, 0x61, 0x78, 0x5f, 0x70, 0x6f,
  0x6f, 0x6c, 0x69, 0x6e, 0x67, 0x32, 0x64, 0x5f, 0x33, 0x35, 0x2f, 0x4d,
  0x61, 0x78, 0x50, 0x6f, 0x6f, 0x6c, 0x00, 0x00, 0x04, 0x00, 0x00, 0x00,
  0xff, 0xff, 0xff, 0xff, 0x08, 0x00, 0x00, 0x00, 0x03, 0x00, 0x00, 0x00,
  0x10, 0x00, 0x00, 0x00, 0x60, 0x8a, 0xff, 0xff, 0x0a, 0xfe, 0xff, 0xff,
  0x00, 0x00, 0x00, 0x01, 0x24, 0x00, 0x00, 0x00, 0x18, 0x00, 0x00, 0x00,
  0x04, 0x00, 0x00, 0x00, 0xfc, 0xfd, 0xff, 0xff, 0x01, 0x00, 0x00, 0x00,
  0x01, 0x00, 0x00, 0x00, 0x00, 0x00, 0x01, 0x01, 0x01, 0x00, 0x00, 0x00,
  0x0c, 0x00, 0x00, 0x00, 0x03, 0x00, 0x00, 0x00, 0x0b, 0x00, 0x00, 0x00,
  0x09, 0x00, 0x00, 0x00, 0x02, 0x00, 0x00, 0x00, 0x08, 0x8b, 0xff, 0xff,
  0x14, 0x00, 0x00, 0x00, 0x0d, 0x00, 0x00, 0x00, 0x20, 0x00, 0x00, 0x00,
  0xc8, 0x00, 0x00, 0x00, 0xb0, 0x00, 0x00, 0x00, 0x04, 0x00, 0x00, 0x00,
  0x01, 0x00, 0x00, 0x00, 0x18, 0x00, 0x00, 0x00, 0x03, 0x00, 0x00, 0x00,
  0x10, 0x00, 0x00, 0x00, 0x93, 0x00, 0x00, 0x00, 0x73, 0x65, 0x71, 0x75,
  0x65, 0x6e, 0x74, 0x69, 0x61, 0x6c, 0x5f, 0x31, 0x37, 0x2f, 0x63, 0x6f,
  0x6e, 0x76, 0x32, 0x64, 0x5f, 0x33, 0x35, 0x2f, 0x52, 0x65, 0x6c, 0x75,
  0x3b, 0x73, 0x65, 0x71, 0x75, 0x65, 0x6e, 0x74, 0x69, 0x61, 0x6c, 0x5f,
  0x31, 0x37, 0x2f, 0x63, 0x6f, 0x6e, 0x76, 0x32, 0x64, 0x5f, 0x33, 0x35,
  0x2f, 0x42, 0x69, 0x61, 0x73, 0x41, 0x64, 0x64, 0x3b, 0x73, 0x65, 0x71,
  0x75, 0x65, 0x6e, 0x74, 0x69, 0x61, 0x6c, 0x5f, 0x31, 0x37, 0x2f, 0x63,
  0x6f, 0x6e, 0x76, 0x32, 0x64, 0x5f, 0x33, 0x35, 0x2f, 0x43, 0x6f, 0x6e,
  0x76, 0x32, 0x44, 0x3b, 0x73, 0x65, 0x71, 0x75, 0x65, 0x6e, 0x74, 0x69,
  0x61, 0x6c, 0x5f, 0x31, 0x37, 0x2f, 0x63, 0x6f, 0x6e, 0x76, 0x32, 0x64,
  0x5f, 0x33, 0x35, 0x2f, 0x42, 0x69, 0x61, 0x73, 0x41, 0x64, 0x64, 0x2f,
  0x52, 0x65, 0x61, 0x64, 0x56, 0x61, 0x72, 0x69, 0x61, 0x62, 0x6c, 0x65,
  0x4f, 0x70, 0x2f, 0x72, 0x65, 0x73, 0x6f, 0x75, 0x72, 0x63, 0x65, 0x00,
  0x04, 0x00, 0x00, 0x00, 0xff, 0xff, 0xff, 0xff, 0x18, 0x00, 0x00, 0x00,
  0x03, 0x00, 0x00, 0x00, 0x10, 0x00, 0x00, 0x00, 0xa8, 0x8c, 0xff, 0xff,
  0x00, 0x00, 0x0e, 0x00, 0x1a, 0x00, 0x08, 0x00, 0x0c, 0x00, 0x10, 0x00,
  0x07, 0x00, 0x14, 0x00, 0x0e, 0x00, 0x00, 0x00, 0x00, 0x00, 0x00, 0x05,
  0x01, 0x00, 0x00, 0x00, 0x3c, 0x00, 0x00, 0x00, 0x30, 0x00, 0x00, 0x00,
  0x14, 0x00, 0x00, 0x00, 0x00, 0x00, 0x0e, 0x00, 0x18, 0x00, 0x17, 0x00,
  0x10, 0x00, 0x0c, 0x00, 0x08, 0x00, 0x04, 0x00, 0x0e, 0x00, 0x00, 0x00,
  0x03, 0x00, 0x00, 0x00, 0x01, 0x00, 0x00, 0x00, 0x03, 0x00, 0x00, 0x00,
  0x01, 0x00, 0x00, 0x00, 0x00, 0x00, 0x00, 0x01, 0x01, 0x00, 0x00, 0x00,
  0x0b, 0x00, 0x00, 0x00, 0x01, 0x00, 0x00, 0x00, 0x0a, 0x00, 0x00, 0x00,
  0x2a, 0xff, 0xff, 0xff, 0x00, 0x00, 0x00, 0x11, 0x01, 0x00, 0x00, 0x00,
  0x50, 0x8c, 0xff, 0xff, 0x14, 0x00, 0x00, 0x00, 0x0c, 0x00, 0x00, 0x00,
  0x20, 0x00, 0x00, 0x00, 0x5c, 0x00, 0x00, 0x00, 0x44, 0x00, 0x00, 0x00,
  0x04, 0x00, 0x00, 0x00, 0x01, 0x00, 0x00, 0x00, 0x1a, 0x00, 0x00, 0x00,
  0x03, 0x00, 0x00, 0x00, 0x10, 0x00, 0x00, 0x00, 0x26, 0x00, 0x00, 0x00,
  0x73, 0x65, 0x71, 0x75, 0x65, 0x6e, 0x74, 0x69, 0x61, 0x6c, 0x5f, 0x31,
  0x37, 0x2f, 0x6d, 0x61, 0x78, 0x5f, 0x70, 0x6f, 0x6f, 0x6c, 0x69, 0x6e,
  0x67, 0x32, 0x64, 0x5f, 0x33, 0x34, 0x2f, 0x4d, 0x61, 0x78, 0x50, 0x6f,
  0x6f, 0x6c, 0x00, 0x00, 0x04, 0x00, 0x00, 0x00, 0xff, 0xff, 0xff, 0xff,
  0x1a, 0x00, 0x00, 0x00, 0x03, 0x00, 0x00, 0x00, 0x10, 0x00, 0x00, 0x00,
  0x84, 0x8d, 0xff, 0xff, 0x00, 0x00, 0x0e, 0x00, 0x14, 0x00, 0x00, 0x00,
  0x08, 0x00, 0x0c, 0x00, 0x07, 0x00, 0x10, 0x00, 0x0e, 0x00, 0x00, 0x00,
  0x00, 0x00, 0x00, 0x01, 0x30, 0x00, 0x00, 0x00, 0x24, 0x00, 0x00, 0x00,
  0x10, 0x00, 0x00, 0x00, 0x0c, 0x00, 0x10, 0x00, 0x0e, 0x00, 0x04, 0x00,
  0x08, 0x00, 0x0f, 0x00, 0x0c, 0x00, 0x00, 0x00, 0x01, 0x00, 0x00, 0x00,
  0x01, 0x00, 0x00, 0x00, 0x00, 0x00, 0x01, 0x01, 0x01, 0x00, 0x00, 0x00,
  0x0a, 0x00, 0x00, 0x00, 0x03, 0x00, 0x00, 0x00, 0x00, 0x00, 0x00, 0x00,
  0x08, 0x00, 0x00, 0x00, 0x01, 0x00, 0x00, 0x00, 0x00, 0x00, 0x0a, 0x00,
  0x0c, 0x00, 0x07, 0x00, 0x00, 0x00, 0x08, 0x00, 0x0a, 0x00, 0x00, 0x00,
  0x00, 0x00, 0x00, 0x03, 0x01, 0x00, 0x00, 0x00, 0x30, 0x8d, 0xff, 0xff,
  0x14, 0x00, 0x00, 0x00, 0x0b, 0x00, 0x00, 0x00, 0x20, 0x00, 0x00, 0x00,
  0xe8, 0x00, 0x00, 0x00, 0xd0, 0x00, 0x00, 0x00, 0x04, 0x00, 0x00, 0x00,
  0x01, 0x00, 0x00, 0x00, 0x4e, 0x00, 0x00, 0x00, 0x03, 0x00, 0x00, 0x00,
  0x10, 0x00, 0x00, 0x00, 0xb2, 0x00, 0x00, 0x00, 0x73, 0x65, 0x71, 0x75,
  0x65, 0x6e, 0x74, 0x69, 0x61, 0x6c, 0x5f, 0x31, 0x37, 0x2f, 0x63, 0x6f,
  0x6e, 0x76, 0x32, 0x64, 0x5f, 0x33, 0x34, 0x2f, 0x52, 0x65, 0x6c, 0x75,
  0x3b, 0x73, 0x65, 0x71, 0x75, 0x65, 0x6e, 0x74, 0x69, 0x61, 0x6c, 0x5f,
  0x31, 0x37, 0x2f, 0x63, 0x6f, 0x6e, 0x76, 0x32, 0x64, 0x5f, 0x33, 0x34,
  0x2f, 0x42, 0x69, 0x61, 0x73, 0x41, 0x64, 0x64, 0x3b, 0x73, 0x65, 0x71,
  0x75, 0x65, 0x6e, 0x74, 0x69, 0x61, 0x6c, 0x5f, 0x31, 0x37, 0x2f, 0x63,
  0x6f, 0x6e, 0x76, 0x32, 0x64, 0x5f, 0x33, 0x35, 0x2f, 0x43, 0x6f, 0x6e,
  0x76, 0x32, 0x44, 0x3b, 0x73, 0x65, 0x71, 0x75, 0x65, 0x6e, 0x74, 0x69,
  0x61, 0x6c, 0x5f, 0x31, 0x37, 0x2f, 0x63, 0x6f, 0x6e, 0x76, 0x32, 0x64,
  0x5f, 0x33, 0x34, 0x2f, 0x43, 0x6f, 0x6e, 0x76, 0x32, 0x44, 0x3b, 0x73,
  0x65, 0x71, 0x75, 0x65, 0x6e, 0x74, 0x69, 0x61, 0x6c, 0x5f, 0x31, 0x37,
  0x2f, 0x63, 0x6f, 0x6e, 0x76, 0x32, 0x64, 0x5f, 0x33, 0x34, 0x2f, 0x42,
  0x69, 0x61, 0x73, 0x41, 0x64, 0x64, 0x2f, 0x52, 0x65, 0x61, 0x64, 0x56,
  0x61, 0x72, 0x69, 0x61, 0x62, 0x6c, 0x65, 0x4f, 0x70, 0x2f, 0x72, 0x65,
  0x73, 0x6f, 0x75, 0x72, 0x63, 0x65, 0x00, 0x00, 0x04, 0x00, 0x00, 0x00,
  0xff, 0xff, 0xff, 0xff, 0x4e, 0x00, 0x00, 0x00, 0x03, 0x00, 0x00, 0x00,
  0x10, 0x00, 0x00, 0x00, 0xc0, 0x8d, 0xff, 0xff, 0xea, 0x8e, 0xff, 0xff,
  0x04, 0x00, 0x00, 0x00, 0x00, 0x0c, 0x00, 0x00, 0xef, 0x85, 0x04, 0x3e,
  0x84, 0x84, 0xa1, 0xbe, 0x14, 0x0d, 0x49, 0xbe, 0x0b, 0x8a, 0xcb, 0xbd,
  0x8e, 0xb3, 0x2a, 0x3f, 0x44, 0xec, 0x40, 0xbe, 0xe2, 0x64, 0x9c, 0x3e,
  0xbd, 0x20, 0x15, 0xbf, 0x08, 0x6b, 0x00, 0xbe, 0xdd, 0x07, 0x34, 0x3d,
  0x5d, 0x32, 0xa5, 0x3e, 0x03, 0x5b, 0x28, 0x3e, 0xb6, 0x6b, 0xa0, 0x3d,
  0xe2, 0x66, 0xf1, 0xbd, 0xf0, 0xed, 0x5b, 0xbe, 0x90, 0xd2, 0x88, 0xbd,
  0x71, 0xb9, 0x12, 0x3d, 0x08, 0xc8, 0xfa, 0xbe, 0xa5, 0x09, 0xb5, 0x3d,
  0x23, 0x2e, 0xcb, 0x3d, 0x83, 0xb8, 0x77, 0xbe, 0xfd, 0xe8, 0xf7, 0x3a,
  0x5b, 0xe0, 0x55, 0x3e, 0x1f, 0xc6, 0x43, 0xbf, 0x59, 0x5e, 0xd6, 0xbd,
  0x23, 0x81, 0xe3, 0xbe, 0x5e, 0x49, 0x8d, 0xbd, 0xe0, 0xd9, 0x9c, 0x3e,
  0xfe, 0x76, 0x69, 0xbd, 0x20, 0xca, 0xca, 0x3e, 0xf9, 0xd1, 0x6d, 0x3a,
  0x7b, 0x9b, 0x7f, 0xbd, 0x2b, 0x97, 0x32, 0x3c, 0xd2, 0x3f, 0x25, 0xbe,
  0xc1, 0x80, 0x49, 0xbc, 0x7e, 0xc1, 0x7a, 0xbb, 0x53, 0xe7, 0xe8, 0xbd,
  0x82, 0xa3, 0x86, 0xbe, 0x7d, 0xf1, 0x42, 0xbd, 0x0a, 0x36, 0x2b, 0xbf,
  0x55, 0x34, 0x9b, 0xbc, 0xdb, 0x75, 0x6d, 0x3e, 0xec, 0xfe, 0x39, 0xbd,
  0xad, 0xaa, 0x95, 0x3c, 0xf1, 0x01, 0x05, 0x3e, 0xba, 0x0e, 0x47, 0x3e,
  0x67, 0x16, 0xed, 0xbd, 0xa3, 0x01, 0x00, 0xbe, 0x19, 0x7b, 0x21, 0xbe,
  0xcb, 0xdc, 0xc4, 0xbe, 0x41, 0x1e, 0x07, 0xbf, 0x0b, 0x9f, 0xef, 0xbe,
  0x7c, 0x97, 0xb0, 0xbe, 0xca, 0xc7, 0x17, 0xbe, 0x61, 0x54, 0xfb, 0xbd,
  0x8d, 0x6b, 0x74, 0x3e, 0x0e, 0x7e, 0x8d, 0xbe, 0xc3, 0xdb, 0xb6, 0xbe,
  0x90, 0x8a, 0x3b, 0xbe, 0xbd, 0x48, 0x29, 0xbe, 0x13, 0x1d, 0x94, 0xbe,
  0xc1, 0xb9, 0xe4, 0xbe, 0x12, 0x04, 0xb4, 0xbe, 0x87, 0xf7, 0xfd, 0xbe,
  0xc9, 0xcb, 0x5f, 0x3d, 0x8c, 0x09, 0xa9, 0xbe, 0xb0, 0xda, 0xd0, 0xbb,
  0x04, 0x6d, 0xe1, 0x3d, 0x32, 0x5d, 0xc3, 0xbe, 0x4b, 0x6c, 0x6b, 0x3d,
  0x3b, 0xb3, 0x82, 0xbc, 0x2c, 0x9c, 0xab, 0x3d, 0x32, 0x0b, 0xb1, 0xbe,
  0x30, 0x06, 0x83, 0xbd, 0x00, 0x20, 0x3a, 0xbd, 0x35, 0x86, 0x07, 0xbe,
  0xeb, 0xed, 0xb0, 0x3c, 0x98, 0x7a, 0x37, 0xbe, 0xd8, 0x3b, 0x1f, 0x3d,
  0x1f, 0x70, 0xae, 0x3c, 0x0a, 0xba, 0xc0, 0x3e, 0xde, 0xd8, 0x1f, 0x3f,
  0x09, 0x6e, 0xda, 0x3e, 0x6f, 0xad, 0x83, 0x3e, 0x1b, 0x71, 0x70, 0xbe,
  0x6c, 0x18, 0x1c, 0xbd, 0x58, 0xc3, 0x90, 0x3e, 0xd8, 0xd7, 0xda, 0x3e,
  0x35, 0x6d, 0x9b, 0xbe, 0x0e, 0x85, 0xa0, 0x3d, 0x8d, 0x21, 0x67, 0x3c,
  0xa4, 0x7d, 0x80, 0x3e, 0xe1, 0x98, 0x18, 0xbe, 0x9c, 0xbe, 0x0e, 0x3e,
  0x49, 0x92, 0x00, 0x3f, 0xcb, 0xe0, 0x69, 0x3e, 0x33, 0x39, 0x99, 0xbd,
  0xb4, 0xa9, 0xf1, 0xbc, 0x39, 0x0f, 0xe6, 0xbd, 0xaa, 0x97, 0x00, 0xbe,
  0x07, 0x48, 0xa4, 0xbd, 0xdd, 0x95, 0x85, 0x3e, 0x39, 0xcc, 0x94, 0x3d,
  0x44, 0x24, 0x42, 0xbe, 0x31, 0x84, 0x28, 0x3e, 0x8f, 0x3d, 0x6b, 0x3b,
  0x71, 0xec, 0xbf, 0xbc, 0x40, 0x8f, 0xb5, 0xbc, 0xeb, 0x0a, 0x68, 0x3c,
  0x25, 0xe4, 0x61, 0xbe, 0xa6, 0x04, 0x3c, 0xbd, 0x71, 0xaa, 0xa8, 0xbd,
  0xc1, 0x6f, 0x40, 0xbe, 0x9a, 0x8f, 0xeb, 0xbd, 0xb7, 0x43, 0x7d, 0x3c,
  0x4b, 0x9c, 0xaa, 0x3e, 0xdc, 0x80, 0x6c, 0x3e, 0x8c, 0x83, 0x9b, 0x3e,
  0x1e, 0x09, 0xd0, 0x3d, 0x54, 0x60, 0x8a, 0xbe, 0xf0, 0x53, 0xae, 0xbd,
  0xcc, 0xf3, 0x23, 0x3d, 0x31, 0x55, 0xa0, 0xbd, 0x24, 0x77, 0xe1, 0xbd,
  0x06, 0x7c, 0x01, 0x3e, 0x5d, 0xac, 0x04, 0x3e, 0x3e, 0x25, 0x06, 0xbe,
  0xd9, 0x88, 0xed, 0xbd, 0x6a, 0xa7, 0xed, 0xbd, 0x57, 0x23, 0xa2, 0xbd,
  0xcb, 0x5c, 0x1f, 0xbd, 0xbb, 0x36, 0xec, 0x3e, 0xab, 0xf3, 0xce, 0x3e,
  0x8b, 0x81, 0xda, 0x3e, 0xa6, 0x3c, 0x0a, 0xbd, 0x6d, 0x68, 0x7f, 0xbe,
  0x28, 0x54, 0xe3, 0x3e, 0xf6, 0x16, 0xdb, 0x3d, 0xa0, 0xfd, 0xa7, 0x37,
  0x7b, 0x44, 0xff, 0xbd, 0x1a, 0x2d, 0x20, 0xbe, 0x4c, 0xf0, 0x19, 0x3e,
  0xbf, 0xb7, 0x96, 0xbd, 0x92, 0x3b, 0xe4, 0xbd, 0x7a, 0x92, 0xeb, 0x3d,
  0xed, 0xb3, 0x37, 0x3e, 0xe5, 0x2c, 0x23, 0xbe, 0xf6, 0x41, 0x24, 0xbe,
  0xec, 0xeb, 0xe5, 0xbd, 0x37, 0x00, 0x2f, 0xbe, 0xd8, 0x70, 0xee, 0x3e,
  0x6b, 0x43, 0xa5, 0x3d, 0x8f, 0x67, 0xd2, 0x3d, 0x84, 0xcb, 0x1d, 0x3e,
  0x56, 0x39, 0xd5, 0x3d, 0x71, 0x63, 0xb8, 0x3d, 0xe2, 0x1e, 0xe1, 0x3d,
  0x45, 0x35, 0x09, 0x3e, 0x88, 0x94, 0xce, 0xbd, 0xec, 0xa4, 0xbb, 0x3d,
  0x75, 0x3d, 0x2a, 0xbd, 0x8d, 0x9e, 0xc5, 0xbd, 0xfc, 0x49, 0xc5, 0x3d,
  0xc6, 0x6c, 0x96, 0x3c, 0x1a, 0x1f, 0xb5, 0x3a, 0xcf, 0x5a, 0xa7, 0xbd,
  0xa2, 0x9e, 0x2f, 0xbc, 0x13, 0x57, 0xa5, 0xbe, 0x7c, 0x65, 0x50, 0x3e,
  0x49, 0x87, 0x99, 0x3d, 0x94, 0x22, 0x15, 0x3e, 0x8b, 0xd0, 0xe1, 0xbd,
  0x58, 0xa9, 0x15, 0xbd, 0xee, 0xd1, 0x32, 0xbe, 0xae, 0xc8, 0x66, 0x3d,
  0xd9, 0x32, 0xc5, 0xbb, 0x3d, 0x00, 0x13, 0x3d, 0xcf, 0x3d, 0x02, 0xbe,
  0x2e, 0x80, 0x5d, 0x3d, 0xcc, 0x64, 0x77, 0xbc, 0xc7, 0xe6, 0xe3, 0x3c,
  0x4e, 0x2d, 0x0c, 0xbe, 0xa8, 0x93, 0x3b, 0xbd, 0x61, 0x2a, 0xf9, 0xbd,
  0x07, 0xe7, 0x83, 0xbc, 0x36, 0xfc, 0xf2, 0xbc, 0x54, 0xdb, 0x4a, 0xbc,
  0x69, 0x6f, 0x1d, 0x3d, 0x64, 0x4d, 0x8a, 0x3b, 0xd2, 0x02, 0x2b, 0xbd,
  0x88, 0xf3, 0x89, 0x3d, 0x0a, 0xb0, 0xe3, 0xbc, 0x48, 0x29, 0xc3, 0x3e,
  0xd9, 0x14, 0xd7, 0xbc, 0x26, 0x7f, 0x62, 0x3e, 0x35, 0x9b, 0x98, 0x3e,
  0xb6, 0x48, 0x73, 0x3c, 0x16, 0xaa, 0x94, 0xbd, 0xf7, 0x45, 0x0d, 0xbe,
  0xd8, 0xdb, 0xfd, 0xbd, 0x39, 0x46, 0x1b, 0xbe, 0x64, 0xf0, 0x28, 0xbd,
  0x38, 0x76, 0xc1, 0x3d, 0x04, 0x99, 0x51, 0x3d, 0xbe, 0x0b, 0xfb, 0x3d,
  0x48, 0x36, 0x0e, 0xbd, 0xeb, 0x59, 0x99, 0x3e, 0xe1, 0xd5, 0x83, 0x3e,
  0xf6, 0xc3, 0xd8, 0x3d, 0x45, 0x0e, 0x00, 0xbd, 0x43, 0x1a, 0x8f, 0x3d,
  0xca, 0x48, 0x97, 0xbd, 0xe7, 0x67, 0x0d, 0x3d, 0x15, 0xfd, 0xf1, 0x3c,
  0xfa, 0xd7, 0x6f, 0x3d, 0xbf, 0x79, 0x2b, 0x3e, 0xcb, 0x2b, 0xa9, 0x3c,
  0x63, 0x3a, 0xe8, 0x3d, 0xf1, 0xf7, 0x20, 0x3c, 0xb2, 0xab, 0x95, 0xbd,
  0x92, 0xf5, 0xbc, 0xbc, 0xcc, 0xc6, 0x04, 0xbe, 0xe2, 0x76, 0x11, 0xbc,
  0xa2, 0x33, 0x23, 0x3d, 0x43, 0xab, 0x79, 0x3c, 0xe8, 0x0d, 0x5d, 0xba,
  0x2d, 0x17, 0xda, 0x3b, 0x41, 0xe0, 0x01, 0x3e, 0x7d, 0x43, 0x26, 0xbd,
  0xbd, 0x41, 0xba, 0x3d, 0x86, 0xeb, 0x9e, 0xbd, 0xb8, 0x2a, 0xa5, 0xbe,
  0xef, 0x79, 0xef, 0xbc, 0xfa, 0x8f, 0x1d, 0x3d, 0xcc, 0x5e, 0xa3, 0x3d,
  0x30, 0xc1, 0x06, 0xbd, 0x6d, 0x95, 0x54, 0xbb, 0xa3, 0xec, 0x9d, 0x3c,
  0x1e, 0x41, 0x8d, 0x3d, 0xc2, 0x2d, 0xcc, 0xbc, 0xa7, 0x29, 0xf6, 0x3e,
  0x32, 0x51, 0x86, 0xbe, 0x51, 0x65, 0xb8, 0xbf, 0x89, 0x62, 0xcf, 0x3e,
  0x92, 0xf8, 0xc9, 0xbd, 0xf1, 0xa3, 0x24, 0xbf, 0xa4, 0x62, 0x31, 0xbe,
  0x69, 0xbe, 0x1c, 0x3f, 0x0f, 0x60, 0x92, 0x3d, 0xf0, 0x58, 0x07, 0xbf,
  0xda, 0x71, 0x33, 0xbe, 0x80, 0xf9, 0xb9, 0xbc, 0x70, 0xa8, 0x1c, 0x3e,
  0x02, 0x01, 0x89, 0xbe, 0x4f, 0xd5, 0xe5, 0x3e, 0xba, 0xca, 0xb0, 0xbf,
  0xb5, 0xc1, 0x37, 0x3f, 0xb8, 0x9e, 0x51, 0xbb, 0x35, 0x4a, 0xe0, 0xbf,
  0x78, 0xb5, 0xd6, 0x3e, 0x88, 0xfc, 0xeb, 0x3d, 0x44, 0x3c, 0x29, 0xbf,
  0x58, 0xcc, 0x9a, 0xbc, 0x1c, 0x5d, 0x34, 0x3f, 0x62, 0xb8, 0xfe, 0xbc,
  0xd3, 0xc8, 0x25, 0xbf, 0xd3, 0x5b, 0x80, 0xbd, 0x36, 0x75, 0xcf, 0xbd,
  0xaa, 0x28, 0x79, 0x3e, 0x7f, 0xdd, 0xb2, 0xbe, 0xe0, 0x30, 0x1c, 0x3f,
  0x0c, 0x58, 0xc3, 0xbf, 0xdc, 0x50, 0xe4, 0x3e, 0xd5, 0x17, 0xc3, 0x3e,
  0xa9, 0xde, 0x7b, 0xbf, 0xf2, 0x21, 0x96, 0x3e, 0x1e, 0xd3, 0xf8, 0x3c,
  0x9a, 0x90, 0xf4, 0xbe, 0x07, 0x41, 0x81, 0xbd, 0x59, 0xc9, 0xac, 0xbe,
  0xbe, 0x6b, 0x42, 0x3d, 0x24, 0xcf, 0xb1, 0xbe, 0xef, 0xc1, 0xdc, 0xbd,
  0xca, 0x42, 0x03, 0xbe, 0x58, 0x49, 0xd3, 0x3d, 0x66, 0xa7, 0xc2, 0xbe,
  0x03, 0x58, 0xd7, 0x3e, 0x59, 0x05, 0x9e, 0xbf, 0x9a, 0xa9, 0x88, 0xbf,
  0x12, 0x03, 0xba, 0x3c, 0xf0, 0x70, 0x04, 0xbf, 0xac, 0xb5, 0xf7, 0xbe,
  0x31, 0x24, 0x58, 0x3d, 0xed, 0x0d, 0xfb, 0xbe, 0x9b, 0xc3, 0x92, 0xbf,
  0x35, 0x42, 0xcd, 0x3f, 0x84, 0xa2, 0xfb, 0x3d, 0x69, 0xf1, 0xb6, 0xbf,
  0x6c, 0xc6, 0xbc, 0xbf, 0x50, 0x4e, 0xca, 0xbf, 0xe0, 0x9f, 0xe3, 0xbf,
  0xe2, 0x2f, 0xda, 0xbf, 0xa2, 0xa3, 0x65, 0xbf, 0xe0, 0xd1, 0x37, 0xbf,
  0x2b, 0xaa, 0x2f, 0xbf, 0x4c, 0x26, 0xe8, 0xbe, 0xfd, 0x04, 0xbc, 0xbd,
  0x84, 0x85, 0x52, 0x3e, 0xdf, 0xc0, 0xd2, 0x3d, 0xa6, 0xdc, 0x5a, 0x3e,
  0xfc, 0xc1, 0xa8, 0xbe, 0x2e, 0xad, 0xd5, 0x3e, 0x75, 0x4c, 0x72, 0x3e,
  0xe2, 0xfc, 0xea, 0xbe, 0xf7, 0x56, 0xc1, 0xbe, 0xdc, 0x9b, 0xed, 0xbe,
  0xb5, 0xec, 0x2c, 0xbf, 0xcb, 0x81, 0x48, 0xbf, 0x0d, 0x6e, 0x95, 0xbe,
  0x61, 0x98, 0x15, 0xbf, 0x10, 0x5a, 0x7a, 0x3e, 0xa5, 0x79, 0x56, 0xbc,
  0x60, 0x96, 0x0f, 0x3f, 0x57, 0xcd, 0xb5, 0x3e, 0x93, 0x5c, 0xe6, 0x3e,
  0xdd, 0x56, 0x57, 0x3d, 0xa8, 0x1a, 0xb8, 0x3e, 0x00, 0x21, 0x03, 0xbe,
  0x2b, 0xa6, 0xb8, 0x3e, 0x42, 0x41, 0xda, 0x3e, 0x10, 0x1b, 0x91, 0x3e,
  0x99, 0x4f, 0x8c, 0x3e, 0x7b, 0x0e, 0x99, 0x3e, 0x9a, 0xef, 0x4d, 0x3c,
  0xa0, 0x5f, 0xba, 0x3e, 0x08, 0x25, 0x87, 0x3e, 0x88, 0xde, 0x8e, 0x3d,
  0x73, 0xd8, 0x20, 0xbe, 0x26, 0x49, 0xa6, 0xbc, 0xa0, 0xdc, 0x7d, 0xbd,
  0x7a, 0x5b, 0x76, 0x3d, 0x20, 0x88, 0x32, 0xbd, 0xba, 0xd9, 0x7e, 0xbd,
  0x85, 0x1f, 0x61, 0xbd, 0x43, 0x40, 0x75, 0xbd, 0x30, 0x57, 0xea, 0x3c,
  0x0d, 0xa9, 0x87, 0x3d, 0x4e, 0xde, 0x07, 0x3e, 0x47, 0xd8, 0x24, 0xbd,
  0x14, 0xb5, 0x23, 0xbd, 0x90, 0x22, 0x4f, 0x3d, 0x23, 0xd2, 0x89, 0x3a,
  0x72, 0x9b, 0xf6, 0x3b, 0x5b, 0x02, 0x42, 0xbe, 0x07, 0x3d, 0xca, 0xbc,
  0x19, 0xa9, 0x46, 0x3c, 0x41, 0xf4, 0x83, 0xbe, 0x9d, 0xaf, 0xae, 0x3c,
  0x37, 0xa7, 0x90, 0xbe, 0x72, 0x3f, 0xdd, 0xbe, 0x12, 0xc0, 0x81, 0xbd,
  0xec, 0x81, 0x37, 0xbd, 0x6f, 0xf8, 0x28, 0xbc, 0x30, 0xfc, 0xc6, 0xbd,
  0x88, 0xdb, 0xb5, 0x3c, 0xfb, 0xdd, 0x8c, 0x3d, 0xa6, 0x61, 0x82, 0x3d,
  0x8f, 0x73, 0xfe, 0xbc, 0x3e, 0x1c, 0xc6, 0x3d, 0xf8, 0x0f, 0x09, 0xbd,
  0x42, 0x36, 0x9b, 0xbc, 0x18, 0x77, 0x3a, 0xbe, 0x40, 0x42, 0xd2, 0x3d,
  0x93, 0x17, 0x3b, 0xbe, 0x78, 0xdc, 0xcb, 0x3e, 0x8f, 0xc3, 0x18, 0xbe,
  0x2f, 0x59, 0x10, 0x3f, 0x4e, 0xbc, 0x82, 0x3d, 0xfe, 0xd3, 0x53, 0x3d,
  0x34, 0x82, 0x20, 0x3e, 0x46, 0x1f, 0x58, 0x3d, 0x1d, 0x47, 0xf1, 0xbd,
  0xb3, 0x9c, 0xf4, 0x3c, 0xbc, 0xe9, 0x16, 0x3d, 0xe6, 0xab, 0x01, 0xbd,
  0xf2, 0xc9, 0x52, 0xbe, 0x29, 0xa2, 0x98, 0x3e, 0x9c, 0xe9, 0xe5, 0xbd,
  0xd4, 0x0a, 0x3d, 0xbe, 0x03, 0x97, 0x73, 0x3f, 0xda, 0xa4, 0x1a, 0x3e,
  0xb1, 0x26, 0x8b, 0x3e, 0x77, 0xa6, 0x03, 0xbe, 0x28, 0x11, 0xa7, 0xbd,
  0x5b, 0x55, 0x8b, 0xbd, 0x67, 0x54, 0xa1, 0x3e, 0x71, 0xb2, 0x04, 0xbd,
  0xe5, 0xc2, 0xc9, 0x3e, 0x80, 0xed, 0x48, 0xbc, 0x88, 0x9d, 0x05, 0x3e,
  0x55, 0x3a, 0xa0, 0xbd, 0x94, 0x57, 0x59, 0x3d, 0xe9, 0xe3, 0x92, 0xbe,
  0x9a, 0xac, 0xb4, 0xbd, 0x2b, 0xb1, 0x5f, 0x3d, 0x3b, 0x06, 0xbb, 0xbe,
  0x44, 0x0d, 0x6f, 0x3e, 0xd7, 0x52, 0x92, 0xbe, 0x54, 0x4e, 0x0b, 0xbc,
  0xde, 0x56, 0x14, 0xbe, 0x24, 0xb8, 0xee, 0xbd, 0x12, 0x7f, 0xf7, 0x3d,
  0xa6, 0x03, 0xea, 0xbc, 0x12, 0x03, 0x57, 0xbd, 0x0b, 0xfa, 0x7f, 0xbc,
  0x03, 0xcb, 0x78, 0xbd, 0xfd, 0x76, 0x26, 0xbe, 0x77, 0xfa, 0x5c, 0xbe,
  0xb1, 0xe3, 0x9b, 0xbe, 0xfd, 0xa2, 0xdb, 0xbc, 0xe8, 0x4c, 0x09, 0xbd,
  0x8d, 0xf5, 0x6f, 0xbe, 0x04, 0x94, 0x81, 0xbd, 0xce, 0x88, 0x1b, 0xbf,
  0xb0, 0xdd, 0x3e, 0x3d, 0xa6, 0x92, 0xde, 0x3c, 0x35, 0xdf, 0xae, 0xbd,
  0x07, 0xe0, 0x44, 0xbc, 0xe4, 0x84, 0x8a, 0x3b, 0xd2, 0xe4, 0xad, 0x3d,
  0x85, 0xd2, 0x59, 0xbe, 0xa4, 0x57, 0x5a, 0xbe, 0x10, 0x35, 0x19, 0xbe,
  0xef, 0x6c, 0x9a, 0xbd, 0x0d, 0x3a, 0xe0, 0xbc, 0x91, 0x17, 0x0f, 0x3f,
  0x8c, 0x59, 0x06, 0x3e, 0x70, 0x91, 0x1e, 0x3f, 0x15, 0x5a, 0x01, 0xbe,
  0xda, 0xff, 0x15, 0xbf, 0x44, 0xd8, 0x21, 0x3f, 0x8c, 0xbf, 0x20, 0x3e,
  0x84, 0xe8, 0x66, 0xbd, 0xee, 0xef, 0x06, 0x3a, 0x82, 0x46, 0x01, 0x3e,
  0x81, 0x8c, 0x7c, 0x3d, 0xe1, 0x92, 0xb6, 0xbd, 0x98, 0xda, 0xda, 0xbd,
  0xa7, 0x93, 0x43, 0xbd, 0x67, 0xf5, 0x10, 0xbe, 0xbb, 0xb4, 0x12, 0x3d,
  0xa2, 0xa3, 0x28, 0x3e, 0x20, 0xe1, 0x87, 0x3d, 0x2b, 0x8a, 0xa5, 0xbd,
  0xe4, 0x00, 0xc3, 0xbd, 0x69, 0x89, 0x78, 0xbf, 0xb1, 0x47, 0x1e, 0x3e,
  0x53, 0x4a, 0x52, 0xbd, 0x4a, 0x93, 0x07, 0x3e, 0x60, 0x3c, 0x08, 0xbe,
  0x9a, 0x69, 0xdb, 0xbd, 0x0e, 0x32, 0xd0, 0x3d, 0x88, 0xfd, 0x16, 0x3d,
  0x03, 0x69, 0x1c, 0x3d, 0x59, 0x0d, 0x61, 0xbc, 0x26, 0x3d, 0x81, 0xbe,
  0xd7, 0x85, 0xfd, 0xba, 0xd1, 0xac, 0xf3, 0xbd, 0x8a, 0xb8, 0x9b, 0x3d,
  0xcd, 0x4b, 0x4e, 0xbe, 0xfb, 0xb7, 0xb0, 0xbd, 0x5c, 0x16, 0x1d, 0xbf,
  0xb1, 0x19, 0x67, 0x3d, 0x11, 0x21, 0x93, 0xbd, 0x7e, 0x49, 0x36, 0x3e,
  0x72, 0x79, 0x98, 0x3d, 0xdd, 0x7f, 0x97, 0xbc, 0x62, 0xa9, 0x96, 0xbd,
  0x55, 0x39, 0xa9, 0x3c, 0xe2, 0xb3, 0x6f, 0xbd, 0xde, 0xba, 0xaf, 0xbf,
  0x48, 0x68, 0xf9, 0xbf, 0x9a, 0x28, 0x92, 0xbf, 0xdd, 0x9c, 0x06, 0xbf,
  0x48, 0xca, 0x8d, 0xbd, 0x24, 0x8f, 0x23, 0x3e, 0x36, 0xa3, 0xec, 0x3e,
  0x0b, 0xd5, 0x21, 0xc0, 0x82, 0x73, 0x0d, 0xbf, 0x1f, 0xbf, 0x2b, 0x3e,
  0xd3, 0x65, 0x41, 0x3f, 0x09, 0x85, 0x30, 0x3f, 0x2b, 0xfb, 0x9f, 0x3e,
  0x18, 0x41, 0x41, 0xbf, 0xb0, 0x99, 0xb0, 0xbf, 0x58, 0xa0, 0xc5, 0xbf,
  0x0a, 0xaa, 0xd1, 0xbf, 0x82, 0x83, 0x51, 0xc0, 0xdc, 0xe2, 0x6f, 0xbe,
  0xbe, 0xc7, 0x82, 0x3f, 0x2c, 0x1a, 0xfc, 0x3e, 0xbe, 0xbb, 0xfd, 0xbb,
  0xf3, 0x23, 0xb4, 0xbe, 0xaf, 0x42, 0x59, 0xc0, 0xf6, 0x61, 0x47, 0x3f,
  0x31, 0x7c, 0x99, 0x3d, 0x86, 0xcb, 0x2d, 0x3e, 0xae, 0x75, 0x15, 0x3e,
  0x0b, 0x39, 0x23, 0x3e, 0x6a, 0xe4, 0x02, 0x3e, 0x97, 0xbf, 0x75, 0xbf,
  0xb0, 0x5a, 0x00, 0xc0, 0xce, 0xe6, 0xb6, 0xbf, 0x2f, 0x82, 0xb1, 0xbf,
  0x53, 0xb4, 0xbb, 0xbe, 0x43, 0x37, 0x64, 0x3e, 0x3a, 0xb3, 0xe9, 0xbd,
  0x25, 0x84, 0x59, 0xbe, 0xc9, 0x70, 0xf1, 0xbc, 0xc5, 0x1e, 0x13, 0xc0,
  0x84, 0xcd, 0x20, 0x3e, 0x44, 0x0c, 0xed, 0xbd, 0x8f, 0x73, 0xe6, 0xbd,
  0xb6, 0x4c, 0x46, 0xbd, 0x99, 0x45, 0x6b, 0x3e, 0x9a, 0x7b, 0x81, 0x3e,
  0x83, 0x2f, 0x36, 0xbf, 0x91, 0xfe, 0xcd, 0xbf, 0x91, 0x15, 0x5b, 0xbf,
  0xc8, 0x22, 0x00, 0xc0, 0xfb, 0x32, 0x22, 0xbf, 0x0f, 0x45, 0x1f, 0x3e,
  0x64, 0x9b, 0x2e, 0x3f, 0xd5, 0x94, 0xae, 0xbf, 0x72, 0x5b, 0x23, 0x3f,
  0x7b, 0x10, 0x23, 0xc0, 0xf0, 0x24, 0x0f, 0x3f, 0x6c, 0x92, 0x0e, 0xbe,
  0xea, 0x56, 0xaf, 0x3e, 0x1e, 0xb4, 0xfd, 0x3e, 0xbb, 0x4b, 0x26, 0xbe,
  0xc4, 0x57, 0x4a, 0xbe, 0x57, 0x83, 0x6b, 0xbf, 0x25, 0xd8, 0x40, 0xbf,
  0x43, 0x7c, 0x49, 0xbf, 0x60, 0xe8, 0x36, 0xc0, 0x36, 0xb7, 0x3e, 0xbf,
  0x64, 0xb6, 0x56, 0xbe, 0xd8, 0x50, 0xec, 0xbe, 0x00, 0x28, 0x2d, 0xc0,
  0x4d, 0xcc, 0x54, 0x3e, 0xef, 0x07, 0xad, 0xc0, 0xf3, 0x88, 0x67, 0xbd,
  0x19, 0xfe, 0xde, 0x3e, 0xdc, 0xf4, 0x79, 0x3e, 0x2e, 0x47, 0x57, 0x3e,
  0x4c, 0xff, 0x6e, 0x3f, 0x22, 0xcb, 0x1f, 0x3f, 0xd6, 0xce, 0x87, 0xbf,
  0xfc, 0x2b, 0x42, 0xbf, 0x88, 0xbb, 0xf1, 0xbe, 0x09, 0xa8, 0x02, 0xc0,
  0x5d, 0x20, 0x8e, 0xbf, 0xd4, 0xd7, 0xb3, 0xbe, 0x49, 0x99, 0xd9, 0xbc,
  0xfa, 0x0c, 0x37, 0xc0, 0x63, 0xfa, 0x0d, 0x3e, 0xfa, 0x06, 0x59, 0xc0,
  0x01, 0x8c, 0xa3, 0xbe, 0x0b, 0x66, 0xb4, 0xbb, 0x84, 0x1b, 0x9e, 0x3e,
  0xbb, 0xd2, 0xe0, 0x3e, 0xa4, 0x36, 0xa1, 0x3e, 0x36, 0xc2, 0x1a, 0xbf,
  0x16, 0x7a, 0x44, 0xbf, 0xa9, 0xeb, 0x93, 0xbf, 0x78, 0x47, 0x21, 0x3e,
  0x30, 0x4a, 0x8a, 0xbe, 0x18, 0x6d, 0xa9, 0xbd, 0xfd, 0x42, 0xe4, 0xbd,
  0x02, 0xf2, 0x1a, 0x3f, 0x5e, 0x6e, 0x9c, 0xbe, 0x87, 0x78, 0x6d, 0x3e,
  0x2f, 0xbf, 0x34, 0xbf, 0x52, 0xe6, 0x4a, 0xbc, 0x4b, 0x2c, 0x1c, 0x3e,
  0xcf, 0x45, 0x79, 0x3e, 0x62, 0xe1, 0x0d, 0xbe, 0xfd, 0xdc, 0xa0, 0xbd,
  0x5d, 0x01, 0x91, 0x3e, 0x4a, 0x2f, 0x7b, 0xbd, 0x73, 0xb3, 0x0e, 0x3c,
  0xd3, 0xca, 0x50, 0x3c, 0x76, 0x1f, 0xb4, 0xbe, 0xb6, 0x77, 0x3c, 0xbe,
  0x77, 0xcf, 0x3e, 0xbe, 0x90, 0xf1, 0x03, 0xbe, 0xa5, 0x88, 0x48, 0xbf,
  0x61, 0x7b, 0x00, 0xbe, 0xbb, 0x2a, 0x4b, 0xbf, 0xf9, 0x71, 0xd1, 0xbd,
  0xf3, 0x4e, 0xbc, 0x3e, 0x54, 0x05, 0xb3, 0xbd, 0x2b, 0x31, 0xad, 0x3e,
  0x8b, 0xd9, 0x25, 0x3f, 0x51, 0x00, 0x15, 0x3c, 0x3d, 0x28, 0x53, 0xbd,
  0x10, 0xf7, 0x85, 0xbd, 0x2d, 0x4e, 0x22, 0xbc, 0xfd, 0x7a, 0x0b, 0xbe,
  0x2a, 0x70, 0xef, 0xbd, 0x59, 0x3f, 0xb5, 0x3c, 0x24, 0x6d, 0x64, 0x39,
  0x27, 0xbb, 0xdb, 0xbe, 0x40, 0x75, 0xfe, 0x3d, 0x20, 0x5a, 0x98, 0xbd,
  0x1b, 0x26, 0xc4, 0xbd, 0xef, 0x5e, 0xc9, 0xbd, 0xdc, 0xe5, 0x55, 0x3e,
  0x53, 0x2b, 0x3d, 0x3d, 0xfe, 0xb5, 0x8b, 0xbd, 0x27, 0x18, 0x04, 0x3c,
  0x2a, 0x18, 0x5c, 0xbd, 0x35, 0x3e, 0x02, 0xbe, 0x32, 0x75, 0xf3, 0xbb,
  0x9a, 0xeb, 0xaf, 0xbd, 0x5a, 0x07, 0x81, 0x3e, 0x90, 0x9f, 0x59, 0x3d,
  0x29, 0x32, 0x0a, 0xbe, 0xcc, 0xef, 0x83, 0x3d, 0x69, 0x6d, 0xd2, 0x3c,
  0x68, 0x54, 0xc6, 0xbe, 0xb0, 0x47, 0xc7, 0xbd, 0xc8, 0x3f, 0x3e, 0x3e,
  0x38, 0xb1, 0x0a, 0xbd, 0x9c, 0x7e, 0x70, 0x3d, 0x58, 0x71, 0xc5, 0x3c,
  0x53, 0xfc, 0xf0, 0xbc, 0x3d, 0x02, 0x03, 0x3e, 0x9f, 0xa4, 0x50, 0x3e,
  0x4b, 0x1a, 0x30, 0x3e, 0x6f, 0xa5, 0x89, 0x3d, 0xba, 0xde, 0x89, 0x3d,
  0x00, 0x21, 0xce, 0x3d, 0xfd, 0x9a, 0xc9, 0xbc, 0xd0, 0x97, 0xa4, 0x3d,
  0xe5, 0x4a, 0x11, 0xbe, 0x83, 0xba, 0x48, 0xbe, 0x42, 0xa0, 0x09, 0xbe,
  0x03, 0xc4, 0xda, 0xba, 0x92, 0x93, 0x92, 0xbd, 0xcc, 0x08, 0x7d, 0xbd,
  0x14, 0xca, 0xce, 0x3d, 0xef, 0xa7, 0x73, 0x3d, 0x06, 0x9e, 0x2d, 0x3e,
  0x1e, 0xc6, 0x33, 0x3d, 0x10, 0x47, 0x35, 0x3e, 0x9d, 0x65, 0x26, 0xbe,
  0x88, 0x25, 0x80, 0x3e, 0xca, 0xed, 0x0c, 0x3d, 0x89, 0x5c, 0x86, 0xbd,
  0x48, 0x45, 0xbc, 0x3e, 0xb5, 0x85, 0x0e, 0xbd, 0x23, 0x07, 0x3b, 0x3d,
  0x13, 0x92, 0x01, 0xbe, 0x46, 0xa3, 0x0d, 0xbc, 0x6e, 0x6a, 0xe4, 0x3c,
  0x17, 0x75, 0x83, 0x3c, 0xd5, 0x3d, 0x9c, 0x3c, 0x62, 0xbf, 0x61, 0xbd,
  0x4b, 0x5b, 0xf5, 0x3d, 0xe0, 0x3f, 0xdd, 0x3e, 0x43, 0x64, 0xe7, 0xbe,
  0x47, 0xeb, 0x52, 0xbe, 0xe4, 0x86, 0xad, 0x3e, 0x24, 0x4d, 0x9f, 0xbe,
  0x3a, 0x2e, 0xac, 0x3c, 0x9e, 0x4f, 0xa5, 0x3e, 0x8a, 0xf4, 0x8d, 0xbd,
  0x12, 0xea, 0x25, 0xbe, 0x52, 0x6d, 0xaf, 0x3c, 0x1a, 0x99, 0x89, 0x3e,
  0x12, 0xf3, 0x2d, 0x3d, 0x2b, 0xa0, 0x70, 0xbd, 0x7e, 0x87, 0xc7, 0xbd,
  0x43, 0x79, 0x5e, 0x3d, 0x43, 0xc4, 0x19, 0xbf, 0x00, 0x6c, 0x94, 0x3e,
  0x60, 0x65, 0x7d, 0xbd, 0x1c, 0x7f, 0x97, 0x3e, 0x70, 0x93, 0xbb, 0xbd,
  0x8d, 0xbb, 0x5b, 0xbd, 0xed, 0x44, 0x1c, 0xbe, 0x9a, 0x7d, 0x8f, 0x3e,
  0x3f, 0x99, 0x9f, 0x3e, 0x24, 0x6e, 0xa0, 0xbe, 0x14, 0xf9, 0x46, 0x3d,
  0xfc, 0xd6, 0x80, 0xbe, 0x46, 0x5f, 0x3d, 0xbe, 0x41, 0x50, 0xea, 0x3d,
  0xc5, 0x36, 0x59, 0xbe, 0xd2, 0xdf, 0x1b, 0x3e, 0x5f, 0x5b, 0x39, 0x3a,
  0x87, 0xaf, 0x33, 0x3d, 0xe3, 0xf9, 0x46, 0x3e, 0xa6, 0x1e, 0x60, 0x3e,
  0x29, 0xc8, 0x25, 0xbf, 0x5f, 0x65, 0xba, 0x3e, 0xe7, 0xbb, 0x21, 0x3d,
  0xf1, 0x3b, 0xe4, 0xbe, 0x37, 0xa5, 0x40, 0x3a, 0xb1, 0x84, 0x40, 0x3d,
  0xf7, 0x3f, 0x26, 0x3d, 0xcc, 0x96, 0x69, 0xbe, 0xd9, 0x60, 0xca, 0x3b,
  0x4f, 0xce, 0x18, 0xbd, 0x80, 0x27, 0x92, 0x3d, 0x35, 0xbf, 0x39, 0xbe,
  0x63, 0x88, 0x9f, 0x3e, 0x66, 0x09, 0xf5, 0xbe, 0x35, 0x16, 0x74, 0xbd,
  0xc5, 0x7f, 0xe3, 0x3c, 0xd4, 0x17, 0x98, 0x3c, 0xb2, 0x98, 0xfa, 0xbc,
  0x12, 0x43, 0xbe, 0x3d, 0x22, 0xae, 0x1c, 0x3c, 0x88, 0x8f, 0x2a, 0x3e,
  0x95, 0xc0, 0xb1, 0x3e, 0xde, 0x63, 0x42, 0xbc, 0xa7, 0xd4, 0xd5, 0xbd,
  0x08, 0x5a, 0x65, 0x3b, 0xb3, 0x26, 0x2d, 0x3d, 0xc8, 0xb6, 0x2e, 0x3e,
  0x4e, 0x02, 0x37, 0x3d, 0xad, 0xa3, 0xda, 0x3c, 0x57, 0xf7, 0xdb, 0x39,
  0x0d, 0x49, 0x03, 0xbe, 0x2c, 0x03, 0xf2, 0xbc, 0x0a, 0x5a, 0x6d, 0xbe,
  0x21, 0x5c, 0xcb, 0xbd, 0xfb, 0xd7, 0x4a, 0x3d, 0x64, 0x43, 0x7a, 0xbd,
  0x58, 0x42, 0x28, 0x3d, 0xaf, 0x4a, 0xdb, 0x3e, 0x8d, 0x29, 0xaf, 0x3d,
  0x3d, 0xe1, 0xa1, 0x3c, 0x81, 0x1b, 0xc8, 0x3d, 0xdd, 0x61, 0x1b, 0x3e,
  0x04, 0x9d, 0x21, 0xbd, 0x89, 0x99, 0x0c, 0x3e, 0xcc, 0x5f, 0x38, 0xbe,
  0xec, 0xdb, 0x09, 0xbe, 0x0c, 0x81, 0x8a, 0xbd, 0xeb, 0x18, 0x12, 0x3f,
  0xd6, 0x8a, 0xaa, 0x3c, 0x0c, 0xb2, 0x0f, 0xbe, 0xfd, 0x69, 0x2b, 0x3e,
  0x55, 0x8f, 0xd3, 0xbd, 0xb5, 0xf7, 0x8e, 0xbc, 0x8d, 0x3a, 0x7c, 0x3f,
  0xc2, 0x36, 0x49, 0xbc, 0x51, 0x1f, 0xfc, 0x3d, 0xa0, 0xe7, 0x28, 0x3d,
  0x30, 0x40, 0x2f, 0x3d, 0x8b, 0x16, 0xf8, 0x3c, 0x52, 0xc4, 0x08, 0x3e,
  0x2c, 0x86, 0x74, 0xbc, 0x8a, 0xaa, 0xba, 0x3c, 0xa2, 0x9a, 0xff, 0xff,
  0x10, 0x00, 0x00, 0x00, 0x0a, 0x00, 0x00, 0x00, 0x1c, 0x00, 0x00, 0x00,
  0x3c, 0x00, 0x00, 0x00, 0x04, 0x00, 0x00, 0x00, 0x10, 0x00, 0x00, 0x00,
  0x03, 0x00, 0x00, 0x00, 0x01, 0x00, 0x00, 0x00, 0x10, 0x00, 0x00, 0x00,
  0x1e, 0x00, 0x00, 0x00, 0x73, 0x65, 0x71, 0x75, 0x65, 0x6e, 0x74, 0x69,
  0x61, 0x6c, 0x5f, 0x31, 0x37, 0x2f, 0x63, 0x6f, 0x6e, 0x76, 0x32, 0x64,
  0x5f, 0x33, 0x35, 0x2f, 0x43, 0x6f, 0x6e, 0x76, 0x32, 0x44, 0x00, 0x00,
  0x1c, 0x9a, 0xff, 0xff, 0x46, 0x9b, 0xff, 0xff, 0x04, 0x00, 0x00, 0x00,
  0xc0, 0x00, 0x00, 0x00, 0x0e, 0xc4, 0x17, 0xbf, 0x82, 0x26, 0x88, 0xbf,
  0x19, 0x27, 0x10, 0xbf, 0x99, 0xdb, 0x84, 0x3e, 0x49, 0x28, 0x4d, 0xbf,
  0xf2, 0x33, 0x64, 0xbf, 0x7b, 0x36, 0x39, 0x3f, 0x1c, 0xe6, 0x4f, 0x3f,
  0x53, 0x2d, 0x2c, 0x3f, 0x71, 0x99, 0x20, 0xbf, 0x74, 0x51, 0x23, 0xbe,
  0x56, 0xa3, 0x07, 0xbf, 0xc6, 0x23, 0xa0, 0xbd, 0xed, 0x33, 0xf8, 0xbe,
  0xb9, 0x88, 0xc0, 0x3e, 0x3f, 0x08, 0x30, 0x3f, 0xa0, 0x9f, 0x1f, 0x3e,
  0x2d, 0xf9, 0x02, 0x3f, 0x22, 0x1a, 0xfe, 0x3e, 0x1b, 0x18, 0x34, 0x3e,
  0xae, 0x4d, 0x25, 0xbf, 0xa6, 0x25, 0xcd, 0xbe, 0x42, 0xa9, 0xca, 0x3e,
  0x52, 0xb8, 0x1b, 0x3f, 0x3c, 0x5f, 0xa4, 0xbe, 0x0a, 0xef, 0x00, 0x3f,
  0x69, 0x6d, 0xe4, 0xbe, 0x99, 0x6a, 0x86, 0xbe, 0xd7, 0x1f, 0x12, 0x3f,
  0xab, 0x97, 0x4a, 0x3f, 0x8c, 0x61, 0x17, 0xbf, 0x20, 0x09, 0x62, 0x3d,
  0x78, 0x77, 0x37, 0x3f, 0x31, 0x02, 0x33, 0x3f, 0x52, 0xf4, 0xf7, 0x3c,
  0x7e, 0x20, 0x2d, 0xbf, 0x2f, 0x8f, 0x7b, 0xbf, 0xa5, 0x8f, 0xc7, 0xbe,
  0xf4, 0x4b, 0x0a, 0x3f, 0xf1, 0x29, 0x2e, 0x3f, 0x79, 0xe3, 0x05, 0xbd,
  0x2c, 0x71, 0x54, 0xbe, 0x5a, 0xc6, 0x34, 0xbf, 0x47, 0x8c, 0x66, 0xbf,
  0xfe, 0x37, 0x37, 0xbf, 0xa7, 0x4a, 0x32, 0x3f, 0xfb, 0x65, 0x95, 0x3f,
  0xff, 0x5b, 0x24, 0x3f, 0xbe, 0x9b, 0xff, 0xff, 0x10, 0x00, 0x00, 0x00,
  0x09, 0x00, 0x00, 0x00, 0x1c, 0x00, 0x00, 0x00, 0x3c, 0x00, 0x00, 0x00,
  0x04, 0x00, 0x00, 0x00, 0x10, 0x00, 0x00, 0x00, 0x03, 0x00, 0x00, 0x00,
  0x01, 0x00, 0x00, 0x00, 0x01, 0x00, 0x00, 0x00, 0x1e, 0x00, 0x00, 0x00,
  0x73, 0x65, 0x71, 0x75, 0x65, 0x6e, 0x74, 0x69, 0x61, 0x6c, 0x5f, 0x31,
  0x37, 0x2f, 0x63, 0x6f, 0x6e, 0x76, 0x32, 0x64, 0x5f, 0x33, 0x34, 0x2f,
  0x43, 0x6f, 0x6e, 0x76, 0x32, 0x44, 0x00, 0x00, 0x38, 0x9b, 0xff, 0xff,
  0x62, 0x9c, 0xff, 0xff, 0x04, 0x00, 0x00, 0x00, 0xc0, 0x00, 0x00, 0x00,
  0x3a, 0x1c, 0x99, 0xbf, 0x33, 0x52, 0xca, 0xbe, 0x71, 0x2b, 0x3d, 0xbd,
  0xb4, 0x4c, 0xef, 0xbe, 0x0e, 0xb4, 0x59, 0x3e, 0x99, 0x12, 0xb6, 0x3e,
  0x43, 0xad, 0x14, 0xbf, 0x8e, 0xf6, 0x2b, 0xbd, 0x41, 0x88, 0x06, 0x3e,
  0x92, 0xb9, 0x5c, 0x3f, 0x6c, 0xc6, 0x86, 0xbe, 0x4c, 0xe8, 0x89, 0xbe,
  0xcb, 0x68, 0x36, 0x3f, 0x3a, 0x6f, 0x70, 0xbf, 0x79, 0x98, 0xe3, 0xbe,
  0xde, 0x44, 0xab, 0xbe, 0x42, 0x4d, 0x8e, 0x3e, 0xc1, 0xfa, 0x18, 0xbf,
  0xec, 0x42, 0x85, 0x3e, 0x35, 0xf0, 0xa3, 0x3e, 0xff, 0x01, 0x49, 0x3e,
  0x16, 0xc9, 0x40, 0xbf, 0xab, 0x10, 0x42, 0x3e, 0x4f, 0x37, 0xae, 0xbe,
  0x0d, 0x16, 0x5c, 0xbe, 0xd2, 0x21, 0xbc, 0x3d, 0x59, 0xef, 0x00, 0xbf,
  0x99, 0xd4, 0x4a, 0xbe, 0xe9, 0x3c, 0x8c, 0x3e, 0x8c, 0x2e, 0x93, 0x3b,
  0xc4, 0xf3, 0x40, 0x3e, 0xaf, 0xf3, 0xb8, 0x3e, 0xf8, 0xf1, 0x74, 0x3f,
  0x12, 0x9d, 0xb1, 0x3e, 0xaa, 0xc4, 0x62, 0xbf, 0x15, 0xce, 0xd0, 0x3e,
  0x95, 0xf8, 0x86, 0xbf, 0x52, 0xd6, 0x13, 0xbf, 0x36, 0xa7, 0x63, 0x3e,
  0xbd, 0xf4, 0xbe, 0xbf, 0x6c, 0x9f, 0x57, 0x3f, 0x03, 0x2c, 0xd5, 0xbd,
  0x90, 0xb7, 0x0b, 0x3e, 0xf5, 0x92, 0xec, 0x3e, 0x22, 0x99, 0xf2, 0xbb,
  0xc9, 0xb8, 0x22, 0x3a, 0xe7, 0x4e, 0xc5, 0x3e, 0x6b, 0xa8, 0xbc, 0x3d,
  0xda, 0x9c, 0xff, 0xff, 0x10, 0x00, 0x00, 0x00, 0x08, 0x00, 0x00, 0x00,
  0x14, 0x00, 0x00, 0x00, 0x34, 0x00, 0x00, 0x00, 0x02, 0x00, 0x00, 0x00,
  0x03, 0x00, 0x00, 0x00, 0x10, 0x00, 0x00, 0x00, 0x1d, 0x00, 0x00, 0x00,
  0x73, 0x65, 0x71, 0x75, 0x65, 0x6e, 0x74, 0x69, 0x61, 0x6c, 0x5f, 0x31,
  0x37, 0x2f, 0x64, 0x65, 0x6e, 0x73, 0x65, 0x5f, 0x33, 0x35, 0x2f, 0x4d,
  0x61, 0x74, 0x4d, 0x75, 0x6c, 0x00, 0x00, 0x00, 0x4c, 0x9c, 0xff, 0xff,
  0x76, 0x9d, 0xff, 0xff, 0x04, 0x00, 0x00, 0x00, 0x00, 0x60, 0x00, 0x00,
  0x9c, 0x7b, 0xd6, 0x3e, 0x80, 0xaa, 0xd1, 0xbf, 0x1d, 0xc4, 0xea, 0x3e,
  0x83, 0xaf, 0x5d, 0x3e, 0x9f, 0x05, 0x78, 0x3e, 0xb7, 0x56, 0x8d, 0x3f,
  0x30, 0x95, 0x88, 0x3f, 0xf0, 0x21, 0x9a, 0xbe, 0x34, 0xe3, 0x82, 0x3e,
  0x9b, 0xff, 0x20, 0x3f, 0xd6, 0x65, 0xf8, 0x3e, 0xb8, 0x76, 0xda, 0xbf,
  0x98, 0x4e, 0x11, 0x3f, 0x7d, 0x70, 0x53, 0xbe, 0xc1, 0xdf, 0xca, 0xbe,
  0xdf, 0x8d, 0x89, 0x3e, 0x3d, 0x1f, 0x17, 0x3f, 0x6c, 0x17, 0x93, 0xbe,
  0x9a, 0x64, 0xf3, 0x3e, 0x2d, 0x1c, 0x1f, 0x3f, 0x00, 0x06, 0xaa, 0x3e,
  0xc7, 0xc0, 0x7c, 0xbc, 0x2c, 0x38, 0x3b, 0xbf, 0x95, 0x0a, 0xd6, 0x3e,
  0xff, 0xdf, 0x41, 0x3e, 0x78, 0xbd, 0x90, 0x3e, 0x1b, 0x3b, 0x34, 0x3f,
  0x66, 0x2b, 0xb3, 0x3e, 0xea, 0x93, 0x3b, 0x3f, 0x04, 0x16, 0xc4, 0x3e,
  0x55, 0x59, 0x23, 0xbe, 0xb9, 0xd7, 0xc8, 0x3e, 0xd1, 0xf3, 0x22, 0x3f,
  0x3d, 0x2d, 0x2f, 0xbf, 0x38, 0xce, 0xcf, 0x3e, 0x12, 0xdd, 0x8d, 0x3f,
  0xac, 0xc0, 0x93, 0x3e, 0x64, 0xc6, 0x4e, 0x3f, 0x82, 0x2c, 0x35, 0x3f,
  0x27, 0x00, 0xb4, 0x3d, 0x7d, 0x6f, 0x4d, 0x3f, 0x9f, 0x10, 0x22, 0x3f,
  0xbc, 0x55, 0x7d, 0xbe, 0xd8, 0xe8, 0x19, 0xbf, 0x6e, 0x0a, 0x69, 0x3f,
  0x37, 0x60, 0xc9, 0x3d, 0x51, 0x17, 0x41, 0x3f, 0x5d, 0x15, 0xaf, 0xbe,
  0x9e, 0xba, 0x92, 0xbf, 0x61, 0x9d, 0x37, 0x3f, 0x9b, 0xb4, 0xe4, 0x3e,
  0x15, 0xf7, 0x96, 0xbf, 0xff, 0x5b, 0x6d, 0xbe, 0x77, 0xfa, 0x98, 0x3f,
  0x5e, 0xce, 0xb1, 0x3f, 0x68, 0x95, 0xc9, 0x3e, 0x64, 0xff, 0x9e, 0xbe,
  0xc2, 0x58, 0xaa, 0x3e, 0x48, 0x48, 0x03, 0xbf, 0x62, 0x1c, 0x25, 0xbf,
  0x6e, 0x71, 0x50, 0xbf, 0x22, 0x66, 0x90, 0xbe, 0x64, 0x89, 0x58, 0xbe,
  0x1f, 0x06, 0xcc, 0x3d, 0x7c, 0xa2, 0x80, 0xbc, 0xd5, 0xe3, 0xc1, 0xbd,
  0x8a, 0x0e, 0xb4, 0x3d, 0x6e, 0x65, 0x9e, 0x3e, 0xe6, 0xfe, 0x16, 0x3e,
  0xb4, 0x04, 0xad, 0xbd, 0x44, 0x65, 0xc6, 0xbe, 0x12, 0x4d, 0x58, 0xbd,
  0xd5, 0x86, 0x11, 0xbe, 0xf7, 0x19, 0xfd, 0x3d, 0x2f, 0xbb, 0x35, 0xbc,
  0x49, 0x1e, 0x1a, 0x3f, 0x91, 0x8c, 0x44, 0x3e, 0x5e, 0x29, 0x92, 0x3e,
  0x59, 0x3e, 0x6a, 0x3e, 0xe2, 0x14, 0x0c, 0xbd, 0xff, 0x58, 0x0b, 0xbf,
  0x93, 0x5d, 0xb4, 0xbd, 0x53, 0x7b, 0x76, 0x3e, 0xcb, 0xff, 0xe5, 0xbe,
  0xba, 0xc9, 0x57, 0xbe, 0x8c, 0x0b, 0x93, 0x3f, 0x28, 0xd4, 0x27, 0x3f,
  0xe4, 0x61, 0xf2, 0xbe, 0xa1, 0x55, 0x7a, 0xbf, 0x01, 0x87, 0x40, 0xbe,
  0xe3, 0xf2, 0xac, 0xbf, 0xe0, 0x79, 0xaa, 0xbf, 0x5c, 0x23, 0x36, 0xbf,
  0x14, 0xfc, 0x64, 0xbc, 0xe0, 0xc6, 0x8c, 0x3e, 0x25, 0x1e, 0xba, 0xbf,
  0x1d, 0x9c, 0x5b, 0xbe, 0x01, 0x12, 0x0a, 0x3e, 0xa9, 0x73, 0xb9, 0x3d,
  0xe1, 0xd5, 0x77, 0xbe, 0x31, 0x31, 0x66, 0x3b, 0xa5, 0x0c, 0xaf, 0x3e,
  0xf6, 0x5c, 0x42, 0x3d, 0x65, 0x24, 0xad, 0xbc, 0xb0, 0xea, 0x6e, 0xbe,
  0x0d, 0x77, 0xd7, 0x3c, 0x28, 0xfb, 0x47, 0xbf, 0x3e, 0x24, 0xba, 0xbf,
  0xdc, 0xff, 0xf1, 0x3d, 0x67, 0xc6, 0x0a, 0xbf, 0x9d, 0x68, 0x79, 0x3e,
  0x86, 0x64, 0x0e, 0x3e, 0x28, 0xea, 0x2e, 0x3e, 0x90, 0x73, 0xdf, 0xbc,
  0xba, 0x91, 0x11, 0x3c, 0x19, 0x99, 0xc7, 0x3d, 0x2f, 0x0e, 0xea, 0x3d,
  0x0b, 0x17, 0xf7, 0xbd, 0x37, 0xa8, 0x3d, 0xbe, 0x3a, 0xde, 0x17, 0x3d,
  0xd9, 0xdd, 0x2b, 0xbe, 0x64, 0xfc, 0x49, 0xbd, 0xdb, 0x3d, 0x3f, 0x3f,
  0xaa, 0xfd, 0xb0, 0x3e, 0xe0, 0x02, 0xff, 0x3c, 0x99, 0xbe, 0xd7, 0xbc,
  0xc2, 0x47, 0xc3, 0x3c, 0x78, 0x83, 0x85, 0x3d, 0xe5, 0x1a, 0xa1, 0xbe,
  0x66, 0x0c, 0xb6, 0xbe, 0x3f, 0x4e, 0x87, 0x3e, 0x6e, 0xa0, 0x22, 0xbf,
  0xff, 0xed, 0x5a, 0xbe, 0x9d, 0xc9, 0x84, 0x3e, 0x99, 0x96, 0xef, 0xbe,
  0x09, 0x42, 0x52, 0xbf, 0xad, 0xf0, 0xf3, 0xbd, 0x67, 0x25, 0x2d, 0x3f,
  0x09, 0xa3, 0x59, 0xbe, 0xe3, 0x40, 0x53, 0xbd, 0xd4, 0x93, 0xb5, 0xbe,
  0xe2, 0x30, 0x19, 0xbf, 0xcf, 0x89, 0xb4, 0x3d, 0x59, 0x07, 0x79, 0xbf,
  0x44, 0x97, 0x62, 0xbf, 0x10, 0x84, 0x00, 0xbf, 0x06, 0xac, 0xd7, 0x3d,
  0x70, 0x36, 0x1a, 0x3e, 0x8c, 0xed, 0x9d, 0xbe, 0x51, 0x93, 0x37, 0x3f,
  0x8a, 0xe9, 0x10, 0x3f, 0xfc, 0xb6, 0x3a, 0xbf, 0xb9, 0xaa, 0x82, 0xbe,
  0x1b, 0x1f, 0x03, 0xbf, 0x26, 0xc1, 0x93, 0x3d, 0xa7, 0xc2, 0xad, 0x3d,
  0x97, 0xfe, 0x47, 0x3e, 0xc8, 0x75, 0x45, 0xbe, 0xef, 0x2f, 0x2a, 0xbf,
  0x48, 0xea, 0x25, 0xbe, 0xad, 0xcc, 0xc8, 0x3d, 0x69, 0x1e, 0x05, 0x3d,
  0xed, 0xe9, 0xe7, 0x3d, 0x61, 0x78, 0x4a, 0x3d, 0x80, 0xe5, 0x21, 0x3e,
  0xcf, 0xec, 0xb2, 0x3d, 0x91, 0x3d, 0x90, 0xbd, 0x63, 0xaa, 0x87, 0xbd,
  0x52, 0x4b, 0x92, 0x3d, 0x1e, 0xa3, 0x11, 0xbd, 0xff, 0x57, 0xe1, 0xbd,
  0x24, 0x23, 0x3b, 0x3e, 0xa5, 0xf4, 0x64, 0xbd, 0xcd, 0x52, 0xa4, 0xbd,
  0x47, 0xb3, 0x88, 0xbd, 0x35, 0xf6, 0x92, 0xbe, 0x89, 0xec, 0x8a, 0xbf,
  0xc6, 0xaa, 0x80, 0xbd, 0xbc, 0xb0, 0x91, 0xbd, 0x32, 0x0c, 0x02, 0xbf,
  0xb0, 0x74, 0x3e, 0x3d, 0x40, 0xeb, 0xc1, 0x3e, 0xf8, 0xe7, 0x15, 0x3e,
  0x54, 0x83, 0x2b, 0xbf, 0x85, 0x33, 0x03, 0xbf, 0x41, 0x3c, 0xc5, 0x3e,
  0xd1, 0x4a, 0x00, 0xbf, 0xdc, 0x21, 0x67, 0xbf, 0xba, 0x42, 0x7e, 0xbf,
  0xe3, 0x01, 0xa6, 0x3d, 0x42, 0x01, 0xd2, 0xbe, 0xda, 0xe0, 0x40, 0xbf,
  0xc4, 0x3c, 0x17, 0xbf, 0x96, 0xb3, 0x27, 0xbe, 0x33, 0x0f, 0x06, 0x3f,
  0x08, 0xcd, 0x88, 0xbf, 0xfa, 0x62, 0x42, 0xbe, 0x1b, 0xf8, 0xad, 0x3e,
  0xec, 0xcf, 0x5f, 0xbf, 0xcb, 0x5a, 0xbc, 0xbd, 0x9f, 0xef, 0xe7, 0x3e,
  0xe0, 0x33, 0xd0, 0x3d, 0x06, 0xff, 0x35, 0xbf, 0x76, 0x62, 0x32, 0xbf,
  0x7f, 0xd1, 0x1c, 0xbf, 0xa5, 0x92, 0xd4, 0xbd, 0xeb, 0xca, 0x14, 0x3e,
  0x82, 0x7b, 0xb7, 0xbe, 0xaa, 0x24, 0x42, 0xbd, 0x26, 0x3e, 0xb2, 0xbd,
  0x07, 0xbf, 0x77, 0xbd, 0xa3, 0x8a, 0xc4, 0xbd, 0xdb, 0xae, 0x02, 0xbb,
  0x69, 0x7a, 0x9f, 0x3d, 0x66, 0x69, 0x89, 0xbe, 0x81, 0x93, 0x98, 0xbd,
  0xb3, 0x18, 0x54, 0x3e, 0xfb, 0x81, 0x88, 0x3c, 0xb6, 0x33, 0x1e, 0x3d,
  0x58, 0x44, 0x72, 0xbd, 0xae, 0x5f, 0x52, 0xbd, 0x30, 0x1f, 0x3e, 0x3d,
  0x5b, 0xd9, 0xa6, 0x3c, 0xcd, 0x8f, 0x7d, 0xbd, 0x73, 0xe1, 0x0f, 0xbe,
  0xf9, 0xcb, 0x92, 0x3e, 0xbf, 0xa9, 0x18, 0x3e, 0xf4, 0xcb, 0x06, 0xbf,
  0x7f, 0xc3, 0x34, 0xbe, 0x17, 0xdb, 0x9d, 0x3e, 0x13, 0xa4, 0x1e, 0xbf,
  0x96, 0x4c, 0x35, 0xbf, 0xd8, 0xdd, 0x5b, 0x3f, 0x64, 0x62, 0xcf, 0x3e,
  0x33, 0xe3, 0xeb, 0x3d, 0x04, 0x18, 0x05, 0x3e, 0x7a, 0x9d, 0x08, 0x3e,
  0x62, 0x69, 0xba, 0x3d, 0x75, 0x7f, 0xa3, 0x3d, 0x9b, 0x20, 0x2e, 0xbf,
  0xa1, 0x17, 0xe7, 0xbe, 0xf1, 0x6e, 0x36, 0xbf, 0x95, 0xf6, 0x7e, 0xbd,
  0x56, 0xac, 0x70, 0xbf, 0xa4, 0xd5, 0x3a, 0x3e, 0x70, 0x42, 0x03, 0xbe,
  0xa6, 0x2f, 0x2b, 0x3e, 0xcb, 0x3b, 0x3d, 0xbf, 0x65, 0x38, 0x87, 0xbf,
  0xcf, 0x14, 0xbf, 0x3e, 0xd4, 0x68, 0x5e, 0xbf, 0x9a, 0x3b, 0x70, 0xbf,
  0xe8, 0x76, 0x09, 0xbe, 0x4a, 0x63, 0x9b, 0x3e, 0xa2, 0x7e, 0x8d, 0x38,
  0xf4, 0x95, 0x94, 0xbe, 0x8f, 0xf3, 0xb9, 0x3d, 0xd2, 0x3f, 0xa7, 0x3c,
  0x17, 0xd0, 0x95, 0xbc, 0x28, 0x97, 0xc1, 0x3d, 0x74, 0x32, 0x1c, 0xbc,
  0x2a, 0xc4, 0x49, 0xbd, 0x91, 0x5d, 0xc9, 0xbd, 0xd4, 0xb8, 0x44, 0x3d,
  0x76, 0x6c, 0x03, 0x3d, 0x2d, 0xab, 0x9b, 0x3c, 0x92, 0x9b, 0xa5, 0xbd,
  0xa9, 0x63, 0xa9, 0xbe, 0x7a, 0x6c, 0x9e, 0x3d, 0x5c, 0x87, 0x0a, 0x3d,
  0xd3, 0xed, 0xeb, 0x3d, 0xfe, 0x5c, 0x5b, 0x3d, 0xc2, 0x07, 0x88, 0xbf,
  0xe9, 0x45, 0xf9, 0xbd, 0x4e, 0x55, 0x03, 0x3e, 0xf9, 0x42, 0xd7, 0xbe,
  0xe9, 0x72, 0x95, 0x3d, 0x43, 0xc0, 0xf7, 0x3d, 0x64, 0xdd, 0x13, 0x3e,
  0x02, 0x51, 0x5e, 0xbf, 0x0c, 0x58, 0x2a, 0xbf, 0x11, 0x51, 0x46, 0x3e,
  0x97, 0x99, 0xa7, 0x3d, 0x45, 0xa4, 0x82, 0xbf, 0xb5, 0xbf, 0xed, 0xbe,
  0x83, 0x57, 0x4b, 0x3e, 0xc8, 0x2d, 0x1d, 0x3e, 0xf9, 0x70, 0x76, 0xbf,
  0x3a, 0x99, 0xe6, 0xbe, 0xf8, 0xe2, 0x6e, 0x3e, 0x3f, 0x2f, 0x8d, 0xbe,
  0xd1, 0x43, 0x1c, 0xbf, 0x5b, 0x74, 0xc2, 0x3e, 0x2a, 0xc7, 0xc5, 0x3e,
  0x33, 0x78, 0x45, 0xbf, 0x34, 0x93, 0x22, 0xbe, 0x3e, 0x2d, 0x7f, 0xbe,
  0x65, 0x7c, 0xb2, 0x3e, 0x16, 0x54, 0xef, 0xbe, 0xe1, 0xea, 0x50, 0xbe,
  0xc3, 0x97, 0xd3, 0xbe, 0x72, 0x7d, 0x3d, 0x3e, 0x64, 0xc6, 0x9c, 0x3d,
  0x6b, 0xce, 0x16, 0xbf, 0x54, 0x42, 0xd6, 0xbc, 0xc7, 0x74, 0x1f, 0x3c,
  0xc2, 0x58, 0xba, 0x3b, 0xa1, 0xae, 0x6d, 0xbb, 0x48, 0xe2, 0x15, 0xbd,
  0x25, 0xca, 0x64, 0x3e, 0x63, 0x12, 0x98, 0xbc, 0x76, 0xd3, 0xfc, 0xbc,
  0x1b, 0xd7, 0x95, 0xbd, 0x88, 0xf8, 0xe0, 0x3d, 0x31, 0x72, 0xcc, 0xb8,
  0x54, 0xc3, 0xd8, 0xbd, 0x40, 0xe7, 0x9f, 0x3d, 0x8e, 0xd6, 0x8d, 0x3d,
  0x81, 0x0b, 0xda, 0x3d, 0xd7, 0x84, 0xe5, 0xbd, 0x40, 0x6a, 0xc2, 0xbe,
  0x1e, 0x1d, 0x65, 0xbd, 0x8d, 0xe8, 0x27, 0xbe, 0x3a, 0x16, 0x1d, 0xbf,
  0x85, 0xfa, 0x87, 0x3d, 0x40, 0x89, 0xc1, 0x3d, 0xcb, 0xd4, 0xf8, 0xbf,
  0xa2, 0x67, 0x3b, 0xbf, 0x93, 0x02, 0xbf, 0xbe, 0x93, 0x02, 0x13, 0x3f,
  0xe7, 0x5a, 0x4b, 0xbd, 0x3f, 0x37, 0x8d, 0x3d, 0x02, 0x30, 0x04, 0xbf,
  0xc9, 0xca, 0xf8, 0x3e, 0x49, 0x27, 0x90, 0x3d, 0x5f, 0x0b, 0x9a, 0xbf,
  0x2f, 0xf6, 0x29, 0xc0, 0xa3, 0x87, 0x41, 0xbe, 0x07, 0x05, 0xad, 0x3c,
  0xda, 0xa9, 0xd6, 0xbe, 0x89, 0x7c, 0x48, 0x3e, 0xef, 0xd6, 0x19, 0x3f,
  0xf3, 0x05, 0x14, 0xbc, 0x95, 0xc9, 0xd8, 0x3e, 0x60, 0x04, 0x66, 0xbf,
  0x5c, 0x63, 0xac, 0xbe, 0xd1, 0x57, 0x0d, 0xbf, 0x03, 0xff, 0xbf, 0xbf,
  0xe2, 0x57, 0x0c, 0xc0, 0x14, 0x40, 0x94, 0xbe, 0x0b, 0x51, 0x9a, 0xbd,
  0xd1, 0x5a, 0x33, 0xc0, 0x9f, 0xa0, 0xb9, 0xbb, 0x69, 0xa8, 0xc1, 0xbd,
  0xb4, 0xf4, 0x14, 0xbd, 0x80, 0xba, 0x87, 0x3d, 0x62, 0xde, 0x96, 0xbc,
  0xbb, 0x16, 0x16, 0x3e, 0x07, 0x6b, 0x16, 0x3e, 0x20, 0x12, 0x8b, 0x3d,
  0xdc, 0x66, 0x03, 0x3d, 0x9f, 0x96, 0x5f, 0xbd, 0xa3, 0xbd, 0xf5, 0x3b,
  0x52, 0x72, 0x19, 0xbe, 0xef, 0x65, 0x61, 0x3d, 0xdf, 0xf9, 0x83, 0x3c,
  0xb3, 0xab, 0xa7, 0x3c, 0xce, 0x0c, 0x2d, 0xbd, 0xb4, 0x29, 0x33, 0xc0,
  0xa2, 0x8d, 0x91, 0xbe, 0x3b, 0x57, 0xcd, 0x3d, 0xa4, 0x8f, 0x17, 0xbf,
  0xcd, 0x03, 0x11, 0x3e, 0xd7, 0xf0, 0xe5, 0x3e, 0x5f, 0x5a, 0x32, 0x3f,
  0xba, 0x2a, 0xa3, 0x3e, 0xe5, 0x21, 0x91, 0xbe, 0x31, 0x9c, 0xa9, 0xbe,
  0xfa, 0x82, 0x0e, 0x3f, 0x09, 0xe0, 0x22, 0xbf, 0x31, 0xb7, 0x5a, 0xc0,
  0x25, 0x3c, 0x21, 0xbe, 0x0a, 0x13, 0x85, 0x3e, 0xfd, 0x33, 0x22, 0xc0,
  0x54, 0x3a, 0x1e, 0x3e, 0x65, 0x24, 0x1c, 0xbf, 0xb3, 0x12, 0x31, 0x3e,
  0x59, 0xbe, 0x85, 0x3e, 0xd3, 0xc7, 0xc6, 0x3e, 0xaa, 0xf5, 0xb7, 0xbf,
  0x2d, 0x8c, 0x95, 0x3a, 0x51, 0x50, 0x8d, 0x3e, 0xc7, 0xcf, 0xbe, 0x3e,
  0xa7, 0xb3, 0xde, 0x3d, 0x48, 0xeb, 0x40, 0xbd, 0x12, 0x5b, 0x2a, 0xbe,
  0xb1, 0x7b, 0x95, 0x3e, 0x8d, 0xe3, 0x26, 0xbe, 0xfa, 0x43, 0x6e, 0x3e,
  0x7d, 0x3d, 0xa5, 0xbe, 0x02, 0x3c, 0x07, 0x3e, 0x3c, 0xaa, 0x38, 0xbf,
  0x5e, 0x33, 0x11, 0x3e, 0x53, 0xae, 0x88, 0x3d, 0x78, 0xef, 0xff, 0x3d,
  0x35, 0xe4, 0xe6, 0xbf, 0xd5, 0x8c, 0xd3, 0x3d, 0xdd, 0x70, 0x99, 0x3e,
  0xd4, 0x78, 0x03, 0x3e, 0xb5, 0xcb, 0x04, 0xbd, 0xbd, 0x61, 0x52, 0xbe,
  0x21, 0x6a, 0xe4, 0x3e, 0xb9, 0x4f, 0xc3, 0x3e, 0xf6, 0xc5, 0xec, 0xbd,
  0xaf, 0x39, 0x54, 0x3e, 0xf7, 0x9e, 0x2f, 0xbe, 0x8c, 0x78, 0xa2, 0xbc,
  0x97, 0x89, 0x10, 0xbf, 0xa0, 0x4b, 0x03, 0x3e, 0x93, 0xac, 0x12, 0xbd,
  0x14, 0x9f, 0x1c, 0x3e, 0xf5, 0x93, 0xb6, 0xbf, 0xf0, 0x37, 0x18, 0xbf,
  0x25, 0x45, 0xa6, 0x3e, 0xff, 0x2d, 0x81, 0x3e, 0xfc, 0xd8, 0x0b, 0x3c,
  0xa1, 0x4e, 0x25, 0xbf, 0x9a, 0xc7, 0x40, 0xbd, 0xfd, 0xa2, 0xde, 0x3d,
  0x74, 0x01, 0x7b, 0x3e, 0x5b, 0xe9, 0x42, 0x3f, 0x52, 0xe2, 0x4a, 0x3c,
  0x28, 0x14, 0x8e, 0x3e, 0xf1, 0xd0, 0x25, 0xbf, 0x43, 0xe1, 0x5d, 0x3e,
  0xcd, 0x1e, 0xc9, 0x3d, 0xb1, 0xbe, 0x99, 0xbe, 0x4f, 0xba, 0xc6, 0xbf,
  0xb0, 0x51, 0xd2, 0xbd, 0x34, 0x96, 0xa3, 0x3e, 0xd8, 0x1e, 0x8c, 0x3e,
  0xb2, 0x2e, 0x27, 0x3e, 0x32, 0x4f, 0x6b, 0xbe, 0xb1, 0xfb, 0x4d, 0xbe,
  0x05, 0x91, 0x69, 0x3e, 0xf7, 0x3e, 0xaa, 0xbe, 0x64, 0x6a, 0xc2, 0x3e,
  0x0a, 0xf6, 0xd1, 0xbd, 0x3c, 0xc2, 0x83, 0x3e, 0x6d, 0xb4, 0x3f, 0xbf,
  0x14, 0xa1, 0x2e, 0x3e, 0xef, 0xe8, 0xc2, 0x3d, 0x22, 0x99, 0x35, 0xbd,
  0x14, 0x5e, 0x8d, 0xbf, 0x01, 0x1a, 0xc2, 0xbe, 0xdc, 0x63, 0x88, 0x3e,
  0x15, 0xd6, 0x19, 0x3d, 0xb5, 0x51, 0xad, 0x3d, 0xbe, 0x6b, 0x09, 0xbe,
  0x88, 0xa3, 0x5d, 0x3e, 0xe5, 0x46, 0x2e, 0x3e, 0x4b, 0x79, 0xc9, 0xbe,
  0x62, 0xc4, 0x73, 0x3e, 0xb6, 0xf3, 0x30, 0xbe, 0xcf, 0x62, 0x21, 0x3e,
  0xa8, 0x31, 0xe1, 0xbe, 0x55, 0xcf, 0x77, 0x3d, 0x90, 0x9a, 0x49, 0x3c,
  0x16, 0xbb, 0x8e, 0x3d, 0xb1, 0xb6, 0xbb, 0xbf, 0x91, 0x74, 0xa0, 0xbe,
  0xe4, 0xc6, 0x46, 0x3e, 0x5c, 0xbe, 0x2e, 0x3e, 0x2c, 0xf9, 0x96, 0x3d,
  0xa3, 0x65, 0xe4, 0xbe, 0x71, 0x8d, 0x4d, 0xbe, 0xa3, 0x01, 0x98, 0x3d,
  0xa2, 0x42, 0xb9, 0x3c, 0x0e, 0x0c, 0x17, 0x3f, 0x1c, 0x0e, 0xa6, 0x3d,
  0xf7, 0x21, 0x3c, 0x3e, 0xf5, 0xc3, 0x54, 0xbe, 0xb5, 0x12, 0xfb, 0x3d,
  0xd6, 0x8f, 0x31, 0x3e, 0x14, 0xc4, 0x69, 0xbe, 0xc5, 0x78, 0x9c, 0xbf,
  0x21, 0xa5, 0x8c, 0x3d, 0x43, 0x95, 0xa5, 0x3e, 0x0c, 0x01, 0x0d, 0x3e,
  0x2f, 0xd0, 0x71, 0x3e, 0x1e, 0x40, 0xc9, 0xbc, 0x1c, 0x46, 0x25, 0xbe,
  0x03, 0x1e, 0x09, 0x3e, 0xde, 0xd3, 0xcc, 0xbe, 0xfc, 0x05, 0xc5, 0x3e,
  0x0b, 0xc7, 0x04, 0xbe, 0x9a, 0x65, 0x1e, 0x3e, 0xf5, 0xf5, 0x2c, 0xbf,
  0xbf, 0x24, 0xce, 0x3d, 0x1d, 0x1f, 0xab, 0x3b, 0xca, 0x53, 0x57, 0xbe,
  0x8b, 0xb4, 0xb5, 0xbf, 0x4a, 0x42, 0x2d, 0xbe, 0x50, 0xbc, 0x3f, 0x3e,
  0x6f, 0x8a, 0x37, 0x3e, 0xe1, 0xe2, 0xc0, 0x3d, 0xf1, 0x7c, 0x87, 0xbd,
  0x07, 0xae, 0xca, 0x3d, 0x48, 0xcb, 0x3a, 0xbd, 0x49, 0x9f, 0xc3, 0xbe,
  0x78, 0x2b, 0x7e, 0x3e, 0x7f, 0xc5, 0xa6, 0xbc, 0xf7, 0xa0, 0x9f, 0x3c,
  0x47, 0xdb, 0x2b, 0xbe, 0x66, 0x17, 0x4a, 0x3d, 0xb4, 0xad, 0x24, 0x3d,
  0x8a, 0x8f, 0xa1, 0xbd, 0x08, 0x16, 0x87, 0xbf, 0xbd, 0xc0, 0x83, 0x3c,
  0x68, 0xda, 0x44, 0x3e, 0xa8, 0xa2, 0x14, 0x3d, 0xef, 0xee, 0x97, 0x3d,
  0x5d, 0x0e, 0x1e, 0xbe, 0xcd, 0x3b, 0x01, 0xbd, 0x57, 0x01, 0xef, 0x3d,
  0x74, 0xd4, 0xa6, 0xbe, 0x45, 0xe1, 0xdb, 0x3e, 0x15, 0x42, 0xbc, 0x3d,
  0xd2, 0xee, 0xd4, 0x3e, 0x17, 0xfa, 0x22, 0xbf, 0x0c, 0x04, 0x23, 0x3e,
  0xb5, 0x1f, 0x31, 0x3d, 0xc4, 0x9e, 0x4c, 0xbe, 0x8d, 0xeb, 0x83, 0xbf,
  0x2c, 0x5c, 0xbe, 0xbe, 0x37, 0x26, 0x62, 0x3e, 0xac, 0xb8, 0x1f, 0xbe,
  0xdd, 0x55, 0x32, 0x3e, 0xe0, 0xec, 0x30, 0x3e, 0xf8, 0x60, 0x4d, 0xbe,
  0xfd, 0x3c, 0xa8, 0x3d, 0x79, 0x19, 0x08, 0xbf, 0x1c, 0xfa, 0x8a, 0x3e,
  0xa0, 0x5e, 0xf7, 0xbd, 0xb1, 0x4d, 0x26, 0x3e, 0x27, 0x42, 0x34, 0xbf,
  0x1a, 0x9f, 0xd1, 0x3d, 0xce, 0x32, 0xf4, 0x3c, 0xbf, 0x45, 0xef, 0xbe,
  0xfd, 0x8c, 0xb3, 0xbf, 0x32, 0xfb, 0xae, 0xbe, 0xfa, 0x7b, 0x59, 0x3e,
  0xad, 0xc7, 0xe8, 0x3d, 0x67, 0x1f, 0xe0, 0x3d, 0xa0, 0x4c, 0x96, 0xbe,
  0x0b, 0x6b, 0x43, 0x3e, 0xac, 0x5e, 0x65, 0x3e, 0xbe, 0xf3, 0xa8, 0xbe,
  0xe0, 0x62, 0x28, 0x3d, 0xbd, 0x10, 0x39, 0x3d, 0x92, 0x10, 0x8f, 0x3e,
  0x1b, 0x40, 0x62, 0xbe, 0x2c, 0x8b, 0x02, 0xbd, 0x8c, 0x8a, 0xe3, 0x3d,
  0x6d, 0x11, 0x8f, 0xbe, 0x90, 0x0f, 0x8d, 0xbf, 0x08, 0x94, 0x41, 0xbd,
  0x55, 0xbe, 0x8b, 0x3d, 0x30, 0xe4, 0xa3, 0x3d, 0x43, 0xba, 0xb3, 0x3d,
  0x34, 0x5b, 0xa9, 0xbe, 0xdd, 0xae, 0xd2, 0xbd, 0x7d, 0x84, 0x28, 0x3e,
  0xd9, 0x6a, 0x9d, 0xbe, 0x50, 0x7d, 0xb8, 0x3e, 0x91, 0x9f, 0x13, 0xbd,
  0x4e, 0xa6, 0x20, 0x3e, 0x50, 0xa9, 0xf4, 0xbe, 0xb3, 0x3a, 0x46, 0x3e,
  0x54, 0x98, 0x9b, 0xbd, 0xbc, 0xb2, 0x53, 0xbe, 0xc0, 0xff, 0xa6, 0xbf,
  0xf0, 0xf2, 0x23, 0xbf, 0x14, 0x43, 0x3a, 0x3e, 0xdc, 0x7f, 0x6c, 0xbd,
  0x76, 0x3d, 0x7d, 0x3e, 0x62, 0x6d, 0xad, 0x3e, 0x73, 0x90, 0x3c, 0x3d,
  0xc8, 0x51, 0xac, 0x3d, 0x7a, 0x50, 0xe7, 0xbe, 0x0a, 0x2c, 0x20, 0x3e,
  0x7f, 0x99, 0x8f, 0x3d, 0xfc, 0x4e, 0xc4, 0x3d, 0x8d, 0x98, 0x2d, 0xbf,
  0x41, 0xb6, 0x9d, 0xbc, 0xcb, 0xa4, 0x31, 0xbe, 0xac, 0x73, 0x38, 0xbe,
  0x3d, 0x08, 0xce, 0xbf, 0xbc, 0x62, 0x85, 0xbf, 0x03, 0x62, 0x44, 0x3e,
  0x9a, 0xb3, 0x76, 0xbd, 0xd9, 0x8b, 0xda, 0x3c, 0xca, 0xd2, 0xbd, 0x3e,
  0x71, 0xa2, 0x1f, 0xbe, 0xe5, 0xae, 0x5f, 0x3d, 0x8f, 0x6d, 0xc4, 0xbe,
  0x70, 0x8c, 0x54, 0x3e, 0xb6, 0x17, 0x8c, 0xbb, 0x61, 0xee, 0x22, 0x3e,
  0x55, 0x4b, 0x31, 0xbf, 0xfb, 0x90, 0x81, 0x3d, 0x99, 0x1d, 0xb0, 0xbc,
  0x47, 0x0e, 0xb6, 0xbe, 0x7b, 0x99, 0xa6, 0xbf, 0x30, 0x0c, 0x92, 0xbe,
  0x10, 0x1a, 0x4d, 0x3e, 0x59, 0xff, 0x3f, 0xbe, 0xc9, 0xb8, 0xb4, 0x3d,
  0x89, 0x2f, 0x08, 0xbd, 0x63, 0xb1, 0xca, 0x3c, 0xfb, 0xf6, 0x16, 0x3e,
  0xc9, 0xb3, 0xe9, 0xbe, 0xc5, 0xa6, 0x3d, 0x3e, 0x1c, 0x4b, 0xd3, 0xbd,
  0x2a, 0x3a, 0x78, 0x3e, 0xb6, 0x58, 0xd1, 0xbe, 0x14, 0xd3, 0xf9, 0x3d,
  0xea, 0x5d, 0x76, 0x3b, 0x95, 0x2a, 0xc0, 0xbd, 0xb6, 0x66, 0x58, 0xbf,
  0x1f, 0x39, 0xc0, 0xbe, 0x14, 0x3c, 0xff, 0x3d, 0x3a, 0xc8, 0x31, 0xbe,
  0xe3, 0x5c, 0x35, 0x3e, 0x75, 0xdd, 0x04, 0x3e, 0x48, 0x42, 0xe7, 0xbe,
  0xb8, 0xac, 0x0a, 0x3e, 0xef, 0x1d, 0xe3, 0xbe, 0x0e, 0x62, 0xa5, 0x3e,
  0xa1, 0x0f, 0xc9, 0xbd, 0xf6, 0x34, 0x19, 0x3e, 0xdf, 0x7e, 0xdc, 0xbe,
  0x52, 0xc1, 0xe0, 0x3d, 0x71, 0xca, 0x71, 0x3b, 0x92, 0x15, 0xa3, 0xbe,
  0xa1, 0x62, 0x94, 0xbf, 0xa9, 0x83, 0x0a, 0xbf, 0x72, 0xc2, 0x04, 0x3e,
  0x12, 0xd8, 0x23, 0x3d, 0x8f, 0x2b, 0x4f, 0x3e, 0x0a, 0x5a, 0xa2, 0x3d,
  0x91, 0x0e, 0x23, 0xbd, 0xeb, 0xdb, 0x34, 0xbd, 0xbc, 0xca, 0xdf, 0xbe,
  0x2f, 0x2e, 0xe0, 0xbd, 0xb0, 0x67, 0xa2, 0xbd, 0xea, 0xef, 0x11, 0x3e,
  0xa6, 0x78, 0x22, 0xbe, 0x33, 0xb3, 0xc1, 0xbc, 0xd8, 0xd9, 0x7e, 0xbd,
  0x8b, 0x2e, 0x97, 0xbe, 0x65, 0x76, 0xc8, 0xbf, 0xa2, 0xbc, 0x01, 0x3e,
  0x8a, 0x1a, 0xc5, 0x3d, 0xa2, 0xeb, 0xde, 0xbd, 0xe0, 0x53, 0x3b, 0xb8,
  0x72, 0x1e, 0xdd, 0x3d, 0xf5, 0xb5, 0x83, 0xbd, 0x7a, 0x4a, 0xb9, 0x3c,
  0xf1, 0x7e, 0xb5, 0xbe, 0x47, 0x52, 0xcd, 0x3e, 0x3d, 0xc3, 0x81, 0xbd,
  0x01, 0xb7, 0x36, 0x3e, 0x9f, 0x20, 0xb4, 0xbe, 0x59, 0xc8, 0x76, 0x3e,
  0xf2, 0x61, 0xe5, 0x3c, 0xa2, 0x40, 0x4d, 0xbe, 0xdf, 0xa7, 0xb4, 0xbf,
  0x56, 0x89, 0x81, 0xbe, 0x11, 0x93, 0x93, 0x3e, 0x73, 0x3b, 0x0f, 0xbd,
  0x74, 0x0d, 0x16, 0x3e, 0x1c, 0x84, 0xdd, 0x3e, 0x33, 0xe9, 0xad, 0xbd,
  0xeb, 0x49, 0x60, 0x3e, 0x63, 0x68, 0xd5, 0xbe, 0x6b, 0x26, 0x1b, 0x3e,
  0xc1, 0xb2, 0x33, 0xbc, 0x8a, 0xcb, 0x7b, 0xbd, 0x6d, 0x0e, 0x09, 0xbf,
  0x73, 0x91, 0x79, 0x3e, 0x61, 0xce, 0xda, 0xbd, 0x71, 0x71, 0x72, 0xbe,
  0x63, 0x2a, 0xd6, 0xbf, 0x49, 0x6a, 0xbe, 0xbe, 0x6d, 0x5c, 0x53, 0x3e,
  0x30, 0xca, 0x36, 0xbd, 0x03, 0x5b, 0x6a, 0x3e, 0xf1, 0xa3, 0xa4, 0xbd,
  0xff, 0x34, 0x07, 0x3e, 0x60, 0xbc, 0xc1, 0xbb, 0x3d, 0x32, 0xba, 0xbe,
  0xee, 0x6c, 0x91, 0x3d, 0x09, 0x2d, 0x37, 0x3c, 0xa6, 0x75, 0xc2, 0x3d,
  0xfc, 0x8a, 0x2d, 0xbe, 0x14, 0xf7, 0x5f, 0x3d, 0xab, 0x0f, 0xb5, 0xbd,
  0xfb, 0x6f, 0x59, 0xbe, 0x40, 0xbc, 0xd1, 0xbf, 0xc2, 0xf4, 0x2a, 0xbe,
  0x34, 0x3a, 0x37, 0x3e, 0x2d, 0x7b, 0x31, 0xbd, 0x08, 0xb7, 0x84, 0x3d,
  0x9e, 0x0d, 0x47, 0xbe, 0xde, 0xbd, 0x79, 0xbc, 0xd7, 0x17, 0xe9, 0x3d,
  0x85, 0xca, 0x43, 0xbe, 0x93, 0xb2, 0xa9, 0x3e, 0x01, 0x7e, 0xb6, 0x3d,
  0xbe, 0xcf, 0x56, 0x3e, 0x10, 0x25, 0x64, 0xbf, 0x4f, 0x9e, 0xa5, 0x3e,
  0x58, 0x1e, 0x9d, 0xbd, 0xf4, 0x68, 0xe5, 0xbe, 0x0f, 0x12, 0xa3, 0xbf,
  0xe7, 0x27, 0x5f, 0xbe, 0x77, 0x76, 0xc4, 0x3e, 0xfe, 0xd6, 0xa1, 0x3d,
  0xa8, 0xfa, 0x91, 0x3e, 0x24, 0xe3, 0x91, 0x3e, 0x79, 0x95, 0x7e, 0xbd,
  0x23, 0x4f, 0xff, 0x3d, 0xa7, 0xdb, 0x81, 0xbf, 0xba, 0x3d, 0x22, 0xbe,
  0xbf, 0xec, 0x38, 0xbe, 0x26, 0xbf, 0xe1, 0xbd, 0x3c, 0x4d, 0x9c, 0xbf,
  0x9e, 0x61, 0x3f, 0x3e, 0x5b, 0x13, 0x03, 0xbe, 0x86, 0x83, 0xd9, 0xbe,
  0x2b, 0xcc, 0xe8, 0xbf, 0x16, 0x6e, 0x1c, 0xbe, 0xd2, 0xb8, 0x20, 0x3e,
  0x1c, 0x61, 0xa1, 0x3e, 0x0b, 0xca, 0x97, 0x3e, 0x3a, 0x54, 0xec, 0xbd,
  0x3d, 0xd9, 0xd8, 0xbe, 0x08, 0xd6, 0x4d, 0xbc, 0xff, 0x5f, 0x93, 0xbf,
  0xec, 0xef, 0xcc, 0xbe, 0x5e, 0x87, 0xaf, 0xbe, 0x67, 0x10, 0x3a, 0x3d,
  0x58, 0xcd, 0x23, 0xbf, 0xc1, 0x13, 0x30, 0x3e, 0xb1, 0x11, 0xc5, 0xbd,
  0x36, 0x33, 0xa8, 0xbe, 0xf0, 0x4f, 0x91, 0xbf, 0xae, 0xa6, 0x78, 0xbe,
  0x57, 0xb5, 0x8a, 0x3e, 0x5b, 0x02, 0xa1, 0x3d, 0x3e, 0xd6, 0x76, 0x3d,
  0x38, 0x8d, 0x28, 0xbe, 0xf8, 0xaf, 0x83, 0xbe, 0x60, 0x01, 0x42, 0x3e,
  0x70, 0x05, 0x15, 0xbf, 0xe3, 0x5c, 0x1b, 0xbd, 0x68, 0xe2, 0xf8, 0x3d,
  0xcb, 0xb2, 0xa6, 0x3e, 0xf3, 0xbb, 0x25, 0xbe, 0xc0, 0x4e, 0x61, 0x3e,
  0x08, 0x27, 0x29, 0x3e, 0xce, 0x35, 0x77, 0xbe, 0xdd, 0x4f, 0x0a, 0x3e,
  0x83, 0xe4, 0xf5, 0x3d, 0x1f, 0xbc, 0x3e, 0x3e, 0xb2, 0x26, 0x20, 0xbe,
  0x95, 0x45, 0x5a, 0xbd, 0xa8, 0xec, 0x8b, 0xbe, 0xaf, 0xcd, 0xa0, 0xbd,
  0x59, 0xe1, 0x51, 0x3e, 0x46, 0x83, 0x6b, 0x3d, 0xb3, 0xfb, 0x9b, 0xbe,
  0x76, 0x54, 0x89, 0xbe, 0x89, 0x02, 0x9b, 0x3e, 0x25, 0xeb, 0x8c, 0x3e,
  0x6f, 0xdf, 0x81, 0x3e, 0x60, 0x18, 0xe5, 0x3c, 0x36, 0x77, 0x1d, 0xbf,
  0x36, 0x09, 0x58, 0xbd, 0xbc, 0x14, 0x2a, 0x3e, 0xb8, 0xa4, 0x6e, 0x3e,
  0x5d, 0x7a, 0xa1, 0xbe, 0x33, 0x0a, 0x38, 0x3c, 0xd0, 0x8f, 0x28, 0x3e,
  0x4d, 0x2e, 0x35, 0x3e, 0xae, 0xa4, 0x4a, 0x3e, 0x06, 0xac, 0x8d, 0xbe,
  0x5b, 0x03, 0x83, 0xbe, 0xfd, 0x3e, 0x27, 0xbf, 0xf1, 0x5a, 0xaf, 0x3e,
  0x32, 0x09, 0x48, 0x3c, 0x3c, 0x03, 0xbd, 0x3e, 0x6d, 0xf8, 0xba, 0x3e,
  0x5c, 0xaa, 0x6e, 0x3d, 0xce, 0x10, 0x58, 0xbe, 0x09, 0xd3, 0xac, 0x3e,
  0x30, 0x19, 0xa0, 0x3d, 0x70, 0x41, 0x3b, 0xba, 0x12, 0x3f, 0xa8, 0x3e,
  0x52, 0xd4, 0x13, 0xbd, 0xd7, 0xb8, 0x3b, 0xbd, 0xbd, 0x17, 0x0b, 0x3e,
  0xd2, 0x1a, 0x05, 0x3c, 0xc9, 0xa2, 0x21, 0x3d, 0x76, 0xae, 0x94, 0x3e,
  0x67, 0x16, 0x2c, 0x3e, 0xf2, 0xbf, 0x0f, 0xbf, 0x40, 0xfc, 0x7a, 0x3b,
  0x2b, 0x8d, 0xed, 0x3d, 0x08, 0x3d, 0xaf, 0xbe, 0xf6, 0xf0, 0x40, 0x3e,
  0xaa, 0xfe, 0x3a, 0x3e, 0x43, 0xba, 0x17, 0x3e, 0x42, 0xa7, 0x87, 0xbd,
  0xf7, 0x24, 0x3f, 0xbd, 0xee, 0x14, 0x7f, 0xbe, 0x8c, 0x73, 0x58, 0x3c,
  0x9b, 0xa5, 0x19, 0x3e, 0x73, 0x8a, 0xbe, 0xbe, 0x7b, 0x6f, 0x02, 0xbf,
  0x2a, 0x6b, 0xe9, 0xbe, 0x72, 0x21, 0x96, 0x3e, 0x52, 0xca, 0x5e, 0xbe,
  0x3e, 0x8b, 0x1e, 0xbe, 0xe3, 0x2d, 0x33, 0x3d, 0x99, 0xfb, 0x18, 0xbe,
  0x38, 0x03, 0x2b, 0x3e, 0x0e, 0x88, 0x1f, 0x3f, 0x6b, 0x16, 0xd3, 0x3d,
  0xd1, 0x00, 0x90, 0xbe, 0xfc, 0x60, 0x40, 0x3d, 0xaf, 0xe6, 0xdc, 0xbd,
  0xc5, 0x0f, 0xd5, 0x3e, 0xc1, 0x14, 0x48, 0x3e, 0x4b, 0x59, 0xbf, 0xbe,
  0x86, 0x32, 0xb9, 0xbe, 0x33, 0xea, 0x27, 0xbf, 0xd4, 0x95, 0x1a, 0x3e,
  0x65, 0x7d, 0xcf, 0xbc, 0xcb, 0xb8, 0x55, 0xbc, 0xfc, 0xb4, 0x36, 0x3e,
  0xb6, 0xc8, 0xbf, 0x3c, 0x17, 0xab, 0xea, 0x3e, 0x59, 0x49, 0x04, 0x3f,
  0x68, 0x14, 0xf3, 0x3d, 0x75, 0x37, 0xc0, 0x3d, 0xea, 0xc4, 0x2a, 0x3e,
  0x5e, 0xbb, 0x7e, 0xbe, 0xc5, 0xc3, 0xf4, 0xbd, 0xcf, 0x40, 0xdb, 0x3c,
  0xfe, 0x4b, 0x99, 0xbe, 0x17, 0x56, 0xbf, 0xbd, 0xfe, 0xb0, 0xa9, 0x3c,
  0x6a, 0x65, 0x96, 0x3d, 0xc0, 0x9d, 0x8c, 0xbe, 0x20, 0xbf, 0xaf, 0xbd,
  0x29, 0x36, 0x15, 0xbc, 0xa1, 0x3d, 0xd1, 0xbe, 0x3d, 0xe3, 0xd4, 0x3d,
  0xc1, 0x80, 0x84, 0xbd, 0x54, 0x0e, 0x37, 0xbc, 0xed, 0xdf, 0x37, 0xbe,
  0x28, 0x2e, 0x05, 0xbe, 0x30, 0x28, 0x10, 0xbd, 0xfb, 0x63, 0xf2, 0xbd,
  0x6f, 0xa1, 0xa1, 0x3d, 0x72, 0xed, 0x3f, 0xbf, 0x2e, 0xc0, 0xc8, 0xbe,
  0x25, 0x13, 0x07, 0xbf, 0x84, 0x7b, 0xdd, 0x3d, 0x8d, 0xa4, 0xc2, 0xbd,
  0x33, 0x75, 0x5e, 0xbd, 0x70, 0xd4, 0xb8, 0xbd, 0x81, 0x9d, 0x1f, 0xbf,
  0xd6, 0xbd, 0x4d, 0x3d, 0x54, 0xdb, 0xef, 0xbe, 0x76, 0xb7, 0x6e, 0xbd,
  0x53, 0x0c, 0xa6, 0xbd, 0xc7, 0x12, 0xa3, 0xbc, 0xf0, 0x2f, 0xa0, 0x3d,
  0xe1, 0xcd, 0x4f, 0x3d, 0xe8, 0x15, 0xce, 0x3d, 0xae, 0xa1, 0x47, 0xbf,
  0x4c, 0x9d, 0xd1, 0xbe, 0xbc, 0xe4, 0x6a, 0xbf, 0xb9, 0x38, 0x8d, 0x3c,
  0x80, 0x55, 0xec, 0xbc, 0x3d, 0x5d, 0x84, 0x3c, 0x37, 0xd8, 0x31, 0xbe,
  0x20, 0x9a, 0x29, 0xbe, 0xa7, 0xdf, 0x74, 0x3e, 0xf0, 0xa9, 0xf3, 0x3e,
  0x35, 0xf6, 0x91, 0x3d, 0x3f, 0x41, 0xa5, 0x3d, 0x91, 0xef, 0xa7, 0x3d,
  0xf3, 0xdc, 0x81, 0xbd, 0x97, 0x2a, 0xc3, 0xbd, 0x03, 0xd8, 0x43, 0xbd,
  0xa1, 0xe3, 0xb4, 0xbe, 0x72, 0xd9, 0x72, 0xbe, 0x85, 0x55, 0x4c, 0xbe,
  0xfc, 0xa3, 0x02, 0xbc, 0xc0, 0x28, 0xce, 0xba, 0xf0, 0x81, 0x39, 0xbe,
  0x12, 0xe6, 0x10, 0xbd, 0xf7, 0x13, 0xca, 0xbe, 0xca, 0x27, 0xab, 0xbd,
  0x44, 0xba, 0xef, 0x3d, 0xda, 0x29, 0x12, 0xbe, 0xc4, 0xaf, 0x45, 0xbd,
  0x14, 0xde, 0x58, 0xbd, 0xca, 0x9c, 0xe5, 0xbd, 0x16, 0x85, 0x5a, 0x3e,
  0x22, 0xb5, 0xf0, 0xbd, 0x50, 0x78, 0xd8, 0xbe, 0xde, 0x9e, 0xaf, 0xbe,
  0xd4, 0xcf, 0xc1, 0xbe, 0x32, 0xc4, 0x48, 0x3a, 0x2a, 0x18, 0x5a, 0x3d,
  0x35, 0x3d, 0x39, 0xbe, 0x27, 0x5f, 0xb7, 0xbe, 0xd4, 0xa1, 0xfa, 0xbe,
  0x3e, 0x5f, 0x3d, 0x3e, 0xef, 0x35, 0x20, 0x3e, 0x7c, 0x4b, 0x3a, 0xbe,
  0xa3, 0xf9, 0xf2, 0xbd, 0x30, 0x16, 0xce, 0xbd, 0x50, 0xaa, 0xa4, 0x3d,
  0xf3, 0x73, 0x5c, 0x3d, 0xab, 0x4e, 0xe5, 0xbd, 0x3b, 0xdd, 0x9b, 0xbe,
  0x2b, 0xfc, 0x7a, 0xbe, 0x9b, 0xa2, 0x09, 0xbf, 0x63, 0x48, 0x8b, 0xbc,
  0xdd, 0x42, 0xba, 0xbe, 0x38, 0xc4, 0xb1, 0xbd, 0x96, 0xda, 0x38, 0xbe,
  0x1e, 0xaf, 0xa2, 0xbe, 0xcc, 0x7b, 0x89, 0x3d, 0x65, 0x14, 0xec, 0x3d,
  0xb6, 0x66, 0x87, 0xbd, 0xe5, 0x7f, 0x2a, 0xbc, 0xfd, 0x35, 0xcb, 0xbc,
  0xcb, 0x8c, 0x4e, 0xbd, 0x93, 0xae, 0xaa, 0x3d, 0x93, 0x03, 0x2f, 0xbe,
  0xeb, 0x93, 0x03, 0xbf, 0x24, 0x68, 0xa3, 0xbe, 0x3c, 0xf2, 0xa3, 0xbe,
  0xa6, 0x68, 0xc6, 0x39, 0xb7, 0x43, 0x6a, 0x3e, 0x59, 0xa1, 0xee, 0xbd,
  0xaf, 0x19, 0x2d, 0xbe, 0x8d, 0x9e, 0x4b, 0xbe, 0x95, 0x8a, 0x8b, 0xbe,
  0x84, 0x6d, 0x17, 0xbd, 0x8c, 0x61, 0xf9, 0x3c, 0x7f, 0x6b, 0x06, 0x3e,
  0x4d, 0x3e, 0x24, 0xbe, 0x71, 0x91, 0x82, 0x3d, 0x81, 0x51, 0x1c, 0x3e,
  0xfa, 0x23, 0xfa, 0xbd, 0xa6, 0xc6, 0x9c, 0xbe, 0xde, 0x42, 0xfc, 0xbd,
  0xfe, 0x8c, 0x27, 0xbe, 0x30, 0x25, 0x8e, 0xbd, 0x6a, 0x57, 0x8e, 0x3e,
  0x9e, 0x76, 0x42, 0xbe, 0xde, 0xe7, 0x4f, 0xbe, 0x35, 0x70, 0x82, 0xbd,
  0x85, 0x31, 0x17, 0xbe, 0x31, 0x61, 0xfa, 0xbd, 0xcc, 0x48, 0x26, 0x3d,
  0x52, 0x06, 0x0b, 0xbe, 0xd0, 0x48, 0x0c, 0xbe, 0x36, 0x43, 0x42, 0x3d,
  0x8c, 0x05, 0x7e, 0x3d, 0x66, 0xc2, 0x4a, 0xbe, 0x36, 0x8b, 0x2b, 0xbe,
  0xcb, 0x1b, 0x17, 0x3e, 0xbc, 0x9f, 0x84, 0xbe, 0xa7, 0xf2, 0xee, 0xbd,
  0x89, 0xd6, 0x1e, 0xbf, 0xb0, 0xec, 0x75, 0xbb, 0x48, 0xd2, 0x00, 0xbe,
  0xdd, 0x65, 0xbc, 0xbe, 0x05, 0x6b, 0xd1, 0x3d, 0x21, 0xf0, 0x0e, 0x3e,
  0xb3, 0xde, 0x44, 0xbc, 0x2e, 0xbb, 0x8b, 0xbe, 0x2d, 0xf3, 0xa1, 0x3c,
  0xa7, 0xb7, 0xa0, 0xbd, 0xa7, 0xe3, 0x65, 0x3c, 0x4d, 0x7d, 0x47, 0xbe,
  0x3f, 0x69, 0x1b, 0xbf, 0xac, 0xda, 0xce, 0xbe, 0x95, 0xba, 0x79, 0xbe,
  0xf0, 0x7f, 0x28, 0xbe, 0xb3, 0xd2, 0xc4, 0x3d, 0xd4, 0xeb, 0x56, 0x3d,
  0xed, 0x0f, 0xa0, 0xbd, 0x00, 0x94, 0x18, 0xbd, 0x57, 0x5c, 0x6e, 0xbe,
  0x03, 0x9d, 0xbc, 0x3d, 0x6c, 0x7b, 0x5f, 0x3d, 0x9f, 0x45, 0xc6, 0x3d,
  0xd1, 0x45, 0x93, 0xbd, 0xc3, 0x2d, 0x38, 0xbe, 0x6f, 0xb9, 0x6f, 0x3b,
  0x70, 0xc6, 0x11, 0xbe, 0xfb, 0xec, 0x94, 0x3d, 0xd9, 0xc3, 0x14, 0x3e,
  0x0b, 0xad, 0x61, 0x3d, 0x8c, 0xb9, 0xbf, 0xbd, 0x90, 0x63, 0x57, 0x3e,
  0xf7, 0x67, 0xe8, 0x3c, 0xdf, 0x22, 0x25, 0xbd, 0x28, 0x90, 0xe9, 0x3c,
  0xd3, 0x75, 0x40, 0xbe, 0xe3, 0xba, 0x33, 0x3e, 0x43, 0x20, 0xe5, 0x3d,
  0x30, 0x8e, 0x7a, 0x3e, 0x81, 0x72, 0x3e, 0xbc, 0x85, 0x9a, 0x57, 0xbe,
  0xd5, 0x82, 0x28, 0x3d, 0x32, 0x83, 0xd5, 0xbd, 0x8f, 0x82, 0xce, 0x3d,
  0x2c, 0x70, 0x84, 0x3e, 0x46, 0x06, 0x32, 0xbc, 0xf8, 0x0a, 0x89, 0xbb,
  0x33, 0x8a, 0x3d, 0xbe, 0xde, 0x58, 0xb5, 0x3d, 0x5f, 0x73, 0x8a, 0xbe,
  0x3e, 0x72, 0x8e, 0xbe, 0x3d, 0x90, 0xe2, 0xbd, 0x54, 0xe5, 0x20, 0x3e,
  0xf8, 0x12, 0x3f, 0x3e, 0x2c, 0x2a, 0x07, 0xbe, 0x44, 0x7f, 0xa3, 0x3d,
  0xde, 0xe3, 0x86, 0x3c, 0x53, 0x33, 0x54, 0x3c, 0x00, 0x38, 0xd2, 0xbd,
  0xcc, 0x6d, 0xaa, 0xbe, 0xb5, 0xba, 0xf6, 0xbd, 0x33, 0xfa, 0x96, 0xbd,
  0xe0, 0x35, 0x59, 0x3d, 0xe1, 0x35, 0x14, 0x3e, 0x44, 0xdc, 0x33, 0x3e,
  0x42, 0xf2, 0x10, 0x3e, 0xf1, 0xd2, 0xda, 0x3d, 0xca, 0xbf, 0x9a, 0xbe,
  0x21, 0x77, 0x32, 0xbe, 0xe7, 0x11, 0x6b, 0x3e, 0xf7, 0x2e, 0xfe, 0x3d,
  0xa7, 0xdd, 0x8c, 0x3d, 0x6f, 0xba, 0x3d, 0xbe, 0x74, 0xd7, 0x41, 0xbc,
  0x6d, 0xc7, 0x20, 0xbd, 0xa6, 0x31, 0x51, 0x3e, 0xac, 0xbc, 0x44, 0x3e,
  0x98, 0xb1, 0xe5, 0x3d, 0xe8, 0x42, 0x0d, 0x3e, 0xe1, 0x0e, 0xce, 0x3d,
  0x2b, 0x3f, 0x2b, 0x3e, 0x92, 0x2b, 0xb4, 0x3c, 0x45, 0x2e, 0x24, 0x3e,
  0x93, 0x7c, 0x92, 0xbd, 0x73, 0x4b, 0x07, 0xbc, 0x39, 0xbf, 0xb3, 0x3e,
  0x6f, 0xf3, 0x82, 0x3d, 0x3e, 0xa7, 0xf5, 0xba, 0x37, 0xb8, 0x93, 0xbe,
  0x0d, 0x55, 0x80, 0xbc, 0xec, 0x67, 0xab, 0xbd, 0x23, 0x4b, 0x85, 0x3d,
  0xfb, 0x57, 0x94, 0x3e, 0x4b, 0x46, 0x36, 0x3e, 0x8e, 0xf4, 0xb0, 0x3c,
  0x33, 0xe4, 0x9f, 0x3d, 0x12, 0xd9, 0x1e, 0x3e, 0xf8, 0x5a, 0x3d, 0xbd,
  0x56, 0x36, 0xe0, 0xbd, 0x91, 0xab, 0xd9, 0xbe, 0x2e, 0xd3, 0x65, 0x3e,
  0x6a, 0xfc, 0x87, 0x3e, 0x5e, 0x8c, 0x23, 0xbb, 0x68, 0x05, 0xde, 0x3d,
  0x54, 0x9a, 0x8d, 0xbe, 0xef, 0x54, 0xdc, 0xbd, 0x7b, 0xca, 0x16, 0xbe,
  0xfa, 0xb4, 0x88, 0xbd, 0xeb, 0x08, 0xe7, 0xbd, 0xbe, 0x4a, 0x61, 0x3d,
  0xa1, 0xbc, 0xc7, 0x3d, 0x04, 0x82, 0xb8, 0x3e, 0x85, 0xd6, 0xb0, 0x3e,
  0x3b, 0x0b, 0x26, 0x3e, 0xcd, 0x95, 0x8d, 0x3e, 0x81, 0x2f, 0x32, 0xbd,
  0xd0, 0xe7, 0x79, 0x3d, 0x15, 0x6e, 0x13, 0x3f, 0x89, 0xea, 0x5f, 0x3c,
  0x63, 0x33, 0x32, 0x3e, 0x6b, 0xda, 0x3d, 0xbf, 0xf4, 0x2c, 0x07, 0xbf,
  0x15, 0x7b, 0x4a, 0x3e, 0x42, 0x1a, 0xd2, 0x3e, 0x43, 0xcf, 0x67, 0x3e,
  0x25, 0xe6, 0x05, 0x3f, 0xb0, 0xab, 0x8b, 0x3d, 0xef, 0xce, 0xa4, 0x3e,
  0x9a, 0x84, 0xa0, 0x3e, 0xb8, 0xef, 0x8a, 0x3e, 0xb1, 0x3f, 0x93, 0x3e,
  0xd2, 0xa5, 0xac, 0xbe, 0x50, 0xa3, 0x50, 0x3d, 0x9c, 0x57, 0x13, 0x3f,
  0xf8, 0xe7, 0x7c, 0x3d, 0x46, 0x20, 0x7c, 0x3e, 0xdc, 0x78, 0x51, 0xbf,
  0x08, 0x8e, 0xa4, 0xbe, 0xd1, 0x8f, 0x63, 0x3d, 0xcf, 0xf1, 0xe1, 0x3e,
  0xa0, 0xb5, 0xa1, 0x3e, 0xe9, 0x79, 0xf9, 0x3e, 0x66, 0x13, 0xa1, 0xbc,
  0xdd, 0xc4, 0x95, 0x3e, 0xd0, 0xd2, 0xc2, 0x3e, 0x80, 0x10, 0x07, 0x3e,
  0xca, 0x2e, 0x70, 0x3d, 0xc3, 0x0c, 0x43, 0xbd, 0xe4, 0x72, 0xa9, 0x3d,
  0xd7, 0x87, 0x08, 0x3f, 0x42, 0xbe, 0x6d, 0xbd, 0x30, 0x2a, 0x56, 0x3e,
  0x24, 0xc2, 0xdd, 0xbe, 0xee, 0xac, 0xc8, 0xbe, 0x49, 0x75, 0x64, 0x3d,
  0xdb, 0x6e, 0xb0, 0x3e, 0xc6, 0xd6, 0xa1, 0x3d, 0x2d, 0x41, 0x0a, 0x3f,
  0x57, 0x65, 0xb3, 0x3e, 0xaa, 0x65, 0x11, 0x3f, 0x21, 0x21, 0xb3, 0x3e,
  0x65, 0x01, 0xaf, 0xbe, 0x59, 0xe5, 0x77, 0xbf, 0xd8, 0xae, 0xcb, 0xbf,
  0xbf, 0xe1, 0xa9, 0xbf, 0xbf, 0xa6, 0x0b, 0x3f, 0x7d, 0xe3, 0xba, 0xbe,
  0xf4, 0xe8, 0xaa, 0xbe, 0x1d, 0x04, 0x99, 0x3f, 0xf5, 0x13, 0x6d, 0x3f,
  0x1d, 0x38, 0x8e, 0x3e, 0x16, 0xbd, 0x09, 0x3f, 0x70, 0xef, 0x09, 0xbf,
  0xf6, 0xed, 0xac, 0xbe, 0xce, 0xb7, 0x02, 0x3f, 0x57, 0x17, 0x68, 0x3f,
  0xb3, 0x3c, 0x6a, 0x3e, 0x88, 0x50, 0x3c, 0xbd, 0xa6, 0x0a, 0x3e, 0xbf,
  0x20, 0x65, 0x8a, 0xbf, 0xe1, 0x09, 0x9e, 0xbf, 0x3c, 0x4a, 0x72, 0x3e,
  0xcf, 0xa8, 0x8e, 0xbd, 0x6f, 0x80, 0xc5, 0xbe, 0xce, 0x48, 0xa9, 0x3f,
  0x4f, 0x25, 0x7a, 0x3f, 0x49, 0x39, 0xbb, 0x3e, 0xbe, 0x94, 0xdd, 0x3d,
  0xee, 0xf9, 0x59, 0xbf, 0x46, 0xe1, 0x3c, 0xbf, 0x8e, 0x04, 0xee, 0x3f,
  0x7d, 0x7a, 0x86, 0xbf, 0xd7, 0xc2, 0x44, 0x3f, 0x81, 0xec, 0xbe, 0x3f,
  0xb4, 0xb0, 0x6c, 0xbf, 0x23, 0xc9, 0xfb, 0xbf, 0x55, 0xdf, 0x46, 0xc0,
  0x03, 0x04, 0x1e, 0x3f, 0xfe, 0x0c, 0xfc, 0xbe, 0x57, 0xb1, 0x25, 0x3e,
  0xfc, 0xe6, 0xfe, 0x3f, 0xd2, 0xdb, 0xc3, 0x3f, 0x47, 0xb6, 0xce, 0x3f,
  0x46, 0xf9, 0x24, 0x3f, 0xae, 0xb3, 0x96, 0xbf, 0xcf, 0x9f, 0x2f, 0x3f,
  0x49, 0x82, 0x28, 0xbe, 0x1b, 0xcb, 0x26, 0x3e, 0xb7, 0xac, 0x1a, 0xbc,
  0x96, 0xc8, 0x63, 0xbe, 0x8d, 0xc8, 0x87, 0x3e, 0xcd, 0xa9, 0x8c, 0xbf,
  0x85, 0xf0, 0x34, 0x3e, 0x08, 0x5a, 0x50, 0x3d, 0xde, 0x00, 0x4b, 0xbf,
  0xeb, 0xbf, 0x8a, 0xbe, 0x2d, 0xb1, 0x8d, 0x3b, 0x9b, 0x76, 0x68, 0x3e,
  0x14, 0x9e, 0xfd, 0x3b, 0xa0, 0x4c, 0x61, 0x3e, 0x37, 0x7c, 0xfa, 0xbe,
  0x72, 0xb2, 0x8f, 0xbc, 0xb8, 0x92, 0x8d, 0xbd, 0x39, 0x8e, 0x80, 0x3e,
  0x39, 0x69, 0x7e, 0xbd, 0xf8, 0x9c, 0x5d, 0xbe, 0x6e, 0xa7, 0x9d, 0x3e,
  0xba, 0x11, 0x8c, 0xbf, 0x4a, 0x2d, 0x5c, 0x3e, 0x08, 0x6b, 0x1d, 0x3e,
  0x41, 0xc9, 0x81, 0xbf, 0x74, 0xf5, 0x54, 0xbe, 0x48, 0x4c, 0x2b, 0x3e,
  0x67, 0xcc, 0xf6, 0x3e, 0x04, 0x7f, 0xa1, 0xbd, 0xad, 0x8b, 0x8d, 0x3e,
  0x5f, 0x0c, 0xd7, 0xbe, 0x4a, 0xf4, 0xa4, 0x3e, 0xe4, 0x2e, 0xa4, 0x3e,
  0x47, 0x05, 0x2b, 0xbe, 0x02, 0x65, 0x2d, 0xbc, 0xd7, 0x91, 0x35, 0xbd,
  0x78, 0x56, 0x95, 0x3d, 0xba, 0x98, 0xf8, 0xbf, 0x37, 0x3d, 0x77, 0xbe,
  0x21, 0x73, 0x04, 0x3e, 0x47, 0x46, 0x85, 0xbf, 0x42, 0xc4, 0xf6, 0xbd,
  0x33, 0xdf, 0x15, 0x3f, 0xa8, 0x63, 0x5c, 0x3f, 0x6b, 0x87, 0x81, 0x3e,
  0xeb, 0x63, 0x38, 0xbd, 0x26, 0x81, 0xad, 0xbf, 0xc6, 0x80, 0x9c, 0xbd,
  0xc0, 0xe9, 0xa6, 0xbd, 0x37, 0x94, 0x20, 0x3d, 0x40, 0x24, 0x10, 0xbd,
  0x7c, 0x11, 0x9a, 0xbd, 0xf8, 0x6d, 0x78, 0x3d, 0xf5, 0x8c, 0x4b, 0xbf,
  0xc3, 0xe5, 0x4a, 0x3e, 0xa4, 0x44, 0x50, 0x3d, 0xee, 0xa9, 0x2e, 0x3e,
  0x7e, 0x33, 0x7c, 0xbd, 0xfc, 0x8a, 0x08, 0x3c, 0x07, 0x20, 0x9f, 0xbc,
  0x47, 0xa2, 0x38, 0xbd, 0xd9, 0x65, 0xa3, 0xbd, 0x1f, 0x25, 0xa9, 0xbe,
  0x86, 0x0a, 0x4f, 0x3d, 0xa7, 0x50, 0x85, 0xbe, 0x65, 0xa1, 0x81, 0xbc,
  0x15, 0x91, 0xb5, 0x3c, 0x7b, 0x9c, 0x38, 0xbe, 0x14, 0xb7, 0x36, 0x3e,
  0xed, 0xe7, 0x36, 0xbf, 0x24, 0x47, 0x29, 0x3e, 0xa8, 0xbe, 0x55, 0x3e,
  0xfb, 0x91, 0x68, 0x3e, 0x65, 0xb6, 0xff, 0x3c, 0x22, 0x8c, 0x6d, 0xbc,
  0x86, 0xa1, 0x1f, 0xbc, 0x0f, 0x06, 0xa5, 0xbe, 0x28, 0x31, 0x1f, 0x3e,
  0xc2, 0xce, 0x2e, 0xbe, 0x53, 0x9b, 0x32, 0x3e, 0x43, 0xbf, 0x9e, 0x3e,
  0x1c, 0x96, 0xaf, 0xbc, 0x51, 0xbe, 0x76, 0x3d, 0x76, 0x3c, 0xe8, 0x3d,
  0x83, 0x67, 0x3f, 0x3d, 0x86, 0x75, 0xd9, 0xbf, 0x11, 0xd9, 0x75, 0x3e,
  0x5e, 0xb3, 0x19, 0x3a, 0x78, 0xde, 0xf8, 0xbe, 0x7c, 0x1d, 0x07, 0x3e,
  0xe6, 0xa9, 0x9e, 0x3e, 0x62, 0x08, 0x08, 0x3f, 0xc8, 0x32, 0x4b, 0x3e,
  0x6b, 0x1e, 0x5c, 0x3e, 0x92, 0x42, 0x51, 0xbf, 0xc8, 0x4c, 0x16, 0x3e,
  0x4a, 0x96, 0x0e, 0xbd, 0x4e, 0xf9, 0x21, 0xbc, 0x8f, 0x8e, 0xd9, 0xbd,
  0x7a, 0xad, 0x62, 0xbd, 0x6a, 0x23, 0xc2, 0x3d, 0x42, 0x40, 0x19, 0xbf,
  0x7c, 0x7b, 0x6d, 0x3e, 0xa5, 0xb5, 0x8a, 0xbd, 0x25, 0x69, 0xf0, 0xbd,
  0x3b, 0xbb, 0x90, 0xbd, 0x06, 0xed, 0x2c, 0xbd, 0xd0, 0xd1, 0xe8, 0xbc,
  0x90, 0xb5, 0xd1, 0xbd, 0x62, 0x7e, 0xd1, 0x3d, 0x21, 0x7f, 0x47, 0xbd,
  0xbd, 0xe3, 0xbc, 0xbd, 0xab, 0x28, 0xfb, 0xbc, 0x2a, 0x00, 0x1c, 0xbd,
  0x28, 0x6a, 0xf6, 0x39, 0x9d, 0xcb, 0x14, 0xbd, 0xaa, 0xc5, 0xcb, 0xbd,
  0xb0, 0x6c, 0x27, 0xbf, 0xc4, 0xce, 0x5b, 0x3e, 0xc5, 0x06, 0x83, 0xbd,
  0x2e, 0xe4, 0x88, 0x3e, 0x7d, 0xed, 0x1a, 0x3e, 0xde, 0x5b, 0x41, 0xbe,
  0x6d, 0x08, 0xc6, 0xbd, 0xab, 0x1f, 0x11, 0xbe, 0xa0, 0x67, 0x24, 0xbc,
  0x44, 0x4d, 0x2b, 0xbd, 0xbf, 0x26, 0x9e, 0x3d, 0xa0, 0xc3, 0x03, 0xbe,
  0x92, 0x38, 0x5d, 0x3e, 0x85, 0xb8, 0x0a, 0x3d, 0xf3, 0xb3, 0x8e, 0xbd,
  0x6c, 0x77, 0x8d, 0xbb, 0x67, 0x2c, 0xbb, 0xbf, 0xe1, 0xa8, 0x83, 0x3e,
  0x7c, 0xa9, 0x05, 0xbc, 0xa0, 0xe2, 0x26, 0x3d, 0xc6, 0x45, 0xc2, 0xbd,
  0xf2, 0x62, 0xa2, 0xbc, 0x96, 0x88, 0x72, 0x3c, 0x8a, 0xf1, 0x71, 0x3d,
  0x32, 0x23, 0x2d, 0xbe, 0xff, 0x34, 0x6f, 0xbf, 0x13, 0x81, 0x08, 0x3e,
  0x3a, 0x61, 0x21, 0x3c, 0xd8, 0xc1, 0x7b, 0x3c, 0xb7, 0x6e, 0x40, 0x3b,
  0x85, 0x0a, 0xf2, 0x3c, 0x0a, 0x5a, 0xae, 0xbd, 0x61, 0x27, 0x13, 0xbf,
  0x03, 0x29, 0x5d, 0x3d, 0x61, 0x44, 0x9c, 0x3d, 0x88, 0xed, 0xc6, 0x3d,
  0xed, 0xe7, 0xe3, 0xbc, 0x41, 0x6d, 0xb3, 0xbc, 0x70, 0x6c, 0x57, 0xbc,
  0xcd, 0xd3, 0xd1, 0xbd, 0x6e, 0x37, 0xb4, 0xbc, 0xff, 0xf4, 0xb8, 0xbd,
  0x49, 0xad, 0xec, 0x3c, 0xa3, 0x0f, 0xfa, 0xbd, 0x90, 0x57, 0x2c, 0xbd,
  0x8c, 0xab, 0x6f, 0x3d, 0x1e, 0x90, 0xb9, 0xbc, 0x88, 0x61, 0xac, 0xbc,
  0x3e, 0x76, 0x4c, 0xbf, 0xd8, 0x54, 0x83, 0x3d, 0x66, 0x23, 0xd3, 0xbc,
  0xd6, 0x49, 0x58, 0x3d, 0xf7, 0x3b, 0x3a, 0x3d, 0xf7, 0x09, 0xbb, 0x3d,
  0xe5, 0x11, 0x91, 0xbd, 0x61, 0x48, 0x48, 0xbe, 0x52, 0x3b, 0x4b, 0x3d,
  0x89, 0x9a, 0x1a, 0x3d, 0xc5, 0xde, 0x33, 0x3d, 0x1a, 0x96, 0x22, 0xbd,
  0x76, 0x30, 0x1f, 0x3e, 0xa1, 0xf4, 0x07, 0x3e, 0xcc, 0x1c, 0x35, 0x3e,
  0xe9, 0xf6, 0x08, 0x3e, 0xb2, 0xf6, 0xc7, 0xbf, 0xbc, 0x3f, 0x82, 0x3e,
  0x7f, 0xf0, 0x17, 0xbc, 0xe1, 0xe8, 0xdb, 0xbd, 0x21, 0x7b, 0xc5, 0x3b,
  0x12, 0x38, 0x3a, 0xbd, 0x7c, 0xf6, 0x69, 0xbc, 0x94, 0xcb, 0x8c, 0x3d,
  0x80, 0xde, 0x36, 0xbd, 0xb3, 0xb3, 0xfd, 0xbe, 0x61, 0xeb, 0x44, 0x3d,
  0xa2, 0xda, 0x05, 0xbd, 0x58, 0x08, 0x0c, 0x3d, 0xe0, 0x56, 0xd7, 0xbd,
  0xc9, 0x7b, 0x9a, 0x3c, 0xa7, 0xdb, 0x91, 0xbd, 0x68, 0xb4, 0xf1, 0xbe,
  0x09, 0x66, 0xb4, 0xbd, 0x2e, 0x9b, 0xbe, 0xbc, 0xcf, 0x08, 0x29, 0xbe,
  0xee, 0xd9, 0x7f, 0x3c, 0x55, 0x01, 0x3e, 0xbe, 0x26, 0x6b, 0x25, 0xbe,
  0x5e, 0xb3, 0x9f, 0xbd, 0x3e, 0x53, 0x2f, 0xbd, 0x11, 0xe6, 0xd7, 0x3d,
  0xee, 0x95, 0xdb, 0x3b, 0x03, 0x06, 0xe9, 0xbd, 0xdf, 0x66, 0xd0, 0x3d,
  0xd9, 0x9e, 0x21, 0x3d, 0x52, 0x7e, 0x11, 0xbe, 0x8b, 0x95, 0xc0, 0xbd,
  0x1f, 0xa4, 0x2c, 0xbf, 0x20, 0xd2, 0x4d, 0x3d, 0x17, 0x49, 0x61, 0x3d,
  0xe8, 0xd6, 0xcc, 0xbc, 0x1d, 0x8e, 0xb1, 0xbd, 0x3a, 0x9e, 0x85, 0x3c,
  0xd3, 0x9a, 0x2a, 0x3d, 0x6a, 0x97, 0x00, 0xbe, 0x83, 0x5d, 0x34, 0xbd,
  0xbd, 0xeb, 0xa9, 0x3c, 0x49, 0x67, 0x93, 0xbc, 0x04, 0xa1, 0xbe, 0xbc,
  0x13, 0x8f, 0xcd, 0x3d, 0x1a, 0x26, 0x0c, 0x3d, 0x84, 0x09, 0x9f, 0xbc,
  0x63, 0x79, 0x90, 0xbd, 0x65, 0xba, 0xa8, 0xbf, 0x82, 0x90, 0xb7, 0x3d,
  0x2c, 0x4a, 0xbf, 0x3d, 0x02, 0x97, 0xb3, 0x3c, 0xfb, 0xe4, 0xa7, 0x3d,
  0xe0, 0x07, 0x90, 0xbd, 0xc8, 0xe8, 0x2a, 0xbd, 0x65, 0x9d, 0x2e, 0xbd,
  0x2f, 0x4c, 0xd8, 0xbc, 0x85, 0xb6, 0x9f, 0xbe, 0xeb, 0x74, 0x7c, 0x3d,
  0x1a, 0xa9, 0x4f, 0x3d, 0xc5, 0x5f, 0xec, 0x3d, 0xe6, 0xb8, 0x77, 0xbc,
  0x1f, 0x46, 0xfe, 0x3d, 0x10, 0xbb, 0x06, 0x3c, 0x38, 0x14, 0xc6, 0xbe,
  0x7c, 0x5b, 0x2d, 0xbb, 0x01, 0xbe, 0x2d, 0x3d, 0x46, 0x69, 0x22, 0x3d,
  0xc8, 0xcf, 0xf0, 0x3c, 0x79, 0xbd, 0x5b, 0xbe, 0xfd, 0x22, 0xab, 0x3d,
  0xe4, 0x8e, 0xbb, 0xbb, 0xf9, 0x7f, 0x84, 0x3c, 0xf2, 0x1c, 0xa2, 0x3d,
  0x88, 0xd9, 0x83, 0xbd, 0x00, 0x26, 0xe9, 0xbb, 0x9b, 0x2b, 0x87, 0xbd,
  0x57, 0x54, 0x35, 0x3d, 0xe3, 0x2b, 0x4e, 0x3c, 0xa4, 0x10, 0x46, 0x3c,
  0x19, 0x23, 0xbb, 0xbe, 0x20, 0xea, 0x84, 0xbc, 0x5d, 0x80, 0x4e, 0x3d,
  0xb3, 0x70, 0x55, 0x3b, 0xc6, 0x92, 0x54, 0x3a, 0xc8, 0x31, 0x37, 0xbd,
  0x0b, 0x84, 0xd4, 0xbd, 0x9e, 0x63, 0x94, 0xbc, 0xa0, 0x40, 0x1e, 0x3d,
  0xe5, 0xee, 0xc4, 0x3d, 0xe0, 0x20, 0x4b, 0x3d, 0x7a, 0x50, 0x4b, 0x3c,
  0x6e, 0x08, 0xe1, 0x3d, 0x50, 0x4f, 0xe2, 0xbd, 0x88, 0x98, 0xb4, 0xbc,
  0x76, 0x09, 0x70, 0x3d, 0x1f, 0x9f, 0x8b, 0xbf, 0x4d, 0xdb, 0x87, 0x3d,
  0x5e, 0x56, 0xc4, 0x3d, 0x3c, 0x9d, 0xa1, 0x3d, 0xa7, 0xc0, 0xdc, 0xbc,
  0xcb, 0x2c, 0x73, 0xbd, 0xde, 0x05, 0xff, 0x3d, 0x75, 0xe9, 0xcb, 0x3c,
  0xa8, 0x60, 0xfd, 0x3c, 0xaa, 0x36, 0x06, 0xbd, 0xec, 0x0b, 0xd8, 0xbc,
  0x8f, 0x6f, 0x1c, 0x3e, 0xe9, 0x6c, 0x2f, 0x3e, 0x51, 0x05, 0x76, 0x3d,
  0x96, 0xb3, 0x1d, 0x3d, 0x7c, 0xd3, 0xc8, 0xbc, 0xaa, 0x86, 0xa6, 0xbe,
  0x88, 0xc2, 0x4e, 0x3e, 0xb1, 0x9f, 0xea, 0xbc, 0x70, 0xf6, 0x85, 0x3d,
  0xe3, 0x39, 0x53, 0x3e, 0xdf, 0x5d, 0x3a, 0x3c, 0xd6, 0x9e, 0xa1, 0xbc,
  0xcd, 0xa2, 0x3b, 0x3b, 0xce, 0xd8, 0x5a, 0xbd, 0xc8, 0x16, 0xfd, 0x3c,
  0x73, 0x6e, 0xe6, 0xbb, 0x1b, 0xd5, 0x1b, 0x3c, 0x27, 0xe8, 0x46, 0x3c,
  0xf8, 0x90, 0x1a, 0x3d, 0xfd, 0x28, 0x84, 0x3c, 0xd7, 0x18, 0xfe, 0x3d,
  0x35, 0x00, 0x01, 0xbf, 0x28, 0x6a, 0x1c, 0x3e, 0x04, 0x27, 0x72, 0x3a,
  0x20, 0xea, 0x5f, 0x3e, 0xbd, 0x63, 0x62, 0x3e, 0xc9, 0x9d, 0x8f, 0xbd,
  0x3e, 0xef, 0x77, 0xbe, 0xcc, 0xbe, 0x07, 0x3d, 0xbc, 0x96, 0x91, 0x3c,
  0x1c, 0x78, 0x8f, 0x3b, 0x44, 0x5d, 0x13, 0xbb, 0x7f, 0xd9, 0x25, 0x3e,
  0x25, 0x9a, 0x3f, 0x3e, 0x54, 0x76, 0x2a, 0xbd, 0x2a, 0x8c, 0x9a, 0x3d,
  0xca, 0x9f, 0xc7, 0x3c, 0x87, 0x5d, 0xcb, 0xbf, 0x79, 0xb1, 0x32, 0x3e,
  0x87, 0xb5, 0x20, 0x3d, 0x83, 0x3b, 0x25, 0xbe, 0x91, 0x27, 0x03, 0xbe,
  0xbd, 0x4f, 0x8d, 0xbe, 0x07, 0x87, 0x5f, 0xbe, 0xb2, 0xa5, 0x28, 0xbd,
  0x18, 0x34, 0xcc, 0x3c, 0x37, 0xd3, 0x4b, 0xbd, 0x9b, 0x26, 0xa8, 0x3d,
  0x48, 0x1a, 0x10, 0xbf, 0xed, 0x48, 0xe9, 0x3e, 0x99, 0x73, 0x74, 0x3d,
  0x6b, 0x8a, 0x88, 0xbf, 0x6f, 0x01, 0xd5, 0xbf, 0xc7, 0x6e, 0x1d, 0x3e,
  0x7c, 0x6b, 0x35, 0x3f, 0x3f, 0x0c, 0x34, 0x3e, 0x22, 0x12, 0x69, 0xbf,
  0x40, 0x67, 0xd7, 0xbe, 0x9c, 0x59, 0xb2, 0x3e, 0xb3, 0x66, 0xae, 0x3e,
  0x9e, 0x6d, 0x06, 0xbf, 0x60, 0x80, 0x04, 0xbf, 0x98, 0x1c, 0xd4, 0xbe,
  0x8c, 0xde, 0xb4, 0xbe, 0x8c, 0x26, 0x14, 0xbf, 0x99, 0xaa, 0xee, 0x3e,
  0x97, 0x35, 0xab, 0x3d, 0xd6, 0x1b, 0xa0, 0xbf, 0x6a, 0xb0, 0x03, 0xc0,
  0x9b, 0xf5, 0x16, 0xbe, 0xff, 0x15, 0x37, 0x3f, 0x95, 0x92, 0x22, 0x3d,
  0x7f, 0x0b, 0xa4, 0xbf, 0x8c, 0xb3, 0x19, 0xbf, 0x49, 0xe4, 0xd5, 0x3d,
  0x79, 0x16, 0xf2, 0x3e, 0x0a, 0xcd, 0x12, 0xbf, 0x8c, 0xbf, 0x05, 0xbf,
  0xda, 0xee, 0xba, 0xbe, 0x22, 0xc9, 0x51, 0xbe, 0x36, 0x10, 0xd9, 0x3c,
  0xbf, 0x90, 0xa1, 0x3b, 0xd1, 0x4c, 0xe6, 0x3e, 0x62, 0xbb, 0x2e, 0x3d,
  0x6e, 0x21, 0xfb, 0xbe, 0x55, 0xfc, 0xe1, 0x3d, 0x63, 0xd9, 0x59, 0x3b,
  0x12, 0x51, 0xa2, 0x3e, 0x5c, 0xca, 0x2d, 0xbe, 0x1a, 0xe8, 0x20, 0x3e,
  0xbc, 0xf5, 0xa6, 0x3d, 0x66, 0x9d, 0x2f, 0xbe, 0xcb, 0x85, 0xba, 0x3d,
  0x13, 0x6b, 0xa3, 0xbc, 0xf8, 0x5b, 0x17, 0xbd, 0x9c, 0x70, 0x75, 0x3e,
  0x91, 0x4c, 0xa2, 0xbd, 0x15, 0xcf, 0x12, 0x3e, 0xc4, 0xc4, 0x9c, 0x3e,
  0x28, 0x76, 0x24, 0x3e, 0xb0, 0xe9, 0x81, 0x3e, 0x40, 0x08, 0x13, 0x3c,
  0x57, 0x57, 0x0e, 0xbd, 0xde, 0x33, 0xc2, 0x3e, 0xcf, 0x1d, 0x99, 0x3e,
  0xc3, 0x15, 0x97, 0x3d, 0x0b, 0x5b, 0x07, 0xbe, 0xbc, 0xad, 0x90, 0x3d,
  0x80, 0x4e, 0xc4, 0xbc, 0x99, 0xc1, 0xdc, 0x3e, 0x5e, 0xb9, 0x83, 0x3e,
  0x68, 0x04, 0x9a, 0x3e, 0x17, 0xe8, 0x6d, 0x3d, 0x59, 0x55, 0xd3, 0x3d,
  0xae, 0x37, 0x94, 0x3e, 0x0a, 0x66, 0xb0, 0x3e, 0x26, 0xcc, 0xc2, 0x3e,
  0x52, 0x7d, 0xa8, 0xbc, 0xcb, 0x27, 0x35, 0x3e, 0xa1, 0xd0, 0xd9, 0x3e,
  0x44, 0x83, 0x6e, 0x3e, 0x0c, 0x93, 0xed, 0x3d, 0xac, 0x14, 0x9a, 0xbe,
  0xf9, 0x9b, 0xed, 0x3e, 0x09, 0xde, 0x5f, 0xbd, 0x31, 0x2f, 0xdd, 0x3e,
  0x7d, 0x55, 0xa5, 0x3e, 0x93, 0xf2, 0x97, 0x3e, 0x3d, 0xa4, 0x59, 0x3e,
  0x46, 0x78, 0xcf, 0x3c, 0xdd, 0x4a, 0xb0, 0x3e, 0x28, 0x9f, 0x8c, 0x3e,
  0x3d, 0xb8, 0x5d, 0x3e, 0x27, 0xea, 0x86, 0xbe, 0xb1, 0x1d, 0x5b, 0xbe,
  0x0a, 0x39, 0xde, 0x3e, 0xea, 0xe4, 0x50, 0x3e, 0xc5, 0xeb, 0x38, 0x3e,
  0x17, 0x5c, 0x6b, 0xbe, 0x66, 0x84, 0xb1, 0xbe, 0x14, 0xc2, 0xf2, 0x3c,
  0x04, 0x8b, 0x5c, 0x3d, 0xf5, 0x0e, 0x8a, 0xbe, 0xee, 0x9e, 0xba, 0x3e,
  0x2c, 0x5e, 0xf8, 0x3c, 0x6f, 0xba, 0x7f, 0x3e, 0x93, 0xc6, 0xab, 0x3e,
  0x29, 0xdc, 0xa7, 0x3e, 0x7f, 0x95, 0xeb, 0x3e, 0x60, 0x1c, 0xec, 0xbd,
  0xc5, 0xdc, 0x41, 0xbe, 0xd4, 0x8a, 0xac, 0x3e, 0x76, 0xda, 0x55, 0x3e,
  0xc2, 0x36, 0xb6, 0x3e, 0x75, 0x5d, 0xae, 0xbe, 0x5a, 0xaa, 0x16, 0xbe,
  0x54, 0x65, 0xdd, 0x3a, 0xf4, 0x88, 0x73, 0x3e, 0x48, 0x43, 0x35, 0x3e,
  0x4e, 0x08, 0xb4, 0x3e, 0xb5, 0x4c, 0x81, 0x3e, 0x93, 0xd2, 0x00, 0x3e,
  0xb6, 0xf9, 0x8e, 0x3e, 0x0a, 0xbb, 0x57, 0x3e, 0x8e, 0x4c, 0x9e, 0x3e,
  0xb2, 0xf4, 0x18, 0xbd, 0xed, 0x42, 0x6b, 0xbe, 0x45, 0xfd, 0xfd, 0x3e,
  0x01, 0x5c, 0xa9, 0x3e, 0x89, 0xd2, 0x9b, 0x3e, 0xba, 0x32, 0x04, 0xbf,
  0xcc, 0x8d, 0x5e, 0x3e, 0x12, 0xe9, 0x4e, 0x3e, 0x32, 0x93, 0xd1, 0x3c,
  0x27, 0x0d, 0xbb, 0x3e, 0xcd, 0xce, 0xf4, 0x3e, 0xf4, 0xde, 0x86, 0x3d,
  0xe8, 0xe7, 0xed, 0xb6, 0x09, 0x9e, 0x9e, 0x3e, 0x70, 0x6f, 0xbf, 0x3e,
  0x83, 0xfd, 0x92, 0x3e, 0xc1, 0x72, 0xe1, 0xbd, 0xe5, 0x51, 0xab, 0xbe,
  0x81, 0x42, 0xb5, 0x3e, 0x7b, 0x63, 0xbf, 0x3c, 0xcc, 0x97, 0xb9, 0x3e,
  0x38, 0x32, 0x27, 0xbf, 0xbc, 0x4c, 0xbe, 0xbe, 0x91, 0x78, 0x6e, 0x3c,
  0x0e, 0xcb, 0x84, 0xbc, 0x0c, 0x41, 0x3b, 0x3d, 0xb9, 0xe4, 0xcb, 0x3e,
  0xc0, 0x07, 0xc3, 0x3d, 0xab, 0x96, 0x9e, 0xbd, 0x75, 0x55, 0xe3, 0x3d,
  0xaa, 0x0a, 0x83, 0x3e, 0xb1, 0xf0, 0x9e, 0x3e, 0xf3, 0x1e, 0x96, 0xbd,
  0x87, 0xe7, 0x8c, 0xbe, 0xc1, 0x37, 0x58, 0x3e, 0xb0, 0xa8, 0x1e, 0x3e,
  0xf8, 0xfd, 0x98, 0x3e, 0x56, 0x66, 0xe5, 0xbe, 0x15, 0xb1, 0x4b, 0x3e,
  0x76, 0xe0, 0x1c, 0x3e, 0x49, 0x53, 0xcd, 0x3d, 0xd7, 0xdf, 0x24, 0xbe,
  0xb8, 0x8c, 0x14, 0x3e, 0x70, 0x57, 0x8c, 0x3e, 0x25, 0x7d, 0x95, 0x3c,
  0xe8, 0x5e, 0x0f, 0x3e, 0x31, 0xed, 0xbf, 0x3e, 0xca, 0x8d, 0xc4, 0x3e,
  0x35, 0x39, 0x1d, 0x3d, 0xc8, 0xca, 0xb6, 0xbe, 0x96, 0x6a, 0xbe, 0x3e,
  0x10, 0x39, 0x9f, 0x3e, 0x30, 0x2e, 0xb7, 0x3e, 0x12, 0x66, 0xd7, 0xbe,
  0x90, 0xb8, 0x4e, 0xbd, 0xff, 0x73, 0x87, 0x3e, 0x84, 0x3b, 0x25, 0x3e,
  0xe5, 0x28, 0x30, 0x3b, 0x55, 0xae, 0x9f, 0x3e, 0x03, 0x99, 0xd9, 0x3d,
  0x2b, 0x83, 0x59, 0xbd, 0xcf, 0x2a, 0x2d, 0x3e, 0xbb, 0xde, 0x59, 0x3e,
  0x1c, 0xff, 0xeb, 0x3d, 0x16, 0x4b, 0xff, 0xbd, 0xef, 0xe9, 0x35, 0xbf,
  0x9e, 0x35, 0x3e, 0x3e, 0x42, 0x4c, 0xc9, 0x3e, 0x42, 0x0d, 0x8c, 0x3e,
  0xef, 0x81, 0xc6, 0xbe, 0x47, 0x8a, 0xa5, 0xbe, 0xef, 0x97, 0x01, 0x3e,
  0x6d, 0xea, 0x1b, 0xbe, 0xea, 0x28, 0x9c, 0x3c, 0x37, 0x85, 0x07, 0x3e,
  0x04, 0x36, 0xf9, 0x3d, 0xe5, 0xe1, 0x20, 0xbd, 0xe6, 0x6e, 0xe5, 0x3d,
  0x2b, 0x79, 0x6a, 0x3e, 0x4c, 0x66, 0xb9, 0x3d, 0x42, 0x98, 0x99, 0x3b,
  0x50, 0x3b, 0xa2, 0xbf, 0x22, 0x3a, 0x53, 0x3e, 0xc2, 0xec, 0x9a, 0x3d,
  0x05, 0xc5, 0xa5, 0x3e, 0xb3, 0x86, 0xae, 0xbe, 0xd8, 0x37, 0x04, 0xbd,
  0x5f, 0xee, 0xa3, 0x3d, 0xb3, 0x2e, 0x55, 0x3d, 0x0c, 0x46, 0x41, 0xbe,
  0x4b, 0x0d, 0x1e, 0x3e, 0x4e, 0x4f, 0x82, 0x3e, 0x79, 0x16, 0xf4, 0xbe,
  0x22, 0xe9, 0x19, 0xbb, 0x8c, 0x75, 0x65, 0x3e, 0xb0, 0xef, 0xcb, 0x3e,
  0xfe, 0x4a, 0x0e, 0xbd, 0x6d, 0x8b, 0x64, 0xbf, 0xfa, 0xe6, 0x8d, 0x3e,
  0x60, 0xce, 0x28, 0x3e, 0x71, 0x6d, 0x28, 0x3e, 0x1d, 0x9c, 0xdf, 0xbe,
  0xff, 0x8a, 0xb5, 0xbd, 0x18, 0x0d, 0xc6, 0x3c, 0x23, 0xdc, 0x34, 0xbc,
  0x58, 0xc8, 0xac, 0x3d, 0x72, 0xbe, 0x01, 0x3c, 0x41, 0x98, 0xf2, 0xbd,
  0x8c, 0x41, 0x4c, 0xbe, 0x0b, 0x07, 0x90, 0x3d, 0x60, 0x2e, 0xe4, 0x3c,
  0x27, 0x19, 0x64, 0x3e, 0x00, 0x60, 0x19, 0xbe, 0xd6, 0x55, 0x38, 0xbe,
  0x51, 0x35, 0x9e, 0x3c, 0xb3, 0xae, 0xc9, 0xbd, 0x03, 0xa8, 0x85, 0x3e,
  0x53, 0x6c, 0x7b, 0xbe, 0xb8, 0x4d, 0x4d, 0x3d, 0x73, 0x82, 0xb2, 0xbd,
  0xd6, 0x4e, 0xcf, 0x3b, 0xa2, 0xf4, 0x89, 0xbd, 0xa7, 0x16, 0xdf, 0xbd,
  0x67, 0xe8, 0x3d, 0x3e, 0xcd, 0x49, 0x2c, 0xbe, 0x1b, 0x78, 0xb7, 0xbb,
  0x01, 0x73, 0x1b, 0x3d, 0x63, 0x11, 0x25, 0xbd, 0x87, 0xe0, 0xf4, 0xbd,
  0x62, 0x0f, 0x2a, 0xbf, 0xd2, 0x26, 0xc6, 0x3d, 0x53, 0x48, 0xff, 0xbd,
  0xee, 0xd2, 0x63, 0x3e, 0x43, 0x49, 0x92, 0xbe, 0x2a, 0x7f, 0xae, 0xbe,
  0xb6, 0x8a, 0xcf, 0x3c, 0x02, 0x06, 0x89, 0xbd, 0xfb, 0x3e, 0x5c, 0xbe,
  0xb3, 0x0c, 0xb2, 0xbd, 0x0e, 0x2f, 0x86, 0xbd, 0xd3, 0x91, 0xd4, 0xbe,
  0x48, 0x93, 0x15, 0xbe, 0xc6, 0x82, 0xec, 0x3d, 0x74, 0xbf, 0xfc, 0xbc,
  0x80, 0x2c, 0xcb, 0xbc, 0xf1, 0x7e, 0x2f, 0xbf, 0x30, 0x07, 0xc0, 0x3b,
  0xdd, 0x11, 0x1a, 0x3e, 0x80, 0xec, 0x09, 0x3e, 0x4a, 0x3b, 0xa3, 0xbe,
  0x47, 0x74, 0x02, 0xbe, 0x60, 0x58, 0x64, 0x3d, 0x24, 0x78, 0x47, 0xbe,
  0xdc, 0xaa, 0x57, 0xbe, 0x75, 0x84, 0x8a, 0xbe, 0xd6, 0xe5, 0x3a, 0xbd,
  0x3c, 0xb0, 0x0e, 0xbd, 0x96, 0x5d, 0x59, 0xbe, 0xf5, 0x90, 0x3c, 0xbe,
  0x5a, 0x87, 0xcb, 0xbd, 0xd9, 0xfe, 0x3a, 0xbd, 0xb7, 0x83, 0x3a, 0xbf,
  0x95, 0xe6, 0x9f, 0xbd, 0x32, 0x93, 0x0c, 0xbe, 0x0e, 0xf3, 0xd9, 0xbd,
  0x76, 0xba, 0x23, 0x3c, 0xd4, 0x9e, 0x23, 0x3e, 0x8f, 0x5a, 0xb9, 0xbd,
  0x19, 0x5f, 0x4b, 0xbe, 0xf1, 0xc5, 0x62, 0x3d, 0x9a, 0x82, 0xd1, 0xbe,
  0x9d, 0x5c, 0x30, 0xbc, 0x08, 0x5a, 0x4d, 0x3d, 0xe4, 0x32, 0xf7, 0xbd,
  0x0a, 0xd7, 0x95, 0xbd, 0x06, 0x0c, 0xb3, 0xbd, 0x47, 0x00, 0x84, 0xbd,
  0xd0, 0xe1, 0x11, 0x3e, 0x2e, 0xfc, 0xfa, 0xbd, 0xa3, 0xce, 0x92, 0xbe,
  0xb7, 0x14, 0x3a, 0x3d, 0x2b, 0x75, 0xac, 0xbe, 0x99, 0x68, 0xb7, 0xbd,
  0x0f, 0x96, 0x22, 0xbc, 0x32, 0xcb, 0xa7, 0xbe, 0x8b, 0x31, 0x66, 0xbe,
  0x81, 0x83, 0xb1, 0xbd, 0xd8, 0xae, 0xa5, 0xbd, 0xb6, 0xfe, 0xe3, 0xbe,
  0x41, 0xd8, 0x3a, 0xbe, 0x49, 0x05, 0x9e, 0xbc, 0xd0, 0x9c, 0x3f, 0xbe,
  0x25, 0x49, 0x45, 0xbe, 0xd4, 0x72, 0x94, 0xbf, 0x1e, 0xb2, 0x29, 0xbe,
  0x82, 0x92, 0xf7, 0x3b, 0xb3, 0xe8, 0x03, 0xbd, 0x36, 0x0d, 0xcd, 0xbe,
  0x98, 0xe8, 0x78, 0x3c, 0xef, 0x0e, 0xff, 0xbc, 0xfe, 0xa7, 0x54, 0xbe,
  0x2b, 0x49, 0x86, 0xbe, 0xe6, 0x27, 0xa5, 0xbe, 0xab, 0x45, 0x27, 0xbe,
  0xf3, 0x0b, 0xaf, 0xbc, 0xbf, 0x6b, 0x82, 0xbe, 0xa4, 0x26, 0x3f, 0xbe,
  0xa4, 0xf5, 0x90, 0xbe, 0x92, 0xa9, 0xa6, 0xbd, 0x51, 0x19, 0xc8, 0xbe,
  0x55, 0xe3, 0x43, 0xbe, 0xf5, 0x94, 0x42, 0xbe, 0x6b, 0xc7, 0xcc, 0x3a,
  0x93, 0x45, 0x84, 0x3d, 0xc7, 0xf8, 0x10, 0xbd, 0xec, 0x48, 0x58, 0xbe,
  0x7c, 0x59, 0x48, 0xbe, 0xaf, 0x26, 0x69, 0x3d, 0x8d, 0x87, 0xed, 0xbe,
  0x2b, 0xdd, 0xcd, 0x3c, 0x41, 0x60, 0x23, 0xbf, 0x38, 0x2a, 0xa5, 0xbe,
  0x57, 0xb0, 0xfc, 0xbd, 0xe5, 0xb0, 0xb2, 0xbe, 0x18, 0xfe, 0xf4, 0xbd,
  0x0c, 0x46, 0x10, 0xbe, 0xd5, 0xb9, 0x3a, 0xbf, 0x78, 0xbb, 0x1b, 0x3e,
  0x49, 0xe0, 0x28, 0x3d, 0x8b, 0x0a, 0xf4, 0xbd, 0x94, 0x69, 0x1e, 0x3e,
  0x90, 0xf5, 0x26, 0xbe, 0x6f, 0xee, 0x34, 0xbf, 0x1e, 0xdf, 0x8b, 0xbe,
  0x72, 0x60, 0x45, 0xbf, 0x3f, 0x64, 0x3c, 0xbe, 0xe9, 0x12, 0x8c, 0xbf,
  0xa6, 0xe6, 0xc2, 0xbe, 0x6e, 0x43, 0x89, 0x3c, 0xa9, 0xeb, 0x9c, 0xbe,
  0x2c, 0x89, 0x3e, 0xbe, 0xb4, 0x9f, 0x3b, 0xbf, 0x2c, 0x1a, 0x22, 0xbf,
  0x5a, 0x8a, 0x95, 0x3e, 0x89, 0x17, 0x39, 0xbe, 0x44, 0x94, 0xed, 0xbe,
  0xee, 0x41, 0x54, 0xbe, 0xf5, 0xc0, 0xc2, 0xbd, 0xf1, 0x7a, 0x77, 0xbf,
  0x14, 0x74, 0x07, 0xbf, 0xff, 0x0f, 0x49, 0xbf, 0xc5, 0x76, 0x98, 0xbe,
  0xde, 0xa8, 0xdf, 0xbe, 0x85, 0x00, 0x9c, 0xbe, 0xb8, 0x1e, 0x9e, 0xbe,
  0xca, 0xec, 0xb6, 0xbe, 0xa4, 0x2d, 0x87, 0xbc, 0x3c, 0x56, 0xb9, 0xbe,
  0x7f, 0xce, 0x38, 0xbf, 0x6f, 0x75, 0x21, 0x3d, 0xb0, 0xbc, 0x77, 0xbd,
  0xe3, 0xeb, 0x93, 0xbb, 0x32, 0xcf, 0x1e, 0x3d, 0x9f, 0x37, 0x96, 0xbe,
  0xb3, 0x72, 0x23, 0xbf, 0x2a, 0xa0, 0x8a, 0xbe, 0xbc, 0xa0, 0x5a, 0xbf,
  0x03, 0xbd, 0x9b, 0x3e, 0x4e, 0x76, 0x37, 0xbf, 0x1e, 0x6c, 0x7b, 0xbe,
  0xaa, 0x13, 0xd3, 0x3e, 0x14, 0xb5, 0xcc, 0x3e, 0xaa, 0x03, 0x26, 0x3e,
  0xd7, 0x9b, 0x10, 0xbf, 0x0d, 0x4a, 0x2b, 0x3e, 0x6c, 0x18, 0x85, 0x3e,
  0x1f, 0xdd, 0xa2, 0x3e, 0xb0, 0x64, 0x8a, 0x3d, 0x53, 0xa5, 0xdc, 0x3e,
  0xf1, 0x06, 0x89, 0x3e, 0x19, 0xd4, 0x7b, 0x3d, 0x1a, 0xab, 0x20, 0xbe,
  0xc5, 0x09, 0xe5, 0x3d, 0xf2, 0xea, 0xe7, 0x3d, 0x3b, 0x80, 0x5e, 0xbe,
  0x4b, 0xeb, 0x50, 0xbd, 0xd1, 0xed, 0x3a, 0x3e, 0x13, 0xc4, 0x76, 0x3d,
  0xb6, 0x9d, 0x15, 0x3e, 0xd3, 0x71, 0x65, 0xbe, 0xbb, 0x68, 0xb5, 0x3d,
  0x79, 0x5d, 0xe4, 0x3e, 0x6f, 0xa0, 0xcd, 0x3e, 0x56, 0x42, 0xcd, 0x3e,
  0x3a, 0xd3, 0xdf, 0x3e, 0xfb, 0x0c, 0xa6, 0x3e, 0x28, 0x82, 0x6f, 0xbe,
  0x64, 0x6c, 0x90, 0xbd, 0x30, 0xae, 0x0b, 0xbf, 0xd9, 0xca, 0xe1, 0x3e,
  0x85, 0x10, 0xa0, 0xbf, 0xf0, 0x76, 0x19, 0xbe, 0x73, 0x8c, 0x9e, 0x3e,
  0xab, 0xa8, 0x1f, 0x3f, 0x4b, 0x87, 0x08, 0x3e, 0x5b, 0x90, 0xcd, 0xbd,
  0x3e, 0xba, 0xbb, 0x3e, 0x21, 0xb0, 0x74, 0x3d, 0x42, 0x4d, 0x01, 0x3f,
  0xd6, 0xb3, 0x91, 0x3e, 0x34, 0x89, 0x82, 0x3d, 0xf2, 0x6c, 0x9f, 0x3e,
  0x52, 0xa6, 0x06, 0x3e, 0xea, 0x0f, 0x96, 0x3e, 0x8c, 0xe6, 0x8c, 0xbf,
  0xc9, 0xc7, 0xf9, 0x3d, 0x09, 0xfc, 0xc4, 0xbe, 0x42, 0xc5, 0x8e, 0xbc,
  0x8a, 0xd6, 0xa7, 0x3d, 0x5e, 0x24, 0x4f, 0xbd, 0xcc, 0x89, 0x29, 0x3d,
  0x78, 0x0b, 0x84, 0x3e, 0xc8, 0xb0, 0xde, 0x3d, 0xf8, 0xaa, 0x95, 0x3e,
  0xb6, 0x98, 0x27, 0x3f, 0x4c, 0x83, 0x80, 0xbc, 0xcc, 0xff, 0x3d, 0x3e,
  0xd7, 0x68, 0x8a, 0x3d, 0x3d, 0x75, 0x5a, 0x3e, 0x42, 0x5f, 0x3c, 0xbe,
  0x01, 0x02, 0x3b, 0x3d, 0x5c, 0xc8, 0xb9, 0x3d, 0x4e, 0xa2, 0xb8, 0x3c,
  0xdb, 0xd4, 0xa1, 0x3d, 0x53, 0xeb, 0xc1, 0x3e, 0x75, 0xcb, 0xca, 0x3d,
  0xe0, 0x43, 0xbd, 0x3d, 0xab, 0x58, 0xe6, 0xbd, 0xa2, 0xa3, 0xf9, 0x3d,
  0x17, 0x41, 0xa7, 0x3e, 0xae, 0x17, 0x2a, 0x3e, 0x11, 0x4d, 0x07, 0x3e,
  0x2a, 0xb4, 0xd5, 0x3e, 0x36, 0x09, 0x48, 0x3e, 0xcd, 0x07, 0x0f, 0xbc,
  0xe7, 0x0e, 0x82, 0xbd, 0x88, 0x08, 0x67, 0xbe, 0xc8, 0x5f, 0x56, 0x3d,
  0xa7, 0x0f, 0x19, 0xbf, 0x47, 0x0e, 0x06, 0xbf, 0xdc, 0x49, 0xd8, 0x3c,
  0x93, 0x25, 0x8f, 0xbe, 0x4c, 0x70, 0x92, 0x3e, 0x91, 0x72, 0x3a, 0xbf,
  0xf4, 0x34, 0x44, 0x3e, 0x88, 0xb4, 0x10, 0x3f, 0x76, 0x89, 0x8c, 0xbe,
  0x26, 0xe3, 0x23, 0xbf, 0xf1, 0xe9, 0x08, 0xbe, 0xfc, 0xde, 0x85, 0x3d,
  0x3c, 0x8f, 0x40, 0xbd, 0x0d, 0x97, 0x04, 0x3d, 0xa5, 0x8f, 0x8d, 0xbf,
  0x48, 0xb8, 0x8d, 0xbd, 0x4f, 0x7c, 0xd9, 0xbe, 0x8e, 0x6b, 0x1c, 0x3c,
  0xdb, 0x86, 0x34, 0xbe, 0x78, 0x0e, 0x57, 0xbe, 0x73, 0x5d, 0x16, 0x3e,
  0x4d, 0xe8, 0x96, 0xbf, 0x78, 0x36, 0xc2, 0xbd, 0xb0, 0x31, 0x0e, 0xbe,
  0xff, 0x41, 0xc9, 0x3e, 0xea, 0x75, 0x65, 0xbe, 0xe5, 0x3d, 0x7d, 0x3e,
  0x10, 0xf1, 0x6c, 0xbd, 0x3d, 0xeb, 0x12, 0xbe, 0x45, 0x7c, 0xa4, 0x3d,
  0x36, 0x4b, 0x66, 0x3e, 0x45, 0x27, 0x94, 0x3d, 0x5f, 0x97, 0x09, 0xbe,
  0xe0, 0x2c, 0x98, 0x3d, 0x50, 0x9f, 0x85, 0x3d, 0x2b, 0xe4, 0x28, 0xbd,
  0xe8, 0xaa, 0x9b, 0xbd, 0x2e, 0xa7, 0x47, 0xbf, 0xb0, 0x6e, 0x61, 0x3e,
  0x1a, 0x3a, 0xe1, 0xbe, 0x51, 0x06, 0x00, 0x3f, 0x3f, 0xc2, 0x83, 0x3e,
  0x9e, 0x64, 0x1e, 0x3e, 0xd4, 0x9f, 0x28, 0x3d, 0xc4, 0xca, 0x49, 0xbe,
  0x61, 0x15, 0x1a, 0x3e, 0x83, 0x83, 0xff, 0xbd, 0x95, 0xc4, 0x0a, 0xbc,
  0xca, 0x8f, 0x8a, 0xbf, 0xdc, 0x73, 0xc4, 0xbe, 0x38, 0x5b, 0xca, 0x3d,
  0xfa, 0x22, 0xf2, 0x3b, 0x6a, 0x76, 0x9f, 0x3e, 0x4a, 0x3e, 0x32, 0xbf,
  0x8f, 0x38, 0x23, 0x3e, 0x39, 0xe5, 0xdc, 0x3e, 0x1b, 0xd3, 0x78, 0xbc,
  0x9a, 0xef, 0x6b, 0xbf, 0x35, 0x01, 0xdb, 0x3d, 0x76, 0xba, 0xb3, 0xbd,
  0x23, 0x0b, 0xb7, 0xbe, 0x5c, 0x43, 0x14, 0x3e, 0x02, 0xc6, 0xec, 0xbe,
  0xd9, 0xa1, 0x04, 0xbe, 0xa0, 0xd8, 0x34, 0xbf, 0x16, 0x15, 0xc6, 0xbe,
  0x42, 0xa0, 0xb2, 0x3c, 0xc8, 0xda, 0x92, 0x3a, 0x8d, 0x97, 0xbd, 0x3e,
  0xcb, 0x56, 0x36, 0xbf, 0xed, 0x54, 0xab, 0xbe, 0x5d, 0x45, 0xe1, 0x3e,
  0x98, 0x53, 0x82, 0xbe, 0xf0, 0x8e, 0x51, 0x3b, 0x97, 0x01, 0x4f, 0xbd,
  0xbf, 0xa4, 0x09, 0xbe, 0x87, 0x0b, 0x91, 0xbe, 0x18, 0x6b, 0xec, 0xbc,
  0x88, 0x2e, 0xcc, 0xbc, 0x5d, 0x6a, 0x89, 0xbd, 0xe7, 0xe2, 0x74, 0xbe,
  0xd0, 0x87, 0x2e, 0xbf, 0x19, 0x12, 0xe9, 0xbb, 0x6f, 0x25, 0x25, 0xbe,
  0xf8, 0x6d, 0x3a, 0x3e, 0xa5, 0xfa, 0xaf, 0xbf, 0x77, 0x11, 0x98, 0xbe,
  0x0e, 0xec, 0x65, 0xbe, 0x65, 0xbe, 0xb6, 0xbe, 0xf1, 0x12, 0x24, 0xbd,
  0x4d, 0xba, 0x32, 0xbd, 0x81, 0x9b, 0x45, 0xbe, 0x23, 0x42, 0xfc, 0x3d,
  0xfe, 0x95, 0x11, 0x3d, 0x6f, 0x95, 0x8c, 0xbc, 0x58, 0x97, 0xad, 0xbe,
  0x44, 0x43, 0x7a, 0xbf, 0xca, 0x9f, 0x99, 0xbf, 0xc6, 0x0e, 0x90, 0xbe,
  0xdb, 0x51, 0xe7, 0xbe, 0xae, 0x9e, 0x95, 0x3e, 0xb8, 0x70, 0x5a, 0xbf,
  0xea, 0xd7, 0x31, 0xbf, 0x63, 0x52, 0xc1, 0x3e, 0x2e, 0x69, 0x93, 0xbe,
  0x15, 0x72, 0xe2, 0xbe, 0x6a, 0x68, 0xc4, 0xbd, 0xc2, 0xb4, 0x8a, 0xbe,
  0x80, 0xb2, 0x17, 0xbf, 0x08, 0x4c, 0x81, 0x3c, 0x17, 0x3c, 0x74, 0xbf,
  0xc0, 0x39, 0xa0, 0xbe, 0x78, 0xe1, 0xc5, 0xbe, 0x8d, 0x77, 0xf4, 0xbe,
  0xbf, 0x8f, 0xc7, 0xbe, 0xb0, 0x5d, 0xf2, 0xbe, 0x4a, 0x1c, 0xf0, 0x3e,
  0x70, 0x17, 0xfd, 0x3e, 0x00, 0x93, 0x3b, 0xbf, 0x4d, 0xb4, 0xe6, 0x3e,
  0x8d, 0x5a, 0xf5, 0xbe, 0xd7, 0x52, 0xf2, 0xbe, 0xa2, 0x04, 0x5f, 0xbd,
  0x78, 0xd3, 0xab, 0xbe, 0x77, 0x33, 0x9e, 0xbe, 0xb7, 0x2c, 0x82, 0x3e,
  0x8a, 0xd4, 0xf8, 0xbe, 0xc7, 0xf9, 0x9d, 0xbe, 0x97, 0x53, 0xff, 0xbe,
  0xfd, 0x7a, 0xeb, 0xbe, 0x50, 0x37, 0x8c, 0x3d, 0x79, 0xb9, 0xa5, 0xbe,
  0x73, 0x41, 0xa2, 0x3e, 0xef, 0x43, 0x9b, 0x3e, 0x07, 0x61, 0x4a, 0xbf,
  0x60, 0x25, 0x39, 0x3f, 0x7a, 0x6f, 0x28, 0xbf, 0x2c, 0x76, 0x9e, 0xbe,
  0xca, 0xd6, 0xf0, 0xbc, 0x28, 0x88, 0x88, 0xbe, 0x2d, 0x86, 0x00, 0xbf,
  0x9c, 0x8b, 0xac, 0x3c, 0x14, 0xd2, 0xff, 0xbe, 0x59, 0x7a, 0x41, 0xbf,
  0x95, 0x24, 0xb1, 0xbd, 0x68, 0x40, 0xba, 0xbf, 0x97, 0xdb, 0x2f, 0xbf,
  0x84, 0xcd, 0xee, 0xbe, 0x05, 0x93, 0x0d, 0x3f, 0xc9, 0x0b, 0xe5, 0x3b,
  0x23, 0xcd, 0x7b, 0xbf, 0x40, 0xd4, 0xd2, 0x3d, 0xeb, 0xd6, 0x88, 0xbf,
  0xfc, 0x98, 0x84, 0xbf, 0xd1, 0x3a, 0x3d, 0xbf, 0xa7, 0x98, 0x61, 0xbf,
  0x91, 0x7b, 0x84, 0xbe, 0x50, 0xf0, 0x66, 0xbe, 0xdb, 0xb8, 0x27, 0xbf,
  0xf0, 0x35, 0x52, 0xbe, 0x22, 0x04, 0xcf, 0x3d, 0x93, 0xe8, 0x49, 0xbd,
  0x8a, 0x72, 0xbe, 0xbe, 0x36, 0x39, 0x39, 0xbe, 0xc6, 0x39, 0x6d, 0x3e,
  0x6c, 0x71, 0x55, 0x3e, 0x3c, 0xff, 0xee, 0xbd, 0xc2, 0xa2, 0x96, 0xbd,
  0xf6, 0xfa, 0xa9, 0xbd, 0x8b, 0x7d, 0x8d, 0xbf, 0xed, 0x1f, 0x16, 0xbf,
  0x6c, 0xf9, 0x86, 0xbe, 0x36, 0xc7, 0xe9, 0xbd, 0x12, 0x0d, 0xfd, 0x3d,
  0x09, 0xf1, 0x28, 0xbe, 0xdb, 0xc9, 0xf2, 0xbd, 0x17, 0xe8, 0x27, 0x3d,
  0xc2, 0x11, 0x3b, 0xbe, 0xbc, 0x3e, 0xbd, 0xbc, 0x21, 0x84, 0x92, 0xbe,
  0x4a, 0x22, 0x27, 0x3e, 0xe0, 0xe5, 0x8f, 0x3e, 0x7f, 0x79, 0x4e, 0xbe,
  0x2c, 0x54, 0x0e, 0xbe, 0x6b, 0x7c, 0x62, 0xbe, 0x50, 0x87, 0x4a, 0xbf,
  0x7a, 0xb5, 0x0b, 0xbf, 0x67, 0xfd, 0x38, 0xbc, 0xd3, 0x0c, 0xdb, 0xbd,
  0x73, 0x0e, 0xb3, 0x3d, 0xdd, 0x95, 0xbe, 0xbd, 0x1e, 0x05, 0x47, 0xbf,
  0x8c, 0xe4, 0x1f, 0x3e, 0xac, 0x93, 0xac, 0x3c, 0x23, 0xc7, 0x65, 0xbe,
  0x87, 0x76, 0xd2, 0x3d, 0x54, 0x01, 0x84, 0x3e, 0x2e, 0x9d, 0x96, 0x3e,
  0x7b, 0x0b, 0x05, 0x3e, 0x62, 0x1b, 0x83, 0x3d, 0x42, 0xce, 0x89, 0xbf,
  0xd8, 0x0c, 0x1d, 0xc0, 0xa3, 0xd9, 0xad, 0xbf, 0x90, 0x1e, 0x67, 0xbf,
  0x21, 0x3f, 0x16, 0x3d, 0xe6, 0xfe, 0x5d, 0xbc, 0x18, 0x86, 0xac, 0x3e,
  0x28, 0x8f, 0xdd, 0xbd, 0xb2, 0xe2, 0x50, 0x3d, 0x7c, 0x78, 0x2d, 0xbd,
  0x5e, 0xc5, 0x30, 0xbe, 0xb3, 0xb7, 0xa8, 0xbd, 0x91, 0x20, 0xea, 0x3d,
  0x7a, 0x21, 0x5c, 0x3e, 0x19, 0xe4, 0x63, 0x3d, 0xd0, 0x5b, 0x63, 0xbe,
  0x3c, 0x57, 0x39, 0x3c, 0xb0, 0x52, 0xc3, 0xbe, 0x63, 0xbe, 0x9c, 0xbe,
  0xf9, 0x7b, 0x78, 0xbd, 0x45, 0xd7, 0x46, 0xbd, 0x8c, 0xab, 0x09, 0x3d,
  0xb0, 0xe2, 0xb9, 0xbd, 0x96, 0x12, 0xfc, 0xbc, 0x8d, 0x60, 0x00, 0xbd,
  0x9a, 0xeb, 0x2f, 0xbd, 0xe3, 0x16, 0x06, 0xbe, 0x58, 0x49, 0x58, 0xbe,
  0x30, 0xe5, 0x86, 0x3e, 0x35, 0xf2, 0x49, 0x3e, 0x18, 0x31, 0x8f, 0xbd,
  0xd5, 0x9e, 0x8b, 0xbe, 0x8f, 0x67, 0x8b, 0xbe, 0xd6, 0xb1, 0x20, 0xbf,
  0xe6, 0x81, 0xe4, 0xbe, 0xfc, 0x32, 0xa6, 0x3b, 0xd4, 0x21, 0xc3, 0xbd,
  0x30, 0xdc, 0xc3, 0x3c, 0x2e, 0x04, 0xd0, 0xbd, 0x0b, 0x2f, 0xd6, 0x3d,
  0x57, 0xe4, 0x67, 0x3e, 0x6f, 0x46, 0xc5, 0x3d, 0x33, 0x0a, 0x23, 0x3e,
  0x93, 0x76, 0x87, 0x3e, 0xf1, 0x10, 0x4a, 0x3e, 0x21, 0x80, 0x35, 0x3f,
  0xc0, 0x86, 0x16, 0x3e, 0x10, 0x98, 0x10, 0x3f, 0xcb, 0x45, 0x74, 0x3d,
  0x4b, 0x70, 0xda, 0xbf, 0x58, 0x7c, 0xb7, 0xbf, 0x4e, 0x84, 0x33, 0xbe,
  0x1d, 0xa5, 0xbc, 0x3d, 0x0a, 0xf8, 0xe9, 0x3d, 0x11, 0x2a, 0x45, 0x3e,
  0xd1, 0x9d, 0x10, 0xbd, 0xe3, 0x63, 0xb5, 0x3d, 0x2c, 0x0a, 0x38, 0x3e,
  0x24, 0x5a, 0xc5, 0xbd, 0xfb, 0x16, 0xf3, 0xbc, 0xb2, 0xa0, 0x82, 0x3c,
  0x87, 0x85, 0xe4, 0xbc, 0x6a, 0x63, 0x9d, 0x3e, 0xe0, 0xa8, 0x48, 0xbe,
  0x4c, 0x8a, 0xe9, 0xbc, 0x50, 0xe8, 0x52, 0x3e, 0x94, 0x7f, 0xeb, 0xbd,
  0x57, 0x5c, 0x8f, 0x3d, 0x2b, 0xc6, 0x3e, 0x3e, 0x6b, 0xce, 0x8c, 0x3d,
  0x85, 0x6f, 0x27, 0x3e, 0xb3, 0x8d, 0xba, 0x3c, 0x06, 0x9d, 0x1f, 0x3d,
  0x9a, 0xb2, 0x92, 0x3e, 0x95, 0xba, 0xa4, 0xbd, 0xad, 0x31, 0xe1, 0x3c,
  0x36, 0x23, 0xcc, 0xbc, 0x6b, 0x30, 0x0b, 0xbe, 0xdc, 0x4d, 0xb7, 0x3e,
  0x19, 0x5c, 0x6e, 0xbe, 0x1c, 0x4a, 0xa6, 0xbd, 0x59, 0x5f, 0x7d, 0xbd,
  0x80, 0xbf, 0xe1, 0xbd, 0x70, 0x98, 0x60, 0x3d, 0x40, 0x0b, 0xe9, 0x3d,
  0x55, 0x0e, 0x1e, 0x3d, 0x3b, 0x74, 0x1a, 0x3e, 0xcd, 0xf7, 0x08, 0x3e,
  0x58, 0xa9, 0xa2, 0xbd, 0xa0, 0xa9, 0x60, 0x3e, 0x47, 0xcb, 0x26, 0x3e,
  0x3e, 0x55, 0x00, 0x3e, 0xbc, 0x8c, 0xba, 0x3c, 0x19, 0xcc, 0xba, 0x3e,
  0xe7, 0xd7, 0x5e, 0x3e, 0x9e, 0x75, 0x6d, 0x3e, 0x3c, 0xe8, 0xad, 0x3d,
  0xd3, 0x97, 0x88, 0xbd, 0x94, 0x2c, 0x9b, 0x3e, 0xdb, 0xc7, 0x20, 0x3d,
  0xe5, 0x87, 0xb4, 0x3d, 0xce, 0x9c, 0x99, 0x3d, 0x1c, 0x89, 0x65, 0x3d,
  0xe9, 0x96, 0x64, 0x3f, 0x12, 0x6c, 0xab, 0x3d, 0xf8, 0x18, 0xa2, 0x3e,
  0xec, 0x8f, 0x27, 0x3f, 0x4b, 0x8e, 0x2c, 0x3e, 0xe8, 0x98, 0x43, 0xbf,
  0x89, 0x48, 0xc0, 0xbf, 0x80, 0xee, 0xd9, 0x3e, 0xc6, 0xf2, 0xa3, 0x3d,
  0x35, 0xbd, 0x94, 0x3e, 0x68, 0x9e, 0xa0, 0x3f, 0x45, 0xed, 0x98, 0x3f,
  0x33, 0x53, 0x7c, 0x3f, 0x5e, 0xc8, 0x68, 0x3e, 0x0c, 0x22, 0x69, 0x3d,
  0xbb, 0x0a, 0x10, 0xbe, 0x6c, 0x01, 0x4f, 0x3f, 0xf2, 0xf9, 0xf0, 0xbe,
  0xcc, 0x71, 0xfc, 0x3e, 0x41, 0x7e, 0x45, 0x3f, 0xd6, 0x50, 0x38, 0xbe,
  0x98, 0x0e, 0x7c, 0xbf, 0xf5, 0xd0, 0xc8, 0xbf, 0xf2, 0x5b, 0x1e, 0x3f,
  0x88, 0xae, 0x88, 0x3e, 0xda, 0xd5, 0x62, 0x3e, 0x4b, 0xfe, 0x66, 0x3f,
  0x91, 0xbe, 0x27, 0x3f, 0xfe, 0xd6, 0x81, 0x3f, 0x32, 0x8a, 0xb2, 0xbe,
  0x9f, 0x48, 0xc0, 0xbe, 0xf4, 0x62, 0x4b, 0xbd, 0x5b, 0x63, 0x7c, 0x3f,
  0xe6, 0x2a, 0x5f, 0xbf, 0x38, 0x54, 0x2a, 0x3f, 0xe3, 0x60, 0x94, 0x3f,
  0x0c, 0xe8, 0x82, 0xbe, 0x89, 0xb2, 0x08, 0xbf, 0x29, 0x7b, 0x3c, 0xc0,
  0x0f, 0xf5, 0xee, 0x3e, 0x2a, 0x6e, 0x52, 0x3e, 0xe2, 0x2f, 0xee, 0x3e,
  0x31, 0x28, 0xa0, 0xbe, 0x2f, 0xe5, 0x21, 0xbf, 0xa1, 0x42, 0x39, 0x3f,
  0x7c, 0x2c, 0x5e, 0x3e, 0x04, 0xd9, 0xc1, 0xbd, 0xef, 0xe9, 0x88, 0xbe,
  0x09, 0xac, 0xe8, 0x3e, 0x85, 0xcb, 0xd1, 0xbd, 0x2d, 0x02, 0x2b, 0xbe,
  0x37, 0x51, 0x2d, 0x3e, 0x5c, 0x52, 0x88, 0x3c, 0xa2, 0x8c, 0x0f, 0xbf,
  0xdd, 0xe2, 0x8f, 0xbf, 0xcd, 0xc5, 0x28, 0x3e, 0x56, 0x87, 0xbb, 0xbe,
  0x90, 0xb9, 0xd0, 0xbd, 0x9d, 0x1a, 0x4e, 0x3f, 0xc9, 0x7c, 0x43, 0x3f,
  0x98, 0x79, 0xec, 0x3e, 0x88, 0x0f, 0x7d, 0x3e, 0xac, 0x36, 0xcf, 0x3c,
  0x14, 0xed, 0xb3, 0xbe, 0xd0, 0x1a, 0x03, 0x3f, 0xc1, 0x56, 0x0e, 0xbd,
  0x08, 0x8a, 0x46, 0xbd, 0xe9, 0xdf, 0xf9, 0xbc, 0x89, 0xc6, 0xb0, 0xbe,
  0x81, 0x94, 0xa7, 0xbe, 0xc2, 0x5b, 0x24, 0xbf, 0x34, 0x79, 0x45, 0x3e,
  0xff, 0x00, 0x4c, 0xbe, 0x6e, 0x22, 0x8e, 0xbe, 0xf4, 0x17, 0xa1, 0x3e,
  0x43, 0x09, 0xd3, 0x3e, 0x5a, 0x5f, 0xdc, 0x3e, 0x2e, 0x9f, 0xb5, 0x3d,
  0x92, 0x63, 0x1b, 0xbe, 0x55, 0xb5, 0x84, 0xbc, 0x86, 0xe7, 0xec, 0x3e,
  0xb8, 0x2b, 0x9a, 0xbe, 0x32, 0x07, 0x6b, 0x3c, 0xad, 0x6d, 0xeb, 0xbb,
  0xc5, 0x30, 0x2d, 0xbd, 0x1c, 0x0e, 0x5b, 0xbf, 0xba, 0x03, 0xc2, 0xbf,
  0x87, 0xeb, 0x92, 0x3e, 0xcb, 0xa5, 0x6b, 0xbf, 0xcf, 0x2f, 0x74, 0x3e,
  0xaf, 0x10, 0x54, 0xbe, 0xaf, 0x76, 0xec, 0xbd, 0x5d, 0x01, 0x96, 0x3e,
  0xc9, 0xd4, 0x4a, 0xbe, 0x17, 0x5c, 0x3b, 0x3c, 0x53, 0x62, 0x34, 0xbf,
  0x94, 0x11, 0xdd, 0x3d, 0xb9, 0x96, 0xd3, 0x3d, 0xb3, 0x7f, 0xce, 0xbd,
  0xe0, 0x9b, 0xb1, 0x3d, 0x9c, 0x22, 0x07, 0x3e, 0xdd, 0x94, 0xe2, 0xbe,
  0x14, 0x3d, 0xc6, 0xbe, 0xc3, 0xcb, 0xaf, 0x3d, 0xb1, 0xb5, 0x85, 0xbe,
  0x25, 0xcb, 0x54, 0x3d, 0xed, 0x41, 0x87, 0x3e, 0x46, 0x34, 0xed, 0x3e,
  0xbb, 0xac, 0x7d, 0x3e, 0x02, 0xf6, 0x85, 0x3e, 0x17, 0x9c, 0x5c, 0x3d,
  0x7a, 0xe0, 0x08, 0x3e, 0x41, 0x3c, 0xd7, 0x3d, 0xbd, 0xf0, 0x06, 0x3e,
  0x1d, 0x3b, 0x2e, 0x3c, 0x5a, 0x91, 0xb1, 0x3a, 0x0e, 0xeb, 0x56, 0x3e,
  0xb4, 0xa6, 0xd0, 0xbe, 0x48, 0x69, 0x80, 0xbe, 0xf0, 0x61, 0x2a, 0x3e,
  0x26, 0x1b, 0x79, 0xbd, 0x3a, 0xff, 0x21, 0xbe, 0x81, 0x53, 0x9f, 0x3d,
  0x3f, 0x3e, 0x3d, 0x3e, 0x42, 0x1c, 0x42, 0xbc, 0x10, 0x09, 0x55, 0x3e,
  0x1a, 0xf9, 0xe2, 0x3d, 0x6b, 0xc7, 0x5e, 0x3e, 0x74, 0x97, 0x50, 0xbe,
  0x4e, 0x14, 0x90, 0xbe, 0xbd, 0xb1, 0x0f, 0xbe, 0x92, 0xac, 0x21, 0xbe,
  0xcf, 0x06, 0x8e, 0xbe, 0x21, 0xc8, 0x31, 0xbf, 0xa3, 0x6b, 0x8b, 0xbf,
  0x6e, 0x94, 0x79, 0xbd, 0x30, 0xf7, 0x2f, 0xbf, 0x8d, 0xdb, 0x3c, 0x3d,
  0xc5, 0xf2, 0xe4, 0xbe, 0x9c, 0x91, 0x10, 0x3c, 0x43, 0xe6, 0xaf, 0xbc,
  0x34, 0x2b, 0x35, 0xbd, 0x65, 0x46, 0x56, 0x3d, 0x49, 0x6d, 0x51, 0xbe,
  0x34, 0x19, 0xda, 0x3d, 0xa6, 0x86, 0x55, 0xbd, 0x7b, 0x23, 0xb6, 0x3d,
  0xad, 0xf2, 0xfe, 0x3d, 0x11, 0x0c, 0xb7, 0x3d, 0xe7, 0x6c, 0x86, 0xbd,
  0xa9, 0x5d, 0x96, 0xbe, 0x3a, 0x1d, 0xf7, 0x3d, 0x85, 0x8e, 0x19, 0x3e,
  0xea, 0xce, 0x9d, 0x3d, 0xfe, 0xcc, 0x9e, 0x3e, 0x9b, 0x6a, 0xe9, 0x3e,
  0xa6, 0xf3, 0x90, 0x3d, 0x9f, 0xfb, 0x37, 0x3e, 0xca, 0xb4, 0x56, 0x3e,
  0x5c, 0x31, 0x44, 0x3e, 0x4a, 0x83, 0x25, 0x3d, 0x11, 0xf1, 0x03, 0xbe,
  0x9a, 0xbd, 0xe7, 0x3c, 0x76, 0xb8, 0xe4, 0x3d, 0x45, 0xcc, 0x13, 0x3e,
  0xd5, 0x33, 0x7c, 0xbe, 0x5c, 0x57, 0x3e, 0xbe, 0x18, 0xf6, 0x29, 0x3d,
  0xa2, 0x9b, 0x31, 0xbd, 0x31, 0xad, 0xc9, 0x3d, 0x93, 0x39, 0x15, 0xbf,
  0x2d, 0x95, 0xe3, 0xbd, 0xd1, 0x39, 0xbc, 0xbd, 0x56, 0xc7, 0x05, 0x3e,
  0xa4, 0x9e, 0xdf, 0xba, 0x0a, 0x2c, 0x41, 0x3e, 0x73, 0x9d, 0x3c, 0xbe,
  0xa8, 0x7b, 0xf7, 0xbd, 0x37, 0x35, 0x1c, 0xbe, 0xcb, 0x64, 0xc0, 0xbd,
  0x5a, 0x9e, 0x31, 0xbe, 0x89, 0x22, 0xd8, 0xbd, 0x5d, 0xa8, 0xf2, 0xbe,
  0xe5, 0x89, 0x94, 0xbd, 0x61, 0x07, 0xe9, 0xbe, 0xed, 0xd0, 0xaf, 0xbd,
  0x71, 0x6c, 0xf4, 0xbe, 0x51, 0x99, 0x4f, 0xbf, 0x7a, 0x95, 0x43, 0xbe,
  0x97, 0xeb, 0x1c, 0x3d, 0xd9, 0x17, 0x52, 0x3e, 0xed, 0x65, 0xf0, 0xbc,
  0x65, 0xc6, 0xa8, 0x3d, 0x3b, 0x48, 0x20, 0xbd, 0x35, 0xdc, 0x76, 0xbd,
  0x7e, 0x4e, 0x00, 0x3e, 0x27, 0xdd, 0xf8, 0x3d, 0xe3, 0x5e, 0xc7, 0xbd,
  0x9b, 0xe9, 0x05, 0xbe, 0x3c, 0x7c, 0x39, 0xbb, 0xd8, 0x7c, 0xf6, 0x3d,
  0xb9, 0xec, 0x62, 0xbb, 0xe8, 0xa8, 0x2b, 0x3e, 0x06, 0x06, 0x71, 0x3e,
  0x80, 0xed, 0x02, 0x3e, 0x2c, 0x8a, 0x71, 0x3d, 0x90, 0xf0, 0x6b, 0x3e,
  0x15, 0x68, 0xd5, 0x3d, 0xbe, 0xfe, 0x8a, 0x3d, 0x20, 0x80, 0x31, 0x3e,
  0xfc, 0x01, 0x1e, 0x3e, 0xdd, 0xa9, 0xd1, 0x3d, 0x12, 0x8f, 0x22, 0x3d,
  0x19, 0xa6, 0xeb, 0xbc, 0x16, 0x47, 0xd6, 0xbd, 0xf4, 0x19, 0xe4, 0x3d,
  0xb9, 0xe8, 0x95, 0x3e, 0x43, 0xb3, 0x00, 0x3e, 0x45, 0xb3, 0x6d, 0xbf,
  0xb9, 0x34, 0xf9, 0xbe, 0x43, 0xde, 0xeb, 0x3d, 0xab, 0xf0, 0x43, 0xbc,
  0xcf, 0xb5, 0x2e, 0x3e, 0xf6, 0x73, 0xdd, 0xbb, 0x2b, 0x90, 0x1a, 0xbe,
  0x3b, 0x0b, 0xec, 0x3d, 0x4c, 0xe6, 0x6c, 0xbe, 0x85, 0xa0, 0x9b, 0xbd,
  0xc6, 0x64, 0x23, 0x3e, 0xce, 0x73, 0xd0, 0xbd, 0x26, 0xb4, 0x4e, 0xbf,
  0x72, 0x7c, 0x67, 0xbd, 0x57, 0xb6, 0x01, 0x3c, 0x59, 0xe2, 0x6d, 0xbe,
  0x40, 0xc5, 0xd3, 0xbf, 0xa8, 0x44, 0xb7, 0xbf, 0x07, 0x97, 0xd1, 0xb9,
  0x1e, 0x8d, 0xa2, 0x3e, 0x11, 0x76, 0x4b, 0x3e, 0x99, 0xf0, 0x26, 0x3e,
  0xc7, 0x61, 0xe9, 0xbc, 0x3f, 0x4b, 0xaf, 0x3d, 0x78, 0x46, 0xa0, 0xbd,
  0x45, 0x68, 0x6c, 0x3d, 0x96, 0xdf, 0xf9, 0x3c, 0x2d, 0xc6, 0xdd, 0xbd,
  0x09, 0x93, 0xd4, 0x3d, 0xf7, 0x35, 0x8a, 0x3d, 0x8b, 0xb2, 0x73, 0xbd,
  0x5f, 0x1d, 0x53, 0xbd, 0xb4, 0xb2, 0xbc, 0xbe, 0xbb, 0x39, 0x58, 0x3d,
  0xd0, 0xa8, 0xfc, 0x3d, 0x5f, 0xd8, 0x36, 0xbe, 0x68, 0xb7, 0x1d, 0x3e,
  0xea, 0x29, 0xce, 0xbc, 0x56, 0x49, 0xdc, 0xbd, 0xa0, 0xfd, 0xa4, 0xbd,
  0x2c, 0x76, 0xda, 0x3c, 0x4e, 0xfc, 0x04, 0xbe, 0x38, 0x58, 0x09, 0xbe,
  0x49, 0x7c, 0xc0, 0xbe, 0x6d, 0x9f, 0x4c, 0xbe, 0x46, 0xdc, 0x3b, 0x3d,
  0xc5, 0x88, 0xef, 0x3d, 0x54, 0x7d, 0xad, 0xbc, 0x43, 0x7d, 0x21, 0xbf,
  0x3d, 0x1f, 0x81, 0xbe, 0xe4, 0xaa, 0x44, 0x3c, 0x9d, 0x4d, 0x10, 0xbe,
  0x5a, 0x88, 0xed, 0x3d, 0xd4, 0x5c, 0x75, 0xbd, 0x51, 0xeb, 0x02, 0xbe,
  0xdb, 0x1b, 0x8e, 0xbe, 0x14, 0xbe, 0x56, 0xbe, 0x9e, 0xbd, 0x28, 0x3e,
  0x92, 0x25, 0x53, 0x3e, 0x69, 0x9c, 0x0d, 0xbf, 0xce, 0x8d, 0xb7, 0xbf,
  0xb6, 0xca, 0xce, 0x3c, 0x30, 0xe5, 0x66, 0x3d, 0xb7, 0xa1, 0xbc, 0xbd,
