const unsigned char model[] __attribute__((aligned(4))) = {
  0x1c, 0x00, 0x00, 0x00, 0x54, 0x46, 0x4c, 0x33, 0x00, 0x00, 0x12, 0x00,
  0x1c, 0x00, 0x04, 0x00, 0x08, 0x00, 0x0c, 0x00, 0x10, 0x00, 0x14, 0x00,
  0x00, 0x00, 0x18, 0x00, 0x12, 0x00, 0x00, 0x00, 0x03, 0x00, 0x00, 0x00,
  0x14, 0x00, 0x00, 0x00, 0x28, 0x00, 0x00, 0x00, 0xd0, 0x00, 0x00, 0x00,
  0x28, 0x00, 0x00, 0x00, 0x78, 0x00, 0x00, 0x00, 0x05, 0x00, 0x00, 0x00,
  0x04, 0x07, 0x00, 0x00, 0x20, 0x06, 0x00, 0x00, 0x7c, 0x03, 0x00, 0x00,
  0xc8, 0x02, 0x00, 0x00, 0xa8, 0x01, 0x00, 0x00, 0x01, 0x00, 0x00, 0x00,
  0xcc, 0x00, 0x00, 0x00, 0x14, 0x00, 0x00, 0x00, 0xcc, 0x3d, 0x00, 0x00,
  0xc8, 0x3d, 0x00, 0x00, 0xd8, 0x3c, 0x00, 0x00, 0x40, 0x3c, 0x00, 0x00,
  0x94, 0x3b, 0x00, 0x00, 0x1c, 0x3b, 0x00, 0x00, 0xac, 0x3a, 0x00, 0x00,
  0x54, 0x0a, 0x00, 0x00, 0x3c, 0x09, 0x00, 0x00, 0xc4, 0x08, 0x00, 0x00,
  0xa4, 0x07, 0x00, 0x00, 0xa0, 0x3d, 0x00, 0x00, 0x9c, 0x3d, 0x00, 0x00,
  0x98, 0x3d, 0x00, 0x00, 0x94, 0x3d, 0x00, 0x00, 0x90, 0x3d, 0x00, 0x00,
  0x8c, 0x3d, 0x00, 0x00, 0x88, 0x3d, 0x00, 0x00, 0x84, 0x3d, 0x00, 0x00,
  0x38, 0x00, 0x00, 0x00, 0x01, 0x00, 0x00, 0x00, 0x0c, 0x00, 0x00, 0x00,
  0x08, 0x00, 0x0c, 0x00, 0x04, 0x00, 0x08, 0x00, 0x08, 0x00, 0x00, 0x00,
  0x08, 0x00, 0x00, 0x00, 0x13, 0x00, 0x00, 0x00, 0x13, 0x00, 0x00, 0x00,
  0x6d, 0x69, 0x6e, 0x5f, 0x72, 0x75, 0x6e, 0x74, 0x69, 0x6d, 0x65, 0x5f,
  0x76, 0x65, 0x72, 0x73, 0x69, 0x6f, 0x6e, 0x00, 0xaa, 0xc3, 0xff, 0xff,
  0x04, 0x00, 0x00, 0x00, 0x10, 0x00, 0x00, 0x00, 0x31, 0x2e, 0x35, 0x2e,
  0x30, 0x00, 0x00, 0x00, 0x00, 0x00, 0x00, 0x00, 0x00, 0x00, 0x00, 0x00,
  0x0f, 0x00, 0x00, 0x00, 0x4d, 0x4c, 0x49, 0x52, 0x20, 0x43, 0x6f, 0x6e,
  0x76, 0x65, 0x72, 0x74, 0x65, 0x64, 0x2e, 0x00, 0x00, 0x00, 0x0e, 0x00,
  0x18, 0x00, 0x04, 0x00, 0x08, 0x00, 0x0c, 0x00, 0x10, 0x00, 0x14, 0x00,
  0x0e, 0x00, 0x00, 0x00, 0x14, 0x00, 0x00, 0x00, 0x5c, 0x00, 0x00, 0x00,
  0x60, 0x00, 0x00, 0x00, 0x64, 0x00, 0x00, 0x00, 0x84, 0x00, 0x00, 0x00,
  0x12, 0x00, 0x00, 0x00, 0x94, 0x3c, 0x00, 0x00, 0x20, 0x3c, 0x00, 0x00,
  0x90, 0x3b, 0x00, 0x00, 0x04, 0x3b, 0x00, 0x00, 0x58, 0x3a, 0x00, 0x00,
  0xf4, 0x39, 0x00, 0x00, 0x84, 0x39, 0x00, 0x00, 0x2c, 0x09, 0x00, 0x00,
  0x0c, 0x08, 0x00, 0x00, 0x94, 0x07, 0x00, 0x00, 0xe8, 0x05, 0x00, 0x00,
  0x04, 0x05, 0x00, 0x00, 0xb8, 0x03, 0x00, 0x00, 0x08, 0x03, 0x00, 0x00,
  0x58, 0x02, 0x00, 0x00, 0xa4, 0x01, 0x00, 0x00, 0xfc, 0x00, 0x00, 0x00,
  0x80, 0x00, 0x00, 0x00, 0x01, 0x00, 0x00, 0x00, 0x00, 0x00, 0x00, 0x00,
  0x01, 0x00, 0x00, 0x00, 0x11, 0x00, 0x00, 0x00, 0x08, 0x00, 0x00, 0x00,
  0x54, 0x05, 0x00, 0x00, 0x74, 0x04, 0x00, 0x00, 0x48, 0x03, 0x00, 0x00,
  0x94, 0x02, 0x00, 0x00, 0xf4, 0x01, 0x00, 0x00, 0x24, 0x01, 0x00, 0x00,
  0x94, 0x00, 0x00, 0x00, 0x10, 0x00, 0x00, 0x00, 0x04, 0x00, 0x00, 0x00,
  0x6d, 0x61, 0x69, 0x6e, 0x00, 0x00, 0x00, 0x00, 0x9a, 0xfd, 0xff, 0xff,
  0x00, 0x00, 0x00, 0x09, 0x04, 0x00, 0x00, 0x00, 0x1c, 0x00, 0x00, 0x00,
  0x10, 0x00, 0x00, 0x00, 0x04, 0x00, 0x00, 0x00, 0xa6, 0xc4, 0xff, 0xff,
  0x00, 0x00, 0x80, 0x3f, 0x01, 0x00, 0x00, 0x00, 0x11, 0x00, 0x00, 0x00,
  0x01, 0x00, 0x00, 0x00, 0x10, 0x00, 0x00, 0x00, 0xbe, 0xfa, 0xff, 0xff,
  0x00, 0x00, 0x00, 0x19, 0x01, 0x00, 0x00, 0x00, 0x44, 0xc4, 0xff, 0xff,
  0x14, 0x00, 0x00, 0x00, 0x12, 0x00, 0x00, 0x00, 0x18, 0x00, 0x00, 0x00,
  0x30, 0x00, 0x00, 0x00, 0x20, 0x00, 0x00, 0x00, 0x02, 0x00, 0x00, 0x00,
  0x01, 0x00, 0x00, 0x00, 0x03, 0x00, 0x00, 0x00, 0x08, 0x00, 0x00, 0x00,
  0x49, 0x64, 0x65, 0x6e, 0x74, 0x69, 0x74, 0x79, 0x00, 0x00, 0x00, 0x00,
  0x02, 0x00, 0x00, 0x00, 0xff, 0xff, 0xff, 0xff, 0x03, 0x00, 0x00, 0x00,
  0x1c, 0xc4, 0xff, 0xff, 0x1a, 0xfe, 0xff, 0xff, 0x00, 0x00, 0x00, 0x08,
  0x03, 0x00, 0x00, 0x00, 0x18, 0x00, 0x00, 0x00, 0x0c, 0x00, 0x00, 0x00,
  0x04, 0x00, 0x00, 0x00, 0x38, 0xc4, 0xff, 0xff, 0x01, 0x00, 0x00, 0x00,
  0x10, 0x00, 0x00, 0x00, 0x03, 0x00, 0x00, 0x00, 0x0f, 0x00, 0x00, 0x00,
  0x07, 0x00, 0x00, 0x00, 0x04, 0x00, 0x00, 0x00, 0xbc, 0xc4, 0xff, 0xff,
  0x14, 0x00, 0x00, 0x00, 0x11, 0x00, 0x00, 0x00, 0x18, 0x00, 0x00, 0x00,
  0x44, 0x00, 0x00, 0x00, 0x34, 0x00, 0x00, 0x00, 0x02, 0x00, 0x00, 0x00,
  0x01, 0x00, 0x00, 0x00, 0x03, 0x00, 0x00, 0x00, 0x1e, 0x00, 0x00, 0x00,
  0x73, 0x65, 0x71, 0x75, 0x65, 0x6e, 0x74, 0x69, 0x61, 0x6c, 0x5f, 0x31,
  0x30, 0x2f, 0x64, 0x65, 0x6e, 0x73, 0x65, 0x5f, 0x32, 0x31, 0x2f, 0x42,
  0x69, 0x61, 0x73, 0x41, 0x64, 0x64, 0x00, 0x00, 0x02, 0x00, 0x00, 0x00,
  0xff, 0xff, 0xff, 0xff, 0x03, 0x00, 0x00, 0x00, 0xa8, 0xc4, 0xff, 0xff,
  0xce, 0xfc, 0xff, 0xff, 0x00, 0x00, 0x00, 0x08, 0x03, 0x00, 0x00, 0x00,
  0x24, 0x00, 0x00, 0x00, 0x18, 0x00, 0x00, 0x00, 0x0c, 0x00, 0x00, 0x00,
  0x00, 0x00, 0x06, 0x00, 0x08, 0x00, 0x07, 0x00, 0x06, 0x00, 0x00, 0x00,
  0x00, 0x00, 0x00, 0x01, 0x01, 0x00, 0x00, 0x00, 0x0f, 0x00, 0x00, 0x00,
  0x03, 0x00, 0x00, 0x00, 0x0e, 0x00, 0x00, 0x00, 0x06, 0x00, 0x00, 0x00,
  0x03, 0x00, 0x00, 0x00, 0xda, 0xfb, 0xff, 0xff, 0x00, 0x00, 0x00, 0x09,
  0x01, 0x00, 0x00, 0x00, 0x60, 0xc5, 0xff, 0xff, 0x14, 0x00, 0x00, 0x00,
  0x10, 0x00, 0x00, 0x00, 0x18, 0x00, 0x00, 0x00, 0x60, 0x00, 0x00, 0x00,
  0x50, 0x00, 0x00, 0x00, 0x02, 0x00, 0x00, 0x00, 0x01, 0x00, 0x00, 0x00,
  0x10, 0x00, 0x00, 0x00, 0x3a, 0x00, 0x00, 0x00, 0x73, 0x65, 0x71, 0x75,
  0x65, 0x6e, 0x74, 0x69, 0x61, 0x6c, 0x5f, 0x31, 0x30, 0x2f, 0x64, 0x65,
  0x6e, 0x73, 0x65, 0x5f, 0x32, 0x30, 0x2f, 0x52, 0x65, 0x6c, 0x75, 0x3b,
  0x73, 0x65, 0x71, 0x75, 0x65, 0x6e, 0x74, 0x69, 0x61, 0x6c, 0x5f, 0x31,
  0x30, 0x2f, 0x64, 0x65, 0x6e, 0x73, 0x65, 0x5f, 0x32, 0x30, 0x2f, 0x42,
  0x69, 0x61, 0x73, 0x41, 0x64, 0x64, 0x00, 0x00, 0x02, 0x00, 0x00, 0x00,
  0xff, 0xff, 0xff, 0xff, 0x10, 0x00, 0x00, 0x00, 0x60, 0xc6, 0xff, 0xff,
  0x00, 0x00, 0x0a, 0x00, 0x10, 0x00, 0x04, 0x00, 0x08, 0x00, 0x0c, 0x00,
  0x0a, 0x00, 0x00, 0x00, 0x02, 0x00, 0x00, 0x00, 0x10, 0x00, 0x00, 0x00,
  0x04, 0x00, 0x00, 0x00, 0x01, 0x00, 0x00, 0x00, 0x0e, 0x00, 0x00, 0x00,
  0x02, 0x00, 0x00, 0x00, 0x0d, 0x00, 0x00, 0x00, 0x05, 0x00, 0x00, 0x00,
  0x8a, 0xfc, 0xff, 0xff, 0x00, 0x00, 0x00, 0x16, 0x01, 0x00, 0x00, 0x00,
  0x10, 0xc6, 0xff, 0xff, 0x14, 0x00, 0x00, 0x00, 0x0f, 0x00, 0x00, 0x00,
  0x18, 0x00, 0x00, 0x00, 0x48, 0x00, 0x00, 0x00, 0x38, 0x00, 0x00, 0x00,
  0x02, 0x00, 0x00, 0x00, 0x01, 0x00, 0x00, 0x00, 0xc0, 0x00, 0x00, 0x00,
  0x20, 0x00, 0x00, 0x00, 0x73, 0x65, 0x71, 0x75, 0x65, 0x6e, 0x74, 0x69,
  0x61, 0x6c, 0x5f, 0x31, 0x30, 0x2f, 0x66, 0x6c, 0x61, 0x74, 0x74, 0x65,
  0x6e, 0x5f, 0x31, 0x30, 0x2f, 0x52, 0x65, 0x73, 0x68, 0x61, 0x70, 0x65,
  0x00, 0x00, 0x00, 0x00, 0x02, 0x00, 0x00, 0x00, 0xff, 0xff, 0xff, 0xff,
  0xc0, 0x00, 0x00, 0x00, 0xf8, 0xc6, 0xff, 0xff, 0x00, 0x00, 0x0e, 0x00,
  0x18, 0x00, 0x08, 0x00, 0x0c, 0x00, 0x10, 0x00, 0x07, 0x00, 0x14, 0x00,
  0x0e, 0x00, 0x00, 0x00, 0x00, 0x00, 0x00, 0x05, 0x01, 0x00, 0x00, 0x00,
  0x2c, 0x00, 0x00, 0x00, 0x20, 0x00, 0x00, 0x00, 0x04, 0x00, 0x00, 0x00,
  0x26, 0xfe, 0xff, 0xff, 0x03, 0x00, 0x00, 0x00, 0x01, 0x00, 0x00, 0x00,
  0x03, 0x00, 0x00, 0x00, 0x01, 0x00, 0x00, 0x00, 0x00, 0x00, 0x00, 0x01,
  0x01, 0x00, 0x00, 0x00, 0x0d, 0x00, 0x00, 0x00, 0x01, 0x00, 0x00, 0x00,
  0x0c, 0x00, 0x00, 0x00, 0xbc, 0xc6, 0xff, 0xff, 0x14, 0x00, 0x00, 0x00,
  0x0e, 0x00, 0x00, 0x00, 0x20, 0x00, 0x00, 0x00, 0x5c, 0x00, 0x00, 0x00,
  0x44, 0x00, 0x00, 0x00, 0x04, 0x00, 0x00, 0x00, 0x01, 0x00, 0x00, 0x00,
  0x08, 0x00, 0x00, 0x00, 0x03, 0x00, 0x00, 0x00, 0x08, 0x00, 0x00, 0x00,
  0x26, 0x00, 0x00, 0x00, 0x73, 0x65, 0x71, 0x75, 0x65, 0x6e, 0x74, 0x69,
  0x61, 0x6c, 0x5f, 0x31, 0x30, 0x2f, 0x6d, 0x61, 0x78, 0x5f, 0x70, 0x6f,
  0x6f, 0x6c, 0x69, 0x6e, 0x67, 0x32, 0x64, 0x5f, 0x32, 0x31, 0x2f, 0x4d,
  0x61, 0x78, 0x50, 0x6f, 0x6f, 0x6c, 0x00, 0x00, 0x04, 0x00, 0x00, 0x00,
  0xff, 0xff, 0xff, 0xff, 0x08, 0x00, 0x00, 0x00, 0x03, 0x00, 0x00, 0x00,
  0x08, 0x00, 0x00, 0x00, 0xc0, 0xc6, 0xff, 0xff, 0x0a, 0xfe, 0xff, 0xff,
  0x00, 0x00, 0x00, 0x01, 0x24, 0x00, 0x00, 0x00, 0x18, 0x00, 0x00, 0x00,
  0x04, 0x00, 0x00, 0x00, 0xfc, 0xfd, 0xff, 0xff, 0x01, 0x00, 0x00, 0x00,
  0x01, 0x00, 0x00, 0x00, 0x00, 0x00, 0x01, 0x01, 0x01, 0x00, 0x00, 0x00,
  0x0c, 0x00, 0x00, 0x00, 0x03, 0x00, 0x00, 0x00, 0x0b, 0x00, 0x00, 0x00,
  0x09, 0x00, 0x00, 0x00, 0x02, 0x00, 0x00, 0x00, 0x68, 0xc7, 0xff, 0xff,
  0x14, 0x00, 0x00, 0x00, 0x0d, 0x00, 0x00, 0x00, 0x20, 0x00, 0x00, 0x00,
  0xc8, 0x00, 0x00, 0x00, 0xb0, 0x00, 0x00, 0x00, 0x04, 0x00, 0x00, 0x00,
  0x01, 0x00, 0x00, 0x00, 0x18, 0x00, 0x00, 0x00, 0x03, 0x00, 0x00, 0x00,
  0x08, 0x00, 0x00, 0x00, 0x93, 0x00, 0x00, 0x00, 0x73, 0x65, 0x71, 0x75,
  0x65, 0x6e, 0x74, 0x69, 0x61, 0x6c, 0x5f, 0x31, 0x30, 0x2f, 0x63, 0x6f,
  0x6e, 0x76, 0x32, 0x64, 0x5f, 0x32, 0x31, 0x2f, 0x52, 0x65, 0x6c, 0x75,
  0x3b, 0x73, 0x65, 0x71, 0x75, 0x65, 0x6e, 0x74, 0x69, 0x61, 0x6c, 0x5f,
  0x31, 0x30, 0x2f, 0x63, 0x6f, 0x6e, 0x76, 0x32, 0x64, 0x5f, 0x32, 0x31,
  0x2f, 0x42, 0x69, 0x61, 0x73, 0x41, 0x64, 0x64, 0x3b, 0x73, 0x65, 0x71,
  0x75, 0x65, 0x6e, 0x74, 0x69, 0x61, 0x6c, 0x5f, 0x31, 0x30, 0x2f, 0x63,
  0x6f, 0x6e, 0x76, 0x32, 0x64, 0x5f, 0x32, 0x31, 0x2f, 0x43, 0x6f, 0x6e,
  0x76, 0x32, 0x44, 0x3b, 0x73, 0x65, 0x71, 0x75, 0x65, 0x6e, 0x74, 0x69,
  0x61, 0x6c, 0x5f, 0x31, 0x30, 0x2f, 0x63, 0x6f, 0x6e, 0x76, 0x32, 0x64,
  0x5f, 0x32, 0x31, 0x2f, 0x42, 0x69, 0x61, 0x73, 0x41, 0x64, 0x64, 0x2f,
  0x52, 0x65, 0x61, 0x64, 0x56, 0x61, 0x72, 0x69, 0x61, 0x62, 0x6c, 0x65,
  0x4f, 0x70, 0x2f, 0x72, 0x65, 0x73, 0x6f, 0x75, 0x72, 0x63, 0x65, 0x00,
  0x04, 0x00, 0x00, 0x00, 0xff, 0xff, 0xff, 0xff, 0x18, 0x00, 0x00, 0x00,
  0x03, 0x00, 0x00, 0x00, 0x08, 0x00, 0x00, 0x00, 0xd0, 0xc8, 0xff, 0xff,
  0x00, 0x00, 0x0e, 0x00, 0x1a, 0x00, 0x08, 0x00, 0x0c, 0x00, 0x10, 0x00,
  0x07, 0x00, 0x14, 0x00, 0x0e, 0x00, 0x00, 0x00, 0x00, 0x00, 0x00, 0x05,
  0x01, 0x00, 0x00, 0x00, 0x3c, 0x00, 0x00, 0x00, 0x30, 0x00, 0x00, 0x00,
  0x14, 0x00, 0x00, 0x00, 0x00, 0x00, 0x0e, 0x00, 0x18, 0x00, 0x17, 0x00,
  0x10, 0x00, 0x0c, 0x00, 0x08, 0x00, 0x04, 0x00, 0x0e, 0x00, 0x00, 0x00,
  0x03, 0x00, 0x00, 0x00, 0x01, 0x00, 0x00, 0x00, 0x03, 0x00, 0x00, 0x00,
  0x01, 0x00, 0x00, 0x00, 0x00, 0x00, 0x00, 0x01, 0x01, 0x00, 0x00, 0x00,
  0x0b, 0x00, 0x00, 0x00, 0x01, 0x00, 0x00, 0x00, 0x0a, 0x00, 0x00, 0x00,
  0x2a, 0xff, 0xff, 0xff, 0x00, 0x00, 0x00, 0x11, 0x01, 0x00, 0x00, 0x00,
  0xb0, 0xc8, 0xff, 0xff, 0x14, 0x00, 0x00, 0x00, 0x0c, 0x00, 0x00, 0x00,
  0x20, 0x00, 0x00, 0x00, 0x5c, 0x00, 0x00, 0x00, 0x44, 0x00, 0x00, 0x00,
  0x04, 0x00, 0x00, 0x00, 0x01, 0x00, 0x00, 0x00, 0x1a, 0x00, 0x00, 0x00,
  0x03, 0x00, 0x00, 0x00, 0x02, 0x00, 0x00, 0x00, 0x26, 0x00, 0x00, 0x00,
  0x73, 0x65, 0x71, 0x75, 0x65, 0x6e, 0x74, 0x69, 0x61, 0x6c, 0x5f, 0x31,
  0x30, 0x2f, 0x6d, 0x61, 0x78, 0x5f, 0x70, 0x6f, 0x6f, 0x6c, 0x69, 0x6e,
  0x67, 0x32, 0x64, 0x5f, 0x32, 0x30, 0x2f, 0x4d, 0x61, 0x78, 0x50, 0x6f,
  0x6f, 0x6c, 0x00, 0x00, 0x04, 0x00, 0x00, 0x00, 0xff, 0xff, 0xff, 0xff,
  0x1a, 0x00, 0x00, 0x00, 0x03, 0x00, 0x00, 0x00, 0x02, 0x00, 0x00, 0x00,
  0xac, 0xc9, 0xff, 0xff, 0x00, 0x00, 0x0e, 0x00, 0x14, 0x00, 0x00, 0x00,
  0x08, 0x00, 0x0c, 0x00, 0x07, 0x00, 0x10, 0x00, 0x0e, 0x00, 0x00, 0x00,
  0x00, 0x00, 0x00, 0x01, 0x30, 0x00, 0x00, 0x00, 0x24, 0x00, 0x00, 0x00,
  0x10, 0x00, 0x00, 0x00, 0x0c, 0x00, 0x10, 0x00, 0x0e, 0x00, 0x04, 0x00,
  0x08, 0x00, 0x0f, 0x00, 0x0c, 0x00, 0x00, 0x00, 0x01, 0x00, 0x00, 0x00,
  0x01, 0x00, 0x00, 0x00, 0x00, 0x00, 0x01, 0x01, 0x01, 0x00, 0x00, 0x00,
  0x0a, 0x00, 0x00, 0x00, 0x03, 0x00, 0x00, 0x00, 0x00, 0x00, 0x00, 0x00,
  0x08, 0x00, 0x00, 0x00, 0x01, 0x00, 0x00, 0x00, 0x00, 0x00, 0x0a, 0x00,
  0x0c, 0x00, 0x07, 0x00, 0x00, 0x00, 0x08, 0x00, 0x0a, 0x00, 0x00, 0x00,
  0x00, 0x00, 0x00, 0x03, 0x01, 0x00, 0x00, 0x00, 0x90, 0xc9, 0xff, 0xff,
  0x14, 0x00, 0x00, 0x00, 0x0b, 0x00, 0x00, 0x00, 0x20, 0x00, 0x00, 0x00,
  0xc8, 0x00, 0x00, 0x00, 0xb0, 0x00, 0x00, 0x00, 0x04, 0x00, 0x00, 0x00,
  0x01, 0x00, 0x00, 0x00, 0x4e, 0x00, 0x00, 0x00, 0x03, 0x00, 0x00, 0x00,
  0x02, 0x00, 0x00, 0x00, 0x93, 0x00, 0x00, 0x00, 0x73, 0x65, 0x71, 0x75,
  0x65, 0x6e, 0x74, 0x69, 0x61, 0x6c, 0x5f, 0x31, 0x30, 0x2f, 0x63, 0x6f,
  0x6e, 0x76, 0x32, 0x64, 0x5f, 0x32, 0x30, 0x2f, 0x52, 0x65, 0x6c, 0x75,
  0x3b, 0x73, 0x65, 0x71, 0x75, 0x65, 0x6e, 0x74, 0x69, 0x61, 0x6c, 0x5f,
  0x31, 0x30, 0x2f, 0x63, 0x6f, 0x6e, 0x76, 0x32, 0x64, 0x5f, 0x32, 0x30,
  0x2f, 0x42, 0x69, 0x61, 0x73, 0x41, 0x64, 0x64, 0x3b, 0x73, 0x65, 0x71,
  0x75, 0x65, 0x6e, 0x74, 0x69, 0x61, 0x6c, 0x5f, 0x31, 0x30, 0x2f, 0x63,
  0x6f, 0x6e, 0x76, 0x32, 0x64, 0x5f, 0x32, 0x30, 0x2f, 0x43, 0x6f, 0x6e,
  0x76, 0x32, 0x44, 0x3b, 0x73, 0x65, 0x71, 0x75, 0x65, 0x6e, 0x74, 0x69,
  0x61, 0x6c, 0x5f, 0x31, 0x30, 0x2f, 0x63, 0x6f, 0x6e, 0x76, 0x32, 0x64,
  0x5f, 0x32, 0x30, 0x2f, 0x42, 0x69, 0x61, 0x73, 0x41, 0x64, 0x64, 0x2f,
  0x52, 0x65, 0x61, 0x64, 0x56, 0x61, 0x72, 0x69, 0x61, 0x62, 0x6c, 0x65,
  0x4f, 0x70, 0x2f, 0x72, 0x65, 0x73, 0x6f, 0x75, 0x72, 0x63, 0x65, 0x00,
  0x04, 0x00, 0x00, 0x00, 0xff, 0xff, 0xff, 0xff, 0x4e, 0x00, 0x00, 0x00,
  0x03, 0x00, 0x00, 0x00, 0x02, 0x00, 0x00, 0x00, 0x00, 0xca, 0xff, 0xff,
  0xf2, 0xca, 0xff, 0xff, 0x04, 0x00, 0x00, 0x00, 0xc0, 0x00, 0x00, 0x00,
  0x69, 0x25, 0xc9, 0x3c, 0x0b, 0x3e, 0x0e, 0x3e, 0x18, 0x0e, 0xb6, 0x38,
  0x6d, 0x4d, 0x7d, 0xbd, 0x2b, 0x59, 0x08, 0xbd, 0x46, 0xc3, 0x01, 0x3f,
  0x89, 0x85, 0xcf, 0x3d, 0x52, 0x49, 0x2c, 0xbe, 0x97, 0xec, 0xfa, 0x3e,
  0x4d, 0xc6, 0x4f, 0xbe, 0x9f, 0x3a, 0x2a, 0x3f, 0x53, 0x06, 0x54, 0xbe,
  0x4a, 0x78, 0x76, 0xbf, 0xf6, 0x60, 0x84, 0xbf, 0x98, 0x7e, 0x0f, 0xbf,
  0x97, 0x76, 0xfa, 0xbe, 0x9e, 0xe5, 0x8f, 0x3d, 0x90, 0x6c, 0x2a, 0x3f,
  0x2c, 0x16, 0xa9, 0xbe, 0x11, 0xe3, 0x4b, 0x3f, 0x29, 0x22, 0x59, 0xbf,
  0x92, 0x8f, 0xcc, 0xbe, 0x92, 0xc2, 0xb6, 0x3e, 0xf5, 0x74, 0x3e, 0xbe,
  0xe2, 0x5f, 0x50, 0x3e, 0x20, 0x09, 0xc4, 0x3e, 0xe1, 0x36, 0x9b, 0x3d,
  0x5b, 0x91, 0x7b, 0x3e, 0x18, 0x6a, 0x01, 0x3c, 0x87, 0x3e, 0x65, 0x3c,
  0x6e, 0x1e, 0x5e, 0x3f, 0xad, 0x0e, 0x44, 0xbe, 0x39, 0x56, 0x89, 0xbd,
  0x1b, 0x92, 0xa8, 0xbc, 0x4e, 0x97, 0x9b, 0xbd, 0xc2, 0xb5, 0xc0, 0xbd,
  0xf2, 0x27, 0xe5, 0xbd, 0x8e, 0x2f, 0x84, 0x3d, 0xcf, 0x80, 0x46, 0xbe,
  0x1a, 0x4a, 0xb4, 0x3e, 0x3d, 0x86, 0x0f, 0x3e, 0x34, 0xb7, 0x9d, 0x3e,
  0xf8, 0xab, 0x72, 0xbe, 0xcb, 0x18, 0x02, 0x3f, 0xc6, 0x85, 0x00, 0x3f,
  0x4e, 0xf9, 0x53, 0x3d, 0x94, 0xba, 0x7e, 0xbe, 0x5d, 0x52, 0x91, 0xbd,
  0xa2, 0xcb, 0xff, 0xff, 0x10, 0x00, 0x00, 0x00, 0x0a, 0x00, 0x00, 0x00,
  0x1c, 0x00, 0x00, 0x00, 0x3c, 0x00, 0x00, 0x00, 0x04, 0x00, 0x00, 0x00,
  0x08, 0x00, 0x00, 0x00, 0x03, 0x00, 0x00, 0x00, 0x01, 0x00, 0x00, 0x00,
  0x02, 0x00, 0x00, 0x00, 0x1e, 0x00, 0x00, 0x00, 0x73, 0x65, 0x71, 0x75,
  0x65, 0x6e, 0x74, 0x69, 0x61, 0x6c, 0x5f, 0x31, 0x30, 0x2f, 0x63, 0x6f,
  0x6e, 0x76, 0x32, 0x64, 0x5f, 0x32, 0x31, 0x2f, 0x43, 0x6f, 0x6e, 0x76,
  0x32, 0x44, 0x00, 0x00, 0x1c, 0xcb, 0xff, 0xff, 0x0e, 0xcc, 0xff, 0xff,
  0x04, 0x00, 0x00, 0x00, 0x18, 0x00, 0x00, 0x00, 0x0b, 0x4f, 0x89, 0xbf,
  0xd7, 0x6b, 0x28, 0x3c, 0xa6, 0xd3, 0xa4, 0xbe, 0x04, 0xf3, 0x4e, 0xbf,
  0xdb, 0x35, 0x32, 0xbc, 0xeb, 0xb3, 0x90, 0x3f, 0x16, 0xcc, 0xff, 0xff,
  0x10, 0x00, 0x00, 0x00, 0x09, 0x00, 0x00, 0x00, 0x1c, 0x00, 0x00, 0x00,
  0x3c, 0x00, 0x00, 0x00, 0x04, 0x00, 0x00, 0x00, 0x02, 0x00, 0x00, 0x00,
  0x03, 0x00, 0x00, 0x00, 0x01, 0x00, 0x00, 0x00, 0x01, 0x00, 0x00, 0x00,
  0x1e, 0x00, 0x00, 0x00, 0x73, 0x65, 0x71, 0x75, 0x65, 0x6e, 0x74, 0x69,
  0x61, 0x6c, 0x5f, 0x31, 0x30, 0x2f, 0x63, 0x6f, 0x6e, 0x76, 0x32, 0x64,
  0x5f, 0x32, 0x30, 0x2f, 0x43, 0x6f, 0x6e, 0x76, 0x32, 0x44, 0x00, 0x00,
  0x90, 0xcb, 0xff, 0xff, 0x82, 0xcc, 0xff, 0xff, 0x04, 0x00, 0x00, 0x00,
  0xc0, 0x00, 0x00, 0x00, 0x4f, 0x70, 0xe7, 0xbe, 0x90, 0x7d, 0xc8, 0x3d,
  0x77, 0x97, 0x8c, 0xbd, 0x89, 0x22, 0x8e, 0x3e, 0xb2, 0x80, 0x9b, 0xbe,
  0xa8, 0x33, 0x2d, 0xbe, 0x99, 0x1c, 0x4c, 0xbe, 0x7d, 0xaf, 0xb6, 0x3e,
  0x88, 0xcf, 0x1b, 0x3f, 0x60, 0xbe, 0x58, 0x3e, 0xd4, 0x57, 0x82, 0xbf,
  0x91, 0xe3, 0x3b, 0xbf, 0xb4, 0x06, 0x44, 0x3f, 0x67, 0xa4, 0x5a, 0x3f,
  0x75, 0x70, 0x53, 0x3f, 0x62, 0x39, 0x59, 0xbf, 0x63, 0xe6, 0xce, 0xbe,
  0x43, 0x00, 0x51, 0x3f, 0x16, 0xe2, 0x8a, 0x3d, 0x0c, 0xb6, 0xa9, 0xbe,
  0xf5, 0xb1, 0x22, 0x3e, 0x09, 0x5d, 0x99, 0xbe, 0x81, 0x11, 0xba, 0x3e,
  0x1a, 0xa9, 0xfc, 0xbc, 0x88, 0x14, 0xab, 0xbe, 0x6f, 0xe3, 0xae, 0x3e,
  0xd0, 0x30, 0xc7, 0xbe, 0x3d, 0xdb, 0x46, 0xbf, 0xc7, 0x41, 0x90, 0x3d,
  0xec, 0x4a, 0x88, 0xbd, 0xc5, 0xc3, 0x0e, 0xbf, 0x5f, 0x58, 0x89, 0xbe,
  0x03, 0x62, 0x15, 0x3e, 0x05, 0xd6, 0x4a, 0xbf, 0xcd, 0x47, 0xa4, 0xbf,
  0xf8, 0xb5, 0x86, 0xbf, 0xd9, 0x5f, 0x1b, 0x3e, 0x6c, 0x46, 0x2b, 0x3f,
  0x84, 0x1b, 0xff, 0x3e, 0xd0, 0x5b, 0x8e, 0xbf, 0xf8, 0xf5, 0x6b, 0xbd,
  0x53, 0x1f, 0x98, 0xbf, 0x36, 0x57, 0x65, 0x3f, 0x05, 0x52, 0x1a, 0x3f,
  0xc6, 0x5c, 0x35, 0xbf, 0xc0, 0x08, 0x66, 0xbf, 0x8d, 0xbb, 0x6f, 0x3e,
  0xc6, 0x91, 0xe8, 0xbd, 0x32, 0xcd, 0xff, 0xff, 0x10, 0x00, 0x00, 0x00,
  0x08, 0x00, 0x00, 0x00, 0x14, 0x00, 0x00, 0x00, 0x34, 0x00, 0x00, 0x00,
  0x02, 0x00, 0x00, 0x00, 0x03, 0x00, 0x00, 0x00, 0x10, 0x00, 0x00, 0x00,
  0x1d, 0x00, 0x00, 0x00, 0x73, 0x65, 0x71, 0x75, 0x65, 0x6e, 0x74, 0x69,
  0x61, 0x6c, 0x5f, 0x31, 0x30, 0x2f, 0x64, 0x65, 0x6e, 0x73, 0x65, 0x5f,
  0x32, 0x31, 0x2f, 0x4d, 0x61, 0x74, 0x4d, 0x75, 0x6c, 0x00, 0x00, 0x00,
  0xa4, 0xcc, 0xff, 0xff, 0x96, 0xcd, 0xff, 0xff, 0x04, 0x00, 0x00, 0x00,
  0x00, 0x30, 0x00, 0x00, 0x72, 0x73, 0x1e, 0x3f, 0x28, 0x01, 0x49, 0x3f,
  0x63, 0xc0, 0x17, 0xbe, 0xf6, 0x3d, 0x6d, 0x3e, 0x05, 0x8c, 0xd9, 0x3e,
  0xa7, 0xed, 0x4b, 0x3f, 0x09, 0xb9, 0x0e, 0x3f, 0x26, 0xef, 0x91, 0x3e,
  0xe3, 0xd3, 0x2e, 0x3e, 0x39, 0x8f, 0x43, 0x3e, 0xb0, 0x6b, 0xad, 0xbe,
  0x18, 0xd8, 0x98, 0x3e, 0x79, 0x40, 0xaa, 0x3e, 0x66, 0xab, 0xf9, 0x3e,
  0x38, 0x89, 0x3b, 0x3e, 0xc1, 0x2a, 0x5d, 0x3e, 0x0b, 0xa3, 0xa5, 0x3c,
  0x14, 0xc1, 0xf0, 0xbd, 0x7b, 0xd1, 0xc6, 0x3d, 0x43, 0x24, 0x16, 0xbe,
  0x9f, 0x61, 0x86, 0xbe, 0x8c, 0x63, 0x10, 0x3d, 0xd0, 0x03, 0x0b, 0xbd,
  0xe2, 0xaa, 0x2f, 0xbf, 0xe9, 0x8c, 0x3e, 0x3e, 0x28, 0xf1, 0x41, 0x3e,
  0x82, 0xe6, 0xd9, 0xbe, 0x18, 0x95, 0x7f, 0x3e, 0xd9, 0x07, 0xd1, 0x3e,
  0x44, 0xab, 0xb9, 0x3e, 0x09, 0x8d, 0xd5, 0x3e, 0xc0, 0x85, 0x55, 0x3e,
  0xa8, 0x32, 0x99, 0x3d, 0xd1, 0xb7, 0x0c, 0x3d, 0xa5, 0xf2, 0x9b, 0xbe,
  0x29, 0xe1, 0xed, 0xbd, 0x29, 0x7b, 0xf6, 0x3d, 0x10, 0xdb, 0xd8, 0x3c,
  0x5f, 0x6b, 0x0f, 0x3e, 0xdb, 0x5e, 0xe7, 0xbc, 0x29, 0x3a, 0x6a, 0xbe,
  0x48, 0x66, 0x80, 0xbe, 0xab, 0x07, 0xe4, 0xbd, 0x57, 0x3c, 0x68, 0x3d,
  0x25, 0xa2, 0x9d, 0xbc, 0x1c, 0x07, 0xe4, 0xbd, 0x79, 0x84, 0xbf, 0xbc,
  0xdd, 0x9a, 0x86, 0xbe, 0x2f, 0x95, 0x81, 0x3d, 0xac, 0x6f, 0xad, 0x3d,
  0x76, 0xc4, 0xb0, 0xbe, 0xd5, 0xf9, 0x99, 0x3c, 0xf2, 0x1c, 0x35, 0x3e,
  0x6e, 0x5b, 0x86, 0xbd, 0x28, 0xdf, 0xca, 0x3e, 0xea, 0xd7, 0x6f, 0x3e,
  0xc1, 0x49, 0x02, 0x3e, 0x31, 0x80, 0x19, 0xbc, 0xda, 0x85, 0x46, 0xbd,
  0xd4, 0x44, 0x5c, 0x3d, 0x1f, 0x70, 0x0f, 0x3e, 0x10, 0x16, 0x5d, 0xbe,
  0x22, 0xa0, 0x63, 0x3e, 0x5d, 0xc1, 0x9f, 0xbd, 0xb3, 0x13, 0xdb, 0xbd,
  0x30, 0xa5, 0xfb, 0xbd, 0x68, 0xbf, 0x0a, 0xbd, 0xb8, 0x09, 0xb3, 0xbd,
  0x8d, 0x41, 0x02, 0xbd, 0x70, 0xaf, 0x86, 0xbe, 0x47, 0xb4, 0xc9, 0xbd,
  0xd2, 0xee, 0x6d, 0xbe, 0x3c, 0x9a, 0x08, 0x3e, 0xb9, 0xcc, 0x3f, 0xbd,
  0xf2, 0xcc, 0xae, 0x3e, 0x6e, 0xd4, 0xde, 0xbd, 0x3b, 0x0e, 0x1d, 0x3e,
  0x68, 0x86, 0x56, 0xbe, 0x1f, 0x7e, 0x94, 0x3e, 0x13, 0xc6, 0x90, 0x3e,
  0x4c, 0x62, 0x3b, 0xbe, 0xa9, 0x1a, 0xb1, 0xbd, 0x3e, 0xbc, 0x98, 0xbe,
  0xa0, 0x3e, 0x95, 0xbd, 0xc3, 0x22, 0x5f, 0x3e, 0xb5, 0x07, 0x1c, 0xbe,
  0x12, 0xbb, 0x52, 0x3e, 0xb9, 0x05, 0xc5, 0x3c, 0x64, 0xde, 0x40, 0x3e,
  0xdc, 0x32, 0xf3, 0xbd, 0x3c, 0x45, 0x50, 0xbb, 0xb3, 0x19, 0xd2, 0xbc,
  0x63, 0x35, 0x03, 0x3c, 0x66, 0x84, 0x88, 0xbd, 0x33, 0xca, 0xdb, 0x3c,
  0xf4, 0x9f, 0x40, 0xbe, 0x9c, 0xab, 0x38, 0xbd, 0xb3, 0x13, 0x0d, 0xbe,
  0x1b, 0x57, 0x62, 0xbe, 0x21, 0x95, 0x91, 0xbb, 0x7d, 0xed, 0xc9, 0x3d,
  0xed, 0x0e, 0x0c, 0xbe, 0x9b, 0x0e, 0x05, 0x3e, 0x8d, 0x88, 0x35, 0x3e,
  0xc7, 0xb7, 0x1f, 0xbd, 0x03, 0x2e, 0x5d, 0xbd, 0xcb, 0xe2, 0x58, 0xbe,
  0x08, 0x0e, 0xd1, 0x3c, 0x9c, 0x3b, 0x77, 0x3c, 0x3b, 0x3e, 0x99, 0xbe,
  0xe3, 0x83, 0x57, 0x3e, 0xc8, 0x97, 0xf9, 0x3b, 0xb5, 0xfe, 0xd8, 0xbd,
  0xf7, 0x05, 0x91, 0xbe, 0xb7, 0x1f, 0x3e, 0xbe, 0x0c, 0xca, 0x89, 0x3d,
  0x2b, 0x48, 0x07, 0x3d, 0x2e, 0xfb, 0x89, 0xbd, 0x19, 0xca, 0xa7, 0xbb,
  0x15, 0xad, 0x19, 0xbe, 0xc0, 0x3f, 0x2e, 0xbc, 0x2c, 0x3d, 0xb4, 0xbe,
  0x21, 0x0d, 0x1e, 0xbd, 0xb4, 0x60, 0x06, 0xbe, 0x43, 0x18, 0xde, 0xbc,
  0x09, 0x01, 0x7a, 0xbe, 0xff, 0x29, 0x06, 0x3e, 0x27, 0xf2, 0x66, 0x3e,
  0xf6, 0x25, 0x27, 0x3e, 0xa4, 0x48, 0xec, 0xbd, 0x16, 0x63, 0x34, 0x3e,
  0x15, 0xaa, 0x41, 0x3c, 0x98, 0xfe, 0x07, 0x3e, 0x36, 0xc9, 0xa1, 0xbe,
  0x81, 0x3a, 0x1d, 0x3e, 0x8a, 0x4d, 0x33, 0x3d, 0xe6, 0xc5, 0xa2, 0xbd,
  0xef, 0xac, 0x6f, 0xbe, 0xd1, 0x05, 0x68, 0xbc, 0xf3, 0x0c, 0x0c, 0xbd,
  0x0c, 0xe2, 0xc6, 0x3d, 0x4a, 0x77, 0x74, 0xbe, 0xc4, 0xfd, 0xd6, 0xbc,
  0xe5, 0x38, 0x1a, 0xbd, 0x02, 0x73, 0x4e, 0x3c, 0x24, 0x7d, 0x6d, 0xbe,
  0xfd, 0xcc, 0xac, 0x39, 0x2e, 0xa6, 0x17, 0xbe, 0x31, 0x04, 0x1b, 0xbd,
  0x38, 0x2c, 0x84, 0xbe, 0x9a, 0x6f, 0x91, 0x3e, 0xf9, 0xe8, 0x68, 0x3e,
  0xe5, 0x10, 0x91, 0x3d, 0xc4, 0xfc, 0x9c, 0xbe, 0x6a, 0xdf, 0x3b, 0x3e,
  0xd8, 0x36, 0x95, 0x3c, 0x1d, 0x7f, 0x29, 0x3e, 0x2b, 0x23, 0x23, 0xbe,
  0x19, 0x0f, 0x99, 0x3e, 0x25, 0x0f, 0xa3, 0x3d, 0x65, 0x12, 0x91, 0x3e,
  0x34, 0xb7, 0x5c, 0xbe, 0x3a, 0x06, 0xe2, 0x3d, 0xe6, 0xcd, 0xd3, 0x3b,
  0x42, 0xdb, 0x4c, 0x3c, 0x67, 0xd1, 0xc9, 0xbd, 0xfd, 0xfd, 0x91, 0x3d,
  0x1c, 0x06, 0xd0, 0xbd, 0x14, 0x1d, 0x31, 0xbe, 0xf9, 0x7b, 0x15, 0xbf,
  0x4a, 0x42, 0x94, 0x3e, 0xbb, 0x2c, 0x62, 0xbd, 0xe7, 0x16, 0x1c, 0x3d,
  0x69, 0x6d, 0x2e, 0xbe, 0xb2, 0x4c, 0xb5, 0x3e, 0xfa, 0x6c, 0x80, 0x3e,
  0xc1, 0xd0, 0x90, 0xbe, 0xf8, 0xad, 0x24, 0xbf, 0xe3, 0xc4, 0xc1, 0x3d,
  0xf7, 0x65, 0xe9, 0xbd, 0xfb, 0xad, 0xb3, 0x3c, 0x0f, 0x24, 0xb7, 0xbe,
  0xaf, 0xd6, 0x37, 0x3e, 0x64, 0x5d, 0x25, 0x3e, 0xcd, 0xc9, 0x6f, 0x3e,
  0x98, 0x97, 0x45, 0xbe, 0xb7, 0x32, 0x58, 0xbe, 0xde, 0xa0, 0x9f, 0x3c,
  0xd9, 0x5d, 0xf9, 0x3d, 0xd5, 0x15, 0x72, 0xbe, 0xd7, 0x9f, 0x53, 0x3e,
  0xb8, 0x4f, 0xa9, 0xbc, 0xbf, 0x9d, 0x6f, 0x3c, 0xa4, 0x00, 0x89, 0x3e,
  0x17, 0x7f, 0xb0, 0x3e, 0x4f, 0x78, 0x2b, 0xbf, 0x41, 0x92, 0x35, 0xbf,
  0xa4, 0x2b, 0x13, 0xbf, 0x05, 0x92, 0x18, 0x3e, 0x11, 0x1a, 0x19, 0x3e,
  0xe7, 0x3b, 0x37, 0xbd, 0x9e, 0xe2, 0xe4, 0x3d, 0xb5, 0x2b, 0xab, 0x3e,
  0xe5, 0xd0, 0x69, 0xbf, 0xd2, 0xfe, 0x35, 0xbf, 0x10, 0x51, 0x58, 0xbf,
  0xb0, 0x43, 0x82, 0x3d, 0xa1, 0xfa, 0x10, 0x3c, 0xad, 0xc6, 0xc6, 0xbd,
  0xa5, 0x16, 0x15, 0x3e, 0x81, 0x27, 0xe3, 0xbe, 0x08, 0xe4, 0x86, 0xbe,
  0x12, 0xba, 0x3a, 0x3d, 0xc3, 0xe3, 0x72, 0x3e, 0x43, 0x3f, 0x81, 0x3d,
  0x88, 0x18, 0xc5, 0x3e, 0x8e, 0x58, 0x05, 0x3f, 0xb7, 0xb8, 0xea, 0x3e,
  0x6f, 0x5e, 0x01, 0x3e, 0x80, 0x0d, 0xb8, 0x3e, 0x38, 0x6f, 0x82, 0x3e,
  0xf3, 0x09, 0x07, 0x3f, 0x6b, 0x16, 0x32, 0x3e, 0x72, 0xe5, 0x8d, 0x3e,
  0x06, 0x5d, 0xd5, 0x3e, 0x60, 0x56, 0xed, 0x3e, 0x5c, 0x9e, 0x69, 0x3e,
  0xb8, 0x88, 0xa3, 0x3e, 0x6f, 0x11, 0x7f, 0x3e, 0x70, 0x1f, 0xeb, 0x3e,
  0x69, 0x14, 0x22, 0x3e, 0xfa, 0xcc, 0x9e, 0x3e, 0x39, 0xc5, 0x99, 0x3d,
  0x19, 0xe7, 0xe9, 0x3d, 0xcf, 0xa6, 0x01, 0xbf, 0x89, 0xb0, 0x73, 0xbe,
  0x29, 0x76, 0xb2, 0xbd, 0x67, 0x37, 0x10, 0x3e, 0x24, 0xfc, 0xe3, 0xba,
  0x16, 0x66, 0x4d, 0xbc, 0xa7, 0x8a, 0xe0, 0x3e, 0xbb, 0x94, 0xdb, 0x3e,
  0x9e, 0x8b, 0x3c, 0x3e, 0x3d, 0x94, 0x9a, 0x3e, 0x41, 0xa6, 0x96, 0x3e,
  0xd2, 0xc3, 0xfb, 0x3e, 0xb1, 0x8b, 0x70, 0x3e, 0xcd, 0xed, 0x4a, 0x3e,
  0x8c, 0xb3, 0xbd, 0x3e, 0x31, 0xa4, 0xa2, 0x3e, 0xf2, 0x26, 0x49, 0x3e,
  0x4b, 0x50, 0x88, 0x3e, 0x07, 0xe8, 0x47, 0x3e, 0x43, 0x93, 0xe3, 0x3e,
  0x07, 0x1e, 0x50, 0x3e, 0xb2, 0x60, 0x65, 0x3e, 0x2d, 0x29, 0xdd, 0x3e,
  0xfd, 0xe4, 0x75, 0x3e, 0xfc, 0x8f, 0x31, 0xbd, 0x2a, 0x13, 0x5f, 0x3c,
  0xf6, 0x6d, 0xc8, 0x3d, 0x95, 0x69, 0x53, 0x3e, 0x1a, 0x39, 0x18, 0x3e,
  0xff, 0x82, 0xdf, 0x3d, 0xa2, 0x91, 0x33, 0x3e, 0x5e, 0xf6, 0x6d, 0x3e,
  0x36, 0x85, 0x60, 0xbe, 0x57, 0x08, 0xdc, 0x3d, 0x7f, 0x4a, 0x57, 0x3e,
  0x8e, 0x3f, 0xb1, 0x3e, 0x92, 0x9b, 0xf0, 0x3d, 0xd2, 0x60, 0x81, 0x3e,
  0xe9, 0xa6, 0xb5, 0x3d, 0x66, 0xbd, 0x22, 0x3e, 0x99, 0x55, 0xb2, 0xbd,
  0xba, 0x4c, 0x77, 0x3d, 0xe0, 0x17, 0x40, 0x3e, 0x03, 0xc1, 0xa1, 0x3e,
  0x88, 0xe9, 0xc2, 0x3d, 0x97, 0x1e, 0x67, 0x3e, 0x0d, 0x0a, 0xaf, 0x3e,
  0x0f, 0xf3, 0x78, 0x3e, 0x60, 0xfa, 0xab, 0xbd, 0x64, 0x45, 0xa5, 0x3d,
  0x18, 0x25, 0x4d, 0x3e, 0xd8, 0x94, 0xa4, 0x3e, 0xd2, 0x7e, 0xfb, 0x3d,
  0x43, 0xc8, 0x4c, 0x3e, 0xee, 0x12, 0x19, 0xbd, 0x15, 0x09, 0xb1, 0x3d,
  0x15, 0xe1, 0xb2, 0xbe, 0xa8, 0xfb, 0x05, 0xbe, 0xac, 0xf9, 0xd5, 0xbc,
  0x54, 0x43, 0x27, 0x3e, 0xee, 0x1e, 0xc4, 0xbd, 0x45, 0x7d, 0xa6, 0x3d,
  0x47, 0xa0, 0xb6, 0xbd, 0x05, 0x21, 0x9b, 0xbd, 0xf7, 0x5b, 0xcc, 0xbe,
  0x77, 0x47, 0x05, 0xbe, 0xea, 0xec, 0x37, 0x3c, 0x0a, 0x02, 0x17, 0x3e,
  0xfe, 0x0a, 0x9b, 0xbd, 0xa7, 0xd2, 0x80, 0x3c, 0x50, 0x8b, 0x8e, 0x3e,
  0x18, 0x46, 0x52, 0x3e, 0x87, 0x64, 0x0b, 0xbe, 0x5e, 0x84, 0x9c, 0x3c,
  0x3b, 0xb0, 0x6d, 0x3e, 0xf2, 0x6f, 0x92, 0x3e, 0x46, 0x79, 0x0d, 0x3d,
  0x00, 0xa3, 0x35, 0x3e, 0xe6, 0x34, 0x9b, 0xbe, 0x83, 0xdc, 0xaf, 0xbe,
  0x0c, 0x7a, 0x90, 0xbe, 0x9c, 0x3e, 0x23, 0xbe, 0x00, 0xf2, 0x7e, 0xbe,
  0xe8, 0xe8, 0xab, 0xbd, 0xdd, 0xc2, 0x9c, 0xbe, 0x58, 0x13, 0x39, 0xbd,
  0x8e, 0x61, 0x1a, 0xbe, 0xea, 0x53, 0x75, 0xbe, 0x62, 0x82, 0xfa, 0xbd,
  0x8e, 0x15, 0x50, 0xbe, 0x79, 0x16, 0x62, 0xbe, 0x5f, 0xf3, 0x04, 0xbe,
  0x88, 0xda, 0x33, 0xbe, 0x5e, 0x29, 0xcc, 0xbc, 0xa5, 0xdf, 0x8e, 0xbd,
  0xf5, 0xc6, 0x53, 0x3c, 0x9b, 0xec, 0x70, 0xbe, 0xbe, 0xe1, 0x10, 0x3d,
  0x57, 0xb8, 0x41, 0x3c, 0x0f, 0x41, 0x09, 0x3e, 0xe7, 0xce, 0x27, 0xbe,
  0x4f, 0x88, 0x79, 0x3c, 0xbe, 0xae, 0xfd, 0xbd, 0x74, 0xe6, 0xa6, 0xbe,
  0x63, 0x41, 0xc2, 0xbd, 0x64, 0x25, 0x97, 0xbe, 0x7b, 0xa2, 0x9e, 0xbe,
  0xe5, 0x85, 0x35, 0xbe, 0x52, 0xf0, 0x77, 0xbe, 0x7f, 0xa2, 0x4a, 0xbe,
  0xd6, 0x52, 0x26, 0xbe, 0x7d, 0xc6, 0xc3, 0xbe, 0x9a, 0x84, 0x89, 0xbc,
  0x47, 0xa0, 0x44, 0xbe, 0xbe, 0xe3, 0x09, 0xbe, 0xba, 0xc8, 0x4d, 0xbe,
  0xf2, 0x72, 0x63, 0xbe, 0x4c, 0x38, 0x22, 0xbe, 0x60, 0x6e, 0x94, 0xbe,
  0x38, 0xc5, 0x49, 0xbe, 0xf1, 0x0d, 0xe7, 0xbe, 0xa4, 0x31, 0x2a, 0xbe,
  0x89, 0x42, 0x1c, 0xbe, 0x2c, 0xc6, 0xb3, 0xbd, 0xb9, 0x16, 0xbe, 0xbe,
  0xa4, 0xcd, 0x18, 0xbe, 0xd2, 0x0d, 0x88, 0xbf, 0xa6, 0xe1, 0x4f, 0xbf,
  0x3f, 0x4d, 0x0d, 0xbf, 0xcb, 0x89, 0x7e, 0xbe, 0x4d, 0x9d, 0xb4, 0xbe,
  0x88, 0x2a, 0x60, 0xbd, 0x4d, 0x3d, 0x4c, 0xbf, 0x9b, 0xb7, 0x23, 0xbe,
  0xfb, 0x3f, 0x67, 0xbf, 0xd4, 0x9d, 0x81, 0xbf, 0xdb, 0xd2, 0xdf, 0xbe,
  0x0c, 0x41, 0x36, 0xbe, 0x16, 0x2f, 0x8b, 0xbe, 0x6e, 0x57, 0xb2, 0xbe,
  0x35, 0xe6, 0x38, 0xbf, 0xa9, 0x3f, 0x2a, 0xbe, 0x0f, 0xa2, 0xa8, 0xbf,
  0xa4, 0x9d, 0x1e, 0xbf, 0x88, 0x04, 0x51, 0xbf, 0x4d, 0x77, 0xc8, 0xbe,
  0xe7, 0xad, 0x1c, 0xbf, 0x0b, 0xd4, 0x66, 0xbe, 0x2b, 0x98, 0x76, 0xbf,
  0xab, 0x7e, 0x62, 0xbe, 0xd2, 0xc5, 0xfc, 0xbc, 0x5f, 0xdf, 0x52, 0x3d,
  0xca, 0x2d, 0xcc, 0xbd, 0xa1, 0x69, 0xa4, 0x3d, 0xa6, 0xb3, 0xa8, 0x3d,
  0x15, 0x2e, 0x2f, 0x3e, 0x3f, 0x9f, 0x60, 0x3e, 0x89, 0x4a, 0x92, 0x3e,
  0x81, 0x2e, 0xdb, 0xbe, 0x83, 0x54, 0x73, 0xbc, 0x91, 0x31, 0x2f, 0xbe,
  0xf7, 0xa5, 0x14, 0xbd, 0xcc, 0xac, 0x7c, 0xbe, 0x4a, 0x28, 0xd8, 0x3d,
  0xa1, 0x3f, 0x4a, 0x3e, 0xd0, 0x2f, 0x73, 0x3e, 0x30, 0x57, 0xeb, 0x3c,
  0x2b, 0x35, 0xd9, 0x3c, 0x5c, 0xe9, 0xec, 0x3d, 0xb3, 0xc7, 0x24, 0xbc,
  0x9a, 0x8c, 0x57, 0x3d, 0x10, 0x8e, 0x8b, 0x3d, 0xfe, 0x5e, 0xfd, 0xbd,
  0x60, 0x35, 0x18, 0x3d, 0xab, 0xfe, 0x67, 0xbe, 0x61, 0xf0, 0xf8, 0xbb,
  0x69, 0x2f, 0x99, 0xbe, 0x3f, 0x8e, 0x51, 0x3d, 0xdc, 0xf4, 0x87, 0xbd,
  0xc2, 0xfd, 0xbd, 0xbc, 0xbf, 0x27, 0x30, 0x3e, 0x50, 0x6a, 0x46, 0x3e,
  0x4e, 0x9d, 0xf3, 0xbe, 0x02, 0x89, 0xef, 0xbd, 0x0d, 0x06, 0x2a, 0xbe,
  0xdb, 0x90, 0x39, 0xbe, 0x17, 0x93, 0xe8, 0xbe, 0xe3, 0xf0, 0xd4, 0x3d,
  0x90, 0x0c, 0xc8, 0x3c, 0xbb, 0x6d, 0x60, 0x3e, 0xd0, 0xe5, 0xa1, 0xbd,
  0x93, 0xbb, 0xf2, 0xbc, 0x12, 0x4d, 0xca, 0xbd, 0x7c, 0xc1, 0xbe, 0xbd,
  0xf2, 0x90, 0x4f, 0xbd, 0xe4, 0x8a, 0x11, 0x3d, 0x07, 0x36, 0x3d, 0xbe,
  0x51, 0xb3, 0x2d, 0xbc, 0x8d, 0xa6, 0xb1, 0xbe, 0x1d, 0x70, 0x32, 0xbe,
  0x1e, 0xd6, 0x3c, 0xbe, 0xcd, 0x10, 0x91, 0xbe, 0x9b, 0xd1, 0x94, 0xbe,
  0x0a, 0xda, 0x0a, 0xbe, 0xdb, 0x7c, 0xc8, 0x3d, 0xb5, 0x6e, 0xe3, 0x3d,
  0x06, 0x88, 0x66, 0xbf, 0x9d, 0xb7, 0x9e, 0xbe, 0xc0, 0xbd, 0xf0, 0xbe,
  0xfc, 0x8d, 0x04, 0xbe, 0x55, 0xbf, 0x0e, 0xbf, 0x4d, 0xab, 0x8e, 0xbe,
  0xdf, 0xc7, 0xe3, 0xbd, 0xad, 0x3c, 0xb4, 0x3d, 0x07, 0x85, 0xbd, 0xbd,
  0x2b, 0xea, 0x15, 0xbe, 0x44, 0x26, 0x22, 0xbe, 0xda, 0x9c, 0x01, 0xbe,
  0xd9, 0xdb, 0x00, 0xbe, 0x63, 0x39, 0xa0, 0xbd, 0x8b, 0xd4, 0x06, 0xbe,
  0xd4, 0xa4, 0x1c, 0x3d, 0xe2, 0xf9, 0xe9, 0xbe, 0x88, 0x40, 0x9d, 0xbe,
  0x36, 0x05, 0x4b, 0xbe, 0xa7, 0x41, 0xf6, 0xbd, 0xfd, 0x8f, 0xa5, 0xbe,
  0xa5, 0x67, 0x72, 0xbe, 0x41, 0xa2, 0x67, 0xbe, 0x0b, 0xcb, 0x10, 0x3e,
  0x14, 0xe4, 0x37, 0xbf, 0x1d, 0x1c, 0xd7, 0xbe, 0x13, 0x49, 0x24, 0xbd,
  0xa7, 0x1a, 0xda, 0xbe, 0x62, 0x14, 0x2d, 0xbf, 0xb6, 0xc4, 0xc0, 0xbe,
  0x8f, 0xdc, 0x63, 0xbe, 0xde, 0xea, 0xa9, 0xbc, 0x3a, 0x53, 0x13, 0x3d,
  0xdb, 0x1d, 0xe6, 0xbd, 0x20, 0x9e, 0x5f, 0xbd, 0x72, 0xd5, 0xec, 0xbd,
  0x7a, 0xa4, 0x80, 0xbc, 0x6f, 0x1f, 0x7a, 0xbd, 0x6b, 0x0c, 0xcb, 0xbd,
  0x21, 0x79, 0x8e, 0xbd, 0x5a, 0x79, 0x0f, 0xbf, 0x07, 0x7e, 0x00, 0xbf,
  0xed, 0xe5, 0x18, 0xbe, 0x6d, 0x78, 0x80, 0xbe, 0x2e, 0xef, 0x0d, 0xbf,
  0xef, 0xaa, 0xeb, 0xbe, 0xf4, 0xde, 0x54, 0xbe, 0xd1, 0x43, 0x66, 0xbd,
  0x27, 0x05, 0x0d, 0xbf, 0x5d, 0x1b, 0x00, 0xbf, 0x6e, 0x60, 0x18, 0xbd,
  0x54, 0xbe, 0x87, 0xbe, 0x51, 0xd7, 0x5a, 0xbf, 0x87, 0x46, 0xb7, 0xbe,
  0xf7, 0xdb, 0xd3, 0xbd, 0x09, 0x9c, 0x55, 0xbe, 0x4b, 0xce, 0xfe, 0x3d,
  0x32, 0xa9, 0x4f, 0xbd, 0xc5, 0xef, 0x25, 0xbe, 0x49, 0x17, 0x8c, 0xbc,
  0xd8, 0xd4, 0x09, 0xbd, 0xeb, 0x92, 0xdf, 0xbd, 0x5a, 0x57, 0x05, 0xbe,
  0xb9, 0xb4, 0x6e, 0xba, 0x5f, 0x99, 0x2c, 0xbe, 0x30, 0xb3, 0xb5, 0xbe,
  0xd4, 0x6b, 0xc7, 0x3e, 0x23, 0x14, 0x36, 0xbe, 0x20, 0xbd, 0xfa, 0xbe,
  0xcf, 0xd5, 0x7b, 0xbe, 0x74, 0x82, 0x16, 0xbe, 0xac, 0x39, 0xf2, 0xbd,
  0xfd, 0x65, 0x7c, 0xbd, 0x0e, 0x5b, 0xa0, 0xbc, 0x0c, 0x14, 0xfb, 0x3e,
  0x61, 0x24, 0x08, 0x3d, 0xbd, 0x2d, 0x9f, 0xbe, 0xbc, 0x14, 0x00, 0xbe,
  0x4f, 0x42, 0xe1, 0x3c, 0xde, 0x27, 0x16, 0x3e, 0x6d, 0x18, 0x5a, 0x3e,
  0xe2, 0xc1, 0x04, 0x3e, 0xcc, 0xb5, 0x18, 0x3e, 0xb9, 0x76, 0xc3, 0x3d,
  0xe9, 0x31, 0xf8, 0x3d, 0x99, 0x42, 0xb9, 0x3d, 0x57, 0x26, 0x2d, 0xbd,
  0xcd, 0x4f, 0x98, 0x3d, 0xda, 0x29, 0x55, 0x3e, 0x9f, 0x0a, 0x61, 0x3e,
  0xb6, 0xb4, 0x3b, 0xbd, 0x3b, 0xc7, 0xb0, 0xbd, 0xcf, 0x46, 0xa9, 0xbd,
  0xd4, 0x76, 0xcf, 0x3c, 0x95, 0x9a, 0x9d, 0x3d, 0x0f, 0x61, 0x86, 0x3d,
  0x9b, 0x3a, 0x86, 0x3e, 0x1b, 0x71, 0xb0, 0x3e, 0x5b, 0x36, 0xb6, 0x3e,
  0x6f, 0x06, 0x6d, 0x3e, 0xe1, 0x7e, 0x09, 0xbe, 0xa1, 0x7a, 0x69, 0x3e,
  0x8c, 0xf3, 0x36, 0x3e, 0xfa, 0xbe, 0x18, 0x3e, 0x13, 0xae, 0x18, 0x3e,
  0xf7, 0x8a, 0x65, 0x3d, 0x34, 0x87, 0x10, 0xbe, 0x6c, 0xc7, 0x18, 0xbd,
  0x9d, 0xa5, 0xdf, 0x3d, 0xf6, 0xce, 0x9e, 0x3d, 0x9c, 0xbb, 0xb0, 0xbb,
  0x0c, 0x41, 0x10, 0x3e, 0x3b, 0xf8, 0x75, 0x3f, 0xff, 0xbf, 0x12, 0x3f,
  0xce, 0x07, 0x1f, 0x3f, 0x9f, 0x86, 0x43, 0x3e, 0x68, 0x00, 0x20, 0x3e,
  0x38, 0x8d, 0x7d, 0x3e, 0x7e, 0xa7, 0x35, 0x3f, 0xb8, 0x15, 0x96, 0x3d,
  0xb8, 0xb1, 0x8e, 0x3f, 0xf5, 0xb7, 0x40, 0x3f, 0x59, 0x7a, 0x32, 0x3f,
  0xa7, 0x64, 0xaa, 0x3e, 0x57, 0x5f, 0x06, 0x3e, 0x1c, 0xa8, 0xb2, 0x3e,
  0xdc, 0x21, 0x4e, 0x3f, 0x92, 0x42, 0x78, 0x3e, 0xdc, 0xb3, 0xff, 0x3e,
  0x09, 0x17, 0x17, 0x3e, 0xf0, 0x95, 0x09, 0xbe, 0xff, 0xfc, 0x15, 0xbe,
  0xf8, 0x55, 0x2e, 0xbd, 0xb7, 0x9d, 0x25, 0x3c, 0xd0, 0xa7, 0x1d, 0x3e,
  0x81, 0x16, 0x4f, 0xbd, 0x16, 0x53, 0x3c, 0xbf, 0x11, 0x64, 0x40, 0xbf,
  0x13, 0xf1, 0x65, 0x3f, 0x47, 0x1b, 0xbb, 0xbf, 0xc3, 0x36, 0x02, 0xc0,
  0x78, 0xa8, 0xe3, 0xbe, 0x16, 0xba, 0x56, 0xbf, 0x09, 0xfc, 0x23, 0xc0,
  0xcf, 0x76, 0x5a, 0xbf, 0xc1, 0xe7, 0xfd, 0xbe, 0x6b, 0x75, 0x52, 0x3f,
  0xf2, 0xd3, 0xb9, 0xbf, 0x3d, 0x16, 0xf2, 0xbf, 0xbb, 0x8d, 0x14, 0xbe,
  0xa4, 0x90, 0x78, 0xbf, 0x42, 0xb5, 0x0c, 0xc0, 0xf4, 0x1e, 0x90, 0x3e,
  0xd0, 0xd6, 0x45, 0x3e, 0x01, 0x62, 0xaa, 0x3f, 0x57, 0x30, 0xa1, 0xbf,
  0x3e, 0x65, 0x6c, 0xbf, 0xe9, 0x35, 0x3e, 0xbf, 0x2a, 0x62, 0xff, 0xbb,
  0xd6, 0x3a, 0xb9, 0xbf, 0x5b, 0x84, 0x9d, 0x3e, 0x00, 0x23, 0xa2, 0x3e,
  0xa8, 0xbf, 0x33, 0x3f, 0xd8, 0x3f, 0xd5, 0xbd, 0xbb, 0x44, 0xb9, 0x3e,
  0xc9, 0xf1, 0x08, 0x3e, 0xf6, 0x94, 0xed, 0x3d, 0x7b, 0x5e, 0x9d, 0x3a,
  0x47, 0x87, 0x5d, 0x3d, 0xd3, 0x27, 0xbe, 0x3e, 0x1f, 0x2a, 0xfe, 0x3e,
  0xd1, 0x27, 0xe2, 0xbd, 0x0a, 0x87, 0x3a, 0x3e, 0x41, 0x72, 0xe0, 0x3c,
  0x15, 0x87, 0x43, 0x3e, 0xb8, 0xe3, 0xf3, 0xbc, 0x1e, 0x92, 0x92, 0x3e,
  0x1d, 0xc9, 0x04, 0x3f, 0xab, 0x89, 0xea, 0x3e, 0x70, 0x09, 0x9d, 0x3e,
  0x9e, 0xda, 0x5c, 0x3f, 0x17, 0x4c, 0x37, 0x3f, 0xcb, 0x7b, 0xb5, 0x3e,
  0x67, 0xfe, 0xff, 0x3e, 0xd7, 0x98, 0x7f, 0x3e, 0x24, 0x14, 0x9c, 0x3e,
  0xfc, 0x8f, 0x4a, 0x3d, 0x69, 0x05, 0xe1, 0x3d, 0x50, 0x5e, 0xd4, 0x3e,
  0x4a, 0x86, 0x02, 0x3f, 0x4a, 0x81, 0x5a, 0x3e, 0x3a, 0xd2, 0x93, 0x3e,
  0x13, 0xba, 0x2b, 0x3e, 0xf3, 0x98, 0x90, 0x3e, 0x13, 0xab, 0x3c, 0xbe,
  0xe6, 0x8b, 0xf5, 0x3d, 0xb5, 0xd1, 0x46, 0x3e, 0x6f, 0x1d, 0x91, 0x3e,
  0x33, 0xf4, 0xbd, 0x3d, 0xdb, 0xab, 0x99, 0x3e, 0xf9, 0xe2, 0xb2, 0xbb,
  0x0f, 0x08, 0x71, 0x3e, 0x2c, 0xbe, 0xac, 0xbd, 0x35, 0xce, 0xf1, 0xba,
  0x5a, 0xcb, 0x77, 0x3e, 0x52, 0xd4, 0xdd, 0x3e, 0x92, 0x89, 0xda, 0x3d,
  0x34, 0x26, 0x82, 0x3e, 0x53, 0x73, 0x2e, 0x3e, 0x88, 0x57, 0x79, 0x3e,
  0x9e, 0x48, 0x0d, 0x3e, 0xdd, 0x3a, 0x3e, 0xbd, 0xd5, 0xa6, 0x59, 0x3e,
  0x1b, 0x23, 0x6c, 0x3e, 0xd4, 0x74, 0x38, 0x3e, 0x0a, 0xc0, 0x58, 0x3e,
  0xf2, 0x8a, 0x90, 0x3d, 0x1d, 0xca, 0x3c, 0x3e, 0x66, 0x4d, 0x20, 0xbe,
  0x70, 0xf6, 0xf7, 0xbc, 0x3a, 0x45, 0xe1, 0x3d, 0xe5, 0x48, 0x55, 0x3e,
  0x1b, 0x80, 0xaf, 0x3d, 0xd3, 0xba, 0x8a, 0x3e, 0x3b, 0x3a, 0x36, 0xbd,
  0x70, 0x0f, 0x0b, 0x3e, 0xdd, 0x3a, 0x0f, 0xbe, 0x13, 0x31, 0x92, 0xbe,
  0x7a, 0x95, 0xd8, 0x3d, 0x2c, 0xd0, 0x76, 0x3e, 0x14, 0x42, 0x1c, 0x3e,
  0x3d, 0x57, 0x3d, 0x3e, 0x5d, 0x98, 0x00, 0x3d, 0xd4, 0x6e, 0xea, 0x3b,
  0x0c, 0x79, 0x4a, 0xbe, 0x84, 0x19, 0x18, 0x3e, 0x10, 0xa0, 0x12, 0x3e,
  0x46, 0xb5, 0xd8, 0x3d, 0x4c, 0x6c, 0x86, 0x3d, 0x81, 0x4d, 0x7c, 0x3e,
  0x71, 0xef, 0x73, 0xbb, 0x58, 0x78, 0xa1, 0x3d, 0x66, 0xdf, 0x26, 0xbe,
  0xed, 0xdf, 0xa2, 0x3d, 0x5c, 0xd0, 0x2b, 0x3e, 0xfb, 0x5e, 0x83, 0x3d,
  0x39, 0x87, 0xd8, 0x3d, 0xf7, 0xd9, 0x1d, 0x3e, 0x09, 0x47, 0xa6, 0xbe,
  0x30, 0x5e, 0x56, 0xbe, 0xc7, 0x5f, 0x04, 0xbf, 0x7a, 0x19, 0x3c, 0xbe,
  0x9f, 0xe5, 0x4a, 0xbd, 0xbf, 0xfb, 0x74, 0xbd, 0x50, 0xd8, 0x23, 0xbe,
  0x77, 0xbf, 0x1e, 0xba, 0xaa, 0x1a, 0x9a, 0xbd, 0xe1, 0xf3, 0x7c, 0xbd,
  0xe3, 0x95, 0x5c, 0xbe, 0xc9, 0x49, 0x51, 0x3d, 0xc6, 0x7e, 0x6e, 0xbc,
  0x0b, 0xd7, 0x20, 0xbd, 0xd5, 0xaa, 0xe5, 0x3d, 0x28, 0x29, 0xcd, 0x3d,
  0x19, 0x9c, 0x43, 0x3c, 0x16, 0xcd, 0x99, 0x3c, 0xaa, 0xe6, 0x24, 0xbd,
  0x61, 0x32, 0xb2, 0x3d, 0x29, 0x22, 0x8e, 0x3d, 0xc6, 0x06, 0xbe, 0x3d,
  0x5a, 0xf8, 0x85, 0x3c, 0xd1, 0xe5, 0x55, 0x3e, 0x3b, 0x25, 0xa8, 0xbe,
  0xe8, 0xe5, 0x60, 0xbe, 0x89, 0x24, 0x9a, 0xbe, 0xb2, 0x8d, 0x97, 0xbe,
  0x71, 0x1a, 0x95, 0xbe, 0x54, 0x24, 0x91, 0xbe, 0xc9, 0xdf, 0x77, 0xbd,
  0x50, 0x11, 0xd5, 0xbc, 0xe2, 0x4b, 0x3a, 0x3d, 0x6e, 0x29, 0x45, 0xbd,
  0xff, 0x98, 0x4f, 0xbe, 0x69, 0x8e, 0x8b, 0xbd, 0x8c, 0x24, 0xb0, 0x3d,
  0x22, 0xe5, 0xb3, 0x3b, 0x54, 0xa6, 0xd9, 0xbc, 0x4c, 0x8d, 0x06, 0x3e,
  0x9f, 0xe5, 0x86, 0xbd, 0x37, 0x04, 0xb3, 0x3d, 0x9d, 0x74, 0xbe, 0xbe,
  0x47, 0x8d, 0x14, 0x3d, 0xa0, 0x69, 0xcc, 0xbd, 0xd0, 0x89, 0x34, 0xbd,
  0xab, 0xbb, 0x5a, 0x3d, 0x52, 0x8d, 0x0b, 0x3e, 0xde, 0x70, 0x9e, 0xbd,
  0x42, 0x12, 0x97, 0xbd, 0xc0, 0xf5, 0x79, 0xbe, 0x7e, 0xc9, 0xa8, 0xbd,
  0x2b, 0xee, 0x06, 0xbe, 0xe9, 0x11, 0xb0, 0xbd, 0xd8, 0x10, 0x03, 0x3d,
  0xa4, 0x62, 0x8b, 0x3d, 0x85, 0x54, 0x80, 0xbe, 0x99, 0x85, 0x12, 0xbe,
  0x74, 0x93, 0x46, 0xbe, 0x6f, 0x4b, 0x06, 0xbe, 0xda, 0x2e, 0x2d, 0xbe,
  0xf2, 0x36, 0xae, 0x3c, 0xe7, 0xb0, 0xc6, 0xbc, 0xa6, 0x80, 0x82, 0xbc,
  0xdd, 0x32, 0xb3, 0xbc, 0x0c, 0x6d, 0x9e, 0x3c, 0x36, 0xaf, 0x83, 0xbe,
  0x49, 0x5a, 0xa7, 0xbc, 0xff, 0xce, 0x63, 0xbe, 0xe7, 0xd3, 0xd7, 0x3c,
  0x10, 0x16, 0x3a, 0x3d, 0x6e, 0xcc, 0x5f, 0xbc, 0x74, 0xb1, 0xe8, 0xbd,
  0xc7, 0xc7, 0x22, 0xbe, 0x8e, 0x9e, 0x7b, 0xbe, 0xd6, 0x23, 0x06, 0xbd,
  0xed, 0x97, 0x1f, 0xbd, 0x27, 0xcb, 0x29, 0xbe, 0x3a, 0xb3, 0x99, 0xbc,
  0x5b, 0xbc, 0x0e, 0xbd, 0x64, 0xee, 0xa1, 0xbd, 0xd9, 0xb1, 0x1a, 0x3d,
  0x14, 0x3d, 0xdb, 0xbe, 0x50, 0x1d, 0x77, 0x3e, 0xbd, 0x87, 0xa8, 0x3d,
  0x0f, 0x55, 0x13, 0xbf, 0x60, 0x4d, 0x1c, 0x3f, 0xd3, 0xfa, 0x79, 0x3f,
  0x2c, 0xe4, 0x6f, 0xbe, 0xa9, 0x86, 0x77, 0xbd, 0x1d, 0x2b, 0x8b, 0xbe,
  0xd7, 0xa1, 0x84, 0x3e, 0x41, 0x7d, 0x1d, 0xbe, 0xd5, 0x92, 0x21, 0xbf,
  0x4b, 0x09, 0x8b, 0x3e, 0xc8, 0x7c, 0x5c, 0x3f, 0xd5, 0x4e, 0xf3, 0x3e,
  0x6f, 0x1e, 0x48, 0x3f, 0x15, 0x5a, 0x71, 0xbf, 0xf2, 0x85, 0x56, 0x3f,
  0x83, 0x12, 0xd3, 0x3f, 0xeb, 0x64, 0x70, 0x3e, 0x10, 0xe1, 0x3d, 0x3f,
  0xd6, 0xcf, 0xd5, 0x3f, 0x2f, 0xa9, 0x2e, 0x3e, 0xb4, 0x81, 0xa9, 0x3d,
  0x9d, 0x15, 0xe4, 0x3e, 0xd8, 0x43, 0x64, 0x3c, 0x1d, 0xcc, 0x23, 0xbd,
  0x55, 0x9b, 0x84, 0xbe, 0xed, 0x57, 0x46, 0x3e, 0x4d, 0xe8, 0x1b, 0xbd,
  0x35, 0x9e, 0x4c, 0x3e, 0x41, 0x31, 0x81, 0xbd, 0x1b, 0xcc, 0xa3, 0x3e,
  0xc9, 0xff, 0xe6, 0x3d, 0xde, 0xac, 0x0d, 0xbe, 0xa2, 0x10, 0x5a, 0x3e,
  0x23, 0x5a, 0xaa, 0x3e, 0xbb, 0xe6, 0xfa, 0xbd, 0xda, 0xd0, 0x58, 0x3e,
  0xd7, 0x85, 0x58, 0xbe, 0x5a, 0x09, 0x41, 0xbe, 0x4a, 0xee, 0x92, 0xbe,
  0x6a, 0x31, 0x80, 0x3d, 0x56, 0x9b, 0x1e, 0xbd, 0xad, 0xc4, 0x8f, 0x3d,
  0x5d, 0x64, 0x52, 0xbc, 0xea, 0x13, 0xf1, 0xbd, 0x25, 0xb1, 0x37, 0xbd,
  0x04, 0x8e, 0xaf, 0x3d, 0x53, 0x4a, 0x54, 0x3e, 0x62, 0x8f, 0x9b, 0x3e,
  0x6e, 0x2f, 0xc4, 0x3e, 0xb4, 0xf6, 0x7d, 0xbd, 0x46, 0x5d, 0x89, 0x3c,
  0x88, 0x06, 0x34, 0xbd, 0xab, 0xa9, 0xf5, 0xbd, 0xa3, 0x35, 0xe9, 0xbd,
  0x9b, 0x9e, 0xe1, 0xbd, 0x80, 0x1b, 0x47, 0x3e, 0x24, 0x1d, 0x81, 0x3e,
  0x63, 0x02, 0xf1, 0xbd, 0x41, 0x9a, 0x96, 0xba, 0xd2, 0x04, 0xc9, 0x3e,
  0x3e, 0x3e, 0x75, 0x3e, 0xd3, 0x75, 0x5d, 0x3e, 0xb8, 0x2b, 0x36, 0xbc,
  0x33, 0xc3, 0xea, 0x3e, 0x40, 0xde, 0x48, 0x3e, 0x68, 0xd4, 0x89, 0x3e,
  0xc7, 0xa8, 0xd5, 0x3e, 0xc2, 0xd4, 0xb7, 0xbe, 0x33, 0xa9, 0xc0, 0xbe,
  0x9f, 0xa8, 0x1a, 0x3e, 0xfb, 0x2e, 0xa2, 0xbd, 0x31, 0x0a, 0x5c, 0xbe,
  0x74, 0xdb, 0x47, 0xbe, 0xb2, 0x1f, 0xfe, 0xbd, 0x23, 0x29, 0x1a, 0xbd,
  0x12, 0x94, 0xa7, 0xbe, 0xbd, 0x3b, 0xc7, 0xbe, 0x3a, 0xcc, 0x61, 0xbd,
  0xe1, 0xf9, 0x7f, 0xbe, 0xbd, 0xec, 0x2c, 0xbc, 0x8d, 0xfd, 0x96, 0xbd,
  0xb1, 0xec, 0x55, 0xbe, 0xef, 0x2a, 0xd4, 0xbd, 0xca, 0xb9, 0xbb, 0x3e,
  0x6e, 0xa7, 0xbc, 0x3e, 0x7c, 0x54, 0xe5, 0x3d, 0xa4, 0xd8, 0x3c, 0x3d,
  0x82, 0xf3, 0x0c, 0x3f, 0x97, 0x41, 0x94, 0x3e, 0x90, 0xa2, 0xbe, 0x3e,
  0x7e, 0x97, 0xab, 0x3e, 0xf0, 0x7c, 0x01, 0xbf, 0x59, 0x1a, 0xd9, 0xbe,
  0x82, 0xd0, 0x03, 0xbd, 0x3e, 0x66, 0xbb, 0xbe, 0x17, 0x62, 0xd8, 0xbe,
  0xc3, 0xc7, 0x15, 0xbf, 0x06, 0x6d, 0xcd, 0xbe, 0x6a, 0xfc, 0x94, 0xbd,
  0x86, 0xd6, 0x15, 0xbe, 0x48, 0xe0, 0xe3, 0xbe, 0x63, 0x3e, 0x94, 0x3d,
  0xaa, 0xaa, 0x8f, 0xbe, 0xb1, 0xbf, 0xd4, 0xbe, 0xbf, 0x3e, 0x86, 0xbe,
  0xa6, 0xdc, 0x23, 0xbe, 0xa7, 0x7a, 0x75, 0xbe, 0x5f, 0xed, 0xbb, 0xbd,
  0x3e, 0x19, 0xcc, 0x3d, 0x76, 0x34, 0xb0, 0xbc, 0x11, 0xcb, 0x27, 0xbe,
  0xdd, 0x6f, 0x37, 0x3e, 0x83, 0xcc, 0xba, 0x3d, 0x22, 0xd4, 0x3c, 0x3d,
  0x59, 0x59, 0x84, 0x3d, 0x15, 0x1b, 0xd0, 0xbd, 0xa3, 0xf0, 0x99, 0xbe,
  0x6d, 0xbf, 0x50, 0x3c, 0x85, 0xe1, 0xca, 0xbd, 0x01, 0x4a, 0xe7, 0xbe,
  0xd0, 0x7d, 0xec, 0xbe, 0xb3, 0xda, 0x0c, 0xbe, 0x64, 0x3a, 0xa8, 0xbe,
  0x6b, 0x61, 0x96, 0xbc, 0x78, 0x30, 0x91, 0xbd, 0xb0, 0x79, 0xd7, 0x3d,
  0xec, 0x85, 0x43, 0xbe, 0x98, 0x45, 0xcd, 0xbe, 0x2a, 0xbd, 0xb1, 0xbe,
  0xf8, 0xff, 0xda, 0xbd, 0xb8, 0x5c, 0x8f, 0xbe, 0x65, 0x24, 0xa9, 0xbe,
  0xbc, 0x86, 0xa6, 0xbd, 0x55, 0x8a, 0x40, 0xbf, 0xfd, 0x1b, 0x4a, 0xbe,
  0xe7, 0xe9, 0x98, 0xbe, 0x4d, 0xfb, 0x4f, 0xbc, 0x38, 0x91, 0xcd, 0xbd,
  0x48, 0xe6, 0xfe, 0xbc, 0xf5, 0x3a, 0x75, 0x3e, 0xc5, 0xe9, 0x1f, 0xbe,
  0x21, 0xa8, 0x0b, 0x3e, 0x6d, 0x36, 0x1b, 0x3e, 0xd1, 0x1f, 0xc1, 0xbd,
  0x5d, 0x9f, 0xfc, 0x3d, 0x4b, 0xda, 0xa0, 0xbc, 0xf3, 0x4f, 0xb7, 0xbd,
  0x01, 0x26, 0xa7, 0x3e, 0x69, 0xef, 0x09, 0xbe, 0xe6, 0xaf, 0xe7, 0x3d,
  0xd4, 0x12, 0x34, 0x3e, 0xe4, 0x31, 0x7a, 0x3d, 0x63, 0x4a, 0x8c, 0xbc,
  0x75, 0x26, 0xb8, 0x3c, 0x92, 0x67, 0xba, 0xbd, 0x16, 0xca, 0x32, 0xbd,
  0x25, 0x3a, 0x24, 0xbe, 0x33, 0xfc, 0xb2, 0xbc, 0x03, 0x44, 0x2a, 0xbe,
  0x39, 0x8f, 0xd0, 0xbe, 0x77, 0xde, 0xf5, 0xbd, 0xb1, 0xf5, 0xa8, 0x3c,
  0xc7, 0x35, 0x51, 0xbe, 0xbc, 0x30, 0xcb, 0x3e, 0x9f, 0x53, 0x72, 0x3e,
  0x28, 0xee, 0xab, 0x3e, 0xb3, 0x3c, 0xb1, 0x3e, 0xa6, 0x59, 0x89, 0x3e,
  0x43, 0xe7, 0x96, 0x3e, 0x1d, 0xc6, 0x18, 0x3e, 0x95, 0xcf, 0x62, 0x3e,
  0x8d, 0x12, 0x84, 0x3e, 0x6a, 0x70, 0xa8, 0x3d, 0x5a, 0xaa, 0x8a, 0xbb,
  0x6c, 0xc0, 0x88, 0x3e, 0x7b, 0x7a, 0x8b, 0x3e, 0x9b, 0xb8, 0x98, 0x3e,
  0xb1, 0xfe, 0xe0, 0xbb, 0xff, 0x8e, 0x5a, 0x3b, 0x83, 0x57, 0xf2, 0x3e,
  0x1d, 0x20, 0x5e, 0x3d, 0x78, 0x72, 0xb0, 0x3e, 0xc2, 0x25, 0xa1, 0x3d,
  0xd4, 0x05, 0x5b, 0x3e, 0x7a, 0x37, 0x03, 0x3d, 0xe4, 0x1c, 0x84, 0x3e,
  0x6b, 0x66, 0xd4, 0x3d, 0x9b, 0x9e, 0xae, 0x3e, 0x81, 0xca, 0xaf, 0x3e,
  0x3c, 0xac, 0x66, 0xbf, 0x08, 0x27, 0xa9, 0x3e, 0x02, 0xa8, 0x0a, 0x3f,
  0x70, 0x30, 0x2d, 0x3f, 0x6a, 0x99, 0x93, 0xbd, 0x24, 0x5c, 0x1b, 0x3e,
  0xca, 0xd3, 0x94, 0x3e, 0xfc, 0x42, 0xc2, 0x3e, 0xe9, 0xe0, 0x18, 0xbf,
  0xa4, 0xb2, 0x88, 0x3e, 0x33, 0x33, 0xcf, 0x3e, 0x3e, 0xdf, 0x3a, 0x3f,
  0x4d, 0xd1, 0xc9, 0x3d, 0x9e, 0x99, 0x66, 0x3e, 0x37, 0x89, 0xba, 0x3e,
  0xa6, 0xf8, 0xd6, 0x3e, 0x5b, 0x81, 0xc2, 0xbe, 0xe2, 0xb2, 0x37, 0x3e,
  0x97, 0x17, 0x93, 0x3e, 0x3f, 0x34, 0x19, 0x3f, 0xd7, 0xc0, 0x79, 0x3d,
  0xe0, 0x1a, 0x20, 0x3e, 0x42, 0x35, 0x6c, 0x3e, 0x34, 0x3e, 0xee, 0x3e,
  0xab, 0xb1, 0x6b, 0xbe, 0x80, 0x2b, 0xf4, 0x3d, 0x61, 0x70, 0x23, 0x3e,
  0xbe, 0xd2, 0xbd, 0x3e, 0xbb, 0x5f, 0xed, 0xbd, 0xc7, 0x34, 0x2b, 0x3e,
  0x94, 0xed, 0x54, 0x3e, 0x27, 0xfa, 0x07, 0x3f, 0xc4, 0x18, 0xb5, 0xbe,
  0xe0, 0xfe, 0xed, 0x3d, 0x1e, 0x89, 0x3c, 0x3d, 0xc1, 0x31, 0x12, 0x3f,
  0xd3, 0x00, 0x02, 0x3e, 0xc9, 0x19, 0xab, 0x3e, 0x1e, 0x69, 0x18, 0x3e,
  0xca, 0x15, 0x24, 0x3e, 0xff, 0x1c, 0xaf, 0xbe, 0x7f, 0xd4, 0xb4, 0xbb,
  0x33, 0x36, 0x82, 0x3d, 0x71, 0xaa, 0xc8, 0x3e, 0x89, 0xf3, 0xd1, 0xbd,
  0x47, 0xed, 0x46, 0x3e, 0x5a, 0x29, 0xe7, 0xbd, 0x88, 0x92, 0x88, 0x3e,
  0x53, 0xb9, 0x16, 0xbf, 0x97, 0x42, 0x67, 0xbd, 0x4d, 0x7d, 0x90, 0xbc,
  0x0d, 0xea, 0xf5, 0x3e, 0xad, 0xd6, 0x8a, 0xbd, 0x75, 0x71, 0xa0, 0x3d,
  0xfb, 0xeb, 0xd1, 0x3d, 0x15, 0xfb, 0x0a, 0x3f, 0x6a, 0xf5, 0xec, 0xbe,
  0x82, 0x22, 0x09, 0x3c, 0x86, 0xdb, 0x8c, 0xbd, 0x72, 0xac, 0x16, 0x3f,
  0x60, 0x51, 0x6e, 0x3d, 0x81, 0xf0, 0x59, 0x3e, 0x99, 0x97, 0x58, 0x3c,
  0x21, 0x65, 0xf7, 0x3d, 0xa0, 0x0a, 0xd9, 0xbd, 0xd4, 0xca, 0x49, 0xbc,
  0x84, 0x88, 0x09, 0xbe, 0xf2, 0x2b, 0x86, 0x3e, 0xc1, 0xf1, 0xb0, 0xbd,
  0x84, 0x03, 0xa8, 0x3d, 0x5e, 0xb4, 0x0d, 0xbe, 0xd3, 0x56, 0xd7, 0x3e,
  0xb1, 0x38, 0xef, 0xbe, 0x6b, 0x4c, 0x00, 0xbe, 0xe1, 0xe4, 0x79, 0x3b,
  0xf4, 0xf4, 0xd1, 0x3e, 0x49, 0x0f, 0x9e, 0xbd, 0x01, 0xde, 0x79, 0x3d,
  0x76, 0xd2, 0xc0, 0xbd, 0x8d, 0xe4, 0xff, 0x3e, 0x9a, 0x38, 0xe4, 0xbe,
  0x67, 0xe2, 0x39, 0xbe, 0xaf, 0x47, 0x44, 0xbe, 0x22, 0xe0, 0xb4, 0x3e,
  0xe5, 0x55, 0x10, 0xbe, 0xb6, 0x62, 0x82, 0x3e, 0xa6, 0x46, 0xd5, 0xbc,
  0x4e, 0xe8, 0x8e, 0x3e, 0x11, 0x3d, 0xa0, 0xbe, 0x18, 0x9d, 0xd8, 0xbd,
  0xfd, 0x4b, 0x0a, 0xbd, 0xf0, 0x59, 0xac, 0x3e, 0xf9, 0x3b, 0x4d, 0xbd,
  0x91, 0xa3, 0x7e, 0x3d, 0x50, 0x90, 0x4d, 0xbe, 0xf3, 0x5e, 0xaa, 0x3e,
  0x1c, 0xae, 0xd9, 0xbe, 0xe3, 0x7e, 0x96, 0xbe, 0x29, 0x6c, 0x75, 0xbe,
  0x3e, 0x39, 0x8d, 0x3e, 0x22, 0xb3, 0x66, 0xbe, 0xec, 0x20, 0xaf, 0xbd,
  0xa2, 0x95, 0x0b, 0xbe, 0xcc, 0x98, 0xad, 0x3e, 0x89, 0xd0, 0xb5, 0xbe,
  0xdd, 0x4e, 0x87, 0xbe, 0x64, 0xd1, 0x50, 0xbe, 0x67, 0xef, 0xc9, 0x3e,
  0xf0, 0xb4, 0xdc, 0xbd, 0xb8, 0xc5, 0xa0, 0x3d, 0xe3, 0x0b, 0xff, 0xbb,
  0x1b, 0xa7, 0x64, 0x3e, 0xc9, 0xf8, 0xce, 0xbe, 0xa3, 0xaf, 0x6b, 0xbe,
  0xfb, 0x0b, 0xf5, 0xbd, 0x72, 0x4c, 0x82, 0x3e, 0xab, 0x41, 0x66, 0xbe,
  0xb5, 0x6e, 0xbd, 0x3d, 0x63, 0xaa, 0x1b, 0xbe, 0x5a, 0x45, 0x81, 0x3e,
  0x8e, 0xbc, 0x33, 0xbf, 0x96, 0x6a, 0xc6, 0xbe, 0xfa, 0xe3, 0x56, 0xbe,
  0xfa, 0xe0, 0xa8, 0x3e, 0x8d, 0x92, 0xa8, 0xbe, 0x6d, 0xf5, 0x04, 0xbe,
  0xb8, 0xa2, 0x59, 0xbe, 0x8e, 0xca, 0xf2, 0x3e, 0x3e, 0x72, 0xb5, 0xbe,
  0x68, 0xa5, 0xb2, 0xbe, 0x95, 0xd9, 0x74, 0xbe, 0x5c, 0x94, 0x9e, 0x3e,
  0xc0, 0xd1, 0x38, 0xbe, 0xfa, 0x58, 0x5e, 0x3d, 0xb1, 0x3c, 0x42, 0xbd,
  0x19, 0x24, 0x4d, 0x3e, 0x88, 0x3d, 0xc5, 0xbe, 0xc6, 0xac, 0x4a, 0xbe,
  0xb2, 0x72, 0x72, 0xbe, 0xdd, 0xbd, 0x60, 0x3e, 0xec, 0x53, 0x79, 0xbe,
  0xe4, 0x1d, 0x45, 0xbc, 0x3a, 0xfe, 0x0f, 0xbe, 0xfe, 0x79, 0xb3, 0x3e,
  0xe8, 0xe1, 0x8e, 0xbe, 0xb2, 0x91, 0x07, 0xbf, 0x09, 0x46, 0x43, 0xbe,
  0x54, 0x60, 0x75, 0x3e, 0x67, 0xd9, 0x4d, 0xbe, 0x7d, 0x1d, 0x40, 0xbd,
  0x09, 0xa3, 0xcb, 0xbd, 0x7b, 0x15, 0xe8, 0x3e, 0xc1, 0x0d, 0x82, 0xbe,
  0x4d, 0xac, 0xab, 0xbe, 0x20, 0x9e, 0x87, 0xbe, 0x4f, 0x6d, 0xba, 0x3e,
  0xbe, 0xa0, 0xcb, 0xbd, 0x2b, 0xaf, 0x02, 0xbd, 0x81, 0x0b, 0x9f, 0xbd,
  0x20, 0x1c, 0xa3, 0x3e, 0x78, 0xff, 0x0b, 0xbe, 0x40, 0xf1, 0x8a, 0xbe,
  0x65, 0xc7, 0x45, 0xbe, 0x30, 0xa4, 0x60, 0x3e, 0x48, 0x36, 0xe2, 0xbd,
  0xa2, 0xde, 0x85, 0x3c, 0x43, 0xe6, 0x0f, 0xbf, 0x70, 0x86, 0xe9, 0x3e,
  0x78, 0xe0, 0x2c, 0xbf, 0x4d, 0x91, 0x0d, 0xbf, 0xf7, 0x43, 0xb8, 0xbe,
  0x03, 0x4b, 0xac, 0x3e, 0x63, 0x0f, 0xc8, 0xbe, 0x00, 0x49, 0xf1, 0xbd,
  0xd4, 0x81, 0xdc, 0xbe, 0x97, 0x8f, 0x07, 0x3f, 0x7d, 0xa5, 0xd0, 0xbe,
  0x8c, 0xef, 0xcb, 0xbe, 0x81, 0xb4, 0xc9, 0xbe, 0xcc, 0xbb, 0xe0, 0x3e,
  0x0a, 0x76, 0x81, 0xbe, 0x40, 0xef, 0x3d, 0x3c, 0x45, 0x8f, 0x00, 0xbe,
  0x74, 0x2b, 0x04, 0x3f, 0xdb, 0x9d, 0xd5, 0xbe, 0xd4, 0x66, 0xa7, 0xbe,
  0xb6, 0x58, 0x5c, 0xbe, 0xa7, 0x80, 0xbb, 0x3e, 0x09, 0xb2, 0x0e, 0xbe,
  0x31, 0x83, 0x0d, 0xbd, 0xea, 0xb4, 0xc5, 0xbe, 0x3e, 0xc8, 0x0c, 0xbf,
  0x81, 0x7c, 0xb7, 0xbf, 0xf4, 0x52, 0x96, 0xbf, 0xae, 0xea, 0xc7, 0x3d,
  0x72, 0x68, 0xa8, 0xbe, 0x03, 0xe6, 0x27, 0x3f, 0x82, 0x4e, 0x78, 0x3e,
  0x4c, 0x34, 0x33, 0xbe, 0x78, 0xc8, 0x09, 0x3e, 0x82, 0x59, 0xa6, 0xbf,
  0x97, 0xe9, 0x6f, 0xbf, 0x01, 0xfc, 0x81, 0x3e, 0x2d, 0x02, 0x93, 0xbd,
  0x88, 0x36, 0xfb, 0x3e, 0xbc, 0xfe, 0x50, 0x3f, 0x22, 0x11, 0x8d, 0xbe,
  0x54, 0x95, 0x42, 0x3e, 0x85, 0xdb, 0xd2, 0xbf, 0x50, 0xcc, 0xfe, 0xbe,
  0x26, 0xf0, 0xaf, 0x3e, 0x82, 0xca, 0x95, 0x3e, 0x26, 0xd3, 0x56, 0x3f,
  0xe6, 0xfb, 0xba, 0x3f, 0xf2, 0x58, 0x14, 0x3e, 0x6b, 0x7d, 0x93, 0xbe,
  0x42, 0xb0, 0xc3, 0xbe, 0x70, 0xf1, 0x5b, 0xbf, 0x44, 0xad, 0x5f, 0xbe,
  0x9a, 0x31, 0x08, 0xbf, 0xb3, 0x3b, 0x2e, 0xbc, 0x4d, 0x3d, 0x49, 0xbe,
  0xa5, 0x52, 0x05, 0x3e, 0x3a, 0xd3, 0x4a, 0xbe, 0xa6, 0x0d, 0x5c, 0xbe,
  0x71, 0xca, 0x30, 0xbf, 0xf3, 0x83, 0x76, 0xbe, 0x14, 0x82, 0x2b, 0xbf,
  0xda, 0x43, 0x8e, 0x3d, 0x7d, 0x03, 0x54, 0xbc, 0xc8, 0x97, 0x59, 0xbe,
  0xfa, 0xe8, 0x2c, 0xbe, 0x3e, 0xcd, 0x3c, 0xbf, 0x49, 0xa8, 0xdf, 0xbe,
  0x23, 0x10, 0xf4, 0xbe, 0x1e, 0x47, 0x1a, 0xbe, 0x38, 0x3c, 0x6a, 0x3e,
  0xa5, 0x72, 0x40, 0x3e, 0xcc, 0xa2, 0xaa, 0x3e, 0xc0, 0x6a, 0x17, 0x3e,
  0x62, 0xaf, 0xba, 0x3d, 0xd3, 0x27, 0x34, 0x3e, 0x9d, 0xaf, 0x36, 0x3e,
  0x6f, 0xd4, 0x1a, 0x3d, 0xd1, 0x6b, 0xf3, 0x3d, 0x72, 0x93, 0xf2, 0x3c,
  0x93, 0x49, 0xcb, 0x3e, 0x61, 0x40, 0x1a, 0x3e, 0xf9, 0xb0, 0x5d, 0xbd,
  0x71, 0x98, 0x5f, 0x3d, 0x31, 0xa4, 0x72, 0x3e, 0x63, 0xe5, 0xe5, 0x3c,
  0x34, 0x4c, 0xfb, 0x3d, 0x0f, 0x06, 0xba, 0x3c, 0x4e, 0x5f, 0x41, 0xbd,
  0x2e, 0xc6, 0xa1, 0xbe, 0x8e, 0xa8, 0x28, 0xbf, 0x4e, 0x9c, 0x2f, 0xbe,
  0xd1, 0x8c, 0x81, 0xbe, 0xb3, 0xb5, 0xbf, 0xbe, 0x03, 0x5a, 0x3a, 0xbd,
  0x41, 0xd8, 0xa5, 0xbc, 0xdf, 0x82, 0xea, 0x3e, 0x4d, 0xbe, 0x9c, 0x3e,
  0x6b, 0x73, 0x09, 0x3e, 0x86, 0xd2, 0xae, 0x3e, 0xb7, 0x7b, 0x3b, 0x3e,
  0x7c, 0x12, 0x77, 0x3e, 0xed, 0xe8, 0xa2, 0x3d, 0x69, 0x68, 0xc8, 0x3c,
  0x44, 0x17, 0xf1, 0x3e, 0x31, 0xaf, 0x9f, 0x3e, 0xc9, 0x8d, 0x26, 0x3e,
  0x87, 0x44, 0x0e, 0x3f, 0xd5, 0x77, 0xbb, 0x3e, 0x4e, 0xb9, 0xbd, 0x3e,
  0xc4, 0x9d, 0x8d, 0x3c, 0x3d, 0x91, 0x42, 0x3e, 0x84, 0xbd, 0xcb, 0x3d,
  0x51, 0x27, 0x67, 0xbe, 0x8c, 0x5a, 0x91, 0xbe, 0x5b, 0xae, 0xa1, 0x3d,
  0xa8, 0x61, 0x74, 0x3d, 0x5e, 0xfc, 0x51, 0xbe, 0x96, 0xde, 0x38, 0x3e,
  0xa3, 0xf6, 0x22, 0xbe, 0x95, 0x41, 0xa0, 0x3d, 0x01, 0xe9, 0x3a, 0x3c,
  0x88, 0xa0, 0x97, 0x3e, 0xa3, 0xcc, 0x85, 0x3e, 0xe7, 0x8e, 0x69, 0x3e,
  0x3a, 0xd0, 0xa9, 0x3d, 0x7c, 0x21, 0xef, 0x3d, 0x7a, 0x19, 0x10, 0x3e,
  0x0d, 0x28, 0x52, 0x3d, 0x8d, 0x8a, 0x87, 0x3e, 0x79, 0xa5, 0x03, 0xbe,
  0xf3, 0x28, 0x3e, 0x3e, 0x9d, 0x8b, 0x57, 0x3e, 0xaf, 0x02, 0xb1, 0x3e,
  0x0c, 0x0d, 0x17, 0xbe, 0xc7, 0xe5, 0x21, 0x3e, 0x10, 0x55, 0x92, 0x3e,
  0x5e, 0x6f, 0xab, 0x3d, 0xe4, 0x89, 0x4b, 0x3e, 0xd8, 0x84, 0xac, 0x3e,
  0xd2, 0xb1, 0x5a, 0x3e, 0xf8, 0x43, 0x3c, 0xb9, 0x09, 0xb4, 0x79, 0x3e,
  0xf8, 0x16, 0xb9, 0x3c, 0x17, 0xdb, 0x40, 0xbd, 0x1b, 0xd8, 0x43, 0x3d,
  0xfa, 0xb6, 0xa9, 0x3e, 0x3a, 0x98, 0x7c, 0xbc, 0xb5, 0x59, 0x81, 0x3e,
  0x96, 0x4f, 0x97, 0xbd, 0xe4, 0xdd, 0x91, 0xbc, 0xb7, 0xbe, 0x62, 0xbd,
  0x40, 0xa4, 0xdc, 0xbd, 0x48, 0xcf, 0xaf, 0x3d, 0xb5, 0x52, 0x91, 0x3a,
  0xe3, 0xa5, 0x66, 0x3d, 0xfa, 0x53, 0x57, 0xbe, 0x18, 0x9e, 0xde, 0xbd,
  0x47, 0x19, 0xe9, 0xbd, 0xa3, 0x44, 0x3a, 0x3c, 0x02, 0x52, 0xd9, 0x3e,
  0x9b, 0x68, 0x90, 0xbd, 0xa9, 0x3d, 0x84, 0x3d, 0x3f, 0x01, 0xe0, 0x3e,
  0x42, 0x1b, 0x5a, 0x3e, 0x72, 0x3f, 0xe3, 0x3d, 0xbd, 0x1d, 0x93, 0x3e,
  0xc9, 0x40, 0xf9, 0x3d, 0x11, 0x70, 0x30, 0xbe, 0xfa, 0x47, 0x78, 0xbd,
  0xae, 0xa3, 0x4c, 0xbd, 0x9f, 0x07, 0x99, 0xbd, 0x5c, 0x5f, 0x97, 0xbd,
  0x3a, 0xb7, 0x62, 0xbb, 0x28, 0x8c, 0x80, 0xbe, 0x15, 0xa6, 0x0d, 0x3c,
  0xf6, 0x1b, 0x0d, 0xbe, 0x7d, 0x2b, 0xd6, 0xbd, 0xe4, 0x98, 0x04, 0x3c,
  0xa4, 0x91, 0x34, 0x3d, 0x1d, 0xfd, 0xd0, 0xbd, 0x01, 0xce, 0x9d, 0xbc,
  0xf2, 0x7f, 0x45, 0xbe, 0x58, 0x85, 0x03, 0x3c, 0xaa, 0xd2, 0x71, 0x3e,
  0x91, 0xc6, 0x38, 0xbd, 0xe1, 0xb9, 0x20, 0x3d, 0x41, 0x93, 0x53, 0x3e,
  0x15, 0x36, 0x03, 0x3e, 0x99, 0x83, 0x11, 0x3e, 0x5c, 0xa5, 0x02, 0x3e,
  0xe4, 0x70, 0x37, 0x3e, 0x13, 0x21, 0x81, 0xbf, 0xed, 0x10, 0x6a, 0xbf,
  0xde, 0xf9, 0xdc, 0xbe, 0x2b, 0x8b, 0xca, 0xbe, 0x46, 0xaf, 0x02, 0xbf,
  0x03, 0x80, 0x03, 0xbf, 0x4c, 0xed, 0xe9, 0xbe, 0x95, 0x2d, 0xd9, 0xbe,
  0x8b, 0x45, 0x7f, 0xbf, 0x0f, 0x2c, 0x1a, 0xbf, 0xd3, 0x8d, 0xd9, 0xbd,
  0x30, 0x31, 0xe8, 0xbe, 0x0c, 0xc3, 0xdb, 0xbe, 0x39, 0x16, 0xe1, 0xbe,
  0xbe, 0xa3, 0xd7, 0xbe, 0x0e, 0x57, 0xb0, 0xbe, 0x43, 0x7e, 0xaa, 0xbe,
  0x52, 0x1b, 0x17, 0xbf, 0xad, 0x8f, 0x96, 0xbd, 0xe4, 0xba, 0x45, 0x3d,
  0x62, 0x4b, 0x55, 0x3e, 0xab, 0x5e, 0xf0, 0xbc, 0xaa, 0x7f, 0xb5, 0xbd,
  0xfc, 0xa4, 0x79, 0xbc, 0x75, 0x54, 0xe7, 0x3e, 0x4b, 0xd3, 0x10, 0xbe,
  0xd8, 0x08, 0x31, 0xbf, 0x8d, 0xe7, 0x3b, 0x3f, 0x73, 0x59, 0x02, 0x3f,
  0x97, 0x05, 0x0f, 0x3f, 0xfb, 0xa0, 0x3f, 0xbe, 0x1d, 0x1e, 0x9a, 0x3e,
  0xe0, 0xfc, 0xa3, 0x3e, 0x49, 0xc4, 0x8d, 0xbe, 0xed, 0x31, 0xab, 0xbe,
  0x2c, 0x8f, 0x12, 0x3f, 0xb4, 0x8b, 0xf5, 0xbb, 0xae, 0xc0, 0xad, 0x3e,
  0x74, 0xfb, 0x03, 0xbe, 0x24, 0xd6, 0x19, 0x3e, 0xb3, 0xc6, 0x29, 0xc0,
  0xf4, 0xd0, 0x8f, 0xbf, 0x7d, 0xab, 0x00, 0x3d, 0x14, 0x52, 0x03, 0xbf,
  0x2f, 0xa6, 0xdc, 0xbf, 0x62, 0x01, 0x50, 0x3d, 0x79, 0xdf, 0xa5, 0xbf,
  0x9b, 0xf9, 0x77, 0xbf, 0x87, 0xa7, 0xa3, 0x3e, 0x32, 0x4f, 0x56, 0xbe,
  0x4c, 0x66, 0x47, 0xbe, 0xb1, 0x53, 0xe6, 0x3e, 0x59, 0x38, 0xac, 0x3e,
  0xdb, 0x6f, 0x52, 0xbd, 0xa1, 0xba, 0xa7, 0xbe, 0x37, 0xde, 0x1d, 0xbe,
  0x79, 0x28, 0xf5, 0x3d, 0x1d, 0x7e, 0xfc, 0xbc, 0x2d, 0xa5, 0xd7, 0x3d,
  0x24, 0xf9, 0x06, 0x3f, 0xc0, 0x83, 0x83, 0x3e, 0x6e, 0x58, 0x58, 0xbd,
  0xce, 0x70, 0x92, 0xbe, 0x0d, 0x13, 0x93, 0xbe, 0x62, 0xb6, 0x9c, 0xbf,
  0xe8, 0x7c, 0x7e, 0xbf, 0x1e, 0xb2, 0x9c, 0x3e, 0x73, 0x5e, 0x8e, 0xbe,
  0xda, 0x07, 0x1d, 0xc0, 0x2c, 0xe6, 0xb2, 0xbf, 0xd7, 0xf4, 0x5e, 0xbf,
  0xd6, 0xe6, 0x8c, 0xbf, 0x0b, 0x54, 0x82, 0xbe, 0xdb, 0x2c, 0xc4, 0xbe,
  0x99, 0x15, 0xa5, 0xbd, 0xd7, 0x19, 0x09, 0x3e, 0xa9, 0x95, 0x40, 0xbe,
  0xd7, 0x90, 0x46, 0xbe, 0xe0, 0xb9, 0xaa, 0xbe, 0xf6, 0xe5, 0x8f, 0xbe,
  0x1c, 0xce, 0x57, 0xbe, 0xc3, 0xd0, 0xbd, 0xbe, 0x74, 0x19, 0x47, 0x3e,
  0xa2, 0x73, 0x86, 0x3e, 0x4c, 0xf0, 0xd6, 0xbe, 0xc5, 0x88, 0x9d, 0xbe,
  0x92, 0xf8, 0x19, 0xbe, 0xde, 0xe9, 0x9f, 0xbe, 0x9a, 0x0a, 0xbd, 0xbd,
  0xe6, 0x0e, 0xaa, 0x3b, 0x95, 0xe8, 0x1e, 0x3f, 0xda, 0x38, 0x1b, 0x3e,
  0x54, 0x8a, 0x91, 0xbf, 0xdf, 0x02, 0x10, 0xbf, 0x06, 0x7b, 0x80, 0xbd,
  0x3d, 0x0c, 0xe0, 0xbe, 0x6a, 0xef, 0xab, 0x3d, 0xb1, 0xc5, 0x23, 0xba,
  0xf4, 0xee, 0x1d, 0x3e, 0x95, 0x76, 0x04, 0xbd, 0xec, 0x5c, 0x2f, 0xbe,
  0x47, 0xae, 0xb7, 0xbd, 0xe0, 0x2c, 0x31, 0xbd, 0xc1, 0x9c, 0x60, 0xbe,
  0x04, 0xd0, 0x0b, 0xbe, 0x1b, 0x3e, 0x42, 0x3d, 0xca, 0x8b, 0x78, 0x3e,
  0x43, 0x6a, 0xd6, 0xbd, 0x6c, 0x21, 0x4d, 0xbe, 0xbd, 0x34, 0x25, 0xbe,
  0xf0, 0xb1, 0x5c, 0xbd, 0xd8, 0x26, 0x02, 0xbd, 0xb9, 0x5d, 0x82, 0x3e,
  0xc6, 0x6b, 0xc5, 0x3e, 0xc9, 0xad, 0x3e, 0x3f, 0xde, 0x40, 0xa2, 0x3e,
  0xdb, 0x71, 0xae, 0x3e, 0xe1, 0x3e, 0x45, 0x3e, 0xb1, 0x2c, 0x87, 0x3e,
  0x97, 0x3e, 0x95, 0x3e, 0xde, 0x29, 0x8a, 0x3d, 0x3e, 0x47, 0x87, 0x3d,
  0xa7, 0xa0, 0x9f, 0x3d, 0xdd, 0x09, 0x59, 0xbe, 0x92, 0x39, 0x8e, 0xbd,
  0xc3, 0x27, 0x15, 0xbe, 0x9a, 0x50, 0xa8, 0x3a, 0xdf, 0x0f, 0x92, 0xbd,
  0xf7, 0x01, 0x91, 0x3c, 0x92, 0x23, 0x56, 0x3d, 0x28, 0x09, 0xeb, 0x3d,
  0xb9, 0x92, 0x0d, 0x3d, 0x38, 0xce, 0x8b, 0x3d, 0xc4, 0x53, 0x08, 0xbd,
  0x7f, 0x86, 0x4b, 0x3d, 0x14, 0xc9, 0x86, 0x3d, 0x5b, 0x02, 0x87, 0x3e,
  0x36, 0xd2, 0xb4, 0x3e, 0x52, 0x07, 0x04, 0x3f, 0x20, 0xd0, 0x00, 0x3e,
  0x70, 0x72, 0xe4, 0x3d, 0xc0, 0x4d, 0xc9, 0x3e, 0x3f, 0x1e, 0x29, 0x3e,
  0x90, 0xfb, 0xa2, 0x3e, 0x6d, 0xac, 0xce, 0xbd, 0xb4, 0xb8, 0xff, 0xbd,
  0x7b, 0x6b, 0x18, 0xbe, 0xf6, 0x12, 0x59, 0xbe, 0xa9, 0x97, 0xf3, 0xbc,
  0xc6, 0x7f, 0x46, 0xbd, 0x01, 0xc1, 0x11, 0x3b, 0x33, 0xd4, 0xb5, 0xbb,
  0xd3, 0x3a, 0x14, 0xbe, 0x7c, 0x05, 0xd0, 0x3c, 0x71, 0x9a, 0x03, 0xbe,
  0x04, 0xf0, 0xc7, 0xbd, 0x5f, 0x41, 0x3b, 0x3d, 0x4f, 0xc5, 0x7d, 0xbd,
  0x6c, 0x86, 0x70, 0x3d, 0x26, 0xa9, 0xd1, 0xbd, 0x63, 0x57, 0x4c, 0x3e,
  0xc1, 0xc6, 0x5f, 0x3e, 0xa7, 0xc0, 0x0a, 0x3e, 0x1f, 0xea, 0x94, 0x3d,
  0xfc, 0xfc, 0x14, 0x3e, 0xf2, 0x38, 0x8b, 0x3e, 0x79, 0xa3, 0xb9, 0x3e,
  0xee, 0x21, 0xbe, 0x3e, 0x18, 0xc4, 0x9e, 0xbd, 0x64, 0xf6, 0x87, 0xbd,
  0xdb, 0x6e, 0x59, 0x3d, 0x8a, 0x6d, 0x87, 0xbe, 0xa4, 0x1f, 0x31, 0xbe,
  0x03, 0xf3, 0x0b, 0xbe, 0x82, 0xf6, 0x98, 0xbc, 0x25, 0x0e, 0x6b, 0x3d,
  0xfa, 0xeb, 0x1d, 0x3d, 0x3d, 0x9a, 0xdb, 0xbd, 0xc2, 0x69, 0xc1, 0xbc,
  0x25, 0x0b, 0x95, 0xbe, 0x11, 0xd1, 0xcb, 0xbd, 0x90, 0x35, 0x15, 0xbe,
  0xa6, 0xf2, 0x51, 0xbc, 0xbf, 0x10, 0x83, 0xbd, 0x6d, 0x03, 0x47, 0xbc,
  0xf8, 0x54, 0xb8, 0x3e, 0xb5, 0x97, 0xae, 0x3e, 0x4d, 0x07, 0x25, 0x3d,
  0xb5, 0x78, 0x11, 0x3e, 0x3f, 0xff, 0x86, 0x3e, 0x1d, 0x5c, 0x42, 0x3e,
  0xa6, 0x57, 0x82, 0x3e, 0xa5, 0x82, 0x29, 0x3e, 0x8f, 0xd6, 0x40, 0x3e,
  0xa9, 0xe9, 0xc9, 0xbc, 0xef, 0x79, 0x01, 0xbd, 0x0b, 0x7b, 0xa7, 0xbc,
  0x8d, 0x2a, 0xc2, 0xbd, 0x71, 0x06, 0x58, 0x3e, 0xaa, 0x9b, 0xb9, 0x3d,
  0x51, 0x33, 0x9e, 0x3e, 0x28, 0x8b, 0xcb, 0x3c, 0x73, 0x1a, 0x4b, 0x3e,
  0x3e, 0x56, 0xde, 0xbd, 0xda, 0x40, 0x9e, 0xbd, 0xaa, 0x6c, 0x99, 0xbd,
  0xe2, 0x21, 0x62, 0x3e, 0x92, 0xe5, 0xab, 0x3c, 0x1c, 0x36, 0x4f, 0x3e,
  0xde, 0x0c, 0xa6, 0x3e, 0xa6, 0x8d, 0x84, 0x3d, 0x3e, 0x94, 0x2b, 0xbc,
  0x51, 0xa6, 0x02, 0x3e, 0x0b, 0x57, 0x8c, 0x3e, 0xcf, 0x9b, 0xaf, 0x3e,
  0x8f, 0x85, 0x9a, 0x3e, 0x98, 0x33, 0x4f, 0xbf, 0x12, 0x66, 0x59, 0xbe,
  0xed, 0xad, 0x86, 0xbf, 0x05, 0x1f, 0x52, 0x3f, 0x0a, 0xcf, 0xed, 0xbe,
  0xf7, 0xf2, 0x4c, 0x3e, 0x75, 0xda, 0xff, 0xbe, 0x15, 0x07, 0x76, 0xbd,
  0xad, 0x85, 0x29, 0x3d, 0xeb, 0x9d, 0xc7, 0x3e, 0x2c, 0x98, 0x84, 0xbf,
  0xa8, 0x5b, 0x57, 0x3f, 0xea, 0x77, 0x6d, 0xbe, 0x0e, 0x2b, 0x00, 0x3f,
  0xe2, 0xc2, 0xb6, 0xbd, 0x91, 0x30, 0xef, 0x3e, 0x80, 0x26, 0xac, 0xbd,
  0x27, 0xbc, 0xa3, 0xbd, 0xfe, 0x54, 0x93, 0xbf, 0x8f, 0x3a, 0x8f, 0x3f,
  0xd0, 0x18, 0x93, 0x3f, 0x25, 0x62, 0x40, 0x3f, 0x6b, 0xf7, 0x32, 0xbf,
  0xd1, 0x99, 0x87, 0xbd, 0x5a, 0x2c, 0x9f, 0xbc, 0x03, 0x24, 0x37, 0x3c,
  0xfc, 0x6d, 0x31, 0xbf, 0x00, 0x2e, 0x35, 0x3f, 0xe3, 0x91, 0x38, 0xbf,
  0x70, 0x3a, 0x02, 0x3e, 0xc6, 0x12, 0x4f, 0xbf, 0xe3, 0x14, 0x26, 0xbf,
  0xd3, 0xd5, 0xd1, 0x3d, 0x55, 0x92, 0x2c, 0x3e, 0xd5, 0x8c, 0x0b, 0xbf,
  0x14, 0x8f, 0x58, 0x3f, 0x2a, 0x33, 0x75, 0xbe, 0xfe, 0x58, 0x80, 0xbc,
  0x07, 0x7b, 0x24, 0xbf, 0x73, 0x23, 0x87, 0xbe, 0x06, 0x82, 0x7a, 0x3b,
  0x87, 0x06, 0xf7, 0xbe, 0x78, 0x18, 0x00, 0xc0, 0xfc, 0x25, 0x3e, 0x3f,
  0xcb, 0x3d, 0x0c, 0xbe, 0xa9, 0x1f, 0x69, 0xbd, 0x43, 0xbc, 0xce, 0xbf,
  0xd5, 0x56, 0x8d, 0xbf, 0x73, 0xda, 0xd6, 0x3c, 0x96, 0x3e, 0x2d, 0xbe,
  0x2f, 0x47, 0x92, 0x3b, 0x90, 0x0c, 0x32, 0x3f, 0x2e, 0x7e, 0xd2, 0xbe,
  0x4d, 0xad, 0x6b, 0x3e, 0x3c, 0xa2, 0x71, 0xbf, 0x6a, 0x5a, 0x89, 0xbf,
  0xa7, 0xf4, 0xc3, 0xbe, 0x22, 0x1f, 0x18, 0xbe, 0xbe, 0x6a, 0x04, 0xbf,
  0x5c, 0xc9, 0x23, 0x3f, 0xbb, 0x05, 0x8a, 0xbe, 0xb8, 0x71, 0x61, 0xbc,
  0x90, 0x39, 0x80, 0xbf, 0x82, 0x79, 0x14, 0xbf, 0x06, 0x17, 0x80, 0xbe,
  0x0e, 0x71, 0xba, 0xbf, 0xe8, 0x89, 0xe2, 0xbe, 0x83, 0xf1, 0x6b, 0x3e,
  0xa0, 0xc2, 0xa4, 0xbf, 0xa5, 0x38, 0x6b, 0xbf, 0xa7, 0x1e, 0x02, 0xc0,
  0xa7, 0x6b, 0x04, 0xc0, 0x5d, 0x07, 0x66, 0x3e, 0xdc, 0x58, 0x96, 0x3d,
  0x8e, 0x71, 0x67, 0x3e, 0x60, 0x9f, 0x30, 0x3e, 0x48, 0x71, 0xb4, 0xbc,
  0x0d, 0x16, 0x48, 0xbe, 0x62, 0x1a, 0x12, 0xbe, 0xb1, 0xfb, 0xd0, 0xbe,
  0x3c, 0x1b, 0x91, 0x3d, 0x63, 0x2c, 0x4e, 0xbc, 0x81, 0x68, 0x80, 0x3e,
  0x7d, 0x73, 0xa5, 0xbc, 0x36, 0xfd, 0x37, 0x3e, 0x7f, 0xd9, 0x90, 0xbe,
  0x56, 0x48, 0x74, 0xbe, 0xec, 0x34, 0xc3, 0xbe, 0x9e, 0xda, 0xf1, 0x3e,
  0x25, 0xbf, 0x1e, 0x3e, 0x1c, 0xfa, 0xf8, 0x3e, 0x8f, 0xad, 0x01, 0x3f,
  0x7f, 0xd8, 0xed, 0x3e, 0xd3, 0xe0, 0x94, 0xbe, 0x32, 0x05, 0xae, 0xbc,
  0x61, 0xb3, 0x02, 0xbf, 0x04, 0xce, 0xa7, 0x3d, 0x12, 0xe5, 0xf6, 0x3c,
  0x85, 0xcd, 0xab, 0x3e, 0xd6, 0x30, 0x40, 0xbc, 0xe2, 0x27, 0x03, 0x3e,
  0xa7, 0xf7, 0xfe, 0x3d, 0x65, 0x3f, 0x3f, 0xbc, 0x2d, 0xd7, 0x0e, 0xbc,
  0x21, 0x82, 0xd1, 0xbd, 0x73, 0x3e, 0xd9, 0x3b, 0x67, 0xe6, 0xb3, 0x3e,
  0x1b, 0xdd, 0x61, 0xbd, 0x72, 0x84, 0xff, 0x3c, 0x95, 0x32, 0x37, 0x3c,
  0xec, 0x8a, 0x65, 0xbc, 0x19, 0xa3, 0xc3, 0xbd, 0x52, 0xae, 0xb5, 0x3e,
  0x80, 0x0a, 0x8a, 0x3e, 0x23, 0xa2, 0x7f, 0x3f, 0x01, 0x2a, 0xbe, 0x3e,
  0x79, 0x14, 0xf3, 0x3e, 0xb8, 0xae, 0xef, 0x3e, 0xdb, 0x39, 0x77, 0x3e,
  0xc4, 0x1c, 0x09, 0x3c, 0x5d, 0x83, 0x31, 0x3e, 0x5c, 0xe3, 0x43, 0x3e,
  0x8e, 0xee, 0x4a, 0x3d, 0x12, 0x83, 0xa2, 0xbc, 0x1d, 0x5e, 0xe9, 0x3d,
  0xce, 0x23, 0xd6, 0x3d, 0x0b, 0xa8, 0x06, 0x3e, 0x70, 0xa5, 0xe3, 0x3d,
  0x90, 0x5a, 0x29, 0x3e, 0x1f, 0xd3, 0x11, 0x3e, 0x8e, 0x1e, 0x17, 0xbe,
  0x49, 0x7b, 0xd1, 0x3d, 0xc4, 0x8b, 0x01, 0x3e, 0x48, 0x7a, 0x9a, 0x3d,
  0x9c, 0xba, 0x65, 0x3d, 0xa6, 0x8e, 0x14, 0x3e, 0xda, 0x93, 0x1d, 0xbe,
  0xff, 0x7f, 0x03, 0xbe, 0xd1, 0xba, 0x13, 0xbd, 0xc7, 0x2a, 0x71, 0x3e,
  0xc6, 0xe6, 0xbc, 0x3c, 0x16, 0xd5, 0xc3, 0x3d, 0x02, 0x43, 0xc2, 0x3d,
  0xfc, 0xb7, 0x7c, 0x3c, 0x72, 0x12, 0x00, 0x3e, 0x26, 0x74, 0x00, 0x3e,
  0x02, 0x07, 0x3b, 0xbe, 0xb6, 0xb4, 0xdd, 0x3c, 0xd8, 0x64, 0x45, 0x3e,
  0xaa, 0xa9, 0x02, 0x3c, 0x79, 0x90, 0x78, 0x3d, 0x0a, 0xd6, 0x06, 0x3d,
  0xe5, 0x8d, 0xe3, 0x3d, 0xbb, 0x13, 0x2a, 0x3e, 0x1e, 0x7b, 0x15, 0xbf,
  0xe5, 0x87, 0x82, 0x3c, 0x65, 0x36, 0xb2, 0x3d, 0xcf, 0x25, 0x06, 0xbc,
  0xa9, 0xf9, 0x57, 0x3c, 0x48, 0x0d, 0x14, 0x3e, 0x8f, 0x5f, 0xc8, 0xbd,
  0xbd, 0x04, 0x1c, 0xbe, 0xa4, 0xc8, 0x5a, 0xbe, 0xbb, 0x71, 0xf1, 0xbd,
  0x1c, 0xd0, 0x2a, 0xbe, 0xc2, 0x9a, 0x9f, 0xbe, 0xd5, 0x1d, 0x97, 0x3b,
  0x25, 0xf6, 0xab, 0xbd, 0x04, 0x01, 0x88, 0x3e, 0x79, 0xf5, 0xbc, 0xbc,
  0xd4, 0x73, 0x11, 0xbb, 0x03, 0xf9, 0xf4, 0xbc, 0x00, 0xc9, 0xb9, 0xbc,
  0x81, 0x11, 0x9c, 0xbd, 0x64, 0x9f, 0xbf, 0x3d, 0xfa, 0x58, 0x6f, 0xbd,
  0x43, 0x00, 0xd8, 0x3d, 0x41, 0xbe, 0x11, 0x3e, 0x5e, 0xfa, 0x5e, 0xbe,
  0xd8, 0x17, 0xbc, 0x3c, 0xe4, 0x34, 0xa9, 0xbc, 0x4e, 0x4e, 0x62, 0x3b,
  0x15, 0xd0, 0x93, 0x3c, 0xd4, 0x58, 0x44, 0xbd, 0x96, 0xa5, 0x1c, 0x3e,
  0x0c, 0xca, 0x06, 0xbe, 0xb0, 0x62, 0x91, 0x3e, 0x1f, 0xc4, 0x01, 0x3d,
  0x42, 0x71, 0xc4, 0xbd, 0xe5, 0x65, 0x86, 0xbe, 0x69, 0xf9, 0x67, 0x3e,
  0xeb, 0x07, 0x0f, 0xbe, 0x44, 0xd1, 0x9a, 0xbf, 0xcb, 0x65, 0x55, 0xbf,
  0x0c, 0xff, 0x05, 0xbd, 0x03, 0x8d, 0x5a, 0xbf, 0x03, 0xcd, 0x94, 0xbf,
  0xd9, 0xd0, 0x97, 0xbf, 0xff, 0xbc, 0xcc, 0xbd, 0xbf, 0xee, 0x18, 0xbe,
  0xf5, 0x3e, 0x84, 0xbf, 0x94, 0x65, 0x51, 0xbf, 0xd2, 0xb7, 0x4d, 0x3e,
  0x6e, 0x3c, 0x60, 0xbf, 0x0d, 0xea, 0xa3, 0xbf, 0xdd, 0xdf, 0xa4, 0xbf,
  0xf5, 0x5d, 0x76, 0xbe, 0xde, 0x58, 0x94, 0xbe, 0x2f, 0x97, 0x05, 0x3e,
  0xe8, 0x88, 0x1a, 0x3e, 0x34, 0xdd, 0xac, 0xbe, 0xf7, 0xa3, 0xca, 0x3d,
  0x09, 0x76, 0x65, 0x3e, 0x3d, 0xe0, 0xc2, 0x3d, 0xb4, 0x86, 0x81, 0x3e,
  0xd1, 0x7b, 0xea, 0x3e, 0x87, 0x83, 0x27, 0xbf, 0x2b, 0xd2, 0x2f, 0xbf,
  0xb1, 0x45, 0x23, 0x3e, 0xd4, 0xfc, 0xec, 0xbe, 0x29, 0x31, 0x84, 0xbf,
  0x61, 0x10, 0x42, 0xbf, 0xb7, 0x8d, 0xb7, 0xbe, 0xe9, 0x17, 0x7a, 0xbe,
  0x94, 0x8b, 0xc5, 0xbe, 0x5d, 0x00, 0xed, 0xbe, 0x92, 0xda, 0x82, 0x3e,
  0x10, 0xb0, 0xd3, 0xbe, 0x67, 0x27, 0x61, 0xbf, 0x29, 0x07, 0x1b, 0xbf,
  0x4f, 0xcb, 0x77, 0xbe, 0xdb, 0x32, 0x59, 0xbe, 0x5f, 0x9d, 0x30, 0xbe,
  0x89, 0x98, 0xe7, 0xbd, 0xae, 0x3f, 0x9d, 0xbe, 0x44, 0x71, 0x96, 0xbd,
  0xfe, 0x58, 0x01, 0xbd, 0x84, 0x1c, 0xb7, 0x3c, 0x07, 0xb7, 0x1d, 0xbb,
  0xb1, 0x5e, 0x82, 0xbc, 0xc5, 0x63, 0xe3, 0xbd, 0xd7, 0x66, 0x87, 0xbe,
  0x6f, 0xab, 0x99, 0x3e, 0xad, 0xd1, 0x0c, 0xbd, 0x17, 0xa5, 0xc7, 0xbe,
  0xe4, 0x0e, 0xae, 0xbe, 0xd1, 0x49, 0x0a, 0x3c, 0x19, 0x22, 0xb6, 0xbd,
  0xf7, 0x6d, 0x31, 0x3e, 0x01, 0xf8, 0x95, 0xbd, 0xe2, 0x9c, 0xd4, 0x3e,
  0x17, 0x47, 0x14, 0x3e, 0x70, 0x5f, 0xc8, 0xbd, 0x81, 0xb5, 0xdd, 0xbd,
  0xc7, 0xa7, 0x67, 0x3d, 0x20, 0xb3, 0x5e, 0xbd, 0xc4, 0x63, 0x8f, 0xbd,
  0xbe, 0x74, 0xf5, 0xbd, 0xad, 0xfd, 0x8f, 0xbe, 0x72, 0xbe, 0x15, 0xbe,
  0x73, 0x16, 0x44, 0xbd, 0x5c, 0x0b, 0xac, 0xbd, 0x00, 0x06, 0xe9, 0xbd,
  0x6d, 0x71, 0x06, 0xbe, 0xdf, 0xef, 0x5e, 0x3e, 0x19, 0x27, 0x32, 0x3e,
  0x1c, 0x04, 0xce, 0x3e, 0x79, 0x76, 0x45, 0x3e, 0x07, 0x4e, 0x5e, 0xbc,
  0xd5, 0x0c, 0xf0, 0x3d, 0x5b, 0x63, 0xc1, 0x3d, 0x99, 0xd6, 0xb4, 0x3d,
  0xb1, 0x46, 0x3e, 0x3e, 0xd5, 0x86, 0x85, 0x3e, 0x8f, 0xc8, 0xeb, 0x3e,
  0x7d, 0x93, 0x5a, 0x3e, 0x3b, 0x66, 0x04, 0x3e, 0x6a, 0x9d, 0x94, 0x3e,
  0x9e, 0x6f, 0x9d, 0x3c, 0x15, 0xab, 0xe9, 0x3d, 0x96, 0xe5, 0x6c, 0x3d,
  0x04, 0x1b, 0xdd, 0x3b, 0x1e, 0x96, 0x83, 0xbe, 0xe8, 0xd4, 0x14, 0xbe,
  0x25, 0x4a, 0x17, 0xbd, 0x4c, 0x22, 0x4d, 0x3c, 0xb2, 0x69, 0x40, 0xbd,
  0x62, 0xd3, 0xb1, 0xbd, 0x2e, 0xd9, 0xc5, 0x3e, 0xe4, 0x25, 0x89, 0x3e,
  0xed, 0x8f, 0xe0, 0x3e, 0x13, 0xe5, 0x5b, 0x3e, 0xb6, 0xb5, 0x59, 0x3e,
  0x91, 0x2f, 0xa7, 0x3e, 0xae, 0x3a, 0x44, 0x3e, 0xac, 0xe8, 0x53, 0x3e,
  0xe6, 0x7c, 0xa7, 0x3e, 0xd4, 0x2f, 0x76, 0x3e, 0x0e, 0xb3, 0xc9, 0x3e,
  0x7e, 0x15, 0x84, 0x3e, 0xb8, 0xb8, 0x06, 0x3e, 0x85, 0x9a, 0xb9, 0x3e,
  0x02, 0xb4, 0x4a, 0x3e, 0xcb, 0xdd, 0x36, 0x3e, 0xb0, 0xa5, 0x80, 0x3d,
  0x1b, 0xdf, 0x2a, 0x3d, 0xf8, 0x76, 0x41, 0xbe, 0x5e, 0xe0, 0xc0, 0xbd,
  0x82, 0x7c, 0x01, 0xbd, 0x01, 0xe4, 0x41, 0x3d, 0x62, 0x99, 0x79, 0xbd,
  0x55, 0x51, 0x96, 0xbd, 0x42, 0x6b, 0x9e, 0x3e, 0xdf, 0xe2, 0x85, 0x3e,
  0xe4, 0xb6, 0x95, 0x3e, 0x2b, 0x96, 0x7f, 0x3e, 0x44, 0xd2, 0x4b, 0x3e,
  0x49, 0x4e, 0xe4, 0x3e, 0x65, 0xc0, 0x45, 0x3e, 0xc5, 0xaa, 0x3d, 0x3e,
  0x59, 0x18, 0x80, 0x3e, 0x12, 0x4f, 0x54, 0x3e, 0xbd, 0x63, 0x32, 0x3e,
  0x45, 0x27, 0x8f, 0x3e, 0x43, 0x62, 0x82, 0x3e, 0x89, 0x52, 0x8e, 0x3e,
  0x0d, 0x0a, 0xdf, 0x3d, 0xcd, 0x76, 0x1f, 0x3e, 0xf6, 0x59, 0xe3, 0x3d,
  0xba, 0x77, 0x5b, 0xbc, 0x22, 0x07, 0x37, 0xbd, 0x36, 0x7d, 0x46, 0xbd,
  0xcc, 0x31, 0x2a, 0x3d, 0x0c, 0xf0, 0xda, 0x3c, 0xb9, 0xf2, 0x73, 0xbd,
  0x88, 0xc0, 0xb6, 0xb9, 0x25, 0x30, 0x04, 0x3e, 0x01, 0xe0, 0xc3, 0x3d,
  0xe9, 0x3c, 0x4a, 0x3e, 0x0f, 0xef, 0x81, 0x3e, 0x8c, 0x72, 0x04, 0x3e,
  0x30, 0x69, 0x99, 0x3e, 0x8c, 0x67, 0xc7, 0x3d, 0x41, 0xcb, 0x5c, 0x3e,
  0xe1, 0x4b, 0x21, 0x3e, 0x0c, 0xf2, 0xa8, 0x3d, 0xaa, 0x99, 0x99, 0x3c,
  0x58, 0x92, 0x1f, 0x3e, 0x57, 0xea, 0xd5, 0x3d, 0x23, 0xdd, 0x88, 0x3e,
  0x90, 0xaf, 0x4c, 0x3d, 0xfb, 0x03, 0xb3, 0x3d, 0x46, 0xc3, 0x2d, 0x3e,
  0xe3, 0x99, 0x36, 0x3b, 0x0f, 0xbc, 0xcd, 0x3d, 0x55, 0x2a, 0xf6, 0x3b,
  0x57, 0x6c, 0xb4, 0xbc, 0xbb, 0x76, 0x05, 0x3d, 0xec, 0x7e, 0x68, 0xbc,
  0x2e, 0x72, 0x11, 0xbc, 0x7c, 0x73, 0x4d, 0x3c, 0xa5, 0x53, 0x01, 0xbe,
  0x49, 0x77, 0x0e, 0x3e, 0xe1, 0x6c, 0x22, 0x3e, 0xd7, 0x5b, 0x05, 0xbe,
  0x60, 0xa0, 0x84, 0x3c, 0xd5, 0xb7, 0x3b, 0x3d, 0xae, 0xe2, 0x0d, 0x3e,
  0x42, 0x37, 0x49, 0xbe, 0x62, 0x10, 0x63, 0xbe, 0x38, 0x47, 0x59, 0xbe,
  0x95, 0x74, 0x20, 0x3d, 0x0c, 0x8c, 0xc5, 0xbd, 0x5d, 0xea, 0x06, 0x3e,
  0x4d, 0x1a, 0x39, 0xbe, 0x08, 0xf1, 0x27, 0x3d, 0x62, 0x53, 0xa2, 0xbd,
  0x96, 0xc4, 0x04, 0xbe, 0xae, 0xac, 0x4e, 0xbc, 0x92, 0x92, 0x4f, 0x3d,
  0x94, 0x91, 0x80, 0x39, 0x29, 0xc3, 0xa3, 0x3d, 0x11, 0x08, 0x4f, 0xbd,
  0x91, 0x4c, 0x3b, 0xbd, 0x73, 0xb3, 0x4d, 0xbe, 0x01, 0xb0, 0xda, 0x3e,
  0x1d, 0x4d, 0x6d, 0x3f, 0x5d, 0xf1, 0x1d, 0x3f, 0xeb, 0x45, 0x18, 0xbf,
  0x05, 0xd5, 0xb3, 0x3e, 0xe7, 0xd5, 0x81, 0xbe, 0x97, 0x67, 0x90, 0xbd,
  0xdc, 0x2f, 0xa5, 0x3d, 0x1c, 0x4b, 0xd2, 0x3e, 0x89, 0xbc, 0x63, 0x3e,
  0xcb, 0xb3, 0xba, 0x3e, 0x69, 0x03, 0x63, 0xbe, 0x79, 0x7e, 0x34, 0x3e,
  0x91, 0xd5, 0x52, 0x3e, 0xe3, 0x58, 0xa8, 0x3e, 0x23, 0xb4, 0x1b, 0xbf,
  0x3e, 0x19, 0xb3, 0x3e, 0x64, 0x6d, 0x7c, 0x3f, 0x16, 0x0e, 0x25, 0x3e,
  0x93, 0x1a, 0x8e, 0xbf, 0xa3, 0x06, 0xc3, 0x3e, 0xc6, 0x01, 0x9b, 0xbe,
  0xf1, 0x15, 0x07, 0xbf, 0xc9, 0x07, 0x10, 0x3e, 0x01, 0x13, 0x95, 0x3e,
  0x4a, 0xfd, 0xf1, 0x3e, 0xc0, 0x76, 0x49, 0x3f, 0xac, 0x6e, 0x6c, 0xbe,
  0x12, 0x3b, 0x9c, 0x3e, 0xf8, 0x7d, 0x92, 0xbe, 0x45, 0x13, 0xb6, 0xbe,
  0xfc, 0x9c, 0xc0, 0xbd, 0xd7, 0xec, 0x2c, 0x3e, 0xb1, 0xd9, 0xb6, 0xbd,
  0xce, 0xf3, 0xf7, 0x3e, 0x3c, 0xef, 0xcf, 0xbd, 0xa1, 0x7a, 0x99, 0x3e,
  0x47, 0x13, 0x79, 0xbc, 0x35, 0x39, 0xa4, 0xbd, 0xf9, 0x05, 0x84, 0xbe,
  0xfb, 0xdc, 0x1b, 0x3e, 0x4f, 0xd3, 0x6b, 0x3e, 0x56, 0xa6, 0x2b, 0x3f,
  0xe9, 0xa1, 0xbe, 0xbe, 0x10, 0x04, 0xb7, 0x3c, 0x09, 0x04, 0xed, 0xbe,
  0x93, 0x8b, 0xca, 0xbe, 0xca, 0x80, 0x0f, 0x3a, 0x06, 0x71, 0x31, 0x3e,
  0xec, 0xee, 0xb9, 0x3d, 0x17, 0xc4, 0x40, 0x3f, 0x88, 0xb2, 0x46, 0xbe,
  0xd0, 0xea, 0x0a, 0x3e, 0x84, 0xac, 0xa8, 0xbe, 0xa9, 0x1c, 0xc3, 0xbe,
  0x94, 0x34, 0x53, 0x3d, 0x67, 0x69, 0xfd, 0x3d, 0x6e, 0x7b, 0xdd, 0x3c,
  0x19, 0x7e, 0x10, 0x3f, 0x36, 0x3e, 0xe5, 0xbd, 0x81, 0x67, 0x23, 0x3e,
  0x58, 0x11, 0x3c, 0xbd, 0xa6, 0x88, 0x4f, 0xbd, 0x70, 0x84, 0x0f, 0x3d,
  0xa9, 0x43, 0x60, 0x3e, 0x88, 0xd1, 0x7e, 0x3e, 0x8e, 0x02, 0x67, 0x3f,
  0x30, 0x43, 0xc9, 0x3b, 0xf2, 0x69, 0x7b, 0x3e, 0xc7, 0x48, 0xb8, 0xbe,
  0xa0, 0x97, 0x04, 0xbf, 0xf3, 0xaa, 0xb3, 0x3d, 0xb2, 0xc6, 0x68, 0x3e,
  0x1a, 0xd9, 0x90, 0x3e, 0x55, 0xb7, 0x39, 0x3f, 0xf7, 0xea, 0xba, 0xbc,
  0x38, 0xa2, 0x71, 0x3e, 0x50, 0x82, 0x87, 0xbe, 0xec, 0xfa, 0xb8, 0xbe,
  0x1a, 0xe0, 0xcd, 0xbd, 0xae, 0xe5, 0x5d, 0x3e, 0xfe, 0x06, 0xe8, 0x3d,
  0xb5, 0x0b, 0xf8, 0x3e, 0xf1, 0xe0, 0x42, 0xbe, 0xbc, 0xc4, 0x19, 0x3e,
  0x2e, 0x9c, 0x10, 0xbe, 0x87, 0x2c, 0x9d, 0xbd, 0x24, 0x74, 0x03, 0x3d,
  0x30, 0x60, 0xb9, 0x3e, 0x20, 0xeb, 0x87, 0x3e, 0xd6, 0x27, 0x30, 0x3f,
  0x34, 0xf5, 0x0d, 0xbb, 0xcc, 0x4b, 0xa4, 0x3e, 0x06, 0xff, 0xe7, 0xbe,
  0x4a, 0x40, 0x0b, 0xbf, 0x34, 0x41, 0x76, 0xbc, 0xd6, 0xfb, 0x70, 0x3e,
  0x09, 0xa3, 0x87, 0x3e, 0x24, 0x1e, 0x28, 0x3f, 0xa5, 0x55, 0x57, 0xbd,
  0xa8, 0x2a, 0x19, 0x3e, 0x9c, 0x97, 0x01, 0xbf, 0x73, 0xde, 0xf6, 0xbe,
  0xaa, 0x45, 0x0b, 0xbe, 0x59, 0x16, 0x9f, 0x3d, 0x58, 0x98, 0x85, 0xbd,
  0xaa, 0x77, 0xed, 0x3e, 0x76, 0x50, 0x94, 0xbd, 0x4f, 0x99, 0x1d, 0x3e,
  0x77, 0x6f, 0x3c, 0x3d, 0x5b, 0x5d, 0x11, 0xbe, 0xd0, 0x69, 0x2e, 0x3e,
  0x5c, 0xe2, 0xa4, 0x3d, 0x40, 0x7b, 0x30, 0x3e, 0x19, 0x6a, 0x23, 0x3f,
  0x74, 0x1a, 0x49, 0xbe, 0x7a, 0xf6, 0x89, 0x3e, 0x05, 0xf2, 0x12, 0xbf,
  0xda, 0x92, 0x01, 0xbf, 0xa3, 0x54, 0x80, 0x3d, 0xf5, 0xdf, 0x7b, 0xbc,
  0x83, 0xf7, 0xee, 0x3d, 0x5c, 0x2f, 0x4f, 0x3f, 0x43, 0x95, 0x30, 0xbd,
  0xc0, 0x65, 0x6f, 0x3e, 0xc3, 0xa2, 0x03, 0xbf, 0x16, 0x5a, 0x06, 0xbf,
  0xe6, 0xa5, 0x44, 0xbe, 0xfe, 0x1f, 0x1f, 0x3d, 0x08, 0x11, 0x95, 0xbd,
  0xc8, 0xdf, 0xc9, 0x3e, 0x0d, 0x32, 0x97, 0x3c, 0x83, 0x37, 0x81, 0x3d,
  0xcc, 0x04, 0x7e, 0xbd, 0x36, 0x66, 0xcb, 0xbd, 0xbb, 0xf0, 0x16, 0x3d,
  0x03, 0xfa, 0x03, 0x3e, 0x7b, 0x58, 0x6e, 0xbc, 0x1e, 0x78, 0x22, 0x3f,
  0x54, 0xa9, 0x27, 0xbd, 0x71, 0x86, 0x2b, 0x3e, 0x10, 0x51, 0x04, 0xbf,
  0xf8, 0x4f, 0x06, 0xbf, 0xc6, 0x78, 0x7d, 0x3e, 0xf8, 0x7c, 0x18, 0x3e,
  0x35, 0xf5, 0x57, 0xbe, 0x54, 0xdf, 0x25, 0x3f, 0x7a, 0xe4, 0x88, 0xbd,
  0x14, 0xe8, 0xcd, 0x3c, 0x5a, 0xa9, 0x07, 0xbf, 0xe8, 0xd7, 0x05, 0xbf,
  0x76, 0x1b, 0xf4, 0x3b, 0xea, 0x05, 0xe1, 0x3d, 0x28, 0xb4, 0x98, 0x3c,
  0x6d, 0x2f, 0x60, 0x3e, 0xf1, 0x6f, 0x81, 0xbd, 0x95, 0xc3, 0x95, 0x3d,
  0x27, 0x9f, 0x0b, 0xbe, 0x5b, 0x34, 0x3c, 0xbe, 0x1a, 0x73, 0x57, 0x3c,
  0xb4, 0x6a, 0x31, 0x3e, 0xd1, 0x87, 0xef, 0x3d, 0xc5, 0x1f, 0x38, 0x3f,
  0x2c, 0x70, 0xab, 0xbc, 0xa1, 0x1c, 0x9f, 0x3e, 0x76, 0xee, 0x12, 0xbf,
  0x96, 0x12, 0x1c, 0xbf, 0x37, 0x50, 0x12, 0xbd, 0xf8, 0x33, 0x05, 0xbd,
  0x39, 0x72, 0xbb, 0xbc, 0x47, 0x09, 0x2e, 0x3f, 0x72, 0x69, 0x33, 0xbe,
  0x21, 0xa2, 0x3c, 0x3e, 0xdc, 0x5e, 0xe2, 0xbe, 0x0f, 0xad, 0x12, 0xbf,
  0x0c, 0x54, 0xdf, 0x3d, 0x6d, 0xa4, 0x86, 0x3d, 0xf2, 0xcb, 0x0f, 0xbc,
  0x18, 0xf5, 0xa9, 0x3e, 0xf1, 0x1d, 0xb0, 0xbd, 0x25, 0x3b, 0xfe, 0x3d,
  0x12, 0xd6, 0x53, 0xbd, 0x6f, 0xc2, 0x27, 0xbe, 0xf7, 0x72, 0xa3, 0xbe,
  0xe6, 0xc0, 0x90, 0x3e, 0xbc, 0x41, 0x5c, 0x3d, 0x9a, 0x9e, 0x38, 0x3f,
  0x7c, 0x18, 0x01, 0xbe, 0xfa, 0x42, 0xc0, 0x3e, 0xac, 0x30, 0x2e, 0xbf,
  0xd2, 0xe4, 0x33, 0xbf, 0x45, 0x0e, 0x05, 0x3f, 0x84, 0xf2, 0x39, 0x3e,
  0xeb, 0x6c, 0x26, 0xbf, 0x3d, 0xe6, 0xbf, 0x3e, 0x4b, 0xa9, 0xdb, 0x3e,
  0x40, 0xdb, 0xd9, 0x3e, 0xc6, 0xba, 0xc2, 0x3d, 0x8c, 0x13, 0xa8, 0x3e,
  0x04, 0x8b, 0x11, 0xc0, 0xf3, 0x22, 0x06, 0x3f, 0xa3, 0x81, 0x5e, 0xbf,
  0x13, 0x32, 0x8a, 0x3e, 0xef, 0x31, 0x0a, 0xbf, 0x32, 0x29, 0x94, 0x3f,
  0xd8, 0xde, 0x12, 0xbf, 0xc8, 0x58, 0x36, 0x3e, 0xd7, 0xb0, 0xd2, 0x3e,
  0x07, 0xba, 0x9e, 0x3e, 0x53, 0x95, 0xa2, 0xbe, 0x12, 0x85, 0x42, 0x3e,
  0xdd, 0xe4, 0xd8, 0x3e, 0xea, 0x79, 0x05, 0x3f, 0xd7, 0x47, 0xda, 0x3d,
  0x84, 0xa2, 0x34, 0x3e, 0xd6, 0xf4, 0x8a, 0x3d, 0x60, 0xae, 0x89, 0x3c,
  0xcd, 0xd1, 0x15, 0xbf, 0x4e, 0x9f, 0xf6, 0xba, 0x67, 0xc1, 0x35, 0x3e,
  0xae, 0xdc, 0x51, 0x3e, 0xba, 0x7d, 0x12, 0xbe, 0x8e, 0x42, 0xcd, 0xbc,
  0x46, 0x3d, 0x36, 0xbf, 0x45, 0xef, 0x94, 0x3d, 0x96, 0x42, 0x46, 0x3e,
  0xea, 0xe7, 0x89, 0xbf, 0x6d, 0x6a, 0xc3, 0xbf, 0x1e, 0x26, 0x2a, 0xbe,
  0xff, 0x9d, 0x4c, 0x3c, 0x43, 0xfb, 0xad, 0xbe, 0xf9, 0x7f, 0x5e, 0x3c,
  0x28, 0x9a, 0x84, 0x3c, 0x81, 0x9f, 0xf1, 0xbe, 0x15, 0x67, 0x0e, 0x3d,
  0xb5, 0x32, 0x8e, 0x3e, 0x2c, 0x46, 0x1f, 0x3e, 0x6b, 0x25, 0x03, 0xbe,
  0x9f, 0x7f, 0x80, 0xbd, 0x30, 0xea, 0xb6, 0x3d, 0x18, 0x3e, 0xaf, 0x3d,
  0x08, 0x8e, 0xbb, 0x3d, 0xec, 0x49, 0x7c, 0xbe, 0x68, 0xb1, 0xc4, 0x3d,
  0xea, 0xfb, 0x63, 0x3e, 0x8a, 0x73, 0xcd, 0xbd, 0xf0, 0x96, 0xe5, 0x3c,
  0x67, 0xd8, 0x76, 0xbf, 0xae, 0x32, 0xb5, 0x3e, 0x3a, 0x6c, 0x85, 0xbf,
  0x89, 0x07, 0x6c, 0xbf, 0x8d, 0x06, 0x17, 0xbf, 0xc5, 0xf5, 0xe5, 0x3d,
  0x10, 0xe4, 0x5e, 0xbf, 0xea, 0xa5, 0x93, 0x3e, 0x91, 0x80, 0x59, 0x3d,
  0xc8, 0x71, 0x83, 0x3d, 0xab, 0x07, 0xc0, 0xbe, 0x74, 0x0e, 0x61, 0xbe,
  0x8c, 0xfb, 0x09, 0xbd, 0x70, 0x3a, 0xba, 0x3c, 0x19, 0x6c, 0xd0, 0xbd,
  0xdd, 0xd6, 0x94, 0xbd, 0xbe, 0x7d, 0x1d, 0x3d, 0xe6, 0x2c, 0x4f, 0x3e,
  0x98, 0x4f, 0x96, 0xbe, 0x1a, 0x10, 0xeb, 0xbd, 0x37, 0x82, 0xa5, 0xbd,
  0xaf, 0xb0, 0x34, 0x3e, 0xf1, 0xe2, 0x6e, 0xbd, 0x73, 0x88, 0xb5, 0x3d,
  0x4f, 0x37, 0x65, 0xbf, 0x05, 0x6f, 0xa9, 0x3e, 0x6e, 0x01, 0xa9, 0xbf,
  0x6b, 0xef, 0x65, 0xbe, 0x89, 0xea, 0x40, 0xbf, 0x4c, 0x33, 0xcc, 0x3e,
  0x3f, 0xcc, 0x54, 0xbe, 0x0a, 0x46, 0xa5, 0xbd, 0x21, 0xb3, 0x31, 0x3e,
  0x6d, 0x4a, 0xb1, 0x3d, 0x96, 0x2c, 0x35, 0xbe, 0x51, 0xb4, 0x88, 0xbd,
  0x46, 0x50, 0x18, 0x3e, 0x23, 0x68, 0x44, 0x3e, 0x9c, 0xe2, 0xb4, 0xbd,
  0xec, 0x7a, 0x8a, 0x3d, 0xa8, 0xb3, 0xd6, 0x3d, 0xe2, 0x48, 0x16, 0x3e,
  0x6f, 0xc7, 0x83, 0xbe, 0x58, 0x54, 0x3c, 0xbe, 0x4b, 0xa9, 0x30, 0x3d,
  0xd6, 0x59, 0xd3, 0x3d, 0xba, 0x8c, 0xac, 0xbd, 0x4e, 0x11, 0x97, 0x3d,
  0x7e, 0x9a, 0x02, 0xbf, 0xd4, 0xec, 0x12, 0x3f, 0xad, 0xc0, 0xc3, 0xbe,
  0x65, 0x4d, 0x77, 0xbf, 0x31, 0xf7, 0xd6, 0xbe, 0xa2, 0xb7, 0xb2, 0x3d,
  0x31, 0x77, 0x92, 0xbf, 0x22, 0x35, 0x50, 0xbf, 0x52, 0xe5, 0x1f, 0x3e,
  0x1f, 0x7f, 0x45, 0x3e, 0xae, 0x41, 0xaf, 0xbe, 0x05, 0x9d, 0xfb, 0xbd,
  0x8b, 0x6c, 0x48, 0xbc, 0x6d, 0x7a, 0xbd, 0x3d, 0xa3, 0x43, 0xe6, 0xbd,
  0x99, 0xfd, 0xac, 0xbd, 0xa8, 0x94, 0x19, 0xbc, 0xf5, 0x58, 0x90, 0xbc,
  0x13, 0x85, 0x84, 0xbe, 0xaf, 0x0c, 0x13, 0xbe, 0x39, 0x83, 0x79, 0x3c,
  0x33, 0xda, 0x69, 0x3d, 0xdb, 0xf6, 0x50, 0xbe, 0x56, 0x7d, 0x87, 0xbc,
  0x4b, 0x1d, 0x4e, 0xbf, 0xc8, 0x14, 0xfd, 0x3e, 0x1b, 0xdb, 0x76, 0xbf,
  0x35, 0x3b, 0xbb, 0xbe, 0x22, 0xf2, 0x82, 0xbf, 0x20, 0x26, 0x91, 0x3e,
  0xc8, 0x72, 0xf7, 0xbe, 0xf3, 0xce, 0x90, 0xbe, 0x6e, 0x14, 0xbb, 0x3b,
  0x6d, 0x84, 0xab, 0x3d, 0xc3, 0x78, 0x71, 0xbe, 0xf8, 0xde, 0x09, 0xbe,
  0xb1, 0x0c, 0x7e, 0x3d, 0x5c, 0x03, 0xe5, 0xbb, 0xb0, 0x46, 0x14, 0xbe,
  0xc0, 0x14, 0x37, 0xbc, 0x27, 0xe4, 0x05, 0xbd, 0x69, 0xbc, 0x03, 0xbd,
  0xa1, 0x1e, 0x45, 0xbe, 0xe0, 0x59, 0x91, 0xbe, 0xcb, 0x15, 0x62, 0xbd,
  0x97, 0x0a, 0x26, 0x3e, 0x48, 0x95, 0x03, 0xbe, 0xcc, 0x70, 0x8c, 0xbd,
  0x6d, 0x60, 0xb0, 0xbf, 0x4a, 0x92, 0x4f, 0x3c, 0x96, 0x36, 0xb0, 0xbd,
  0x5e, 0x60, 0xf6, 0xbe, 0xcb, 0x39, 0xbd, 0xbf, 0x49, 0x4e, 0x8d, 0xbd,
  0x33, 0xd6, 0x5c, 0xbf, 0x69, 0x60, 0xcf, 0xbe, 0x40, 0x3e, 0x22, 0xbd,
  0xbb, 0x73, 0x8e, 0xbc, 0x95, 0x55, 0x99, 0xbe, 0x6c, 0xbe, 0x2f, 0xbe,
  0x82, 0xfc, 0x59, 0xba, 0xdf, 0xa1, 0x80, 0xbd, 0x3e, 0xc0, 0x19, 0xbe,
  0xc7, 0x89, 0x03, 0xbd, 0xf8, 0x89, 0x56, 0xbe, 0xd5, 0xcb, 0x54, 0x3e,
  0x6b, 0xe1, 0xa4, 0x3e, 0x47, 0xa9, 0xa2, 0xbe, 0x7f, 0x27, 0x99, 0xbe,
  0x55, 0xf9, 0xcc, 0xbc, 0x76, 0xdb, 0x33, 0x3d, 0x1c, 0xcd, 0x01, 0xbd,
  0xf1, 0x3a, 0xf9, 0xbf, 0xcf, 0x79, 0x43, 0x3f, 0x28, 0xeb, 0x5d, 0x3f,
  0x1c, 0x42, 0xa2, 0xbf, 0x3e, 0xf2, 0x6a, 0xc0, 0x64, 0x5f, 0x87, 0x3e,
  0x50, 0x29, 0xf1, 0xbe, 0x87, 0x02, 0xbd, 0xbf, 0xc7, 0xf2, 0xbc, 0xbe,
  0xa6, 0xc8, 0x9e, 0xbd, 0xb6, 0x2d, 0xf1, 0xbd, 0x06, 0x76, 0x09, 0xbe,
  0x61, 0x9c, 0x21, 0xbe, 0x73, 0x5d, 0x94, 0xbd, 0xd7, 0x20, 0x2c, 0xbe,
  0x06, 0xdf, 0xaa, 0xbd, 0x0c, 0xdc, 0x8b, 0xbf, 0x7d, 0x52, 0x01, 0xbf,
  0xb1, 0x24, 0x2c, 0xc0, 0xa6, 0xdb, 0x30, 0x3f, 0xf6, 0xd7, 0x1a, 0x3e,
  0xf5, 0x90, 0x37, 0x3e, 0xcd, 0x35, 0xd8, 0xbf, 0xfc, 0x96, 0x1b, 0xbf,
  0x9f, 0xae, 0x96, 0xbf, 0x71, 0xff, 0x63, 0xbe, 0x61, 0x2d, 0x25, 0xc0,
  0x00, 0x14, 0xc4, 0x3e, 0x5c, 0x20, 0x4b, 0x3e, 0xad, 0xc1, 0xbc, 0x3e,
  0xd3, 0x43, 0xf2, 0xbf, 0xa1, 0x24, 0x73, 0xbf, 0xe5, 0x33, 0x13, 0xc0,
  0x1b, 0xf8, 0xa1, 0xbf, 0x79, 0xdb, 0xfc, 0xbf, 0x3d, 0xde, 0x0e, 0x3d,
  0xcd, 0x16, 0x2c, 0xbf, 0x06, 0x4f, 0x78, 0xbe, 0x7b, 0x74, 0x3e, 0xc0,
  0xb6, 0xc9, 0xea, 0xbf, 0x23, 0xab, 0x84, 0xbe, 0x46, 0x93, 0xba, 0x3d,
  0x34, 0x25, 0xee, 0xbd, 0xa8, 0x2f, 0x95, 0xbe, 0xf8, 0xf0, 0x88, 0xbf,
  0x9d, 0x3d, 0x93, 0xbe, 0x71, 0x16, 0x0f, 0xbf, 0x4b, 0xa2, 0x9c, 0xbf,
  0xae, 0xed, 0x5f, 0xbe, 0x46, 0x0b, 0xa5, 0x3d, 0x2e, 0x45, 0x93, 0x3b,
  0xa5, 0x0d, 0x3b, 0xbf, 0x83, 0x65, 0xa9, 0xbf, 0xf1, 0x64, 0x17, 0xbf,
  0x8c, 0xae, 0x40, 0xbf, 0xfb, 0xe6, 0xbe, 0xbf, 0xd3, 0x74, 0x1f, 0x3f,
  0x5d, 0x4c, 0x6b, 0xbe, 0x84, 0x13, 0xa3, 0x3e, 0x33, 0x21, 0x5c, 0xbe,
  0x89, 0xe2, 0x93, 0xbd, 0x6c, 0x5d, 0x8d, 0xbf, 0xd9, 0xa7, 0x5a, 0xbe,
  0x71, 0xcd, 0x97, 0xbf, 0xcd, 0xf2, 0x37, 0x3e, 0xc1, 0xd8, 0x6b, 0x3e,
  0x85, 0x75, 0xe3, 0x3e, 0xd5, 0xf0, 0x88, 0xbe, 0x98, 0xbf, 0xad, 0x3d,
  0x3c, 0x43, 0x6b, 0x3c, 0x50, 0x52, 0xdc, 0x3c, 0xe7, 0x9a, 0x76, 0xbd,
  0xcf, 0x68, 0x2c, 0x3d, 0xb5, 0xb5, 0xd7, 0x3d, 0x44, 0xd3, 0xd3, 0x3e,
  0x00, 0xe0, 0x34, 0xbe, 0x8c, 0x3a, 0x88, 0xbc, 0xdf, 0x62, 0x4d, 0xbe,
  0x7b, 0xe4, 0xc6, 0x3d, 0xcb, 0x26, 0x18, 0xbe, 0x3d, 0x8b, 0x55, 0x3f,
  0x39, 0xdd, 0xd4, 0x3e, 0xc6, 0x0d, 0x11, 0x3f, 0xcd, 0x64, 0xe2, 0x3e,
  0x97, 0xfc, 0x63, 0x3f, 0x58, 0x87, 0xcd, 0x3e, 0x28, 0x81, 0xbf, 0x3e,
  0x2d, 0x2d, 0x5c, 0x3e, 0xe2, 0xeb, 0x4a, 0x3e, 0xfd, 0xc0, 0x64, 0x3e,
  0x2a, 0xe5, 0xab, 0xbe, 0x4b, 0x19, 0x8d, 0xbc, 0x72, 0xec, 0x8c, 0x3e,
  0xd4, 0xbb, 0x64, 0x3e, 0x60, 0xf3, 0xbb, 0x3d, 0x56, 0x64, 0x56, 0x3e,
  0xd1, 0x2f, 0xa9, 0x3e, 0x39, 0xd7, 0x26, 0x3e, 0x22, 0x6b, 0x52, 0xbd,
  0xbb, 0x31, 0xdb, 0x3d, 0x1f, 0x78, 0x8b, 0x3e, 0xcb, 0xdf, 0x80, 0x3b,
  0x88, 0x76, 0xb6, 0x3d, 0xdd, 0xbe, 0x66, 0x3e, 0x93, 0x64, 0xd7, 0x3d,
  0x7e, 0x11, 0xcb, 0xbd, 0x81, 0x36, 0xf1, 0xbe, 0xb2, 0xfa, 0xdf, 0x3e,
  0xe3, 0x63, 0xbc, 0x3e, 0xe6, 0x30, 0xd5, 0x3e, 0x59, 0x32, 0x8f, 0xbd,
  0x35, 0x12, 0x40, 0x3e, 0xc3, 0x88, 0x20, 0x3e, 0xce, 0xe9, 0xe8, 0xbc,
  0xf1, 0x6c, 0x07, 0xbe, 0x27, 0x22, 0xfe, 0xbc, 0x0c, 0xf9, 0x0d, 0x3e,
  0x23, 0x98, 0xcb, 0x3d, 0x09, 0x95, 0x42, 0x3d, 0x3e, 0x14, 0xd4, 0x3c,
  0xe4, 0x2e, 0xf4, 0x3d, 0xae, 0x79, 0x36, 0x3e, 0x83, 0xa9, 0xbd, 0xbe,
  0x84, 0x44, 0x4b, 0x3e, 0xb3, 0xd1, 0x3d, 0x3e, 0x36, 0x05, 0x22, 0x3e,
  0x8d, 0x63, 0xbf, 0x3d, 0x5b, 0xc1, 0x4d, 0x3d, 0x16, 0x7d, 0x83, 0xbd,
  0x5a, 0x74, 0xec, 0xbe, 0x7e, 0x21, 0x04, 0xbf, 0xe2, 0xc5, 0x17, 0x3e,
  0xa6, 0xd2, 0x79, 0xbe, 0x36, 0x3e, 0xa5, 0xbe, 0x0b, 0x62, 0x32, 0xbc,
  0xa1, 0xaa, 0x59, 0xbe, 0x1b, 0xd5, 0x1b, 0x3e, 0x2b, 0x90, 0x38, 0x3d,
  0xa4, 0xa3, 0xc9, 0xbd, 0x62, 0x37, 0x78, 0x3d, 0x14, 0x22, 0xa5, 0x3d,
  0xc0, 0x0e, 0x1a, 0x3d, 0xe4, 0xfa, 0x14, 0xbd, 0x48, 0x9c, 0x3d, 0xbc,
  0x95, 0x65, 0xb9, 0x3d, 0x5f, 0x5e, 0xb9, 0xbc, 0xb6, 0x95, 0x14, 0xbe,
  0x7c, 0x63, 0x9d, 0x3d, 0x3d, 0xe4, 0x41, 0x3c, 0x0e, 0xbb, 0xcd, 0x3b,
  0x6e, 0x75, 0x1b, 0x3d, 0x3e, 0x99, 0x3f, 0x3d, 0x94, 0x42, 0x69, 0x3c,
  0x2a, 0xdc, 0x91, 0xbe, 0x43, 0x36, 0x44, 0xbe, 0x7e, 0xd1, 0x8f, 0x3e,
  0xe0, 0xc7, 0xda, 0xbd, 0x07, 0x8d, 0x8a, 0xbe, 0x92, 0xae, 0x10, 0xbe,
  0x8c, 0x62, 0xd4, 0xbd, 0xf5, 0x8b, 0x85, 0x3d, 0xf1, 0x56, 0xbb, 0xbc,
  0x5b, 0xd0, 0x55, 0xbd, 0x28, 0x69, 0x72, 0x3d, 0x64, 0xe3, 0x4e, 0x3c,
  0x04, 0x3c, 0xd2, 0xbd, 0x4a, 0xbe, 0xbc, 0xbc, 0x30, 0xdd, 0x8f, 0xbd,
  0x58, 0x98, 0x89, 0xbb, 0x11, 0x3e, 0x85, 0x3d, 0x8b, 0x87, 0x8d, 0xbb,
  0x84, 0x3b, 0x9a, 0x3d, 0x7c, 0xc6, 0xf3, 0x3d, 0x2d, 0x3a, 0xe5, 0x3d,
  0xd1, 0xda, 0x4a, 0x3c, 0xfb, 0xb8, 0x31, 0xbd, 0x5e, 0x91, 0x4c, 0x3d,
  0xd7, 0xd1, 0x85, 0xbe, 0xc5, 0xb7, 0x4e, 0xbd, 0xe6, 0x2e, 0xf5, 0x3d,
  0x4d, 0xcc, 0x9f, 0xbd, 0x6d, 0xb3, 0x9a, 0xbe, 0x04, 0x62, 0xd0, 0x3c,
  0xb2, 0x04, 0xce, 0x3c, 0xf8, 0xcb, 0x68, 0x3e, 0x13, 0xa2, 0x21, 0x3d,
  0x2b, 0x51, 0x76, 0xbd, 0x5e, 0x1a, 0xb2, 0xbc, 0xba, 0x8f, 0xd4, 0xbc,
  0x70, 0xce, 0x20, 0xbe, 0x53, 0xc7, 0x17, 0x3e, 0xfe, 0x7d, 0xac, 0x3b,
  0x07, 0x56, 0xec, 0x3d, 0x27, 0xb6, 0x2d, 0x3d, 0xb2, 0xa6, 0x9a, 0x3d,
  0xbf, 0x51, 0x36, 0x3d, 0x74, 0x98, 0x69, 0xbd, 0xa2, 0x9a, 0x57, 0x3d,
  0xbe, 0xfb, 0xd1, 0x3d, 0xc9, 0xc8, 0x4c, 0xba, 0x1e, 0xd4, 0xbb, 0x3c,
  0x09, 0xf8, 0x38, 0xbb, 0x73, 0x91, 0xbd, 0xbe, 0x2b, 0xff, 0xc8, 0x3d,
  0x6f, 0xbb, 0xd9, 0x3d, 0x86, 0xef, 0x41, 0xbd, 0x03, 0x0f, 0x68, 0x3c,
  0x1b, 0xc5, 0xa1, 0xbc, 0xd1, 0x90, 0x61, 0x3e, 0x30, 0xd2, 0xf0, 0x3e,
  0x79, 0xdc, 0x41, 0x3e, 0xef, 0xc7, 0x2b, 0x3d, 0xa5, 0x7f, 0x83, 0x3e,
  0x1d, 0xba, 0x18, 0xbd, 0xef, 0xe0, 0x10, 0x3f, 0x67, 0xf4, 0x3e, 0x3e,
  0x5f, 0xb7, 0x19, 0x3e, 0x40, 0xd0, 0x12, 0x3f, 0x1c, 0x4e, 0x4c, 0x3e,
  0x1c, 0x98, 0x88, 0xbb, 0x27, 0xfe, 0x90, 0x3e, 0x2e, 0xc6, 0xd7, 0xbd,
  0x0d, 0x34, 0x0e, 0x3f, 0x04, 0x80, 0x2b, 0x3e, 0x84, 0xe1, 0xb7, 0x3e,
  0xaa, 0xfb, 0x9a, 0x3f, 0x4b, 0xb8, 0xc1, 0x3c, 0xa7, 0xa8, 0xa7, 0x3e,
  0xe9, 0xf8, 0x7e, 0x3f, 0x7a, 0xc8, 0x86, 0x3e, 0x15, 0xb9, 0x55, 0x3f,
  0xf9, 0xb6, 0x5c, 0x3f, 0x1b, 0x06, 0x33, 0x3e, 0x89, 0xa8, 0x2e, 0xbd,
  0xe3, 0xbf, 0xd5, 0xbe, 0x12, 0x29, 0x48, 0x3e, 0xdd, 0xe5, 0x09, 0x3d,
  0xb4, 0xa5, 0xdb, 0x3e, 0xb3, 0x9b, 0x23, 0x3e, 0xe6, 0xf6, 0x0d, 0x3e,
  0x3e, 0x11, 0x05, 0x3e, 0xf1, 0x0a, 0xb4, 0x3d, 0x6a, 0x8a, 0x70, 0xbe,
  0xe6, 0xca, 0xdf, 0x3c, 0x59, 0x10, 0x22, 0x3d, 0xf5, 0xf3, 0x95, 0x3e,
  0xa4, 0x65, 0x39, 0x3e, 0xd0, 0x34, 0x65, 0x3e, 0x99, 0xe4, 0x03, 0xbf,
  0xbf, 0xbd, 0x70, 0xbe, 0xb6, 0x70, 0xf3, 0xbe, 0x5d, 0x49, 0x53, 0x3e,
  0x60, 0xdf, 0xc3, 0xbc, 0x84, 0x8b, 0xb3, 0x3e, 0x1a, 0x72, 0x65, 0xba,
  0x45, 0x15, 0x1e, 0x3e, 0x6c, 0x0a, 0x12, 0xbd, 0x3e, 0x74, 0x22, 0x3c,
  0xe3, 0xd8, 0xb1, 0xbd, 0x07, 0xc7, 0xc3, 0x3d, 0xca, 0x45, 0x9f, 0xbd,
  0xc8, 0x2a, 0x37, 0xbd, 0xb2, 0xd5, 0x80, 0xbc, 0x7e, 0xaf, 0x8b, 0x3d,
  0x36, 0xaf, 0x0a, 0x3e, 0x66, 0xb2, 0x3e, 0x3e, 0x69, 0x8a, 0xd4, 0xbe,
  0xcb, 0x02, 0xbc, 0x3e, 0x80, 0x69, 0xde, 0x3d, 0x35, 0x98, 0x07, 0x3e,
  0x48, 0x10, 0xbf, 0x3d, 0xe6, 0x92, 0xaa, 0x3d, 0xd6, 0x3e, 0x20, 0xbf,
  0x81, 0x21, 0xa5, 0xbe, 0xcd, 0x5d, 0x69, 0xbe, 0x4c, 0x6a, 0x7a, 0x3d,
  0xfb, 0x73, 0x0a, 0xbf, 0xf6, 0x87, 0x42, 0xbe, 0x2c, 0xe2, 0xe0, 0xbd,
  0xb0, 0xed, 0xe9, 0xbc, 0x94, 0x5d, 0xaa, 0xbd, 0x2f, 0x99, 0xf5, 0xbd,
  0x57, 0xbd, 0xd6, 0xbc, 0x90, 0xd0, 0x3e, 0x3e, 0x0d, 0x24, 0x8b, 0x3d,
  0x0b, 0x6d, 0x31, 0x3d, 0x90, 0x88, 0x1c, 0xbd, 0xcf, 0xb2, 0x77, 0x3d,
  0x50, 0x91, 0x9a, 0x3d, 0x93, 0x13, 0xf4, 0x3d, 0x30, 0x63, 0xf2, 0xbe,
  0x76, 0x5e, 0xcd, 0x3e, 0x3d, 0x49, 0xe2, 0xbd, 0xc8, 0x2b, 0x01, 0xbe,
  0x0b, 0xcf, 0x06, 0xbe, 0x73, 0x81, 0xec, 0x3d, 0xc9, 0x74, 0x4e, 0xbf,
  0x18, 0x53, 0x2a, 0xbe, 0x99, 0x8f, 0x99, 0x3b, 0x89, 0x73, 0xc3, 0xbd,
  0xcf, 0x9c, 0x16, 0xbf, 0x07, 0x28, 0x8d, 0xbd, 0xa4, 0x49, 0x49, 0xbe,
  0xa3, 0x7c, 0xa6, 0xbc, 0xba, 0x91, 0xc3, 0x3d, 0x8c, 0x9b, 0x9d, 0xbd,
  0xe6, 0xd4, 0xa5, 0xbd, 0x9d, 0x1e, 0xf5, 0x3d, 0x34, 0x3d, 0xeb, 0xbd,
  0x38, 0x6b, 0xcf, 0xbd, 0x38, 0x15, 0x01, 0xbe, 0xc7, 0xc0, 0xe6, 0xbd,
  0xc1, 0x1a, 0xa8, 0x3c, 0x13, 0x82, 0xc1, 0x3d, 0x9f, 0x01, 0x30, 0x3d,
  0xc8, 0xb7, 0x47, 0x3e, 0xf3, 0xec, 0x0a, 0x3d, 0xb8, 0x59, 0xa5, 0xbb,
  0xee, 0x3a, 0x69, 0x3d, 0x87, 0x87, 0x37, 0xbd, 0xdb, 0xf8, 0x6a, 0xbf,
  0x29, 0x45, 0xa9, 0xbe, 0x85, 0x35, 0x91, 0xbf, 0x24, 0xc1, 0x21, 0xbb,
  0xcd, 0xa7, 0x69, 0xbf, 0x68, 0xc6, 0xfb, 0xbe, 0x3e, 0x69, 0x0e, 0xbf,
  0x63, 0xa1, 0xc0, 0xbd, 0xdf, 0x86, 0x1a, 0xbb, 0x44, 0xfa, 0xea, 0xbd,
  0xb2, 0x1a, 0xf6, 0xbd, 0x8b, 0x86, 0xa2, 0x3d, 0x96, 0x8b, 0xa9, 0x3c,
  0xb4, 0x46, 0x85, 0x3c, 0x5c, 0xe7, 0x07, 0xbe, 0xc0, 0x89, 0xe2, 0xbd,
  0x41, 0xa9, 0x47, 0xbd, 0x4b, 0xba, 0x23, 0xbd, 0xf1, 0xa2, 0x4f, 0xbd,
  0xe9, 0x8e, 0x79, 0x3e, 0x33, 0x03, 0xe6, 0x3d, 0x9d, 0xe9, 0x27, 0xbd,
  0x2f, 0x12, 0x49, 0xbe, 0x72, 0x06, 0x0a, 0xbe, 0x8f, 0xdc, 0x51, 0xbf,
  0xe4, 0x65, 0x45, 0xbf, 0xf8, 0xe2, 0x86, 0x3d, 0xed, 0x0a, 0x98, 0xbd,
  0x97, 0x6b, 0x69, 0xbf, 0xf7, 0x77, 0x17, 0xbf, 0x7f, 0xdd, 0x51, 0xbf,
  0x6d, 0xb8, 0x15, 0xbf, 0x22, 0x89, 0x93, 0xbe, 0xc5, 0xa5, 0x6c, 0xbe,
  0x9a, 0xa5, 0xae, 0x3e, 0xb4, 0x57, 0x91, 0x3d, 0x6a, 0x27, 0x4a, 0xbe,
  0xc6, 0x2c, 0x9d, 0xbd, 0xb4, 0x68, 0x86, 0xbe, 0xd5, 0x42, 0x23, 0xbe,
  0xb9, 0xc6, 0xb3, 0xbe, 0x9c, 0x0b, 0x2e, 0xbe, 0xbb, 0x57, 0x25, 0x3e,
  0x2c, 0x04, 0x9c, 0xbd, 0xac, 0xc7, 0x8f, 0xbe, 0x3b, 0x55, 0x57, 0xbe,
  0x46, 0x14, 0x7e, 0xbe, 0x7c, 0xb7, 0x82, 0xbe, 0xeb, 0xf4, 0x17, 0xbc,
  0x76, 0x8b, 0x9a, 0x3e, 0x98, 0x4e, 0x24, 0x3f, 0xfe, 0x64, 0x8a, 0xbe,
  0xa5, 0xb2, 0xdc, 0xbe, 0x32, 0x2c, 0x98, 0xbe, 0x19, 0x0a, 0x15, 0x3e,
  0x05, 0x7f, 0xce, 0xbd, 0x61, 0xba, 0x8e, 0x3d, 0x40, 0xae, 0x58, 0x3e,
  0xae, 0x1f, 0xd6, 0x3e, 0xb3, 0x9d, 0x92, 0xbd, 0x5a, 0x4d, 0x92, 0xbe,
  0x83, 0x31, 0x6c, 0xbe, 0xd9, 0x6a, 0x26, 0x3d, 0x6f, 0x6d, 0x39, 0xbe,
  0xd9, 0x21, 0x9f, 0xbd, 0x0f, 0x53, 0x38, 0xbc, 0xfe, 0x9b, 0x97, 0x3e,
  0xf9, 0x04, 0x41, 0xbe, 0xa2, 0x05, 0xd1, 0xbe, 0x59, 0x08, 0x61, 0xbe,
  0xd2, 0x64, 0x3d, 0xbd, 0x58, 0xe2, 0x65, 0xbe, 0xf7, 0x1c, 0xf4, 0x3e,
  0x88, 0xe5, 0x10, 0x3f, 0x46, 0xdf, 0x84, 0x3f, 0x5e, 0x2f, 0xcb, 0x3e,
  0xe1, 0x2c, 0x8c, 0x3e, 0x5e, 0x32, 0xd4, 0x3e, 0x76, 0x6d, 0xcc, 0x3e,
  0x01, 0x37, 0x6c, 0x3e, 0x34, 0x5d, 0x99, 0xbe, 0x88, 0x15, 0x9d, 0xbd,
  0x57, 0x50, 0xf4, 0xbe, 0xaf, 0xef, 0x73, 0x3f, 0x4a, 0x71, 0xa8, 0xbe,
  0x9b, 0xef, 0x99, 0x3e, 0xf0, 0x0b, 0x8a, 0x3b, 0xe4, 0xe9, 0xad, 0x3e,
  0x20, 0x81, 0x37, 0xbf, 0x46, 0xdb, 0xf7, 0x3e, 0xde, 0x03, 0x8e, 0xbe,
  0xdf, 0xc4, 0xf8, 0x3e, 0xbe, 0x2d, 0x41, 0xbf, 0xaa, 0x9e, 0x1e, 0x3f,
  0x55, 0x63, 0xa4, 0x3c, 0xa3, 0x12, 0xa7, 0x3e, 0x95, 0xb6, 0x7c, 0xbf,
  0x28, 0x32, 0x1f, 0x3e, 0x22, 0xc8, 0xab, 0xbe, 0xa3, 0x41, 0xca, 0x3f,
  0x15, 0xfb, 0xe3, 0xbe, 0xf9, 0x95, 0xfa, 0x3e, 0x84, 0x2a, 0xe4, 0xbd,
  0x5c, 0x0c, 0x12, 0xbb, 0x22, 0xb8, 0xc2, 0xbe, 0x25, 0xc3, 0xa4, 0xbc,
  0x21, 0x01, 0x16, 0x3e, 0x00, 0x8f, 0x44, 0x3f, 0x9b, 0xf1, 0x44, 0xbf,
  0xda, 0x86, 0x10, 0x3e, 0x29, 0x98, 0x80, 0x3d, 0xe3, 0x81, 0x09, 0xbd,
  0x62, 0xf5, 0x23, 0xbf, 0x31, 0x77, 0xbc, 0x3e, 0x40, 0xc4, 0x7d, 0xbd,
  0xfb, 0x0d, 0x2f, 0x3f, 0xb3, 0x23, 0x2c, 0xbf, 0xed, 0x4c, 0x78, 0xbd,
  0xf2, 0x5c, 0x35, 0x3d, 0xda, 0xa0, 0x98, 0x3d, 0x36, 0xd5, 0x7e, 0xbe,
  0x02, 0x18, 0xa1, 0x3e, 0xc5, 0x11, 0xca, 0xbe, 0xfa, 0x7d, 0xc9, 0x3f,
  0x21, 0xa0, 0xa7, 0xbf, 0xb8, 0x4e, 0x1c, 0x3d, 0x82, 0x64, 0x99, 0xbe,
  0x05, 0x65, 0xa5, 0xbd, 0x7a, 0xd4, 0x51, 0xbd, 0x97, 0xcf, 0xc8, 0x3e,
  0x59, 0x0a, 0xc7, 0xbe, 0x97, 0x16, 0x3b, 0x3f, 0x61, 0x3d, 0x4e, 0xbf,
  0x14, 0xc2, 0xaa, 0x3e, 0x37, 0x01, 0x92, 0xbe, 0x96, 0xb2, 0xa2, 0xbb,
  0xb7, 0xd7, 0x3a, 0xbe, 0xbc, 0xe9, 0x6d, 0x3e, 0xdc, 0xfc, 0xec, 0xbe,
  0x40, 0x4d, 0x39, 0x3f, 0x4d, 0xa5, 0x26, 0xbf, 0xf8, 0xa8, 0xe8, 0x3c,
  0xd8, 0x96, 0x04, 0xbd, 0xfd, 0x14, 0x85, 0x3d, 0xa2, 0xd3, 0xc2, 0xbe,
  0xc2, 0x64, 0x05, 0xbe, 0xf1, 0x7b, 0x46, 0xbf, 0x97, 0x77, 0xab, 0x3f,
  0xa2, 0x31, 0x5b, 0xbf, 0x36, 0x08, 0xd6, 0x3e, 0x0c, 0xbc, 0x52, 0xbf,
  0xf3, 0xea, 0x03, 0xbf, 0xd6, 0xa2, 0xa7, 0xbe, 0xa1, 0x73, 0x58, 0x3e,
  0x9d, 0xfa, 0x42, 0xbf, 0x90, 0xbf, 0x5f, 0x3f, 0x29, 0x27, 0x0f, 0xbf,
  0x93, 0x7a, 0x1c, 0xbe, 0x5b, 0x17, 0x08, 0xbf, 0x2e, 0x01, 0xba, 0xbe,
  0xae, 0xce, 0x26, 0xbe, 0x8b, 0x39, 0xef, 0x3d, 0x3c, 0x63, 0x5e, 0xbf,
  0x35, 0xd9, 0x3a, 0x3f, 0x36, 0x9b, 0xde, 0xbe, 0x65, 0x40, 0x20, 0xbe,
  0xc0, 0xc7, 0xcb, 0xbe, 0xd7, 0x45, 0x20, 0xbe, 0x86, 0xb8, 0xb6, 0xbe,
  0xed, 0xf2, 0x8f, 0xbf, 0x65, 0xf9, 0x67, 0xbf, 0x7d, 0x05, 0x97, 0x3f,
  0xfd, 0x2c, 0x7e, 0xbf, 0xfd, 0xfc, 0x43, 0xbf, 0xc9, 0x22, 0xc5, 0xbf,
  0xd5, 0xc0, 0xb1, 0xbf, 0x0f, 0x0e, 0x51, 0x3d, 0xd7, 0x21, 0xc3, 0x3c,
  0xb7, 0xa9, 0xb0, 0xbc, 0xfc, 0xb7, 0x04, 0x3f, 0xb0, 0x55, 0x50, 0xbf,
  0x0b, 0xab, 0x53, 0xbe, 0x48, 0x7e, 0x51, 0xbf, 0x6b, 0x52, 0x50, 0xbf,
  0x8f, 0x62, 0x07, 0xbf, 0x28, 0x8f, 0x78, 0xbe, 0xba, 0xe5, 0x02, 0xbe,
  0x66, 0x18, 0xf7, 0x3e, 0xca, 0xfc, 0x21, 0xbf, 0x7b, 0x4a, 0x13, 0xbe,
  0xd0, 0x30, 0x2a, 0xbf, 0x0d, 0x00, 0x0c, 0xbf, 0xb3, 0x81, 0x16, 0x3f,
  0x9b, 0x97, 0x71, 0xbf, 0xd2, 0xb3, 0xe9, 0xbe, 0x39, 0x1e, 0x3d, 0x3f,
  0x23, 0xd5, 0xc3, 0xbf, 0xac, 0xd6, 0x39, 0xbf, 0xbd, 0x70, 0xb3, 0xbf,
  0x45, 0x45, 0x09, 0xc0, 0x9f, 0x59, 0xcb, 0xbd, 0xb1, 0x6f, 0x3c, 0xbd,
  0x7e, 0xf1, 0xa0, 0x3e, 0x16, 0xdd, 0xcd, 0xbd, 0x80, 0xdf, 0x9c, 0x3b,
  0x2e, 0x02, 0x8d, 0xbe, 0x6e, 0x48, 0x30, 0xbe, 0x44, 0x72, 0x63, 0xbe,
  0xaf, 0xf5, 0xd5, 0xbd, 0xc8, 0x59, 0x4b, 0xbd, 0xb4, 0xd8, 0x33, 0x3e,
  0x3a, 0x73, 0xcb, 0xbd, 0xd2, 0x5b, 0xa5, 0x3d, 0xd5, 0x4d, 0x05, 0xbf,
  0x34, 0xbb, 0x14, 0xbe, 0xbe, 0x70, 0x25, 0xbd, 0xbd, 0x26, 0xb8, 0x3e,
  0xba, 0x99, 0xc0, 0x3e, 0xf2, 0xa3, 0x1d, 0x3f, 0x82, 0xe2, 0x9e, 0x3e,
  0x4c, 0xfe, 0x00, 0x3f, 0xc7, 0xf8, 0x35, 0x3e, 0x5f, 0xbc, 0xec, 0xbc,
  0xd1, 0xa2, 0x84, 0x3d, 0x67, 0x93, 0xee, 0xbb, 0xdc, 0x44, 0x95, 0x3c,
  0xa8, 0xaf, 0x45, 0x3e, 0x55, 0xa9, 0xc8, 0xbd, 0x11, 0xee, 0x1a, 0x3c,
  0x9f, 0x3d, 0x11, 0xbd, 0xd8, 0x12, 0x30, 0x3d, 0xa4, 0x21, 0x9c, 0xbd,
  0xff, 0xdf, 0x9b, 0x3a, 0xa2, 0x09, 0x15, 0x3c, 0x66, 0x1b, 0xda, 0x3d,
  0x2b, 0x45, 0x6a, 0xbd, 0x69, 0xe9, 0xc9, 0xbd, 0x20, 0x70, 0x12, 0xbe,
  0xde, 0x44, 0x38, 0xbb, 0x93, 0x33, 0x52, 0xbd, 0xb5, 0xe9, 0xef, 0x3d,
  0x0d, 0x64, 0x0d, 0x3e, 0xf9, 0x35, 0x21, 0x3f, 0xa6, 0x65, 0x63, 0x3e,
  0x21, 0xd3, 0x8f, 0x3e, 0x60, 0x60, 0xa0, 0x3e, 0xa4, 0xe8, 0xda, 0x3d,
  0x2c, 0xd5, 0xa4, 0x3d, 0x26, 0x75, 0x39, 0x3e, 0xa0, 0x74, 0x02, 0x3e,
  0x96, 0x2e, 0xf1, 0x3c, 0xf8, 0xa0, 0x7e, 0xbc, 0x28, 0xe0, 0xa5, 0x3d,
  0x81, 0xce, 0xa1, 0x3d, 0x5c, 0x1b, 0x3a, 0x3e, 0xd0, 0xdf, 0x5c, 0x3d,
  0xa6, 0x9f, 0x52, 0x3e, 0xcd, 0x66, 0x7e, 0x3e, 0x2c, 0x76, 0xfa, 0xbc,
  0xd6, 0x20, 0x25, 0x3d, 0xf6, 0xd9, 0xd6, 0x3d, 0xf2, 0x4f, 0xde, 0x3b,
  0x2d, 0x6f, 0x01, 0x3e, 0x16, 0x4c, 0x8e, 0x3c, 0x4a, 0xe7, 0xb4, 0xbd,
  0xc4, 0x44, 0xc4, 0xbd, 0x97, 0xcd, 0x3f, 0x3d, 0xf0, 0x4c, 0x00, 0x3b,
  0x0e, 0x7c, 0x8c, 0xbb, 0xdf, 0xfe, 0x87, 0x3d, 0x73, 0x03, 0xa5, 0xbd,
  0x5b, 0x53, 0x86, 0xbc, 0x5a, 0xae, 0x3a, 0x3d, 0x21, 0xea, 0xa0, 0xbc,
  0x33, 0xd2, 0xb2, 0xbf, 0xc1, 0xd9, 0x3e, 0x3f, 0x5b, 0x15, 0x04, 0x3f,
  0x34, 0x66, 0x12, 0xbf, 0x97, 0xea, 0x7c, 0x3f, 0xdf, 0x03, 0xc2, 0x3f,
  0x5d, 0xcc, 0x84, 0xbd, 0x7a, 0x04, 0xb4, 0x3e, 0x4c, 0xed, 0x93, 0xbf,
  0x12, 0x71, 0xf8, 0x3e, 0x84, 0xd3, 0x91, 0x3e, 0xa9, 0xff, 0x04, 0xbf,
  0xdd, 0xb7, 0x6a, 0x3f, 0xce, 0xb0, 0xd2, 0x3f, 0xf2, 0x13, 0xee, 0x3e,
  0x14, 0x05, 0x14, 0x3f, 0x90, 0x08, 0xbf, 0xbf, 0xdb, 0x3d, 0x87, 0x3f,
  0x90, 0x1e, 0xa7, 0x3f, 0xad, 0x1c, 0x75, 0xbe, 0xc7, 0xbc, 0x8a, 0x3f,
  0x09, 0xb7, 0x15, 0x40, 0xe0, 0x75, 0x15, 0xbe, 0x03, 0x7b, 0x7f, 0xbe,
  0x3a, 0x8d, 0xd1, 0xbe, 0xf1, 0xcb, 0xc8, 0x3d, 0xb7, 0xf2, 0x4a, 0xbe,
  0xa9, 0x6f, 0x19, 0xbe, 0x0f, 0x97, 0x8a, 0x3e, 0x05, 0x08, 0x25, 0x3e,
  0xe9, 0xe7, 0x71, 0xbe, 0xb7, 0xe9, 0xae, 0xbd, 0x40, 0x51, 0xf2, 0xbe,
  0x8f, 0x2a, 0xc0, 0xbb, 0x6c, 0x7e, 0xfc, 0xbd, 0xcf, 0x73, 0x19, 0x3e,
  0x19, 0xc7, 0x04, 0x3e, 0x40, 0x77, 0x8b, 0x3e, 0x30, 0x92, 0xe9, 0xbd,
  0xd3, 0xb2, 0x9a, 0xbd, 0x4b, 0x51, 0x43, 0xbf, 0x5c, 0x7a, 0x78, 0x3d,
  0x15, 0xa8, 0xf7, 0xbd, 0x06, 0x6f, 0xca, 0x3d, 0x4b, 0x51, 0xa4, 0x3e,
  0x2b, 0xf9, 0xa5, 0x3e, 0xf4, 0x85, 0x45, 0x3e, 0xe8, 0xa7, 0x4c, 0x3d,
  0x9a, 0x5d, 0x05, 0xbe, 0x2f, 0xd0, 0xb4, 0x3c, 0x4d, 0xc0, 0x9a, 0x3c,
  0x10, 0x91, 0x33, 0x3d, 0x77, 0x6d, 0x40, 0x3d, 0x65, 0xea, 0x95, 0x3d,
  0x72, 0x2f, 0xcb, 0x3d, 0x25, 0xc2, 0x72, 0xbc, 0x0e, 0xda, 0x70, 0xbe,
  0xfa, 0x8c, 0xd2, 0x3d, 0xa8, 0x14, 0x01, 0xbd, 0x21, 0x40, 0x06, 0xbe,
  0xa3, 0x9c, 0xb8, 0x3d, 0x95, 0x29, 0x5f, 0x3e, 0x09, 0x08, 0x05, 0x3e,
  0xda, 0xa6, 0x3d, 0x3d, 0xdb, 0xb4, 0x31, 0xbf, 0x28, 0xff, 0x58, 0xbc,
  0xd8, 0xd8, 0x81, 0x3d, 0x45, 0x18, 0x71, 0xbd, 0x0b, 0xb7, 0xeb, 0x3d,
  0xc7, 0x8b, 0x13, 0x3e, 0x0d, 0xa2, 0x18, 0x3e, 0x30, 0xf1, 0x99, 0xbd,
  0xfc, 0x92, 0x9e, 0xbd, 0xa3, 0xa8, 0x04, 0x3e, 0x0a, 0x43, 0x12, 0xbd,
  0xce, 0x6b, 0x41, 0x3e, 0x4d, 0x34, 0x99, 0x3d, 0xce, 0x43, 0x85, 0xbd,
  0xac, 0x14, 0x51, 0x3e, 0xc9, 0x0d, 0x76, 0xbd, 0x51, 0x70, 0xbe, 0x3c,
  0x6b, 0xef, 0xe3, 0x3c, 0xca, 0x92, 0xba, 0xbd, 0x91, 0x52, 0x82, 0xbd,
  0x63, 0x20, 0x08, 0x3e, 0x9a, 0x64, 0x05, 0x3d, 0xf9, 0xd8, 0xa1, 0xbc,
  0x5f, 0x52, 0x0c, 0xbe, 0xb9, 0xf0, 0x0a, 0xbf, 0xc6, 0xc8, 0xe8, 0x3c,
  0x58, 0x56, 0xb5, 0xbd, 0x84, 0x17, 0x00, 0x3c, 0x20, 0xf1, 0x96, 0x3c,
  0x56, 0x9b, 0x65, 0x3d, 0xea, 0x50, 0xa0, 0x3e, 0x60, 0x28, 0x3b, 0xbd,
  0xd5, 0x1a, 0x3d, 0x3e, 0x2a, 0xd6, 0x51, 0x3e, 0x74, 0x56, 0x31, 0x3e,
  0x58, 0x8e, 0x68, 0x3e, 0xf2, 0x15, 0xca, 0x3d, 0x96, 0x0d, 0xfe, 0xb8,
  0xb6, 0x84, 0x39, 0x3e, 0x42, 0x36, 0xb0, 0x3d, 0xa4, 0x80, 0x1f, 0x3e,
  0xa7, 0x8b, 0xd7, 0x3e, 0xeb, 0x86, 0x95, 0x3e, 0xe4, 0xfd, 0x5b, 0x3d,
  0xa9, 0x1a, 0x44, 0x3e, 0xa4, 0x6e, 0xb9, 0x3c, 0x33, 0xa7, 0x8e, 0x3d,
  0x28, 0x14, 0xb3, 0xbe, 0x85, 0x99, 0xd8, 0xbe, 0xd9, 0xfa, 0x46, 0x3c,
  0x80, 0xde, 0xce, 0xbd, 0xa6, 0x83, 0x1d, 0xbe, 0x60, 0x49, 0xf1, 0xbd,
  0x56, 0xf1, 0xfd, 0xbd, 0x3f, 0x60, 0x2b, 0x3e, 0xcd, 0x41, 0xcd, 0x3c,
  0xd6, 0xef, 0x92, 0x3e, 0xfd, 0x8d, 0x94, 0x3e, 0xc2, 0xad, 0x1f, 0x3e,
  0x0b, 0x68, 0xaa, 0x3e, 0x75, 0x80, 0x39, 0x3e, 0xa2, 0x60, 0xed, 0x3d,
  0xed, 0xfa, 0x3f, 0x3e, 0x1e, 0xca, 0x49, 0xbd, 0x49, 0x90, 0x4e, 0xbd,
  0x8c, 0x6d, 0xce, 0x3e, 0x62, 0x62, 0xb5, 0x3e, 0x3a, 0x69, 0xaa, 0x3e,
  0x97, 0x34, 0x65, 0x3c, 0xf2, 0x43, 0xc1, 0x3d, 0xa3, 0x60, 0x78, 0x3e,
  0x53, 0xe5, 0x6e, 0xbe, 0xf8, 0xda, 0x50, 0x3e, 0x1d, 0x90, 0x29, 0x3e,
  0xff, 0x3c, 0x3b, 0x3d, 0xd1, 0xa9, 0x81, 0xbe, 0x79, 0x28, 0x38, 0x3d,
  0x4a, 0x9e, 0xa3, 0xbd, 0x94, 0xa1, 0x7e, 0x3b, 0xcc, 0xad, 0x39, 0xbe,
  0x54, 0xe9, 0x18, 0x3e, 0xa3, 0x52, 0x29, 0x3e, 0xff, 0x76, 0xff, 0x3d,
  0xff, 0xea, 0x0b, 0xbd, 0x58, 0xab, 0xa2, 0xbd, 0xc8, 0x43, 0x84, 0xbd,
  0x8e, 0x04, 0xa7, 0xbd, 0xbb, 0xbd, 0xa3, 0xbd, 0x57, 0x5f, 0x67, 0xbe,
  0x00, 0xca, 0x18, 0x3e, 0x89, 0xaa, 0x40, 0x3b, 0xe5, 0xc6, 0x85, 0xbd,
  0x6f, 0x54, 0x40, 0xbe, 0xc9, 0xbf, 0xb4, 0xbd, 0x8c, 0x11, 0x91, 0x3e,
  0xa7, 0x4a, 0xd8, 0xbc, 0x82, 0x0f, 0x98, 0x3e, 0x47, 0xee, 0x8b, 0x3e,
  0xd0, 0xd6, 0x74, 0x3e, 0xd0, 0x19, 0x51, 0xbe, 0x5a, 0xcc, 0xd1, 0x3d,
  0x62, 0x62, 0x72, 0x3d, 0xcf, 0x22, 0xb7, 0xbe, 0x82, 0x0c, 0x00, 0xbf,
  0x30, 0x7a, 0x34, 0xbe, 0xd9, 0xcd, 0x1a, 0x3d, 0x8b, 0xc7, 0xf3, 0xbd,
  0xf1, 0xbd, 0x6b, 0xbe, 0xe8, 0xd3, 0xc5, 0xbe, 0x6b, 0x40, 0x20, 0xbe,
  0x29, 0xbf, 0xa5, 0xbe, 0xf3, 0x49, 0x09, 0xbf, 0xc6, 0x6c, 0xa3, 0xbe,
  0xd2, 0x69, 0x20, 0x3e, 0xce, 0x76, 0x5e, 0xbe, 0x38, 0xcd, 0xf4, 0xbd,
  0x21, 0xf5, 0xc3, 0xbe, 0xc9, 0x58, 0x44, 0xbe, 0x93, 0x46, 0x89, 0xbb,
  0x6b, 0xfc, 0x0e, 0xbf, 0xe6, 0xc2, 0x82, 0xbe, 0x3b, 0xb1, 0x9b, 0x3e,
  0x90, 0x36, 0x23, 0x3e, 0x72, 0xa0, 0xcc, 0xbd, 0x14, 0xa5, 0x75, 0xbe,
  0x9c, 0x0c, 0x01, 0xbd, 0x86, 0xfd, 0xff, 0xff, 0x10, 0x00, 0x00, 0x00,
  0x07, 0x00, 0x00, 0x00, 0x14, 0x00, 0x00, 0x00, 0x34, 0x00, 0x00, 0x00,
  0x02, 0x00, 0x00, 0x00, 0x10, 0x00, 0x00, 0x00, 0xc0, 0x00, 0x00, 0x00,
  0x1d, 0x00, 0x00, 0x00, 0x73, 0x65, 0x71, 0x75, 0x65, 0x6e, 0x74, 0x69,
  0x61, 0x6c, 0x5f, 0x31, 0x30, 0x2f, 0x64, 0x65, 0x6e, 0x73, 0x65, 0x5f,
  0x32, 0x30, 0x2f, 0x4d, 0x61, 0x74, 0x4d, 0x75, 0x6c, 0x00, 0x00, 0x00,
  0xf8, 0xfc, 0xff, 0xff, 0xea, 0xfd, 0xff, 0xff, 0x04, 0x00, 0x00, 0x00,
  0x08, 0x00, 0x00, 0x00, 0xff, 0xff, 0xff, 0xff, 0xc0, 0x00, 0x00, 0x00,
  0x00, 0x00, 0x0e, 0x00, 0x18, 0x00, 0x08, 0x00, 0x07, 0x00, 0x0c, 0x00,
  0x10, 0x00, 0x14, 0x00, 0x0e, 0x00, 0x00, 0x00, 0x00, 0x00, 0x00, 0x02,
  0x10, 0x00, 0x00, 0x00, 0x06, 0x00, 0x00, 0x00, 0x10, 0x00, 0x00, 0x00,
  0x30, 0x00, 0x00, 0x00, 0x01, 0x00, 0x00, 0x00, 0x02, 0x00, 0x00, 0x00,
  0x1e, 0x00, 0x00, 0x00, 0x73, 0x65, 0x71, 0x75, 0x65, 0x6e, 0x74, 0x69,
  0x61, 0x6c, 0x5f, 0x31, 0x30, 0x2f, 0x66, 0x6c, 0x61, 0x74, 0x74, 0x65,
  0x6e, 0x5f, 0x31, 0x30, 0x2f, 0x43, 0x6f, 0x6e, 0x73, 0x74, 0x00, 0x00,
  0x64, 0xfd, 0xff, 0xff, 0x56, 0xfe, 0xff, 0xff, 0x04, 0x00, 0x00, 0x00,
  0x0c, 0x00, 0x00, 0x00, 0x56, 0x5d, 0x8d, 0xbd, 0x34, 0x41, 0xe3, 0x3d,
  0xad, 0xd4, 0x18, 0xbe, 0x52, 0xfe, 0xff, 0xff, 0x10, 0x00, 0x00, 0x00,
  0x05, 0x00, 0x00, 0x00, 0x10, 0x00, 0x00, 0x00, 0x48, 0x00, 0x00, 0x00,
  0x01, 0x00, 0x00, 0x00, 0x03, 0x00, 0x00, 0x00, 0x36, 0x00, 0x00, 0x00,
  0x73, 0x65, 0x71, 0x75, 0x65, 0x6e, 0x74, 0x69, 0x61, 0x6c, 0x5f, 0x31,
  0x30, 0x2f, 0x64, 0x65, 0x6e, 0x73, 0x65, 0x5f, 0x32, 0x31, 0x2f, 0x42,
  0x69, 0x61, 0x73, 0x41, 0x64, 0x64, 0x2f, 0x52, 0x65, 0x61, 0x64, 0x56,
  0x61, 0x72, 0x69, 0x61, 0x62, 0x6c, 0x65, 0x4f, 0x70, 0x2f, 0x72, 0x65,
  0x73, 0x6f, 0x75, 0x72, 0x63, 0x65, 0x00, 0x00, 0xd8, 0xfd, 0xff, 0xff,
  0xca, 0xfe, 0xff, 0xff, 0x04, 0x00, 0x00, 0x00, 0x40, 0x00, 0x00, 0x00,
  0x87, 0xfc, 0xa7, 0xbd, 0x4f, 0x6c, 0x4f, 0x3e, 0x83, 0xdf, 0xff, 0x3d,
  0xd3, 0xd8, 0x46, 0x3d, 0x32, 0xf5, 0x15, 0xbe, 0xbf, 0x60, 0xfb, 0x3e,
  0x65, 0x68, 0x66, 0x3e, 0xc1, 0x0a, 0x1b, 0x3f, 0xbf, 0x02, 0xcf, 0x3d,
  0x6e, 0x8b, 0xd3, 0x3e, 0x50, 0xbf, 0xe0, 0x3e, 0xb0, 0xa0, 0x76, 0x3f,
  0x8d, 0x48, 0xc1, 0x3e, 0x6b, 0x07, 0xae, 0xbd, 0x50, 0x15, 0xaf, 0x3e,
  0xd1, 0xd3, 0xb3, 0x3e, 0xfa, 0xfe, 0xff, 0xff, 0x10, 0x00, 0x00, 0x00,
  0x04, 0x00, 0x00, 0x00, 0x10, 0x00, 0x00, 0x00, 0x48, 0x00, 0x00, 0x00,
  0x01, 0x00, 0x00, 0x00, 0x10, 0x00, 0x00, 0x00, 0x36, 0x00, 0x00, 0x00,
  0x73, 0x65, 0x71, 0x75, 0x65, 0x6e, 0x74, 0x69, 0x61, 0x6c, 0x5f, 0x31,
  0x30, 0x2f, 0x64, 0x65, 0x6e, 0x73, 0x65, 0x5f, 0x32, 0x30, 0x2f, 0x42,
  0x69, 0x61, 0x73, 0x41, 0x64, 0x64, 0x2f, 0x52, 0x65, 0x61, 0x64, 0x56,
  0x61, 0x72, 0x69, 0x61, 0x62, 0x6c, 0x65, 0x4f, 0x70, 0x2f, 0x72, 0x65,
  0x73, 0x6f, 0x75, 0x72, 0x63, 0x65, 0x00, 0x00, 0x80, 0xfe, 0xff, 0xff,
  0x72, 0xff, 0xff, 0xff, 0x04, 0x00, 0x00, 0x00, 0x20, 0x00, 0x00, 0x00,
  0x57, 0x33, 0x43, 0xbe, 0x1e, 0xd6, 0x79, 0xbd, 0xde, 0xd9, 0x04, 0xbb,
  0x5e, 0x72, 0x18, 0xbd, 0x15, 0x92, 0x53, 0xbe, 0xc2, 0xde, 0x9e, 0xbd,
  0x41, 0x4f, 0xb6, 0xbb, 0x9e, 0xd5, 0xde, 0xbb, 0x82, 0xff, 0xff, 0xff,
  0x10, 0x00, 0x00, 0x00, 0x03, 0x00, 0x00, 0x00, 0x10, 0x00, 0x00, 0x00,
  0x4c, 0x00, 0x00, 0x00, 0x01, 0x00, 0x00, 0x00, 0x08, 0x00, 0x00, 0x00,
  0x37, 0x00, 0x00, 0x00, 0x73, 0x65, 0x71, 0x75, 0x65, 0x6e, 0x74, 0x69,
  0x61, 0x6c, 0x5f, 0x31, 0x30, 0x2f, 0x63, 0x6f, 0x6e, 0x76, 0x32, 0x64,
  0x5f, 0x32, 0x31, 0x2f, 0x42, 0x69, 0x61, 0x73, 0x41, 0x64, 0x64, 0x2f,
  0x52, 0x65, 0x61, 0x64, 0x56, 0x61, 0x72, 0x69, 0x61, 0x62, 0x6c, 0x65,
  0x4f, 0x70, 0x2f, 0x72, 0x65, 0x73, 0x6f, 0x75, 0x72, 0x63, 0x65, 0x00,
  0x04, 0x00, 0x06, 0x00, 0x04, 0x00, 0x00, 0x00, 0x00, 0x00, 0x06, 0x00,
  0x08, 0x00, 0x04, 0x00, 0x06, 0x00, 0x00, 0x00, 0x04, 0x00, 0x00, 0x00,
  0x08, 0x00, 0x00, 0x00, 0xe5, 0xd3, 0x25, 0xbd, 0x0f, 0xd2, 0x7d, 0xbc,
  0x00, 0x00, 0x0e, 0x00, 0x14, 0x00, 0x04, 0x00, 0x00, 0x00, 0x08, 0x00,
  0x0c, 0x00, 0x10, 0x00, 0x0e, 0x00, 0x00, 0x00, 0x10, 0x00, 0x00, 0x00,
  0x02, 0x00, 0x00, 0x00, 0x10, 0x00, 0x00, 0x00, 0x48, 0x00, 0x00, 0x00,
  0x01, 0x00, 0x00, 0x00, 0x02, 0x00, 0x00, 0x00, 0x37, 0x00, 0x00, 0x00,
  0x73, 0x65, 0x71, 0x75, 0x65, 0x6e, 0x74, 0x69, 0x61, 0x6c, 0x5f, 0x31,
  0x30, 0x2f, 0x63, 0x6f, 0x6e, 0x76, 0x32, 0x64, 0x5f, 0x32, 0x30, 0x2f,
  0x42, 0x69, 0x61, 0x73, 0x41, 0x64, 0x64, 0x2f, 0x52, 0x65, 0x61, 0x64,
  0x56, 0x61, 0x72, 0x69, 0x61, 0x62, 0x6c, 0x65, 0x4f, 0x70, 0x2f, 0x72,
  0x65, 0x73, 0x6f, 0x75, 0x72, 0x63, 0x65, 0x00, 0x94, 0xff, 0xff, 0xff,
  0x14, 0x00, 0x18, 0x00, 0x04, 0x00, 0x00, 0x00, 0x08, 0x00, 0x0c, 0x00,
  0x10, 0x00, 0x00, 0x00, 0x00, 0x00, 0x14, 0x00, 0x14, 0x00, 0x00, 0x00,
  0x14, 0x00, 0x00, 0x00, 0x01, 0x00, 0x00, 0x00, 0x20, 0x00, 0x00, 0x00,
  0x40, 0x00, 0x00, 0x00, 0x28, 0x00, 0x00, 0x00, 0x04, 0x00, 0x00, 0x00,
  0x01, 0x00, 0x00, 0x00, 0x50, 0x00, 0x00, 0x00, 0x03, 0x00, 0x00, 0x00,
  0x01, 0x00, 0x00, 0x00, 0x08, 0x00, 0x00, 0x00, 0x69, 0x6e, 0x70, 0x75,
  0x74, 0x5f, 0x31, 0x31, 0x00, 0x00, 0x00, 0x00, 0x04, 0x00, 0x00, 0x00,
  0xff, 0xff, 0xff, 0xff, 0x50, 0x00, 0x00, 0x00, 0x03, 0x00, 0x00, 0x00,
  0x01, 0x00, 0x00, 0x00, 0xfc, 0xff, 0xff, 0xff, 0x04, 0x00, 0x04, 0x00,
  0x04, 0x00, 0x00, 0x00
};
