const unsigned char model[] __attribute__((aligned(4))) = {
  0x1c, 0x00, 0x00, 0x00, 0x54, 0x46, 0x4c, 0x33, 0x00, 0x00, 0x12, 0x00,
  0x1c, 0x00, 0x04, 0x00, 0x08, 0x00, 0x0c, 0x00, 0x10, 0x00, 0x14, 0x00,
  0x00, 0x00, 0x18, 0x00, 0x12, 0x00, 0x00, 0x00, 0x03, 0x00, 0x00, 0x00,
  0x14, 0x00, 0x00, 0x00, 0x20, 0x00, 0x00, 0x00, 0xb4, 0x00, 0x00, 0x00,
  0x20, 0x00, 0x00, 0x00, 0x5c, 0x00, 0x00, 0x00, 0x03, 0x00, 0x00, 0x00,
  0x1c, 0x04, 0x00, 0x00, 0x60, 0x03, 0x00, 0x00, 0x74, 0x01, 0x00, 0x00,
  0x01, 0x00, 0x00, 0x00, 0xb8, 0x00, 0x00, 0x00, 0x0f, 0x00, 0x00, 0x00,
  0x40, 0x27, 0x00, 0x00, 0x3c, 0x27, 0x00, 0x00, 0x34, 0x26, 0x00, 0x00,
  0x9c, 0x25, 0x00, 0x00, 0x24, 0x25, 0x00, 0x00, 0xb4, 0x24, 0x00, 0x00,
  0x5c, 0x06, 0x00, 0x00, 0x04, 0x05, 0x00, 0x00, 0x4c, 0x04, 0x00, 0x00,
  0x1c, 0x27, 0x00, 0x00, 0x18, 0x27, 0x00, 0x00, 0x14, 0x27, 0x00, 0x00,
  0x10, 0x27, 0x00, 0x00, 0x0c, 0x27, 0x00, 0x00, 0x38, 0x00, 0x00, 0x00,
  0x01, 0x00, 0x00, 0x00, 0x0c, 0x00, 0x00, 0x00, 0x08, 0x00, 0x0c, 0x00,
  0x04, 0x00, 0x08, 0x00, 0x08, 0x00, 0x00, 0x00, 0x08, 0x00, 0x00, 0x00,
  0x0e, 0x00, 0x00, 0x00, 0x13, 0x00, 0x00, 0x00, 0x6d, 0x69, 0x6e, 0x5f,
  0x72, 0x75, 0x6e, 0x74, 0x69, 0x6d, 0x65, 0x5f, 0x76, 0x65, 0x72, 0x73,
  0x69, 0x6f, 0x6e, 0x00, 0x3a, 0xda, 0xff, 0xff, 0x04, 0x00, 0x00, 0x00,
  0x10, 0x00, 0x00, 0x00, 0x31, 0x2e, 0x35, 0x2e, 0x30, 0x00, 0x00, 0x00,
  0x00, 0x00, 0x00, 0x00, 0x00, 0x00, 0x00, 0x00, 0x0f, 0x00, 0x00, 0x00,
  0x4d, 0x4c, 0x49, 0x52, 0x20, 0x43, 0x6f, 0x6e, 0x76, 0x65, 0x72, 0x74,
  0x65, 0x64, 0x2e, 0x00, 0x00, 0x00, 0x0e, 0x00, 0x18, 0x00, 0x04, 0x00,
  0x08, 0x00, 0x0c, 0x00, 0x10, 0x00, 0x14, 0x00, 0x0e, 0x00, 0x00, 0x00,
  0x14, 0x00, 0x00, 0x00, 0x48, 0x00, 0x00, 0x00, 0x4c, 0x00, 0x00, 0x00,
  0x50, 0x00, 0x00, 0x00, 0x64, 0x00, 0x00, 0x00, 0x0d, 0x00, 0x00, 0x00,
  0x1c, 0x26, 0x00, 0x00, 0xa8, 0x25, 0x00, 0x00, 0x00, 0x25, 0x00, 0x00,
  0x74, 0x24, 0x00, 0x00, 0x10, 0x24, 0x00, 0x00, 0xa0, 0x23, 0x00, 0x00,
  0x48, 0x05, 0x00, 0x00, 0xf0, 0x03, 0x00, 0x00, 0x24, 0x03, 0x00, 0x00,
  0x68, 0x02, 0x00, 0x00, 0x94, 0x01, 0x00, 0x00, 0xf0, 0x00, 0x00, 0x00,
  0x74, 0x00, 0x00, 0x00, 0x01, 0x00, 0x00, 0x00, 0x00, 0x00, 0x00, 0x00,
  0x01, 0x00, 0x00, 0x00, 0x0c, 0x00, 0x00, 0x00, 0x05, 0x00, 0x00, 0x00,
  0xc4, 0x02, 0x00, 0x00, 0xf4, 0x01, 0x00, 0x00, 0x34, 0x01, 0x00, 0x00,
  0x94, 0x00, 0x00, 0x00, 0x10, 0x00, 0x00, 0x00, 0x04, 0x00, 0x00, 0x00,
  0x6d, 0x61, 0x69, 0x6e, 0x00, 0x00, 0x00, 0x00, 0xf2, 0xfe, 0xff, 0xff,
  0x00, 0x00, 0x00, 0x09, 0x02, 0x00, 0x00, 0x00, 0x1c, 0x00, 0x00, 0x00,
  0x10, 0x00, 0x00, 0x00, 0x04, 0x00, 0x00, 0x00, 0x16, 0xdb, 0xff, 0xff,
  0x00, 0x00, 0x80, 0x3f, 0x01, 0x00, 0x00, 0x00, 0x0c, 0x00, 0x00, 0x00,
  0x01, 0x00, 0x00, 0x00, 0x0b, 0x00, 0x00, 0x00, 0x6a, 0xfd, 0xff, 0xff,
  0x00, 0x00, 0x00, 0x19, 0x01, 0x00, 0x00, 0x00, 0x9c, 0xda, 0xff, 0xff,
  0x14, 0x00, 0x00, 0x00, 0x0d, 0x00, 0x00, 0x00, 0x18, 0x00, 0x00, 0x00,
  0x30, 0x00, 0x00, 0x00, 0x20, 0x00, 0x00, 0x00, 0x02, 0x00, 0x00, 0x00,
  0x01, 0x00, 0x00, 0x00, 0x03, 0x00, 0x00, 0x00, 0x08, 0x00, 0x00, 0x00,
  0x49, 0x64, 0x65, 0x6e, 0x74, 0x69, 0x74, 0x79, 0x00, 0x00, 0x00, 0x00,
  0x02, 0x00, 0x00, 0x00, 0xff, 0xff, 0xff, 0xff, 0x03, 0x00, 0x00, 0x00,
  0x74, 0xda, 0xff, 0xff, 0x72, 0xff, 0xff, 0xff, 0x00, 0x00, 0x00, 0x08,
  0x01, 0x00, 0x00, 0x00, 0x18, 0x00, 0x00, 0x00, 0x0c, 0x00, 0x00, 0x00,
  0x04, 0x00, 0x00, 0x00, 0x90, 0xda, 0xff, 0xff, 0x01, 0x00, 0x00, 0x00,
  0x0b, 0x00, 0x00, 0x00, 0x03, 0x00, 0x00, 0x00, 0x0a, 0x00, 0x00, 0x00,
  0x07, 0x00, 0x00, 0x00, 0x03, 0x00, 0x00, 0x00, 0x14, 0xdb, 0xff, 0xff,
  0x14, 0x00, 0x00, 0x00, 0x0c, 0x00, 0x00, 0x00, 0x18, 0x00, 0x00, 0x00,
  0x44, 0x00, 0x00, 0x00, 0x34, 0x00, 0x00, 0x00, 0x02, 0x00, 0x00, 0x00,
  0x01, 0x00, 0x00, 0x00, 0x03, 0x00, 0x00, 0x00, 0x1e, 0x00, 0x00, 0x00,
  0x73, 0x65, 0x71, 0x75, 0x65, 0x6e, 0x74, 0x69, 0x61, 0x6c, 0x5f, 0x32,
  0x37, 0x2f, 0x64, 0x65, 0x6e, 0x73, 0x65, 0x5f, 0x35, 0x35, 0x2f, 0x42,
  0x69, 0x61, 0x73, 0x41, 0x64, 0x64, 0x00, 0x00, 0x02, 0x00, 0x00, 0x00,
  0xff, 0xff, 0xff, 0xff, 0x03, 0x00, 0x00, 0x00, 0x10, 0xdc, 0xff, 0xff,
  0x00, 0x00, 0x0e, 0x00, 0x18, 0x00, 0x08, 0x00, 0x0c, 0x00, 0x10, 0x00,
  0x07, 0x00, 0x14, 0x00, 0x0e, 0x00, 0x00, 0x00, 0x00, 0x00, 0x00, 0x08,
  0x01, 0x00, 0x00, 0x00, 0x1c, 0x00, 0x00, 0x00, 0x10, 0x00, 0x00, 0x00,
  0x04, 0x00, 0x00, 0x00, 0x42, 0xff, 0xff, 0xff, 0x00, 0x00, 0x00, 0x01,
  0x01, 0x00, 0x00, 0x00, 0x0a, 0x00, 0x00, 0x00, 0x03, 0x00, 0x00, 0x00,
  0x09, 0x00, 0x00, 0x00, 0x06, 0x00, 0x00, 0x00, 0x02, 0x00, 0x00, 0x00,
  0xb4, 0xdb, 0xff, 0xff, 0x14, 0x00, 0x00, 0x00, 0x0b, 0x00, 0x00, 0x00,
  0x18, 0x00, 0x00, 0x00, 0x60, 0x00, 0x00, 0x00, 0x50, 0x00, 0x00, 0x00,
  0x02, 0x00, 0x00, 0x00, 0x01, 0x00, 0x00, 0x00, 0x08, 0x00, 0x00, 0x00,
  0x3a, 0x00, 0x00, 0x00, 0x73, 0x65, 0x71, 0x75, 0x65, 0x6e, 0x74, 0x69,
  0x61, 0x6c, 0x5f, 0x32, 0x37, 0x2f, 0x64, 0x65, 0x6e, 0x73, 0x65, 0x5f,
  0x35, 0x34, 0x2f, 0x52, 0x65, 0x6c, 0x75, 0x3b, 0x73, 0x65, 0x71, 0x75,
  0x65, 0x6e, 0x74, 0x69, 0x61, 0x6c, 0x5f, 0x32, 0x37, 0x2f, 0x64, 0x65,
  0x6e, 0x73, 0x65, 0x5f, 0x35, 0x34, 0x2f, 0x42, 0x69, 0x61, 0x73, 0x41,
  0x64, 0x64, 0x00, 0x00, 0x02, 0x00, 0x00, 0x00, 0xff, 0xff, 0xff, 0xff,
  0x08, 0x00, 0x00, 0x00, 0xcc, 0xdc, 0xff, 0xff, 0x00, 0x00, 0x0e, 0x00,
  0x1a, 0x00, 0x08, 0x00, 0x0c, 0x00, 0x10, 0x00, 0x07, 0x00, 0x14, 0x00,
  0x0e, 0x00, 0x00, 0x00, 0x00, 0x00, 0x00, 0x08, 0x01, 0x00, 0x00, 0x00,
  0x24, 0x00, 0x00, 0x00, 0x18, 0x00, 0x00, 0x00, 0x0c, 0x00, 0x00, 0x00,
  0x00, 0x00, 0x06, 0x00, 0x08, 0x00, 0x07, 0x00, 0x06, 0x00, 0x00, 0x00,
  0x00, 0x00, 0x00, 0x01, 0x01, 0x00, 0x00, 0x00, 0x09, 0x00, 0x00, 0x00,
  0x03, 0x00, 0x00, 0x00, 0x08, 0x00, 0x00, 0x00, 0x05, 0x00, 0x00, 0x00,
  0x01, 0x00, 0x00, 0x00, 0x52, 0xff, 0xff, 0xff, 0x00, 0x00, 0x00, 0x09,
  0x01, 0x00, 0x00, 0x00, 0x84, 0xdc, 0xff, 0xff, 0x14, 0x00, 0x00, 0x00,
  0x0a, 0x00, 0x00, 0x00, 0x18, 0x00, 0x00, 0x00, 0x60, 0x00, 0x00, 0x00,
  0x50, 0x00, 0x00, 0x00, 0x02, 0x00, 0x00, 0x00, 0x01, 0x00, 0x00, 0x00,
  0x08, 0x00, 0x00, 0x00, 0x3a, 0x00, 0x00, 0x00, 0x73, 0x65, 0x71, 0x75,
  0x65, 0x6e, 0x74, 0x69, 0x61, 0x6c, 0x5f, 0x32, 0x37, 0x2f, 0x64, 0x65,
  0x6e, 0x73, 0x65, 0x5f, 0x35, 0x33, 0x2f, 0x52, 0x65, 0x6c, 0x75, 0x3b,
  0x73, 0x65, 0x71, 0x75, 0x65, 0x6e, 0x74, 0x69, 0x61, 0x6c, 0x5f, 0x32,
  0x37, 0x2f, 0x64, 0x65, 0x6e, 0x73, 0x65, 0x5f, 0x35, 0x33, 0x2f, 0x42,
  0x69, 0x61, 0x73, 0x41, 0x64, 0x64, 0x00, 0x00, 0x02, 0x00, 0x00, 0x00,
  0xff, 0xff, 0xff, 0xff, 0x08, 0x00, 0x00, 0x00, 0x9c, 0xdd, 0xff, 0xff,
  0x00, 0x00, 0x0a, 0x00, 0x0c, 0x00, 0x00, 0x00, 0x04, 0x00, 0x08, 0x00,
  0x0a, 0x00, 0x00, 0x00, 0x10, 0x00, 0x00, 0x00, 0x04, 0x00, 0x00, 0x00,
  0x01, 0x00, 0x00, 0x00, 0x08, 0x00, 0x00, 0x00, 0x02, 0x00, 0x00, 0x00,
  0x00, 0x00, 0x00, 0x00, 0x04, 0x00, 0x00, 0x00, 0x00, 0x00, 0x0a, 0x00,
  0x0c, 0x00, 0x07, 0x00, 0x00, 0x00, 0x08, 0x00, 0x0a, 0x00, 0x00, 0x00,
  0x00, 0x00, 0x00, 0x16, 0x01, 0x00, 0x00, 0x00, 0x3c, 0xdd, 0xff, 0xff,
  0x14, 0x00, 0x00, 0x00, 0x09, 0x00, 0x00, 0x00, 0x18, 0x00, 0x00, 0x00,
  0x48, 0x00, 0x00, 0x00, 0x38, 0x00, 0x00, 0x00, 0x02, 0x00, 0x00, 0x00,
  0x01, 0x00, 0x00, 0x00, 0xf0, 0x00, 0x00, 0x00, 0x20, 0x00, 0x00, 0x00,
  0x73, 0x65, 0x71, 0x75, 0x65, 0x6e, 0x74, 0x69, 0x61, 0x6c, 0x5f, 0x32,
  0x37, 0x2f, 0x66, 0x6c, 0x61, 0x74, 0x74, 0x65, 0x6e, 0x5f, 0x32, 0x34,
  0x2f, 0x52, 0x65, 0x73, 0x68, 0x61, 0x70, 0x65, 0x00, 0x00, 0x00, 0x00,
  0x02, 0x00, 0x00, 0x00, 0xff, 0xff, 0xff, 0xff, 0xf0, 0x00, 0x00, 0x00,
  0x2c, 0xdd, 0xff, 0xff, 0x36, 0xde, 0xff, 0xff, 0x04, 0x00, 0x00, 0x00,
  0x60, 0x00, 0x00, 0x00, 0x93, 0x19, 0x8a, 0xbf, 0xfa, 0x13, 0xa1, 0xbf,
  0xab, 0x8f, 0x06, 0x3f, 0x12, 0x97, 0x12, 0xbf, 0x2a, 0xa1, 0x0d, 0xbe,
  0x3d, 0x65, 0x36, 0xbf, 0xba, 0x8d, 0x00, 0xbf, 0x29, 0xef, 0x62, 0xbf,
  0xf0, 0x37, 0x23, 0xbd, 0xe2, 0x20, 0xf8, 0xbc, 0x30, 0xa7, 0x91, 0x3e,
  0xde, 0xe5, 0x36, 0x3e, 0x79, 0x6d, 0x33, 0xbf, 0xc3, 0x42, 0xfd, 0x3d,
  0x2c, 0xa5, 0xb7, 0x3d, 0x16, 0x6d, 0xb8, 0x3d, 0xab, 0xba, 0x2f, 0x3f,
  0x8e, 0x3b, 0x74, 0x3e, 0xab, 0xaf, 0xab, 0xbf, 0xd0, 0x72, 0xe2, 0x3e,
  0xdf, 0xc7, 0x28, 0x3e, 0xff, 0x6f, 0xc1, 0x3e, 0xe3, 0x23, 0x1a, 0x3f,
  0x44, 0x43, 0xb0, 0x3e, 0x6e, 0xde, 0xff, 0xff, 0x10, 0x00, 0x00, 0x00,
  0x08, 0x00, 0x00, 0x00, 0x14, 0x00, 0x00, 0x00, 0x34, 0x00, 0x00, 0x00,
  0x02, 0x00, 0x00, 0x00, 0x03, 0x00, 0x00, 0x00, 0x08, 0x00, 0x00, 0x00,
  0x1d, 0x00, 0x00, 0x00, 0x73, 0x65, 0x71, 0x75, 0x65, 0x6e, 0x74, 0x69,
  0x61, 0x6c, 0x5f, 0x32, 0x37, 0x2f, 0x64, 0x65, 0x6e, 0x73, 0x65, 0x5f,
  0x35, 0x35, 0x2f, 0x4d, 0x61, 0x74, 0x4d, 0x75, 0x6c, 0x00, 0x00, 0x00,
  0xe0, 0xdd, 0xff, 0xff, 0xea, 0xde, 0xff, 0xff, 0x04, 0x00, 0x00, 0x00,
  0x00, 0x01, 0x00, 0x00, 0x75, 0xd0, 0x68, 0x3e, 0xb0, 0x39, 0x93, 0x3e,
  0xe6, 0x6e, 0x42, 0xbe, 0xcd, 0x4e, 0xce, 0xbd, 0xd2, 0x98, 0x96, 0x3e,
  0xff, 0x04, 0x9c, 0x3e, 0x1f, 0x9e, 0xec, 0xbe, 0xa1, 0x24, 0x70, 0x3e,
  0x05, 0x58, 0x01, 0xbe, 0xaf, 0xf9, 0x52, 0xbe, 0xd6, 0x6b, 0x60, 0xbc,
  0x31, 0x6b, 0x72, 0xbf, 0x4b, 0xb0, 0x67, 0x3e, 0x57, 0xcd, 0x51, 0xbf,
  0x0c, 0xc4, 0x38, 0xbd, 0xc4, 0xe2, 0x35, 0x3f, 0x06, 0x44, 0xee, 0xbe,
  0x79, 0x6d, 0xdf, 0xbe, 0x47, 0x00, 0xcd, 0x3e, 0xd4, 0xca, 0xa3, 0xbe,
  0xd1, 0x52, 0xf5, 0xbe, 0xd0, 0xe2, 0xf8, 0xbe, 0x05, 0xad, 0x21, 0x3f,
  0xb9, 0xb2, 0xc2, 0xbe, 0x04, 0x74, 0xe6, 0x3e, 0x8a, 0x1b, 0xc0, 0xbe,
  0x3a, 0x18, 0x27, 0xbc, 0x80, 0xbe, 0xf6, 0x3e, 0x6a, 0xc1, 0x0a, 0x3f,
  0xe1, 0xb9, 0x1f, 0x3f, 0x54, 0xae, 0x91, 0xbd, 0x61, 0xb2, 0xce, 0x3e,
  0xfe, 0x4c, 0xa4, 0x3e, 0x62, 0xdf, 0x93, 0x3e, 0xcf, 0xd0, 0xda, 0xbe,
  0xb6, 0x22, 0x96, 0x3e, 0x4e, 0x06, 0xaa, 0x3e, 0x8c, 0x35, 0xab, 0x3e,
  0xce, 0x5e, 0x20, 0xbf, 0x5b, 0xa4, 0x96, 0x3e, 0xf2, 0x8e, 0x30, 0x3f,
  0xe9, 0x1f, 0x58, 0x3f, 0xf6, 0xf8, 0xad, 0xbc, 0xf5, 0x9c, 0x32, 0x3f,
  0x4a, 0x41, 0x3e, 0xbf, 0xa2, 0x3d, 0xbb, 0xbe, 0xc0, 0x52, 0xf9, 0xbd,
  0x08, 0xf0, 0xba, 0xbe, 0x11, 0x42, 0xb4, 0x3e, 0x97, 0x97, 0xcb, 0x3e,
  0x97, 0xd9, 0x26, 0xbf, 0x37, 0x11, 0xd6, 0x3e, 0x67, 0x8a, 0xc7, 0x3e,
  0x1e, 0xdf, 0xd8, 0x3e, 0x34, 0x02, 0x65, 0xbf, 0xc0, 0x7a, 0x96, 0x3e,
  0xdb, 0x58, 0xa8, 0x3e, 0xb6, 0xcf, 0xff, 0x3e, 0x9b, 0x29, 0x45, 0xbc,
  0xa3, 0x23, 0xb7, 0x3e, 0x7a, 0xd6, 0xbb, 0x3e, 0x03, 0x2c, 0xf9, 0x3e,
  0x8b, 0x48, 0x53, 0xbd, 0xeb, 0x56, 0x8c, 0x3e, 0xc2, 0xdf, 0xff, 0xff,
  0x10, 0x00, 0x00, 0x00, 0x07, 0x00, 0x00, 0x00, 0x14, 0x00, 0x00, 0x00,
  0x34, 0x00, 0x00, 0x00, 0x02, 0x00, 0x00, 0x00, 0x08, 0x00, 0x00, 0x00,
  0x08, 0x00, 0x00, 0x00, 0x1d, 0x00, 0x00, 0x00, 0x73, 0x65, 0x71, 0x75,
  0x65, 0x6e, 0x74, 0x69, 0x61, 0x6c, 0x5f, 0x32, 0x37, 0x2f, 0x64, 0x65,
  0x6e, 0x73, 0x65, 0x5f, 0x35, 0x34, 0x2f, 0x4d, 0x61, 0x74, 0x4d, 0x75,
  0x6c, 0x00, 0x00, 0x00, 0x34, 0xdf, 0xff, 0xff, 0x3e, 0xe0, 0xff, 0xff,
  0x04, 0x00, 0x00, 0x00, 0x00, 0x1e, 0x00, 0x00, 0x43, 0x80, 0xd1, 0x3d,
  0x7a, 0x1d, 0xdd, 0x3e, 0xf0, 0x89, 0x60, 0x3e, 0x25, 0x78, 0x8f, 0x3e,
  0xf8, 0x1d, 0x42, 0xbf, 0x35, 0x76, 0x39, 0xbe, 0x6b, 0x3f, 0x85, 0x3e,
  0xe6, 0xb4, 0x85, 0x3e, 0x92, 0xe3, 0x65, 0x3f, 0xa6, 0x89, 0xee, 0x3e,
  0x59, 0x7d, 0xa8, 0x3f, 0x1c, 0xa5, 0x43, 0x3f, 0xc3, 0x57, 0x55, 0xbf,
  0xce, 0xad, 0xb5, 0xbf, 0x92, 0x40, 0x23, 0xbf, 0x07, 0xf4, 0x43, 0x3e,
  0x07, 0xb6, 0x44, 0x3f, 0x4b, 0xb6, 0x38, 0x3e, 0x34, 0xa3, 0xdf, 0xbe,
  0xe6, 0x46, 0xdb, 0xbf, 0xbd, 0xbf, 0x8e, 0xbf, 0x9f, 0x77, 0xed, 0xbf,
  0x5f, 0xe3, 0x83, 0x3e, 0x22, 0x7a, 0x58, 0xbf, 0xfa, 0x5d, 0xcc, 0x3f,
  0xc6, 0xaa, 0xb5, 0x3e, 0x5c, 0xf8, 0x04, 0x3f, 0x51, 0x6c, 0xbf, 0xbe,
  0x1c, 0x43, 0x49, 0xbf, 0x27, 0x2d, 0x39, 0x3e, 0x0b, 0x9a, 0xea, 0xbe,
  0x62, 0xe6, 0xd0, 0x3e, 0xa0, 0xc8, 0x04, 0xbf, 0xa9, 0x7a, 0x50, 0x3e,
  0xbd, 0x39, 0x6f, 0x3d, 0x45, 0x2f, 0x7a, 0x3d, 0xf7, 0xc2, 0xa6, 0x3c,
  0x68, 0xd5, 0xb8, 0x3e, 0xce, 0x89, 0xb4, 0xbd, 0x89, 0x76, 0x84, 0x3e,
  0x8c, 0x72, 0x03, 0x3e, 0x67, 0x09, 0x47, 0x3e, 0xc2, 0x21, 0xf6, 0x3d,
  0x06, 0x41, 0x4f, 0x3e, 0x8d, 0xdb, 0xb8, 0x3d, 0x8e, 0x1c, 0x8b, 0x3e,
  0x5e, 0xc5, 0x3e, 0xbc, 0x6b, 0x02, 0x66, 0x3e, 0x7c, 0x44, 0x21, 0x3e,
  0xbf, 0xf0, 0x82, 0x3d, 0x07, 0xab, 0xc5, 0x3d, 0x7f, 0xa9, 0x1b, 0x3e,
  0x54, 0x2d, 0xd6, 0xbb, 0xdb, 0xec, 0x01, 0x3e, 0xbc, 0xe2, 0xc7, 0x3c,
  0xfe, 0x4d, 0x9c, 0xbc, 0x15, 0x26, 0x97, 0x3c, 0x07, 0x70, 0xd1, 0x3d,
  0x72, 0xe7, 0x84, 0xbd, 0x76, 0xd9, 0x07, 0x3d, 0x9f, 0x1a, 0x24, 0xbd,
  0x2b, 0x28, 0x38, 0xbd, 0xc7, 0x53, 0x33, 0xbd, 0x73, 0x71, 0x0b, 0xbe,
  0x70, 0xcb, 0xa2, 0xbd, 0xd2, 0xb8, 0x29, 0xbd, 0x61, 0xd5, 0xf9, 0xbd,
  0x97, 0xd2, 0x46, 0x3b, 0xf1, 0x31, 0x16, 0xbd, 0x64, 0x16, 0xbd, 0xbd,
  0x62, 0x81, 0x4b, 0xbd, 0x1a, 0x6b, 0xba, 0xbc, 0x29, 0xdc, 0xaf, 0xbd,
  0x0b, 0xb6, 0x88, 0x3d, 0x7b, 0xfd, 0xd9, 0xbc, 0xe2, 0x1f, 0x04, 0x3c,
  0xf8, 0x01, 0x8d, 0x3d, 0x06, 0x96, 0x94, 0xbc, 0xbf, 0xfd, 0x83, 0xbb,
  0x71, 0xb4, 0xf1, 0x3d, 0x5f, 0x44, 0xaa, 0x3c, 0xe4, 0x5a, 0xfe, 0x3d,
  0x83, 0x62, 0x71, 0x3d, 0xfa, 0x43, 0x33, 0xbd, 0x0c, 0x22, 0xb6, 0x3d,
  0x53, 0x74, 0x86, 0x3d, 0x3f, 0xd3, 0xdd, 0xbc, 0x1e, 0x09, 0xed, 0x3d,
  0xd2, 0x44, 0xa2, 0x3c, 0xe9, 0xd4, 0xe5, 0x3b, 0x61, 0x0e, 0x4d, 0x3d,
  0xc2, 0xcc, 0x5f, 0x3b, 0x0e, 0x2c, 0xd0, 0x3c, 0xcb, 0x0e, 0xd9, 0x3d,
  0x7c, 0x43, 0x24, 0x3c, 0x67, 0x47, 0x3b, 0x3d, 0x23, 0x6f, 0xd1, 0x3d,
  0x57, 0x70, 0xa9, 0x3c, 0x03, 0xad, 0xcd, 0x3c, 0x18, 0x0d, 0x29, 0x3e,
  0xae, 0x40, 0x52, 0x3d, 0x14, 0xf2, 0x25, 0x3d, 0xce, 0x2a, 0x4a, 0x3e,
  0x0e, 0x2d, 0xb6, 0x3d, 0xa8, 0x69, 0xd0, 0x3c, 0xb1, 0x5f, 0xf3, 0x3d,
  0xc9, 0x7c, 0xe8, 0x3c, 0xa1, 0x66, 0xb2, 0xbc, 0x0d, 0xfc, 0x53, 0x3d,
  0x4b, 0xec, 0x07, 0x3d, 0x87, 0x84, 0x3c, 0xbd, 0x19, 0x06, 0xc6, 0x3c,
  0x56, 0xf7, 0x10, 0x3d, 0x5a, 0x8e, 0xd0, 0xbd, 0x4e, 0x5e, 0x0b, 0xbd,
  0xb8, 0xba, 0x88, 0x3c, 0xd9, 0x3b, 0xee, 0xbd, 0x72, 0xbe, 0x12, 0xbd,
  0x8a, 0x61, 0x7e, 0x3c, 0x40, 0x94, 0xe7, 0xbd, 0xd5, 0xa4, 0x93, 0xbd,
  0x35, 0x80, 0xdd, 0x3b, 0x73, 0x2f, 0xfd, 0xbd, 0x7a, 0x38, 0xbc, 0xbd,
  0x79, 0x65, 0x99, 0xbd, 0x0c, 0xb9, 0x8e, 0xbd, 0x36, 0x4c, 0x9c, 0xbd,
  0x42, 0x52, 0x04, 0xbd, 0x1c, 0x6c, 0x88, 0xbd, 0xff, 0x2d, 0x53, 0xbd,
  0xf6, 0x7b, 0x86, 0x3c, 0xae, 0xc3, 0x84, 0xbd, 0xdd, 0x87, 0x8c, 0xbd,
  0x97, 0x77, 0xb6, 0x3c, 0xed, 0x83, 0xbc, 0xbd, 0xba, 0x70, 0x83, 0xbd,
  0xf0, 0xd7, 0x31, 0x3d, 0xa9, 0xc7, 0xd0, 0xbd, 0xe9, 0x13, 0x4e, 0xbd,
  0x90, 0xb3, 0x13, 0xbc, 0x90, 0x21, 0xdc, 0xbd, 0x54, 0x97, 0x86, 0x3c,
  0xe9, 0xc6, 0x17, 0xbc, 0x22, 0x28, 0x97, 0xbd, 0x1c, 0x56, 0x0c, 0xbd,
  0x6d, 0x4d, 0x96, 0xbc, 0xce, 0xd1, 0x53, 0xbd, 0xf4, 0x78, 0x2b, 0x3c,
  0xf0, 0xc5, 0x37, 0x3c, 0x41, 0x56, 0x78, 0xbd, 0x98, 0x8f, 0x52, 0x39,
  0x73, 0x56, 0x48, 0x3d, 0x6d, 0x4f, 0xe0, 0xbc, 0x19, 0xfb, 0x24, 0xbd,
  0x11, 0xe4, 0x4c, 0x3d, 0x96, 0x7f, 0x1e, 0xbd, 0x2d, 0xe9, 0xa3, 0xbd,
  0xc7, 0xaf, 0xbf, 0xbc, 0xc2, 0x00, 0xd0, 0xbc, 0x9a, 0x81, 0x0d, 0xbe,
  0x86, 0x10, 0xa7, 0xbc, 0x3d, 0x7c, 0x13, 0xbd, 0x2c, 0xe7, 0xf2, 0xbd,
  0x86, 0x20, 0x13, 0xbd, 0x91, 0xef, 0x99, 0xbc, 0x5c, 0x83, 0x04, 0xbe,
  0x28, 0x29, 0x03, 0xbd, 0x9a, 0xd0, 0x4c, 0xba, 0x7a, 0x79, 0x3a, 0xbe,
  0x48, 0x95, 0xab, 0xbd, 0xad, 0xaf, 0x85, 0xbd, 0xe9, 0x7f, 0xf2, 0xbd,
  0xec, 0xe8, 0x90, 0xbd, 0xab, 0x0a, 0xbb, 0xbd, 0x63, 0x01, 0xeb, 0xbd,
  0x72, 0xb8, 0x77, 0xbd, 0x84, 0x79, 0x8a, 0xbd, 0x06, 0xfb, 0x88, 0xbd,
  0x68, 0x79, 0x7b, 0xbd, 0x4a, 0x0a, 0x8a, 0xbd, 0x4d, 0x4d, 0x9c, 0xbd,
  0x05, 0x9e, 0x6c, 0xbd, 0xa4, 0x5d, 0x40, 0xbc, 0x57, 0x22, 0xb7, 0xbd,
  0xea, 0xa7, 0x0e, 0xbd, 0x26, 0xbe, 0x0b, 0x3c, 0x12, 0x16, 0x85, 0xbd,
  0x40, 0x8f, 0xc1, 0x3c, 0x80, 0xce, 0x18, 0x3c, 0x7a, 0xbd, 0x4e, 0xbd,
  0x4b, 0x08, 0xfd, 0x3c, 0xc3, 0x67, 0x70, 0xbc, 0x37, 0x9c, 0xb9, 0xbc,
  0xe3, 0x55, 0xa4, 0x3d, 0x4a, 0x80, 0xa4, 0xbb, 0x1f, 0xc0, 0xd2, 0xbc,
  0x83, 0xea, 0xc9, 0x3d, 0xa6, 0xb6, 0x02, 0x3d, 0x58, 0xb3, 0x60, 0xbb,
  0x23, 0xa8, 0xa4, 0x3d, 0x35, 0x8d, 0xb5, 0x3c, 0xa2, 0x42, 0x44, 0x3c,
  0x6f, 0x8d, 0xcf, 0x3d, 0x4d, 0xb9, 0x82, 0x3d, 0x60, 0x64, 0xf4, 0x3b,
  0x95, 0x17, 0x83, 0x3d, 0x92, 0x39, 0x66, 0x3d, 0x2c, 0x68, 0xa0, 0x3d,
  0xeb, 0x04, 0x3a, 0x3d, 0x58, 0x24, 0x63, 0x3b, 0x74, 0x8f, 0x07, 0x3d,
  0x70, 0xb4, 0x2e, 0xbb, 0xb6, 0xdb, 0xaa, 0x3c, 0x55, 0x64, 0x20, 0x3d,
  0x04, 0x2c, 0xe7, 0xbc, 0xe0, 0x48, 0xcb, 0x3c, 0x24, 0xee, 0xbc, 0xbc,
  0x23, 0xcb, 0x22, 0x3c, 0x58, 0x73, 0x5b, 0x3d, 0x6e, 0x4c, 0x2c, 0xbd,
  0x06, 0xe3, 0x81, 0xbc, 0xc4, 0x8f, 0x35, 0x3d, 0x96, 0xa0, 0x27, 0x3b,
  0xd7, 0xe1, 0xd6, 0xbc, 0x2d, 0x40, 0x3e, 0x3d, 0x53, 0x5a, 0x61, 0x3d,
  0x57, 0x89, 0xb8, 0xbd, 0xcd, 0x2b, 0x3d, 0xbb, 0xb0, 0x45, 0x60, 0xbc,
  0xcf, 0x50, 0xb1, 0x3c, 0x05, 0x5e, 0xdb, 0x3c, 0x0e, 0x8f, 0xc3, 0xbc,
  0x1d, 0x8a, 0x2f, 0x3b, 0x49, 0x46, 0x75, 0xbb, 0x1e, 0x1c, 0x2f, 0xbd,
  0x75, 0xc4, 0xb6, 0x3d, 0xd8, 0xd5, 0xd5, 0x3d, 0x52, 0xd1, 0xcf, 0x3b,
  0x3a, 0x7e, 0xa6, 0xbd, 0xc4, 0x73, 0x87, 0xbc, 0x2b, 0xf4, 0x26, 0x3f,
  0x56, 0x24, 0x3d, 0x3e, 0x96, 0xd6, 0xd3, 0x3e, 0xf2, 0x0a, 0x1a, 0xbf,
  0xc5, 0xf9, 0x06, 0xbf, 0xa1, 0xc6, 0x98, 0xbe, 0x0b, 0x94, 0xf9, 0xbf,
  0xaa, 0x83, 0x80, 0xbf, 0xc1, 0x5a, 0x98, 0xbf, 0x57, 0xc0, 0xc5, 0x3f,
  0x7d, 0x83, 0x4e, 0xbe, 0xda, 0xe7, 0x71, 0x3f, 0x93, 0xc9, 0xe1, 0xbe,
  0x74, 0x49, 0x85, 0x3f, 0x26, 0x7e, 0x39, 0xbe, 0x23, 0x00, 0x5b, 0x3d,
  0x0e, 0x93, 0x42, 0xbf, 0x44, 0x61, 0x19, 0x3e, 0x8b, 0xdc, 0xf4, 0x3e,
  0x02, 0xea, 0x3a, 0x3f, 0xf8, 0xff, 0x07, 0xbd, 0xef, 0x1b, 0x34, 0x3f,
  0x27, 0x7b, 0xaa, 0x3f, 0x31, 0xb4, 0x55, 0x3f, 0xe1, 0x46, 0x21, 0x3c,
  0xc6, 0x85, 0xbf, 0xbf, 0x8c, 0xe2, 0xfa, 0x3d, 0xf5, 0xd1, 0x2f, 0xbf,
  0x94, 0x04, 0x83, 0x3f, 0xbe, 0x25, 0x24, 0xbf, 0xc3, 0xba, 0xab, 0x3e,
  0xf1, 0x33, 0x16, 0xbf, 0xa4, 0x66, 0xc8, 0x3e, 0xfe, 0xbe, 0x0a, 0xbf,
  0x7b, 0x07, 0x05, 0xbe, 0xe7, 0x43, 0xfa, 0xbe, 0xc7, 0x29, 0xcc, 0x3c,
  0x92, 0x8e, 0xe0, 0xbd, 0xb8, 0x93, 0xf8, 0xbd, 0x95, 0x30, 0xbe, 0xbe,
  0x10, 0x6f, 0x4b, 0xbe, 0xb4, 0xc5, 0x93, 0xbe, 0x8a, 0xfa, 0x04, 0x3e,
  0xda, 0xaf, 0xd7, 0x3d, 0x8a, 0x12, 0xd9, 0x3d, 0xf5, 0xde, 0x0f, 0xbd,
  0x14, 0x46, 0x13, 0xbe, 0x4c, 0x83, 0x28, 0xbd, 0x08, 0xab, 0xc6, 0x3d,
  0xd1, 0xc6, 0x87, 0xbc, 0xd6, 0xc1, 0xda, 0x3d, 0xe5, 0xf7, 0x74, 0x3d,
  0xfb, 0xcb, 0xa9, 0xbd, 0x4d, 0x31, 0x63, 0x3d, 0xbc, 0x76, 0xed, 0x3d,
  0x89, 0x35, 0xea, 0x3c, 0x0d, 0x44, 0xe1, 0x3d, 0x5b, 0x8d, 0xc9, 0x3d,
  0x5a, 0x95, 0xab, 0x3d, 0x24, 0xe5, 0x23, 0x3d, 0x4a, 0xdb, 0x08, 0x3e,
  0xd9, 0x70, 0x29, 0x3e, 0x58, 0x74, 0x21, 0x3e, 0x57, 0x62, 0x19, 0x3d,
  0x5c, 0xab, 0x08, 0x3e, 0xdf, 0xfd, 0xa1, 0x3d, 0x4e, 0x4e, 0xe1, 0x3d,
  0x4b, 0x33, 0x1b, 0x3e, 0x7d, 0xe3, 0x98, 0x3d, 0x96, 0xce, 0x79, 0x3d,
  0x10, 0xdc, 0x02, 0x3e, 0x90, 0xe5, 0xc7, 0x3d, 0x42, 0xac, 0xaa, 0x3d,
  0xcd, 0xdb, 0x4f, 0x3d, 0xac, 0x9a, 0xd4, 0x3c, 0x9b, 0x2f, 0xb6, 0xbc,
  0xf9, 0x32, 0x05, 0x3d, 0x3f, 0x76, 0xc1, 0xbb, 0x98, 0x4d, 0x3a, 0x3d,
  0xc9, 0x66, 0x99, 0xbc, 0x87, 0x4f, 0x01, 0xbd, 0x13, 0x76, 0x63, 0xbd,
  0xd2, 0x97, 0xd5, 0xbd, 0xf1, 0x34, 0x97, 0xbd, 0x9b, 0x63, 0x14, 0xbd,
  0x89, 0x67, 0x18, 0xbe, 0x4c, 0xe1, 0xe8, 0xbd, 0x2f, 0x67, 0x18, 0xbe,
  0x4e, 0xd2, 0x45, 0xbe, 0x7b, 0x49, 0x01, 0xbe, 0x65, 0x39, 0xee, 0xbd,
  0x6c, 0x9c, 0x0f, 0xbe, 0x71, 0x9f, 0xdf, 0xbd, 0x6d, 0x38, 0x27, 0xbe,
  0x12, 0xfe, 0x15, 0xbe, 0x1c, 0xe9, 0x0a, 0xbe, 0xa6, 0xb9, 0xa5, 0xbc,
  0xb6, 0x26, 0x36, 0xbd, 0x7b, 0x5b, 0xe1, 0xbd, 0xbf, 0x03, 0x00, 0x3d,
  0x8a, 0x75, 0x89, 0x3c, 0xa9, 0x16, 0x92, 0xbd, 0x04, 0x3c, 0x08, 0x3e,
  0x81, 0x67, 0x8b, 0x3d, 0xb3, 0xcd, 0x4e, 0xbd, 0x44, 0x33, 0x2f, 0x3e,
  0xb8, 0x24, 0x58, 0x3d, 0x34, 0x07, 0x9f, 0x3c, 0x87, 0xfa, 0x37, 0x3e,
  0xbb, 0xb3, 0xf8, 0x3d, 0x5b, 0x4f, 0x81, 0x3d, 0x07, 0xec, 0x27, 0x3e,
  0x86, 0x3e, 0xe3, 0x3d, 0x29, 0xf9, 0x39, 0x3d, 0xd9, 0x33, 0x22, 0x3e,
  0xae, 0xc4, 0xae, 0x3d, 0x2e, 0x5d, 0x65, 0xbc, 0xfe, 0xa5, 0x00, 0x3e,
  0x00, 0x7b, 0xf4, 0x3c, 0x6e, 0x14, 0xe3, 0xba, 0x93, 0xdc, 0xe4, 0x3d,
  0x18, 0x9c, 0xc8, 0x3c, 0xf1, 0x59, 0x2a, 0xbd, 0xd4, 0x5f, 0xb8, 0x3d,
  0xca, 0x06, 0x56, 0xbc, 0x7f, 0x57, 0xa2, 0xbd, 0x0d, 0x0d, 0x96, 0x3d,
  0xec, 0x2b, 0x98, 0xbd, 0xd6, 0xe6, 0xad, 0xbd, 0xf3, 0xd4, 0x71, 0x3d,
  0x0b, 0xed, 0xfb, 0xbc, 0x7a, 0x5b, 0x3c, 0xbc, 0x4f, 0xf2, 0xe1, 0x3c,
  0x5f, 0x7f, 0x6a, 0xbb, 0xbe, 0xda, 0x35, 0xbd, 0x4e, 0x7c, 0x93, 0x3a,
  0x9f, 0x04, 0x4f, 0x3b, 0xc7, 0x62, 0x1b, 0xbd, 0x53, 0xb5, 0xb2, 0x3b,
  0x44, 0x4b, 0x5d, 0xbd, 0x1e, 0x34, 0x88, 0xbd, 0xf2, 0x4d, 0x9c, 0x3c,
  0xdb, 0xea, 0x88, 0xbd, 0x93, 0x00, 0x3d, 0xbc, 0x69, 0x65, 0x8e, 0xbd,
  0x21, 0x55, 0x00, 0xbd, 0x2d, 0x07, 0x24, 0xbd, 0x83, 0x76, 0xe6, 0xbd,
  0xb4, 0x6d, 0x54, 0xbd, 0x14, 0xca, 0x04, 0xbd, 0x1c, 0x9f, 0xb0, 0xbd,
  0x6e, 0x7c, 0xcd, 0xbc, 0x2d, 0x06, 0x3e, 0xbd, 0x92, 0x33, 0x4d, 0xbd,
  0x36, 0x28, 0x87, 0xbc, 0x1d, 0x04, 0x46, 0xbd, 0xba, 0xd5, 0x5e, 0xbd,
  0x86, 0xad, 0x7c, 0x3c, 0xc6, 0x38, 0x87, 0x3a, 0xd1, 0x19, 0x18, 0xbd,
  0xc6, 0x26, 0x09, 0xbc, 0x99, 0xc8, 0x85, 0x3c, 0x31, 0xc7, 0xd4, 0xbc,
  0x58, 0x12, 0x26, 0x3c, 0x3b, 0xa8, 0x18, 0x3d, 0xff, 0x84, 0x3d, 0x3d,
  0xe8, 0x70, 0xc1, 0xbb, 0xbe, 0xe2, 0x39, 0x3d, 0x6a, 0x99, 0xfa, 0xb9,
  0x8c, 0xe2, 0x9b, 0x3c, 0xd3, 0x89, 0xae, 0x3c, 0xa2, 0xb4, 0x7b, 0x3c,
  0x93, 0x47, 0x8b, 0x3c, 0xe9, 0x7b, 0x0f, 0x3c, 0x98, 0x6c, 0xe2, 0x3c,
  0xac, 0xa8, 0x1e, 0xbc, 0xa3, 0x9b, 0xfd, 0xbc, 0xd5, 0x4e, 0x43, 0x3d,
  0x84, 0x18, 0xe3, 0xbc, 0x4c, 0xa0, 0xec, 0x3b, 0x64, 0xd1, 0xd2, 0xba,
  0x7e, 0x5a, 0x01, 0xbb, 0x01, 0xcb, 0x82, 0x3d, 0x84, 0xc9, 0xcd, 0xbc,
  0xf4, 0x57, 0xce, 0x3c, 0xb0, 0xc2, 0x8e, 0x3d, 0xda, 0x8b, 0xdd, 0x39,
  0x25, 0xbd, 0x54, 0x3d, 0x14, 0x04, 0x0f, 0x3d, 0xbe, 0xfc, 0xa6, 0xbb,
  0x19, 0x6b, 0x71, 0x3d, 0x50, 0xb5, 0x82, 0x3c, 0x0a, 0x3d, 0x00, 0xbd,
  0x64, 0x8d, 0xe5, 0x3d, 0x19, 0x43, 0x12, 0x3d, 0x0c, 0x3d, 0x58, 0xbd,
  0xfe, 0x6f, 0x9a, 0x3d, 0x93, 0x5a, 0x05, 0x3d, 0x07, 0xc8, 0xeb, 0xbc,
  0x14, 0x34, 0x92, 0x3d, 0x48, 0xfa, 0x14, 0x3d, 0xe0, 0xe7, 0x18, 0xbc,
  0x09, 0xbb, 0x3f, 0x3b, 0x51, 0x21, 0x2a, 0x3d, 0x89, 0x41, 0x12, 0x3c,
  0x0c, 0x71, 0x99, 0x3c, 0x44, 0xf5, 0x23, 0x3d, 0xf6, 0xc5, 0xb8, 0x3c,
  0xcd, 0x2c, 0x1c, 0x3d, 0xe4, 0xb4, 0x8e, 0x3d, 0xd4, 0xaa, 0x82, 0x3d,
  0x3d, 0xd6, 0xf8, 0x3c, 0x46, 0xbc, 0x61, 0x3d, 0x46, 0x80, 0x50, 0x3d,
  0xa9, 0x75, 0x80, 0xbc, 0x77, 0xd5, 0xc1, 0x3d, 0x70, 0xca, 0x67, 0xbd,
  0x08, 0x88, 0xc5, 0x3d, 0xdb, 0x74, 0xb9, 0x3d, 0x46, 0x1b, 0x3c, 0xbd,
  0x98, 0xa6, 0xa4, 0x3d, 0x9a, 0x4c, 0x96, 0x3d, 0x85, 0x25, 0x6f, 0x3d,
  0x69, 0xd3, 0x81, 0x3d, 0x96, 0x08, 0x88, 0x3d, 0x01, 0x55, 0x10, 0x3e,
  0xaa, 0xb9, 0xd6, 0xbc, 0xf2, 0x55, 0x6e, 0x3c, 0x3c, 0x9a, 0xd6, 0x3d,
  0xbf, 0x3c, 0x27, 0x3d, 0x2d, 0x14, 0x26, 0x3d, 0xa6, 0xdc, 0x91, 0x3c,
  0xc9, 0x93, 0x5a, 0x3d, 0xf6, 0xb9, 0x0e, 0x3d, 0x72, 0xc9, 0x7d, 0x3d,
  0xfe, 0x10, 0xc5, 0x3d, 0x26, 0xfc, 0x09, 0x3e, 0xb3, 0x35, 0xe4, 0xbc,
  0xb3, 0x8d, 0x1d, 0xbd, 0x0b, 0xc9, 0x71, 0x3c, 0xec, 0xbb, 0x54, 0x3d,
  0x30, 0xc7, 0x84, 0x3d, 0xaa, 0x4a, 0x87, 0x3d, 0xb6, 0xe7, 0xa2, 0x3d,
  0x35, 0x52, 0xd4, 0xbc, 0x88, 0xb9, 0x73, 0x3d, 0x59, 0x50, 0x54, 0x3d,
  0x02, 0xa9, 0x9c, 0xbd, 0xab, 0x28, 0x52, 0xbc, 0xb0, 0x04, 0x2d, 0x3d,
  0x35, 0xd4, 0x03, 0xbd, 0xaa, 0xd6, 0x5e, 0x3d, 0x56, 0x78, 0xa2, 0x3c,
  0x95, 0x0f, 0x88, 0xbd, 0x78, 0xac, 0x89, 0x3d, 0x8a, 0xc1, 0x87, 0x3d,
  0xd7, 0x91, 0x7f, 0xbd, 0xf7, 0x72, 0xb7, 0x3d, 0x7e, 0x92, 0x7e, 0x3d,
  0xc1, 0xcf, 0x24, 0xbd, 0x71, 0x65, 0x86, 0x3c, 0x43, 0x60, 0xc3, 0x3d,
  0x5c, 0x25, 0x0b, 0xbd, 0x9c, 0xa8, 0x66, 0x3d, 0x2b, 0x41, 0x02, 0x3e,
  0xdf, 0x61, 0x94, 0xbd, 0x5b, 0x80, 0x31, 0x3d, 0x99, 0xaa, 0xe0, 0x3d,
  0xbc, 0xa0, 0x96, 0xbd, 0x89, 0x55, 0xc1, 0x3c, 0x9d, 0xb8, 0x12, 0x3e,
  0xad, 0xf8, 0xbe, 0xbd, 0xf3, 0xd7, 0x96, 0x3d, 0x81, 0xdf, 0xb2, 0x3d,
  0x52, 0xb1, 0x09, 0xbe, 0x68, 0x9b, 0xb2, 0x3d, 0x11, 0xa9, 0x46, 0x3d,
  0xf4, 0x04, 0x08, 0xbe, 0xa6, 0x6d, 0x88, 0x3d, 0x37, 0xb5, 0x30, 0x3d,
  0x43, 0xd0, 0xa2, 0xbd, 0xc8, 0x68, 0x63, 0xbc, 0x3f, 0x8b, 0xc3, 0x3d,
  0x24, 0x87, 0x85, 0xbd, 0x8e, 0xc4, 0xc0, 0x3b, 0xf6, 0x97, 0x49, 0x3d,
  0xc5, 0xfa, 0x98, 0xbd, 0x5e, 0x81, 0xca, 0x3d, 0x5d, 0xfe, 0x46, 0x3d,
  0x32, 0xe9, 0x8b, 0xbd, 0x3f, 0xbf, 0xfb, 0x3d, 0x15, 0xb7, 0x9f, 0xbb,
  0xf0, 0x23, 0xa3, 0xbd, 0x53, 0xab, 0xc1, 0x3d, 0xe1, 0x9b, 0x33, 0xbd,
  0xed, 0xaf, 0x6e, 0xbd, 0x47, 0x90, 0x07, 0x3e, 0x8c, 0xf1, 0x34, 0xbd,
  0x4f, 0xf6, 0x1e, 0xbc, 0x67, 0xae, 0x0e, 0x3e, 0xed, 0x6f, 0x18, 0x3b,
  0x86, 0x18, 0x6d, 0x3c, 0xe0, 0x02, 0xe1, 0x3d, 0xa4, 0x57, 0x32, 0xbd,
  0xb1, 0x10, 0x41, 0x3d, 0x65, 0x61, 0x91, 0x3d, 0xce, 0x7c, 0xde, 0xbd,
  0x47, 0xe0, 0x31, 0x3d, 0x65, 0xa8, 0xce, 0x3d, 0x46, 0xf6, 0xfd, 0xbd,
  0x40, 0xb0, 0x66, 0xbd, 0x91, 0xb4, 0x0b, 0x3e, 0x7e, 0xc1, 0x5a, 0xbd,
  0x6c, 0xf7, 0x74, 0xbc, 0x44, 0x01, 0x03, 0x3e, 0xac, 0x2d, 0xd2, 0xbd,
  0xa9, 0x83, 0x13, 0x3e, 0xb5, 0xa6, 0x97, 0x3d, 0xe7, 0x64, 0x66, 0xbe,
  0x7e, 0x6f, 0x1a, 0x3e, 0x22, 0x2e, 0x05, 0x3e, 0x86, 0xb0, 0x62, 0xbe,
  0x80, 0xda, 0xfb, 0x3d, 0x72, 0x9d, 0x2e, 0x3e, 0xcc, 0x50, 0xd8, 0xbd,
  0x11, 0x24, 0x1c, 0x3d, 0x8c, 0x25, 0x83, 0x3d, 0x01, 0x3e, 0x8f, 0xbd,
  0xff, 0xf0, 0x17, 0xbd, 0x54, 0x44, 0xe4, 0x3d, 0x8e, 0xb1, 0xe3, 0xbd,
  0x80, 0xbd, 0x50, 0x3d, 0x28, 0xa6, 0xe5, 0x3d, 0x4c, 0x34, 0x8e, 0xbe,
  0xb3, 0x2b, 0x02, 0x3e, 0x92, 0x00, 0x1e, 0x3e, 0x39, 0x5e, 0x78, 0xbe,
  0x24, 0x65, 0xa1, 0x3e, 0xc8, 0x76, 0xd0, 0x3b, 0xbd, 0xed, 0x2c, 0xbd,
  0xd2, 0x28, 0x9c, 0x3e, 0xac, 0x38, 0xbb, 0xbd, 0xf5, 0x99, 0xbf, 0xbd,
  0x48, 0x0e, 0x89, 0x3d, 0x2d, 0x3b, 0x71, 0x3c, 0x35, 0x31, 0xa9, 0xbd,
  0x92, 0x3c, 0xb2, 0xbd, 0xdd, 0x7c, 0xb2, 0x3d, 0x8e, 0xbb, 0xf8, 0x3c,
  0xae, 0xc8, 0xb2, 0x3d, 0xbc, 0x84, 0xb7, 0x3c, 0x70, 0x24, 0xbd, 0xbc,
  0x5a, 0xe7, 0x06, 0x3e, 0x96, 0xec, 0x5f, 0xbd, 0x86, 0xb8, 0xf0, 0xbd,
  0x11, 0x5e, 0x19, 0x3e, 0xfa, 0x4c, 0x19, 0xbd, 0x5d, 0x87, 0x39, 0xbd,
  0xda, 0xad, 0x92, 0x3e, 0x0a, 0xab, 0x2e, 0xbe, 0x1e, 0x6f, 0x2b, 0x3d,
  0x43, 0x18, 0x82, 0x3e, 0xd7, 0x3d, 0x18, 0xbe, 0xcb, 0x8a, 0xa1, 0x39,
  0xbb, 0x4a, 0x89, 0x3b, 0x31, 0x66, 0x83, 0xbd, 0x6d, 0xaf, 0x83, 0x3d,
  0x73, 0x42, 0xb6, 0xbd, 0x1b, 0x3a, 0x88, 0x3b, 0x8f, 0xaa, 0xa2, 0x3d,
  0xef, 0x41, 0x7c, 0x3c, 0x1d, 0xb9, 0x86, 0xbd, 0x1f, 0x17, 0x27, 0xbb,
  0xe8, 0x3a, 0xae, 0x3e, 0xaa, 0xab, 0x82, 0xbe, 0x71, 0x9e, 0x33, 0xbd,
  0x4a, 0xd0, 0xe7, 0x3e, 0x1e, 0x6b, 0x73, 0xbe, 0x13, 0x2e, 0x57, 0x3d,
  0x3d, 0x96, 0x64, 0x3e, 0xe6, 0x08, 0x7a, 0xbe, 0xa1, 0xb5, 0x2b, 0x3e,
  0x6b, 0xe5, 0xbf, 0xbd, 0x88, 0x1e, 0xd2, 0xbd, 0xcf, 0x75, 0xcf, 0x3d,
  0x79, 0x46, 0x51, 0xbd, 0x6b, 0x15, 0xa2, 0xbd, 0xb3, 0x39, 0xc4, 0xbc,
  0x33, 0xf8, 0x87, 0x3e, 0x0f, 0x28, 0x87, 0xbe, 0x58, 0xfc, 0x9a, 0x3d,
  0x76, 0x7e, 0xbd, 0x3e, 0x8f, 0x5c, 0x89, 0xbe, 0x6f, 0xdf, 0x6a, 0x3e,
  0xb3, 0x03, 0x8d, 0x3e, 0x8d, 0xfb, 0x8c, 0xbe, 0x87, 0xbb, 0x68, 0xbc,
  0xd2, 0x36, 0x3b, 0x3e, 0xd0, 0xd4, 0x37, 0xbe, 0xa1, 0x8d, 0x97, 0xbd,
  0xc8, 0xcb, 0xd6, 0x3d, 0x00, 0x94, 0xff, 0xbd, 0x28, 0x44, 0x56, 0x3e,
  0xcc, 0xaf, 0xef, 0x3c, 0x27, 0x6e, 0x32, 0xbe, 0xb9, 0x67, 0x27, 0x3e,
  0x9f, 0x4b, 0xa6, 0x3d, 0x37, 0xb0, 0x18, 0xbe, 0x52, 0x54, 0x5f, 0xbe,
  0xe2, 0x83, 0x86, 0x3e, 0x14, 0x5a, 0x0b, 0xbe, 0x86, 0x92, 0xb2, 0xbd,
  0x51, 0x73, 0x9e, 0x3e, 0xc2, 0x5a, 0xee, 0xbd, 0x3a, 0x61, 0xb1, 0x3e,
  0x2b, 0xcc, 0x7c, 0x3d, 0x95, 0x37, 0x6c, 0xbe, 0x88, 0xd8, 0xd2, 0x3e,
  0xbb, 0xb6, 0x5e, 0xbe, 0xd5, 0x4c, 0x1d, 0xbe, 0x93, 0x50, 0x27, 0xbc,
  0x19, 0x3a, 0x4b, 0xbd, 0x48, 0x55, 0xfa, 0x3b, 0xf2, 0xf9, 0x6e, 0xbe,
  0x2c, 0xc0, 0x1c, 0x3e, 0x26, 0x2c, 0x90, 0x3d, 0x8b, 0x3b, 0x78, 0x3d,
  0x1a, 0x30, 0xe4, 0x3b, 0x24, 0x5f, 0x45, 0xbd, 0x6a, 0x0a, 0x93, 0x3e,
  0xb0, 0x39, 0xa4, 0xbd, 0xea, 0xd4, 0x0d, 0xbe, 0xac, 0x4d, 0x35, 0x3d,
  0x67, 0x58, 0x71, 0xbc, 0x78, 0x12, 0x66, 0x3b, 0xeb, 0xa1, 0x04, 0xbd,
  0x82, 0xc2, 0xf9, 0x3c, 0x9b, 0x6e, 0xfa, 0x3c, 0xe6, 0x2a, 0x62, 0x3d,
  0x31, 0x87, 0x64, 0xbe, 0x0c, 0x6d, 0x6f, 0x3e, 0xb8, 0xdd, 0xb9, 0x3d,
  0x26, 0xa6, 0x57, 0xbe, 0x52, 0x0c, 0x14, 0x3e, 0x7e, 0x30, 0xc5, 0x3c,
  0xec, 0xf5, 0x0f, 0xbd, 0xf5, 0xf2, 0xdb, 0x3d, 0x3c, 0xcf, 0x12, 0xbe,
  0x82, 0xde, 0x7b, 0x3d, 0xd7, 0x54, 0xc5, 0x3d, 0xbd, 0x8d, 0x31, 0x3e,
  0x78, 0xe3, 0xa8, 0xbe, 0xdb, 0x9e, 0x4b, 0x3e, 0x0d, 0xf6, 0x15, 0x3f,
  0x65, 0x28, 0x2d, 0xbf, 0x28, 0x77, 0x19, 0x3e, 0x43, 0xc4, 0x09, 0x3e,
  0x2e, 0x03, 0x98, 0xbe, 0x02, 0x49, 0x1b, 0x3e, 0x4a, 0xfb, 0x5c, 0xbf,
  0xe7, 0x60, 0x92, 0x3e, 0x6e, 0x35, 0xb6, 0x3e, 0x8e, 0x19, 0x3c, 0xbf,
  0x7a, 0x5a, 0xd6, 0x3e, 0x2e, 0x5d, 0x80, 0x3e, 0x96, 0x64, 0x14, 0x3f,
  0x1d, 0x36, 0x9c, 0xbe, 0x03, 0x88, 0x27, 0xbd, 0x8c, 0xfc, 0x93, 0x3f,
  0x54, 0x4e, 0x53, 0xbf, 0xe9, 0x7c, 0x19, 0xbe, 0x43, 0xb7, 0x2a, 0xbc,
  0xa7, 0xda, 0xd7, 0xbd, 0x7f, 0x46, 0x16, 0x3e, 0x07, 0x2f, 0x85, 0xbf,
  0x3c, 0xc0, 0x3d, 0x3e, 0x59, 0x71, 0x22, 0x3f, 0x06, 0x12, 0x1b, 0xbf,
  0xaf, 0xb6, 0xce, 0x3d, 0xfd, 0x9a, 0xed, 0x3e, 0xd1, 0x94, 0xb9, 0xbe,
  0x23, 0x1e, 0xa9, 0xbe, 0x93, 0xae, 0xe9, 0xbd, 0x66, 0xa1, 0x00, 0xbf,
  0x0a, 0xca, 0xf1, 0xbe, 0xd4, 0x98, 0x13, 0xbf, 0xa0, 0x9a, 0x46, 0x3f,
  0xbf, 0xd9, 0x92, 0x3f, 0xaf, 0xd4, 0x35, 0xbb, 0x59, 0xfb, 0xc8, 0xbf,
  0x0e, 0x5e, 0xbe, 0xbf, 0xa7, 0x4f, 0x5d, 0xbf, 0xb8, 0x44, 0xc3, 0x3f,
  0x4e, 0x2e, 0x21, 0x3f, 0xbb, 0xb9, 0x63, 0x3f, 0x22, 0xad, 0x15, 0x3f,
  0x9e, 0x9a, 0x84, 0x3f, 0x6d, 0xe2, 0xa9, 0x3e, 0xba, 0x2c, 0xc9, 0xbf,
  0xff, 0x1a, 0xae, 0xbf, 0xda, 0x16, 0x59, 0xbf, 0x22, 0x0d, 0x45, 0x3f,
  0x17, 0xb8, 0xe4, 0x3e, 0x63, 0xe4, 0x2c, 0x3f, 0x19, 0x86, 0x91, 0xbf,
  0xd4, 0xef, 0x18, 0xbf, 0xb2, 0xd4, 0x88, 0xbf, 0xbb, 0x97, 0x12, 0x3f,
  0xff, 0x4f, 0x87, 0x3f, 0x8b, 0x3c, 0x6b, 0x3f, 0x83, 0x95, 0x6f, 0x3e,
  0x2a, 0xc7, 0xc6, 0x3e, 0x1b, 0x1e, 0xfd, 0x3e, 0x81, 0xbd, 0x28, 0x3f,
  0xc4, 0xa4, 0x40, 0x3d, 0x4f, 0x73, 0xf2, 0x3e, 0xab, 0xb4, 0x3d, 0x3d,
  0x01, 0x6e, 0x4d, 0xbe, 0xf4, 0x00, 0x7a, 0x3e, 0x2f, 0x6f, 0x69, 0x3e,
  0xee, 0xd7, 0x98, 0x3d, 0xda, 0x85, 0x14, 0x3e, 0x42, 0xc7, 0xbc, 0xbd,
  0x77, 0x40, 0x5a, 0xbe, 0x54, 0x5e, 0x90, 0xbc, 0xe7, 0x61, 0xc0, 0xbd,
  0xb6, 0x3b, 0x1e, 0xbe, 0x9d, 0xa5, 0x13, 0xbe, 0x38, 0xee, 0x5c, 0xbe,
  0x0c, 0x10, 0x89, 0xbd, 0x6f, 0x5d, 0x08, 0xbe, 0x11, 0x89, 0x4f, 0xbe,
  0x91, 0xaf, 0xb9, 0xbd, 0xb6, 0x20, 0x37, 0xbe, 0x44, 0x80, 0x7a, 0xbe,
  0x18, 0x54, 0xe3, 0xbd, 0xd4, 0xae, 0x14, 0xbe, 0x23, 0xc3, 0x60, 0xbe,
  0x7f, 0x62, 0x45, 0xbb, 0xf4, 0x81, 0xfd, 0xbd, 0xab, 0x70, 0xfc, 0xbd,
  0x8f, 0x2f, 0x53, 0xbc, 0xcf, 0xef, 0x10, 0xbe, 0x75, 0x72, 0xb6, 0xbd,
  0xba, 0x8d, 0xc5, 0xbc, 0x7a, 0x5f, 0xff, 0xbd, 0xa5, 0x8b, 0x9b, 0xbd,
  0x18, 0x29, 0x26, 0xbe, 0xed, 0xa8, 0x30, 0xbd, 0xfb, 0x30, 0xa1, 0xbc,
  0x25, 0xd5, 0x03, 0xbe, 0x25, 0x08, 0x97, 0xbd, 0x76, 0xab, 0x8f, 0x3c,
  0x61, 0x7c, 0x88, 0xbd, 0xf2, 0x5d, 0x04, 0xbd, 0xb7, 0xc5, 0x4f, 0x3c,
  0xe0, 0x76, 0x42, 0xbd, 0x2a, 0xed, 0xc6, 0xbc, 0xd7, 0xff, 0x2a, 0x3d,
  0x81, 0x95, 0x5f, 0xbc, 0xea, 0xc4, 0x0c, 0x3d, 0xdb, 0x1e, 0xb9, 0x3d,
  0x45, 0x30, 0x8f, 0x3d, 0x5c, 0x1e, 0x8b, 0x3d, 0x8d, 0xdb, 0xec, 0x3d,
  0x4b, 0xff, 0x23, 0x3e, 0x8b, 0x67, 0xe9, 0x3d, 0xb8, 0x61, 0xfc, 0x3d,
  0x1c, 0xc3, 0x7d, 0x3e, 0xad, 0xac, 0x0b, 0x3e, 0x62, 0x40, 0x16, 0x3e,
  0x3d, 0xd9, 0x63, 0x3e, 0x16, 0x3d, 0x0a, 0x3e, 0x0b, 0xfe, 0xe9, 0x3d,
  0x63, 0xa3, 0x46, 0x3e, 0x2f, 0xa8, 0xcd, 0x3d, 0x4c, 0xa2, 0xb7, 0x3c,
  0x7b, 0x02, 0xf1, 0x3d, 0x04, 0xa3, 0x18, 0x3d, 0xc6, 0xd6, 0x8f, 0x3c,
  0xaf, 0x7d, 0x91, 0x3b, 0xa4, 0x38, 0x2e, 0xbc, 0x51, 0x13, 0x33, 0x3d,
  0x87, 0xe3, 0x9d, 0xbd, 0xd6, 0xaf, 0x27, 0xbc, 0x7f, 0xc2, 0x5f, 0x3d,
  0xc1, 0xc1, 0xb3, 0xbc, 0xf8, 0xeb, 0x72, 0xbd, 0x48, 0x4f, 0x66, 0x3d,
  0x49, 0x64, 0xbf, 0xbc, 0x3b, 0x91, 0x6d, 0xbd, 0x25, 0xfa, 0x0a, 0x3d,
  0x10, 0x01, 0x42, 0x3c, 0x45, 0x30, 0xe9, 0xbc, 0x18, 0xec, 0xab, 0x3c,
  0xd6, 0xba, 0x6f, 0x3d, 0x23, 0xb1, 0x2d, 0xbd, 0xe9, 0xc9, 0xbb, 0x3c,
  0x88, 0x0f, 0x89, 0x3d, 0x3f, 0x83, 0x4d, 0xbd, 0xd8, 0xa5, 0xa6, 0x3d,
  0xc0, 0x02, 0x0f, 0x3d, 0x01, 0x65, 0x35, 0xbd, 0xe9, 0x29, 0x20, 0x3d,
  0x2e, 0x16, 0xa9, 0x3c, 0xe8, 0xbc, 0x79, 0xbc, 0x16, 0x84, 0x16, 0x3d,
  0x04, 0xff, 0x7c, 0x3d, 0x1d, 0x86, 0x1d, 0xba, 0x07, 0x85, 0x85, 0xbd,
  0x80, 0x73, 0x98, 0x3d, 0x8e, 0xba, 0x15, 0xbd, 0x33, 0xdf, 0x58, 0xbd,
  0x96, 0x2d, 0xf7, 0x3d, 0xe6, 0x8c, 0xc9, 0xbc, 0x4f, 0xb9, 0x8b, 0x3b,
  0xd4, 0xb4, 0xaa, 0x3d, 0xf5, 0x24, 0xda, 0xbc, 0x65, 0xe4, 0xc7, 0xb9,
  0x77, 0x05, 0xe3, 0x3c, 0xe7, 0xce, 0x47, 0x3c, 0x30, 0xe0, 0xb3, 0x3c,
  0x05, 0x9c, 0x61, 0xbc, 0x20, 0x6e, 0xd9, 0x3c, 0xaf, 0x25, 0x9a, 0x3c,
  0x80, 0xce, 0x17, 0xbc, 0xd4, 0x31, 0xd4, 0x3d, 0xca, 0x1b, 0xf4, 0x3c,
  0x31, 0x6e, 0x97, 0x3d, 0xfd, 0x92, 0x06, 0x3d, 0x0a, 0x13, 0x9c, 0x3d,
  0x51, 0x2f, 0x83, 0x3d, 0xb1, 0x9f, 0xa6, 0x3d, 0x36, 0xa4, 0xe0, 0x3d,
  0x58, 0xd4, 0x87, 0xbb, 0x7a, 0x6e, 0xb6, 0x3d, 0xff, 0x42, 0xac, 0x3d,
  0x89, 0x5d, 0x1e, 0x3d, 0x41, 0x33, 0x0d, 0x3e, 0xd9, 0x6d, 0x97, 0x3d,
  0x49, 0x6d, 0x65, 0x3d, 0x38, 0x3b, 0xc1, 0x3d, 0x58, 0x46, 0x87, 0x3d,
  0x7a, 0xdf, 0x93, 0x3d, 0x1b, 0x84, 0xdd, 0x3d, 0x7b, 0x6a, 0xaf, 0x3c,
  0xbe, 0x2a, 0x5a, 0x3d, 0x49, 0xe4, 0x7c, 0x3d, 0xf7, 0xcf, 0x0a, 0x3d,
  0x1c, 0x34, 0xa8, 0x3d, 0x01, 0x5d, 0x43, 0x3d, 0x9b, 0x8c, 0xb4, 0xbc,
  0x43, 0xa1, 0xb3, 0x3d, 0x92, 0x76, 0x47, 0x3c, 0xff, 0x92, 0x18, 0x3d,
  0x06, 0x61, 0x46, 0x3d, 0x65, 0x34, 0x1d, 0x3c, 0xa7, 0xe7, 0x0e, 0xbb,
  0x28, 0xdc, 0x5b, 0x3c, 0x07, 0x9c, 0x03, 0x3d, 0x2f, 0xd4, 0x0a, 0xbd,
  0xd8, 0x8e, 0xff, 0x3c, 0x4f, 0x35, 0x15, 0x3d, 0x32, 0xe6, 0xa5, 0xbd,
  0x2a, 0x29, 0x88, 0x3c, 0xa9, 0x10, 0x7b, 0x3b, 0x1b, 0x94, 0x76, 0xbd,
  0xe6, 0xf2, 0xb9, 0xbb, 0x83, 0xf0, 0xe1, 0xbc, 0x97, 0x2d, 0xd3, 0xbd,
  0x5d, 0xd2, 0x01, 0xbd, 0x8c, 0x6e, 0x64, 0xbd, 0xe3, 0xaa, 0xd5, 0xbd,
  0x5a, 0x88, 0x51, 0xbd, 0x3d, 0x5b, 0xa6, 0xbc, 0x99, 0x30, 0x3a, 0xbe,
  0x8d, 0xe2, 0x6c, 0xbd, 0x95, 0x06, 0x69, 0xbb, 0x05, 0xda, 0xe2, 0xbd,
  0x2d, 0x90, 0x1e, 0xbd, 0xff, 0x1b, 0x11, 0x3d, 0x76, 0x87, 0x05, 0xbe,
  0x32, 0x3e, 0x96, 0xbd, 0x98, 0x13, 0x04, 0xbc, 0xbe, 0x5a, 0xae, 0xbd,
  0x52, 0x8c, 0x4c, 0xbd, 0xc5, 0x3b, 0x50, 0x3d, 0x19, 0x34, 0xf4, 0xbd,
  0xbd, 0xc3, 0x67, 0xbd, 0xf7, 0x03, 0x80, 0x3d, 0x75, 0xa1, 0x6f, 0xbd,
  0x5e, 0x66, 0xf0, 0xbc, 0x99, 0x8f, 0x01, 0x3d, 0xb4, 0xc7, 0x59, 0xbd,
  0x01, 0x79, 0x71, 0xbd, 0xbf, 0x45, 0x1e, 0xbc, 0x38, 0xae, 0x43, 0xbd,
  0x10, 0x1b, 0xfe, 0x3c, 0xb9, 0x72, 0x8d, 0x3b, 0xb2, 0x55, 0xc1, 0xbd,
  0x85, 0xfc, 0xcb, 0xbc, 0x58, 0x1d, 0x20, 0xbd, 0x46, 0xc6, 0x43, 0x3c,
  0xda, 0x29, 0x8e, 0xbc, 0x68, 0x28, 0x63, 0x3a, 0x2f, 0xc5, 0x66, 0x3d,
  0x0b, 0xf4, 0xbd, 0xbd, 0x5b, 0xcb, 0x76, 0xbd, 0xc1, 0x86, 0x64, 0x3c,
  0x2f, 0xad, 0x03, 0x3b, 0xc7, 0xdd, 0xa3, 0x3c, 0x39, 0xaf, 0x5a, 0xbd,
  0x0a, 0xc1, 0xfa, 0x3c, 0x38, 0x03, 0xa8, 0xbc, 0x1c, 0x9e, 0x2d, 0xbd,
  0x2b, 0x10, 0x0e, 0x3d, 0xec, 0x0c, 0xca, 0x3d, 0xb0, 0x9f, 0xcb, 0x3c,
  0xe1, 0xeb, 0x08, 0x3d, 0x18, 0x89, 0xa2, 0x3c, 0x53, 0xc5, 0xd9, 0x3d,
  0xf7, 0xa6, 0xff, 0x3d, 0x3b, 0x60, 0x0a, 0xbf, 0xa2, 0x83, 0x43, 0xbf,
  0x3f, 0xa4, 0xa1, 0x3e, 0x65, 0x14, 0x2f, 0xbe, 0x7f, 0xee, 0x3d, 0x3f,
  0x3a, 0x1c, 0x4d, 0xbf, 0x79, 0xc1, 0x49, 0x3f, 0x32, 0x5c, 0xc3, 0x3e,
  0xd0, 0xb9, 0x8e, 0x3f, 0x66, 0x5d, 0xc1, 0xbe, 0xfe, 0x58, 0xa6, 0xbf,
  0x21, 0xb8, 0x9c, 0xbf, 0x0e, 0x0b, 0x18, 0x3d, 0x17, 0x04, 0xbf, 0x3f,
  0x5f, 0x33, 0xa7, 0x3e, 0xf6, 0x95, 0x52, 0x3e, 0xdb, 0x68, 0x2e, 0xbf,
  0xfa, 0x23, 0xb4, 0x3f, 0xe0, 0x3a, 0x47, 0x3f, 0x26, 0xe3, 0xa4, 0x3f,
  0x18, 0x37, 0x2f, 0xbf, 0x62, 0x54, 0xc8, 0x3e, 0x25, 0x30, 0x69, 0xbf,
  0xcd, 0xc7, 0x50, 0x3f, 0xf2, 0x1e, 0x1c, 0xbf, 0xd5, 0x27, 0x5b, 0x3e,
  0x46, 0x9f, 0x17, 0xbf, 0x3e, 0xba, 0x46, 0xbc, 0xe0, 0xc5, 0x48, 0x3f,
  0x4b, 0x99, 0x06, 0x3f, 0x6f, 0xca, 0x29, 0x3e, 0x9b, 0xfa, 0x82, 0xbf,
  0x62, 0x68, 0x8e, 0xbf, 0x41, 0x27, 0x3f, 0xbf, 0xc8, 0x74, 0x29, 0xbd,
  0xb8, 0x7e, 0xda, 0xbd, 0x25, 0x29, 0x6a, 0xbe, 0xcf, 0x4d, 0xee, 0xbe,
  0xbf, 0x43, 0xee, 0xbe, 0x5c, 0xf2, 0x84, 0xbe, 0xfa, 0xb7, 0x64, 0x3e,
  0xc7, 0x18, 0x0c, 0x3e, 0x40, 0xa6, 0xf9, 0x3c, 0x7a, 0x3d, 0xc1, 0x3d,
  0x95, 0x4a, 0x8e, 0x3e, 0x05, 0xf5, 0x6c, 0x3e, 0x29, 0x4b, 0xe5, 0x3e,
  0x68, 0xd6, 0xc3, 0x3e, 0x24, 0xd4, 0xd4, 0x3e, 0xd5, 0xd8, 0x9d, 0x3e,
  0xd7, 0xda, 0x8e, 0x3e, 0x45, 0xf9, 0xbb, 0x3e, 0x79, 0xfd, 0x92, 0x3e,
  0xda, 0xf5, 0x7c, 0x3e, 0x2d, 0x06, 0xb2, 0x3e, 0x1c, 0xf9, 0xf2, 0x3d,
  0x91, 0x22, 0xbc, 0xbc, 0x20, 0x3d, 0x39, 0x3e, 0x5a, 0xf9, 0x1d, 0x3e,
  0x4f, 0x27, 0xfc, 0xbb, 0xbe, 0x0f, 0x59, 0x3d, 0x67, 0xc7, 0x0b, 0xbd,
  0xaa, 0x1f, 0x67, 0xbe, 0xf8, 0x5e, 0xba, 0x3b, 0xf9, 0x89, 0xc7, 0xbd,
  0x8d, 0xac, 0x81, 0xbe, 0x27, 0x6c, 0x07, 0xbe, 0x48, 0x47, 0x32, 0xbe,
  0xdd, 0xb4, 0x94, 0xbe, 0x90, 0x1e, 0x8d, 0xbe, 0x6f, 0x21, 0x3b, 0xbe,
  0x3f, 0xab, 0x80, 0xbe, 0xd4, 0x51, 0x9b, 0xbe, 0xa9, 0x74, 0x6b, 0xbe,
  0x34, 0x19, 0x48, 0xbe, 0x8c, 0xc6, 0x95, 0xbe, 0x1d, 0x0f, 0x0f, 0xbe,
  0x60, 0xf0, 0xe2, 0xbd, 0x55, 0x2d, 0x80, 0xbe, 0x71, 0x6b, 0xd9, 0xbd,
  0xeb, 0x4a, 0x6f, 0xbd, 0x33, 0x63, 0x38, 0xbe, 0xf1, 0xb5, 0xce, 0xbd,
  0x54, 0x1e, 0x3c, 0xbd, 0x45, 0x3e, 0xf2, 0xbd, 0xbd, 0x20, 0x6b, 0x3d,
  0xce, 0x18, 0x61, 0x3b, 0x7e, 0xc6, 0x79, 0xbd, 0x29, 0xb3, 0xb3, 0x3d,
  0xe4, 0x69, 0x51, 0x3c, 0x76, 0x82, 0x7d, 0x3c, 0x53, 0x42, 0x89, 0x3d,
  0xab, 0x5d, 0xb4, 0x3d, 0xb9, 0x46, 0xff, 0x3c, 0xf5, 0x81, 0x5e, 0x3d,
  0x42, 0xb8, 0xfa, 0x3d, 0x17, 0xac, 0x96, 0x3d, 0x97, 0xcb, 0x90, 0x3d,
  0x88, 0xaa, 0x23, 0x3e, 0x9b, 0x57, 0x40, 0x3d, 0x05, 0x3e, 0x70, 0x3d,
  0x2f, 0x7c, 0x08, 0x3e, 0x9c, 0x59, 0xd6, 0x3d, 0xd7, 0x4e, 0xa9, 0x3d,
  0x75, 0x96, 0xba, 0x3c, 0x65, 0x95, 0xa4, 0x3d, 0x6d, 0x1e, 0xdc, 0x3d,
  0x8e, 0xf6, 0x91, 0x3d, 0x64, 0xd3, 0xdf, 0x3d, 0x07, 0x72, 0xc6, 0x3d,
  0x47, 0x97, 0x19, 0x3d, 0xfb, 0xcd, 0x9f, 0x3d, 0xb5, 0xd3, 0xb0, 0x3c,
  0xa7, 0xcf, 0x05, 0xbc, 0x57, 0xbb, 0xa6, 0x3d, 0x09, 0xbf, 0x22, 0x3d,
  0xdc, 0xd6, 0x03, 0xbd, 0xef, 0x58, 0x60, 0x3d, 0xf2, 0xf8, 0x02, 0x3d,
  0x74, 0x65, 0x1f, 0xbd, 0xe9, 0x95, 0x07, 0x3d, 0xfe, 0xf7, 0x56, 0xbd,
  0x22, 0x0e, 0xaf, 0xbd, 0xdc, 0x5f, 0x73, 0xbd, 0x3f, 0xfa, 0x87, 0xbd,
  0xf2, 0xdb, 0xf7, 0xbd, 0x10, 0x42, 0xcd, 0xbd, 0x4e, 0x28, 0x78, 0xbd,
  0x8d, 0x9e, 0x4e, 0xbd, 0x99, 0x59, 0xc1, 0xbd, 0xd4, 0xa4, 0xb5, 0xbd,
  0xab, 0x61, 0xa6, 0xbd, 0xb2, 0x29, 0xd2, 0xbd, 0xd2, 0x36, 0x36, 0xbc,
  0x64, 0x48, 0x2d, 0xba, 0x0a, 0x5b, 0xc3, 0xbd, 0x34, 0xfa, 0xb6, 0x3c,
  0x23, 0x4a, 0xf1, 0xbb, 0xa7, 0x56, 0x29, 0xbd, 0x72, 0x52, 0x0d, 0x3d,
  0x22, 0x38, 0x01, 0xbd, 0xb2, 0x0b, 0x9a, 0xbc, 0x15, 0xc8, 0xfe, 0xbb,
  0x8a, 0x74, 0x14, 0xbd, 0x5b, 0x4c, 0x1c, 0xbd, 0xbf, 0xac, 0x69, 0xbd,
  0x88, 0x16, 0xfb, 0x3c, 0x95, 0xeb, 0x7d, 0xbd, 0x2b, 0xfd, 0x30, 0xbd,
  0x49, 0x02, 0xd9, 0xbc, 0x3f, 0x3f, 0x7e, 0xbd, 0x7e, 0xcc, 0x16, 0x3c,
  0x9c, 0x77, 0x8a, 0x3c, 0xcc, 0xc1, 0xcc, 0x3c, 0xb1, 0x28, 0xe2, 0xbc,
  0x8e, 0x3b, 0x8c, 0xbd, 0xb3, 0xab, 0x9c, 0x3c, 0x48, 0xec, 0x71, 0xbd,
  0x21, 0xab, 0xf9, 0x3b, 0x6a, 0x3c, 0x81, 0xbc, 0x2b, 0xc1, 0x8a, 0xbd,
  0x74, 0xf1, 0x5c, 0xbd, 0x8e, 0x71, 0xb7, 0xbc, 0x97, 0xc6, 0x03, 0xbe,
  0xbf, 0xbb, 0x84, 0xbc, 0x2b, 0x8d, 0xa2, 0x3b, 0xb5, 0x1d, 0x3c, 0xbe,
  0xdd, 0xed, 0x02, 0xbd, 0x6e, 0x42, 0xac, 0xbc, 0x6f, 0x57, 0x1a, 0xbe,
  0x4e, 0xdc, 0x17, 0x3d, 0xc7, 0x93, 0x0d, 0xbd, 0x6d, 0x92, 0xff, 0xbd,
  0xbe, 0x06, 0x7e, 0xbd, 0x4d, 0xe7, 0x2c, 0xbd, 0x5f, 0xf0, 0xc8, 0xbd,
  0xfb, 0xb7, 0xc8, 0xbd, 0x35, 0xad, 0x37, 0xbc, 0xa6, 0x94, 0xee, 0xbd,
  0xee, 0x13, 0xed, 0xbd, 0x74, 0x4b, 0x78, 0xbc, 0x9c, 0x2f, 0xea, 0xbd,
  0x28, 0xc8, 0xc3, 0xbd, 0xbf, 0xa6, 0xac, 0x3c, 0xac, 0xdf, 0xd7, 0xbd,
  0x50, 0x38, 0x0a, 0xbe, 0xfe, 0x99, 0xa5, 0x3c, 0xd9, 0xa1, 0x94, 0xbc,
  0x4a, 0x1a, 0xd8, 0xbd, 0x4c, 0x00, 0x4d, 0x3a, 0x21, 0x97, 0x28, 0xbd,
  0x74, 0xa7, 0xd0, 0xbd, 0xa9, 0xc8, 0x30, 0x3d, 0x86, 0x10, 0x2e, 0xbd,
  0x38, 0x81, 0x4f, 0xbd, 0x34, 0x11, 0x19, 0x3d, 0xc9, 0x13, 0x75, 0xbc,
  0x05, 0x72, 0xc1, 0xbd, 0xaf, 0xd0, 0x81, 0x3d, 0xb3, 0x58, 0x73, 0xbc,
  0x0d, 0xe9, 0xa2, 0xbc, 0x73, 0x4f, 0x68, 0x3d, 0x69, 0xc9, 0x95, 0xbb,
  0xd5, 0xf3, 0x9a, 0xbd, 0x2f, 0xd9, 0x3c, 0x3d, 0x73, 0xad, 0x0d, 0x3d,
  0x5d, 0x50, 0x97, 0x3c, 0xf5, 0xf8, 0xa6, 0x3d, 0x02, 0xe6, 0x83, 0x3d,
  0x1d, 0x60, 0x60, 0xbd, 0x5d, 0x10, 0x1b, 0x3d, 0xe1, 0x49, 0x57, 0x3d,
  0xd7, 0x2e, 0xad, 0x3c, 0xfa, 0xe1, 0x6e, 0x3d, 0xd1, 0x9d, 0x0f, 0x3c,
  0x82, 0x15, 0x90, 0x3c, 0x35, 0xb7, 0x96, 0x3d, 0xf2, 0x79, 0x1d, 0xbc,
  0x48, 0x65, 0xb8, 0x3d, 0x6e, 0x5d, 0xc0, 0x3d, 0xd6, 0xf2, 0x95, 0x3d,
  0x45, 0xf7, 0xb8, 0xbc, 0x0b, 0xf1, 0x9e, 0x3b, 0x5c, 0x32, 0x02, 0x3e,
  0xdb, 0x68, 0x4a, 0xbc, 0x22, 0x59, 0x25, 0x3d, 0x36, 0x7c, 0x22, 0x3d,
  0x41, 0xd8, 0xf2, 0xbc, 0x63, 0xeb, 0xd0, 0xbc, 0xe5, 0x29, 0xd8, 0xbd,
  0xa6, 0xb5, 0xbd, 0x3d, 0x36, 0xfb, 0xb0, 0x3d, 0x1d, 0x21, 0x12, 0x3c,
  0x58, 0x0c, 0x8f, 0xbc, 0xd7, 0xb6, 0x01, 0x3d, 0x11, 0x07, 0x7f, 0xbd,
  0xf0, 0x6d, 0xa0, 0xbc, 0x66, 0x40, 0xd8, 0x3d, 0x5a, 0x9c, 0x1b, 0xbe,
  0xe5, 0xe7, 0x0f, 0xbe, 0x01, 0xff, 0x21, 0x3e, 0x35, 0x84, 0xc9, 0x3f,
  0xdb, 0x1d, 0xb5, 0x3f, 0x54, 0x1d, 0x74, 0x3f, 0x3e, 0x71, 0x02, 0xbf,
  0xc1, 0x5e, 0x39, 0xbf, 0x13, 0xc4, 0x54, 0xbe, 0x4a, 0x19, 0x9d, 0xbf,
  0x31, 0x3e, 0x84, 0xbf, 0x4e, 0xca, 0xa4, 0xbf, 0x01, 0x3a, 0x08, 0x3f,
  0x8a, 0xf0, 0x17, 0x3f, 0xdd, 0xac, 0xee, 0xbe, 0xa4, 0xbc, 0x96, 0xbf,
  0x0c, 0xb1, 0xa4, 0xbf, 0xe5, 0xea, 0x4b, 0x3e, 0x0a, 0xdc, 0x5d, 0x3f,
  0xd9, 0xc8, 0x52, 0x3e, 0x4c, 0xd5, 0x8a, 0xbe, 0xa3, 0x93, 0xb2, 0xbd,
  0xe1, 0x6d, 0x18, 0xbf, 0x2b, 0xcc, 0x94, 0x3c, 0x0a, 0x68, 0x91, 0x3f,
  0x7b, 0x97, 0xaf, 0x3f, 0xa4, 0xdf, 0x4b, 0x3f, 0xe0, 0x28, 0x56, 0xbf,
  0x5d, 0xad, 0x31, 0xbf, 0xbd, 0x33, 0xc3, 0xbe, 0x49, 0x9d, 0x2b, 0x3f,
  0xbc, 0xe3, 0x29, 0x3f, 0xfb, 0xbe, 0xef, 0x3e, 0x31, 0xa6, 0xb1, 0xbc,
  0x94, 0x17, 0x82, 0x3e, 0x1c, 0xaa, 0x19, 0x3e, 0xbc, 0xc2, 0x8b, 0xbe,
  0xfd, 0xf5, 0x2b, 0x3e, 0xbc, 0x15, 0xdc, 0xbd, 0x37, 0xa2, 0xa7, 0xbd,
  0xc1, 0xab, 0x1e, 0xbc, 0x1f, 0x81, 0x2c, 0xbe, 0xa9, 0x25, 0xd1, 0xbe,
  0x9a, 0xeb, 0x30, 0xbe, 0x8f, 0x34, 0x70, 0xbe, 0xea, 0xff, 0x70, 0xbe,
  0x08, 0xa7, 0x12, 0xbd, 0xb9, 0xc8, 0x58, 0xbe, 0x15, 0x32, 0x4e, 0xbe,
  0xc3, 0x8b, 0x5e, 0xbe, 0x9c, 0x80, 0x4c, 0xbe, 0x2b, 0x74, 0xbf, 0xbc,
  0x74, 0x6c, 0xcb, 0xbd, 0xbe, 0x54, 0xc7, 0xbd, 0x43, 0x04, 0xcc, 0xbb,
  0x54, 0x30, 0x7e, 0xbd, 0x64, 0xa6, 0xb4, 0xbb, 0x43, 0xeb, 0x11, 0x3e,
  0xe8, 0x6a, 0x68, 0x3d, 0x35, 0x36, 0x98, 0x3d, 0x1c, 0x51, 0xdd, 0x3d,
  0x7f, 0x2a, 0xd5, 0x3c, 0x1d, 0x11, 0xe6, 0x3d, 0xb4, 0x23, 0x0a, 0x3e,
  0xda, 0x78, 0x1c, 0x3e, 0x7d, 0xfe, 0xf6, 0x3d, 0x9b, 0x92, 0xe8, 0x3d,
  0x0b, 0x41, 0xd7, 0x3d, 0xe1, 0x44, 0x3d, 0x3e, 0xe9, 0x07, 0x1c, 0x3e,
  0x7d, 0x03, 0x18, 0x3e, 0x64, 0xe9, 0x13, 0x3e, 0xf6, 0x63, 0xcd, 0x3c,
  0xde, 0x16, 0xb6, 0x3d, 0x5f, 0xee, 0xc6, 0x3d, 0x4f, 0xfd, 0x9a, 0x3d,
  0xce, 0xfb, 0x11, 0x3e, 0xb9, 0xc5, 0x59, 0x3d, 0xcc, 0x00, 0x2e, 0xbc,
  0x5e, 0x07, 0x7f, 0xbd, 0x4d, 0x23, 0x23, 0xbb, 0xc9, 0xe9, 0xd1, 0xbc,
  0x29, 0x14, 0x9a, 0x3c, 0x62, 0x9a, 0x91, 0xbd, 0x11, 0x34, 0x32, 0xbd,
  0x59, 0x9a, 0x99, 0xbd, 0x0d, 0x6d, 0xe8, 0xbd, 0xd7, 0xa4, 0xb8, 0xbd,
  0x10, 0xb1, 0x88, 0xbd, 0x4d, 0x5e, 0x32, 0xbe, 0xd5, 0xe6, 0x13, 0xbe,
  0x97, 0xd1, 0xe6, 0xbd, 0x76, 0xd8, 0x29, 0xbe, 0x24, 0xca, 0x21, 0xbe,
  0xa5, 0x4c, 0x7f, 0xbd, 0x66, 0xde, 0x35, 0xbe, 0x5f, 0x53, 0x9b, 0xbd,
  0x90, 0xf7, 0x1c, 0xbd, 0xdb, 0xab, 0x70, 0xbe, 0x9e, 0x6d, 0xf5, 0xbd,
  0xf6, 0x3f, 0x94, 0xbc, 0xbb, 0x88, 0x71, 0xbe, 0x7f, 0xf9, 0x10, 0xbe,
  0xbc, 0xf4, 0xf2, 0xbd, 0x4e, 0xa4, 0x4e, 0xbe, 0x77, 0xd0, 0x82, 0xbd,
  0xb9, 0xfd, 0x68, 0xbd, 0x92, 0xb1, 0x36, 0xbe, 0x54, 0x3e, 0x8c, 0xbd,
  0x64, 0xc8, 0x22, 0xbd, 0x27, 0x03, 0xf5, 0xbd, 0xd7, 0x7d, 0x51, 0xbd,
  0x32, 0x00, 0xb8, 0xbc, 0x98, 0x0b, 0xf5, 0xbd, 0xfa, 0xda, 0xd7, 0xbc,
  0x66, 0xc9, 0xae, 0xbb, 0xdd, 0x47, 0x72, 0xbd, 0x60, 0x54, 0x21, 0x3d,
  0x34, 0x21, 0xd5, 0xbc, 0x11, 0xec, 0x36, 0xbd, 0xd1, 0xe9, 0x7a, 0x3d,
  0xbe, 0xb6, 0xb4, 0x3a, 0x25, 0xb9, 0x5e, 0xbd, 0x64, 0x66, 0xb3, 0x3d,
  0xf7, 0x37, 0x47, 0xbc, 0x28, 0x26, 0xe8, 0x3c, 0xff, 0x2d, 0xcd, 0x3d,
  0xf9, 0xcd, 0x40, 0xbd, 0x15, 0x91, 0x03, 0xbd, 0x8e, 0x57, 0x9e, 0x3d,
  0x57, 0x80, 0x6c, 0xbd, 0xae, 0x81, 0xdb, 0x39, 0x9b, 0x56, 0x6d, 0x3d,
  0x16, 0xc1, 0x7b, 0xba, 0x51, 0xd0, 0xdd, 0xbc, 0x87, 0x9c, 0x9f, 0x3d,
  0x87, 0x4f, 0x92, 0x3d, 0x8b, 0xb4, 0xb6, 0x3b, 0x61, 0xcc, 0x5f, 0x3d,
  0xb8, 0x99, 0x55, 0x3d, 0xee, 0x6a, 0x06, 0x3c, 0x66, 0x43, 0xe5, 0x3d,
  0x45, 0x88, 0x20, 0x3d, 0x7b, 0x73, 0x0c, 0x3c, 0x35, 0x2d, 0xb4, 0x3d,
  0xd1, 0x9f, 0x64, 0x3d, 0x0b, 0x92, 0xfd, 0x3c, 0x82, 0x7c, 0x27, 0x3d,
  0x95, 0x7c, 0xa0, 0x3d, 0xfa, 0xfa, 0x98, 0x3b, 0xf2, 0x9b, 0x33, 0x3d,
  0xaf, 0xff, 0xdb, 0x3d, 0xf4, 0xf5, 0x2e, 0x3d, 0xf9, 0x3d, 0x0f, 0x3d,
  0x70, 0x0e, 0xc0, 0x3d, 0x74, 0x5c, 0x4b, 0x3d, 0x35, 0x96, 0x9b, 0xbc,
  0x45, 0x51, 0x79, 0x3d, 0xa6, 0x83, 0x0a, 0xbd, 0x7e, 0x5c, 0xef, 0xbc,
  0x8f, 0xcd, 0xa0, 0x3d, 0xfe, 0x46, 0x13, 0xbd, 0xc5, 0xcf, 0x14, 0x3c,
  0x76, 0x26, 0x43, 0x3d, 0x10, 0x3e, 0x3e, 0xbd, 0xca, 0xbc, 0x05, 0x3d,
  0x6c, 0xb4, 0x9b, 0x3d, 0xed, 0xd8, 0xb8, 0x3b, 0x75, 0xb3, 0x10, 0x3c,
  0x22, 0xfe, 0xb6, 0x3d, 0x65, 0x6b, 0x67, 0x3d, 0x34, 0xa0, 0xcc, 0x3c,
  0x39, 0x7c, 0x9a, 0x3d, 0x36, 0x8a, 0xd1, 0x3d, 0x50, 0x7c, 0x49, 0x3d,
  0x51, 0xbe, 0x7b, 0x3d, 0x52, 0x03, 0x30, 0x3e, 0x68, 0xfc, 0x9d, 0x3d,
  0x55, 0xb0, 0x44, 0x3d, 0x8e, 0x50, 0xf7, 0x3d, 0x42, 0xec, 0xf8, 0xbc,
  0x46, 0x97, 0x79, 0x3d, 0x57, 0x24, 0x1a, 0x3e, 0xfd, 0xd5, 0x04, 0x3d,
  0x13, 0x91, 0x36, 0x3d, 0x9e, 0xd5, 0x1e, 0x3e, 0x44, 0x6f, 0x88, 0x3c,
  0xd5, 0xbc, 0x06, 0x3d, 0xaa, 0x4d, 0x02, 0x3e, 0x84, 0x09, 0xce, 0x3c,
  0x17, 0x14, 0x45, 0x3d, 0xd5, 0x52, 0x7f, 0x3d, 0x2a, 0x13, 0x66, 0xbc,
  0x39, 0x02, 0x0f, 0x3d, 0x6f, 0xd4, 0x54, 0x3d, 0x3e, 0x79, 0x18, 0x3c,
  0x20, 0xa4, 0xe7, 0x3c, 0xb8, 0x97, 0x47, 0x3d, 0xef, 0x4f, 0x2a, 0xbd,
  0xed, 0xee, 0x84, 0xbc, 0x2c, 0x8a, 0x2f, 0xbc, 0xc6, 0xc1, 0x4a, 0xbd,
  0xf4, 0x9f, 0x9c, 0xbb, 0x63, 0xd6, 0xa9, 0xbc, 0xe2, 0x8a, 0x9c, 0xbd,
  0xa2, 0x81, 0x81, 0xbd, 0x2e, 0xd1, 0x02, 0xbd, 0xde, 0x59, 0x18, 0xbd,
  0xb0, 0x8f, 0x0a, 0xbd, 0x17, 0x92, 0x24, 0xbd, 0x9f, 0xcf, 0x8f, 0xbd,
  0x09, 0x29, 0xe1, 0xbd, 0x1d, 0x94, 0x83, 0xbd, 0xab, 0x37, 0x6f, 0xbd,
  0xd3, 0x49, 0x61, 0xbd, 0x8e, 0x5d, 0xf4, 0xbb, 0x80, 0x33, 0x1f, 0xbe,
  0xde, 0x5c, 0x37, 0xbd, 0x5f, 0xdb, 0x24, 0xbd, 0x58, 0xf9, 0xd6, 0xbd,
  0x62, 0x7b, 0xae, 0xbb, 0xf7, 0x50, 0xb2, 0x3c, 0x8d, 0xd2, 0x9b, 0xbd,
  0xfe, 0xa0, 0xce, 0xbd, 0xc7, 0x2e, 0x61, 0x3c, 0x79, 0xfd, 0xda, 0x3d,
  0xf1, 0x1e, 0x1b, 0xbd, 0x1f, 0x37, 0xea, 0x3c, 0x34, 0xe8, 0x85, 0xbc,
  0xfc, 0x60, 0x5f, 0xbd, 0x0a, 0xf8, 0xc4, 0xbc, 0x20, 0x7f, 0x8d, 0x3c,
  0x5c, 0xd5, 0xe2, 0x3d, 0x57, 0x61, 0x16, 0x3d, 0x77, 0xf7, 0x0f, 0xbe,
  0x34, 0x26, 0x95, 0xbd, 0x58, 0x56, 0x8d, 0x3d, 0xe0, 0x5c, 0xee, 0x3d,
  0x89, 0xd4, 0xd0, 0x3d, 0x67, 0x86, 0xed, 0x3c, 0xf3, 0x4a, 0xdd, 0x3c,
  0x7f, 0xbe, 0x5f, 0x3c, 0x04, 0x09, 0x38, 0x3c, 0xdc, 0xf7, 0xbf, 0x3c,
  0x0d, 0xa9, 0x31, 0xbc, 0xa8, 0x62, 0x5d, 0xbc, 0x78, 0x96, 0x5e, 0xbd,
  0x75, 0x13, 0x0f, 0xbd, 0xba, 0x50, 0x1b, 0x3c, 0xb5, 0xb0, 0xc9, 0x3c,
  0x5c, 0xda, 0xe5, 0xbc, 0x0b, 0xd4, 0xb4, 0x3c, 0xe7, 0x6e, 0x59, 0xbc,
  0x8f, 0xeb, 0xcd, 0xbc, 0x5b, 0x30, 0xb5, 0x3c, 0x17, 0x44, 0x3c, 0x3c,
  0xf8, 0x59, 0x30, 0xbd, 0xb1, 0x16, 0x50, 0x3d, 0x25, 0x50, 0x66, 0xbc,
  0x06, 0x05, 0xa8, 0x3c, 0x5c, 0xf1, 0x10, 0x3d, 0x6c, 0x1f, 0x24, 0xbd,
  0x8a, 0xc2, 0xcc, 0xbc, 0x3f, 0x55, 0x0d, 0x3d, 0x9f, 0x3e, 0xe7, 0xbc,
  0x56, 0x93, 0x1f, 0xbd, 0x4b, 0xab, 0x89, 0x3d, 0x82, 0x72, 0x51, 0xbd,
  0x98, 0x5a, 0x0b, 0xbd, 0x73, 0x7d, 0x96, 0x3d, 0x60, 0x5d, 0xa0, 0xbc,
  0x9f, 0xca, 0xf2, 0xbc, 0xa7, 0x1e, 0x7d, 0x3d, 0x8e, 0xb7, 0xc3, 0xbc,
  0xa4, 0x97, 0x6a, 0xbd, 0x5a, 0x7a, 0x53, 0x3d, 0x0f, 0xae, 0xf4, 0xbc,
  0x44, 0xfb, 0xe3, 0xba, 0xa5, 0x76, 0x23, 0x3d, 0x11, 0x34, 0x8f, 0x3b,
  0x3d, 0x3d, 0x44, 0xbc, 0xa7, 0x41, 0x9c, 0x3c, 0x9c, 0xbe, 0xa2, 0xbb,
  0xf5, 0xf4, 0xa5, 0xbc, 0xaf, 0xe6, 0xff, 0x3c, 0xf7, 0xed, 0xfa, 0x3b,
  0xa4, 0xf9, 0x84, 0xbd, 0x4b, 0x26, 0xbe, 0x3b, 0xd7, 0xa2, 0x6d, 0x3d,
  0xe1, 0x72, 0x54, 0xbd, 0x58, 0xc0, 0x68, 0x3a, 0xaa, 0xf6, 0x88, 0x3d,
  0xb9, 0xe1, 0x23, 0xbd, 0x2d, 0x30, 0x8a, 0xbd, 0xc6, 0x88, 0x87, 0x3d,
  0xbe, 0x4f, 0x02, 0xbc, 0xb6, 0x71, 0xdf, 0xbc, 0xfc, 0x34, 0x0c, 0x3e,
  0xeb, 0x6b, 0xd1, 0xbb, 0x95, 0x14, 0x00, 0xbe, 0xff, 0x39, 0x41, 0x3e,
  0x01, 0x64, 0xaa, 0x3c, 0xf2, 0x4b, 0x49, 0xbe, 0x14, 0x2e, 0x58, 0x3e,
  0x36, 0x9a, 0xaa, 0xbc, 0x96, 0x76, 0x40, 0xbe, 0xf3, 0xa3, 0x83, 0x3e,
  0xbb, 0x86, 0x8c, 0xbd, 0x71, 0x15, 0x55, 0xbe, 0x5c, 0xbc, 0x99, 0x3e,
  0x3f, 0xe0, 0x90, 0xbd, 0x77, 0xa7, 0x8e, 0xbe, 0x5d, 0xd5, 0xa9, 0x3e,
  0x24, 0xac, 0x11, 0x3d, 0xd0, 0xb0, 0xb6, 0xbe, 0x44, 0xf7, 0x8d, 0x3e,
  0x72, 0x38, 0xac, 0x3d, 0x73, 0xbf, 0xc0, 0xbe, 0x47, 0xba, 0xc0, 0x3e,
  0x94, 0xe0, 0x13, 0xbb, 0x70, 0x26, 0xc3, 0xbe, 0xf0, 0x71, 0xdc, 0x3e,
  0x47, 0xd7, 0x25, 0xbd, 0xd3, 0x63, 0xd6, 0xbe, 0x15, 0x22, 0xfa, 0x3e,
  0xe1, 0x9b, 0x0a, 0xbc, 0x9c, 0x4a, 0x05, 0xbf, 0xd2, 0xe7, 0x01, 0x3f,
  0xb3, 0xfe, 0x91, 0xbb, 0xd0, 0x3c, 0xfd, 0xbe, 0x52, 0xe2, 0xfa, 0x3e,
  0xe2, 0x21, 0x41, 0x3c, 0x6d, 0x49, 0xfc, 0xbe, 0x8b, 0x79, 0xfe, 0x3e,
  0x83, 0x99, 0xda, 0x3c, 0x53, 0xa9, 0x0d, 0xbf, 0x5d, 0x66, 0x09, 0x3f,
  0x92, 0xf0, 0x96, 0x3d, 0xb3, 0x6a, 0x14, 0xbf, 0x59, 0xaa, 0x00, 0x3f,
  0xc6, 0xa7, 0x35, 0x3d, 0x17, 0x6a, 0x15, 0xbf, 0x4d, 0x49, 0x0c, 0x3f,
  0xcf, 0x39, 0x14, 0xbd, 0x26, 0x9a, 0x15, 0xbf, 0x01, 0xf3, 0x12, 0x3f,
  0x21, 0x84, 0x2b, 0xbd, 0x54, 0x51, 0x15, 0xbf, 0xe6, 0x9e, 0x11, 0x3f,
  0x45, 0x19, 0x73, 0x3d, 0xe4, 0x8d, 0x1a, 0xbf, 0x68, 0x6a, 0x01, 0x3f,
  0xf3, 0xe0, 0xb1, 0x3d, 0x20, 0xaf, 0x14, 0xbf, 0xe0, 0xe1, 0xee, 0x3e,
  0x4d, 0x4b, 0x45, 0x3d, 0x53, 0x82, 0x08, 0xbf, 0xf7, 0xbc, 0xe0, 0x3e,
  0x7b, 0x9f, 0x3d, 0xbc, 0x75, 0x20, 0xff, 0xbe, 0x2b, 0xa0, 0xf2, 0x3e,
  0xc1, 0xce, 0x0f, 0x3d, 0x45, 0x7c, 0xea, 0xbe, 0x0b, 0x18, 0xce, 0x3e,
  0x9a, 0x6b, 0xc8, 0xbb, 0x66, 0xcb, 0xe1, 0xbe, 0xf9, 0x19, 0xba, 0x3e,
  0xed, 0x03, 0x6c, 0x3d, 0x11, 0x6a, 0xce, 0xbe, 0xb1, 0xfd, 0x93, 0x3e,
  0x36, 0xd0, 0xac, 0x3d, 0x29, 0xf0, 0xc8, 0xbe, 0x03, 0xad, 0x43, 0x3e,
  0xc0, 0x19, 0xf5, 0x3d, 0x23, 0x19, 0xaa, 0xbe, 0x80, 0x06, 0xd4, 0x3d,
  0x3f, 0xd4, 0xf4, 0x3d, 0xe5, 0x70, 0x56, 0xbe, 0x9b, 0x3a, 0x05, 0x3e,
  0x43, 0x72, 0xa5, 0x3c, 0x2d, 0xe0, 0x38, 0xbe, 0xd7, 0x72, 0x11, 0x3e,
  0x8a, 0xd1, 0xaf, 0xbd, 0x5b, 0xaa, 0xb4, 0xbd, 0xa1, 0x21, 0x49, 0xbc,
  0x99, 0x96, 0x12, 0x3c, 0x8a, 0x51, 0xab, 0xbc, 0xd4, 0x41, 0x1f, 0xbe,
  0x95, 0x45, 0xa5, 0x3d, 0x34, 0x85, 0xd4, 0x3c, 0x30, 0xc2, 0x14, 0xbe,
  0x84, 0x57, 0x1f, 0x3d, 0xd2, 0x10, 0xae, 0x3d, 0x45, 0x68, 0x19, 0xbe,
  0x30, 0x49, 0x33, 0xbd, 0x10, 0x70, 0x3c, 0x3e, 0x05, 0xca, 0x6d, 0xbe,
  0x1a, 0x23, 0x0d, 0x3c, 0x87, 0x5f, 0x6f, 0x3e, 0xba, 0x9c, 0xa9, 0xbe,
  0x07, 0x1e, 0x25, 0x3d, 0xb3, 0x6d, 0x92, 0x3e, 0x82, 0x52, 0xbd, 0xbe,
  0xaf, 0x80, 0x62, 0x3c, 0x0a, 0xe3, 0x9c, 0x3e, 0x98, 0xd5, 0xd1, 0xbe,
  0xb8, 0x1b, 0xce, 0xbb, 0x38, 0xa5, 0xbe, 0x3e, 0x31, 0x28, 0xd4, 0xbe,
  0x2f, 0x16, 0x25, 0xbd, 0xd7, 0x07, 0xda, 0x3e, 0x3d, 0x9a, 0xeb, 0xbe,
  0xa2, 0xb1, 0x5d, 0x3d, 0x87, 0x33, 0xde, 0x3e, 0xfa, 0x2e, 0xf6, 0xbe,
  0xe8, 0xcd, 0xa2, 0x3c, 0x36, 0x49, 0xd6, 0x3e, 0xcf, 0x13, 0x08, 0xbf,
  0xf5, 0x5b, 0x00, 0x3d, 0x6c, 0xed, 0xef, 0x3e, 0x8c, 0xe5, 0x09, 0xbf,
  0xb7, 0x47, 0xdd, 0x3b, 0x55, 0x6a, 0x0d, 0x3f, 0x71, 0x14, 0x12, 0xbf,
  0xb7, 0xc8, 0x2e, 0xbd, 0xac, 0x0d, 0x19, 0x3f, 0x6d, 0x96, 0x0e, 0xbf,
  0xd2, 0xf9, 0x02, 0xbd, 0xc1, 0xd5, 0x0d, 0x3f, 0xe8, 0xae, 0x00, 0xbf,
  0x78, 0x5a, 0x25, 0xbd, 0xae, 0x74, 0xe6, 0x3e, 0x4b, 0x80, 0xf6, 0xbe,
  0x81, 0xce, 0x56, 0x3c, 0x7a, 0xda, 0xf3, 0x3e, 0x36, 0x16, 0x00, 0xbf,
  0x06, 0xfb, 0x9e, 0x3c, 0x33, 0xef, 0x04, 0x3f, 0xb3, 0x91, 0xf8, 0xbe,
  0x26, 0x35, 0x9f, 0xbc, 0x58, 0xec, 0xf4, 0x3e, 0xde, 0xd6, 0x03, 0xbf,
  0xf8, 0x4c, 0x99, 0xbd, 0xaa, 0xa9, 0xf5, 0x3e, 0x24, 0x0c, 0xb6, 0xbe,
  0x0d, 0xca, 0xe2, 0xbd, 0x36, 0x1b, 0xdf, 0x3e, 0x26, 0xbc, 0x1b, 0xbe,
  0x09, 0xa9, 0x27, 0xbe, 0x9c, 0xaa, 0xc6, 0x3e, 0x10, 0x6c, 0x02, 0xbe,
  0x5e, 0x51, 0x1b, 0xbe, 0x1b, 0x5d, 0x9e, 0x3e, 0x67, 0x95, 0xe7, 0xbe,
  0x8e, 0x2a, 0x54, 0x3d, 0x6b, 0xef, 0xb0, 0x3e, 0x59, 0xb2, 0x29, 0xbf,
  0x20, 0x99, 0x8d, 0x3e, 0x9b, 0x55, 0x92, 0x3e, 0x24, 0xc4, 0x65, 0xbe,
  0x86, 0xe3, 0x6c, 0xbc, 0x0f, 0xc2, 0x68, 0x3e, 0xf5, 0x10, 0xc8, 0x3e,
  0xea, 0x44, 0x11, 0xbf, 0x94, 0x0d, 0x5b, 0x3e, 0x07, 0xd3, 0x5e, 0x3e,
  0x77, 0xd4, 0xc6, 0xbe, 0x40, 0xf3, 0x66, 0x3e, 0x4d, 0x3a, 0xf6, 0xbe,
  0x63, 0x6b, 0x80, 0x3e, 0x59, 0x29, 0x41, 0x3e, 0x63, 0x39, 0x1a, 0xbf,
  0xc4, 0x41, 0xb6, 0x3e, 0xf9, 0x57, 0x4c, 0x3e, 0x3f, 0xd2, 0xc1, 0x3c,
  0xda, 0x76, 0x87, 0xbe, 0x19, 0x4a, 0x12, 0x3e, 0x04, 0xcd, 0x5a, 0x3e,
  0x08, 0x15, 0xb3, 0xbe, 0x94, 0xe3, 0x85, 0x3d, 0x00, 0x41, 0x46, 0xbe,
  0xc3, 0x78, 0x81, 0xbe, 0xbc, 0xc4, 0xa4, 0xbd, 0xe7, 0x24, 0xb6, 0xbd,
  0xce, 0xeb, 0x97, 0xbc, 0xa1, 0xa8, 0xa6, 0x3e, 0x00, 0x3d, 0x39, 0x3f,
  0xa4, 0x5b, 0x87, 0x3f, 0xa2, 0xa5, 0x8d, 0xbe, 0x6c, 0x19, 0x8e, 0x3e,
  0x02, 0x6f, 0xa4, 0xbb, 0xde, 0x2d, 0x05, 0x3f, 0x8c, 0xc4, 0x33, 0x3f,
  0x60, 0xf5, 0xd0, 0x3e, 0xc4, 0xa4, 0xd8, 0x3e, 0x21, 0x43, 0x7e, 0xbf,
  0x8e, 0x3f, 0x49, 0xbe, 0x75, 0xff, 0x59, 0xbf, 0x25, 0x11, 0x97, 0x3f,
  0x9d, 0xe7, 0x54, 0x3f, 0x92, 0x1e, 0xba, 0x3f, 0x88, 0xe8, 0xee, 0xbe,
  0xdc, 0x02, 0x4d, 0xbf, 0x5d, 0xf1, 0x5d, 0xbf, 0x5d, 0x6a, 0x7f, 0xbf,
  0xca, 0x99, 0xdf, 0xbe, 0x0a, 0x1d, 0x07, 0x3d, 0xe1, 0x95, 0x84, 0x3f,
  0x88, 0x65, 0x27, 0x3e, 0xe4, 0x94, 0x79, 0xbd, 0x66, 0xb2, 0xb0, 0xbf,
  0x64, 0x42, 0xaa, 0xbf, 0xb9, 0x10, 0x65, 0xbf, 0x17, 0xe5, 0x1e, 0x3f,
  0xab, 0xa3, 0x35, 0x3f, 0x9a, 0xfa, 0xf4, 0x3e, 0xd6, 0xfd, 0xbb, 0x3d,
  0x96, 0x59, 0x25, 0xbe, 0xc0, 0xa4, 0xab, 0x3e, 0x77, 0x47, 0x8c, 0x3e,
  0x5e, 0xbe, 0x02, 0x3f, 0x12, 0xe9, 0x69, 0x3e, 0x0e, 0x93, 0x07, 0x3d,
  0x2b, 0x23, 0xfa, 0xbd, 0x2b, 0xfd, 0x01, 0xbd, 0x34, 0xcd, 0xcf, 0xbb,
  0x0b, 0x4d, 0xe1, 0xbd, 0xae, 0x7d, 0x92, 0xbd, 0x62, 0xd6, 0x23, 0xbe,
  0xd7, 0xc0, 0x60, 0xbe, 0x43, 0x96, 0x88, 0xbe, 0x32, 0x8c, 0x7f, 0xbe,
  0xa6, 0x99, 0xfa, 0xbd, 0xe2, 0xec, 0x8d, 0xbe, 0x53, 0x53, 0x57, 0xbe,
  0x7a, 0xab, 0x4b, 0xbe, 0x1d, 0x90, 0xa5, 0xbe, 0x48, 0xe7, 0x43, 0xbe,
  0x37, 0x58, 0x23, 0xbc, 0x4d, 0xe7, 0x37, 0xbe, 0x80, 0xee, 0x3b, 0xbe,
  0xe7, 0x24, 0xa3, 0xbd, 0xcb, 0xdc, 0x54, 0xbe, 0x2f, 0xee, 0xc0, 0xbb,
  0x2a, 0x3b, 0x88, 0x3d, 0xd1, 0x52, 0x10, 0xbd, 0x44, 0x29, 0x83, 0x3d,
  0x17, 0xc0, 0x27, 0x3c, 0xd2, 0x36, 0x10, 0xbb, 0x71, 0x01, 0xd5, 0x3d,
  0x16, 0xb5, 0x84, 0x3d, 0xee, 0x6e, 0xb8, 0x3d, 0xd6, 0x0d, 0x2f, 0x3e,
  0xc1, 0x93, 0x25, 0x3d, 0xb8, 0x9f, 0x53, 0x3d, 0x26, 0xa8, 0xeb, 0x3d,
  0x59, 0x2f, 0x05, 0xbc, 0xba, 0x6d, 0xef, 0x3d, 0x07, 0x00, 0xe4, 0x3d,
  0x4b, 0x2b, 0xea, 0x3c, 0x87, 0x5a, 0x48, 0x3d, 0x50, 0x49, 0xfa, 0x3d,
  0x21, 0xc4, 0xb4, 0xbb, 0x87, 0xd4, 0xb5, 0x3d, 0x11, 0x4e, 0x34, 0x3e,
  0xe4, 0x1d, 0x62, 0x3b, 0x61, 0x6a, 0x5b, 0x3d, 0x82, 0x59, 0x14, 0x3e,
  0xc5, 0x70, 0xf0, 0xba, 0x94, 0x9e, 0xea, 0x3c, 0x4c, 0xe5, 0x05, 0x3e,
  0x58, 0x6f, 0x08, 0x3c, 0x53, 0xb7, 0x11, 0xbd, 0x29, 0xb7, 0x01, 0x3e,
  0x1c, 0xbd, 0x38, 0xbd, 0x94, 0xdc, 0x94, 0xbd, 0x85, 0xc9, 0x06, 0x3d,
  0x8f, 0xd0, 0x98, 0xbb, 0xdd, 0x31, 0xc8, 0xbd, 0x2a, 0x60, 0x55, 0x3d,
  0x51, 0xf6, 0x08, 0xbd, 0x89, 0xb7, 0x20, 0xbe, 0x32, 0xb6, 0x06, 0x3d,
  0x43, 0xb5, 0xc9, 0xbd, 0x0b, 0xe3, 0x24, 0xbe, 0xcf, 0x1d, 0x8e, 0xbc,
  0xb3, 0x0c, 0xd6, 0xbd, 0xa3, 0xcb, 0x47, 0xbe, 0x7e, 0x02, 0x12, 0xbd,
  0x3e, 0x15, 0xe6, 0xbd, 0x12, 0x2d, 0x5c, 0xbe, 0xc6, 0xa4, 0xf8, 0xbc,
  0xd8, 0xd5, 0xab, 0xbd, 0xd7, 0xc2, 0x4b, 0xbe, 0xc5, 0x1d, 0x57, 0xbc,
  0xf6, 0x3c, 0x9b, 0xbd, 0xb9, 0xa2, 0x0e, 0xbe, 0xd8, 0xc1, 0xc1, 0x3c,
  0x84, 0x4a, 0xde, 0xbb, 0xda, 0xd5, 0x16, 0xbe, 0x9c, 0x66, 0xca, 0x3d,
  0xea, 0x71, 0xb5, 0x3d, 0xfe, 0xe3, 0xf1, 0xbd, 0xd2, 0x32, 0x8a, 0x3d,
  0xee, 0xfd, 0xb5, 0x3d, 0xe1, 0x60, 0x44, 0xbd, 0x87, 0x37, 0x17, 0x3e,
  0x56, 0x08, 0x03, 0x3e, 0x5b, 0x7d, 0x09, 0xbd, 0xce, 0x69, 0xd3, 0x3d,
  0xc5, 0xf3, 0xc3, 0x3d, 0x20, 0x0e, 0xa2, 0xbc, 0x73, 0xfb, 0x89, 0x3d,
  0xb1, 0xcc, 0xd7, 0x3d, 0x19, 0x29, 0xcc, 0x3c, 0x2f, 0x3a, 0x12, 0x3d,
  0xd7, 0xbe, 0xb7, 0x3d, 0xcd, 0x61, 0x0a, 0x3d, 0x10, 0x26, 0x85, 0x3c,
  0x2f, 0x08, 0x60, 0x3d, 0xa4, 0x2e, 0x74, 0xbc, 0x12, 0x18, 0x36, 0xbd,
  0x55, 0xb2, 0x57, 0xba, 0x99, 0x2a, 0x05, 0xbd, 0x94, 0x3c, 0x83, 0xbd,
  0x44, 0x28, 0x97, 0x3b, 0x9d, 0xbb, 0xdb, 0xbc, 0x88, 0x32, 0xef, 0xbd,
  0x56, 0x4d, 0xb4, 0x3c, 0xec, 0x46, 0x1b, 0xbd, 0xfa, 0x3a, 0xc2, 0xbd,
  0x5c, 0x81, 0x3c, 0x3d, 0x74, 0x42, 0xdf, 0xbc, 0x2a, 0xd0, 0xbd, 0xbd,
  0x7e, 0x56, 0xa7, 0xbc, 0x66, 0x6b, 0x04, 0xbd, 0xfc, 0x7b, 0x7a, 0xbd,
  0x93, 0xff, 0x24, 0xbc, 0x2a, 0x07, 0xcc, 0xbc, 0xe5, 0xfa, 0x6c, 0xbd,
  0xbc, 0xb2, 0x0d, 0x3d, 0x9e, 0x2d, 0xef, 0xbc, 0xdb, 0xbf, 0x63, 0xbc,
  0x4b, 0xed, 0x51, 0x3d, 0xb5, 0xf4, 0x31, 0xbc, 0x26, 0x4a, 0x75, 0xbb,
  0x45, 0x45, 0x37, 0x3d, 0x54, 0x23, 0x4e, 0xbc, 0x95, 0x1b, 0xc1, 0xbb,
  0x80, 0x14, 0xb6, 0x3d, 0xa0, 0xb8, 0xc1, 0x3b, 0x77, 0xb3, 0x0e, 0x3d,
  0x8a, 0xd5, 0x91, 0x3d, 0x1a, 0xe1, 0x81, 0x3d, 0xd7, 0x46, 0x75, 0x3d,
  0xb3, 0xd4, 0xbb, 0x3d, 0xcf, 0xee, 0x05, 0x3d, 0x31, 0x66, 0x14, 0x3c,
  0x0f, 0x2d, 0x20, 0x3d, 0x61, 0x71, 0xe8, 0x3c, 0xfd, 0x38, 0xaa, 0xbc,
  0x51, 0x18, 0x47, 0x3d, 0x5d, 0x9d, 0x7b, 0x3d, 0x26, 0xdb, 0x0f, 0xbd,
  0xeb, 0xc2, 0x6c, 0x3d, 0x95, 0x44, 0x29, 0x3d, 0xf7, 0xea, 0x20, 0xbb,
  0x71, 0x67, 0x8d, 0x3d, 0xb2, 0x8d, 0x22, 0x3d, 0x71, 0x31, 0xcd, 0x3c,
  0x5e, 0xf3, 0xa3, 0xbb, 0x39, 0xa7, 0xf5, 0x3c, 0x9f, 0x7b, 0x53, 0x3d,
  0xab, 0x86, 0xaf, 0x3c, 0x18, 0x2f, 0x62, 0x3d, 0xd2, 0xe9, 0x03, 0x3c,
  0xe3, 0x13, 0x92, 0xbc, 0x63, 0xaa, 0x98, 0x3d, 0x34, 0xd1, 0xad, 0x3c,
  0xae, 0xba, 0xf1, 0xba, 0x76, 0xe1, 0x86, 0x3d, 0x54, 0x07, 0xbc, 0xba,
  0x77, 0xdc, 0xce, 0xbc, 0x2f, 0x83, 0x8e, 0x3d, 0x8f, 0x92, 0x96, 0x3c,
  0x68, 0x09, 0x9c, 0xbc, 0xdc, 0xb5, 0x48, 0x3d, 0x49, 0x98, 0x22, 0x3c,
  0x61, 0xfc, 0x81, 0xbc, 0xd0, 0xc8, 0x31, 0x3d, 0x06, 0xae, 0x2b, 0x3d,
  0x86, 0xfa, 0x3d, 0xbc, 0x42, 0xf9, 0x45, 0x3d, 0x60, 0x3c, 0x0b, 0x3d,
  0xbe, 0x41, 0x0b, 0xbd, 0x3d, 0x7d, 0x14, 0x3d, 0xce, 0x9b, 0xeb, 0xbc,
  0x41, 0x50, 0x33, 0x3d, 0x8b, 0xcc, 0xbe, 0x3c, 0xed, 0xc7, 0x0f, 0xbd,
  0xa7, 0xec, 0x09, 0x3c, 0xb4, 0x50, 0xf4, 0x3c, 0xa7, 0x8a, 0x3c, 0x3d,
  0x6c, 0x16, 0x38, 0x3c, 0x56, 0x1b, 0x09, 0xbb, 0xc7, 0x66, 0xaa, 0x3d,
  0x73, 0x6d, 0x83, 0xbd, 0xa8, 0x0d, 0x7a, 0xbc, 0x2d, 0xc5, 0x48, 0x3d,
  0xd3, 0x76, 0x65, 0x3c, 0x59, 0x7d, 0x3c, 0xbd, 0xe4, 0x00, 0x30, 0xbd,
  0xcc, 0x57, 0xf6, 0x3c, 0x93, 0xc6, 0x19, 0x3a, 0x11, 0x46, 0xd8, 0xbc,
  0xaa, 0xea, 0xfa, 0x39, 0x72, 0x06, 0xd5, 0xbc, 0xe9, 0x25, 0x76, 0x3d,
  0x72, 0x5b, 0x7b, 0x3c, 0x5f, 0xe0, 0x45, 0x3d, 0x16, 0xfe, 0xff, 0xff,
  0x10, 0x00, 0x00, 0x00, 0x06, 0x00, 0x00, 0x00, 0x14, 0x00, 0x00, 0x00,
  0x34, 0x00, 0x00, 0x00, 0x02, 0x00, 0x00, 0x00, 0x08, 0x00, 0x00, 0x00,
  0xf0, 0x00, 0x00, 0x00, 0x1d, 0x00, 0x00, 0x00, 0x73, 0x65, 0x71, 0x75,
  0x65, 0x6e, 0x74, 0x69, 0x61, 0x6c, 0x5f, 0x32, 0x37, 0x2f, 0x64, 0x65,
  0x6e, 0x73, 0x65, 0x5f, 0x35, 0x33, 0x2f, 0x4d, 0x61, 0x74, 0x4d, 0x75,
  0x6c, 0x00, 0x00, 0x00, 0x88, 0xfd, 0xff, 0xff, 0x92, 0xfe, 0xff, 0xff,
  0x04, 0x00, 0x00, 0x00, 0x08, 0x00, 0x00, 0x00, 0xff, 0xff, 0xff, 0xff,
  0xf0, 0x00, 0x00, 0x00, 0x00, 0x00, 0x0e, 0x00, 0x18, 0x00, 0x08, 0x00,
  0x07, 0x00, 0x0c, 0x00, 0x10, 0x00, 0x14, 0x00, 0x0e, 0x00, 0x00, 0x00,
  0x00, 0x00, 0x00, 0x02, 0x10, 0x00, 0x00, 0x00, 0x05, 0x00, 0x00, 0x00,
  0x10, 0x00, 0x00, 0x00, 0x30, 0x00, 0x00, 0x00, 0x01, 0x00, 0x00, 0x00,
  0x02, 0x00, 0x00, 0x00, 0x1e, 0x00, 0x00, 0x00, 0x73, 0x65, 0x71, 0x75,
  0x65, 0x6e, 0x74, 0x69, 0x61, 0x6c, 0x5f, 0x32, 0x37, 0x2f, 0x66, 0x6c,
  0x61, 0x74, 0x74, 0x65, 0x6e, 0x5f, 0x32, 0x34, 0x2f, 0x43, 0x6f, 0x6e,
  0x73, 0x74, 0x00, 0x00, 0xf4, 0xfd, 0xff, 0xff, 0xfe, 0xfe, 0xff, 0xff,
  0x04, 0x00, 0x00, 0x00, 0x0c, 0x00, 0x00, 0x00, 0x42, 0xc1, 0x35, 0x3f,
  0x4e, 0xf9, 0x21, 0x3c, 0x4c, 0xe5, 0x80, 0xbf, 0xe2, 0xfe, 0xff, 0xff,
  0x10, 0x00, 0x00, 0x00, 0x04, 0x00, 0x00, 0x00, 0x10, 0x00, 0x00, 0x00,
  0x48, 0x00, 0x00, 0x00, 0x01, 0x00, 0x00, 0x00, 0x03, 0x00, 0x00, 0x00,
  0x36, 0x00, 0x00, 0x00, 0x73, 0x65, 0x71, 0x75, 0x65, 0x6e, 0x74, 0x69,
  0x61, 0x6c, 0x5f, 0x32, 0x37, 0x2f, 0x64, 0x65, 0x6e, 0x73, 0x65, 0x5f,
  0x35, 0x35, 0x2f, 0x42, 0x69, 0x61, 0x73, 0x41, 0x64, 0x64, 0x2f, 0x52,
  0x65, 0x61, 0x64, 0x56, 0x61, 0x72, 0x69, 0x61, 0x62, 0x6c, 0x65, 0x4f,
  0x70, 0x2f, 0x72, 0x65, 0x73, 0x6f, 0x75, 0x72, 0x63, 0x65, 0x00, 0x00,
  0x68, 0xfe, 0xff, 0xff, 0x72, 0xff, 0xff, 0xff, 0x04, 0x00, 0x00, 0x00,
  0x20, 0x00, 0x00, 0x00, 0x08, 0x06, 0x10, 0xb8, 0x56, 0xa1, 0xcd, 0xbb,
  0x49, 0x3c, 0x1d, 0x3f, 0x68, 0xbe, 0x58, 0xbb, 0xf2, 0x11, 0x80, 0xbe,
  0xe2, 0xfd, 0xb2, 0xbb, 0x06, 0xfc, 0x4d, 0xbb, 0x4d, 0x6b, 0x63, 0xbb,
  0x6a, 0xff, 0xff, 0xff, 0x10, 0x00, 0x00, 0x00, 0x03, 0x00, 0x00, 0x00,
  0x10, 0x00, 0x00, 0x00, 0x4c, 0x00, 0x00, 0x00, 0x01, 0x00, 0x00, 0x00,
  0x08, 0x00, 0x00, 0x00, 0x36, 0x00, 0x00, 0x00, 0x73, 0x65, 0x71, 0x75,
  0x65, 0x6e, 0x74, 0x69, 0x61, 0x6c, 0x5f, 0x32, 0x37, 0x2f, 0x64, 0x65,
  0x6e, 0x73, 0x65, 0x5f, 0x35, 0x34, 0x2f, 0x42, 0x69, 0x61, 0x73, 0x41,
  0x64, 0x64, 0x2f, 0x52, 0x65, 0x61, 0x64, 0x56, 0x61, 0x72, 0x69, 0x61,
  0x62, 0x6c, 0x65, 0x4f, 0x70, 0x2f, 0x72, 0x65, 0x73, 0x6f, 0x75, 0x72,
  0x63, 0x65, 0x00, 0x00, 0x04, 0x00, 0x06, 0x00, 0x04, 0x00, 0x00, 0x00,
  0x00, 0x00, 0x06, 0x00, 0x08, 0x00, 0x04, 0x00, 0x06, 0x00, 0x00, 0x00,
  0x04, 0x00, 0x00, 0x00, 0x20, 0x00, 0x00, 0x00, 0xea, 0xb6, 0x5f, 0xbe,
  0x58, 0x64, 0x72, 0xbe, 0x34, 0xd9, 0xd2, 0xbe, 0x67, 0xb2, 0x4c, 0xbe,
  0xa8, 0xfa, 0x90, 0xbe, 0xf8, 0x71, 0x93, 0xbe, 0x01, 0xcf, 0x3a, 0xbe,
  0xce, 0x98, 0x26, 0xbe, 0x00, 0x00, 0x0e, 0x00, 0x14, 0x00, 0x04, 0x00,
  0x00, 0x00, 0x08, 0x00, 0x0c, 0x00, 0x10, 0x00, 0x0e, 0x00, 0x00, 0x00,
  0x10, 0x00, 0x00, 0x00, 0x02, 0x00, 0x00, 0x00, 0x10, 0x00, 0x00, 0x00,
  0x48, 0x00, 0x00, 0x00, 0x01, 0x00, 0x00, 0x00, 0x08, 0x00, 0x00, 0x00,
  0x36, 0x00, 0x00, 0x00, 0x73, 0x65, 0x71, 0x75, 0x65, 0x6e, 0x74, 0x69,
  0x61, 0x6c, 0x5f, 0x32, 0x37, 0x2f, 0x64, 0x65, 0x6e, 0x73, 0x65, 0x5f,
  0x35, 0x33, 0x2f, 0x42, 0x69, 0x61, 0x73, 0x41, 0x64, 0x64, 0x2f, 0x52,
  0x65, 0x61, 0x64, 0x56, 0x61, 0x72, 0x69, 0x61, 0x62, 0x6c, 0x65, 0x4f,
  0x70, 0x2f, 0x72, 0x65, 0x73, 0x6f, 0x75, 0x72, 0x63, 0x65, 0x00, 0x00,
  0x94, 0xff, 0xff, 0xff, 0x14, 0x00, 0x18, 0x00, 0x04, 0x00, 0x00, 0x00,
  0x08, 0x00, 0x0c, 0x00, 0x10, 0x00, 0x00, 0x00, 0x00, 0x00, 0x14, 0x00,
  0x14, 0x00, 0x00, 0x00, 0x14, 0x00, 0x00, 0x00, 0x01, 0x00, 0x00, 0x00,
  0x20, 0x00, 0x00, 0x00, 0x40, 0x00, 0x00, 0x00, 0x28, 0x00, 0x00, 0x00,
  0x04, 0x00, 0x00, 0x00, 0x01, 0x00, 0x00, 0x00, 0x50, 0x00, 0x00, 0x00,
  0x03, 0x00, 0x00, 0x00, 0x01, 0x00, 0x00, 0x00, 0x08, 0x00, 0x00, 0x00,
  0x69, 0x6e, 0x70, 0x75, 0x74, 0x5f, 0x32, 0x38, 0x00, 0x00, 0x00, 0x00,
  0x04, 0x00, 0x00, 0x00, 0xff, 0xff, 0xff, 0xff, 0x50, 0x00, 0x00, 0x00,
  0x03, 0x00, 0x00, 0x00, 0x01, 0x00, 0x00, 0x00, 0xfc, 0xff, 0xff, 0xff,
  0x04, 0x00, 0x04, 0x00, 0x04, 0x00, 0x00, 0x00
};
