//TFLM model that detects pwave, swave, noise
#include "motion_model.h"

// array to map gesture index to a name
const char* CLASSES[] = {
  "p-wave",
  "s-wave",
  "noise"
};

const int num_classes =  (sizeof(CLASSES) / sizeof(CLASSES[0]));


const unsigned char g_motion_model[] __attribute__((aligned(4))) = {
  0x24, 0x00, 0x00, 0x00, 0x54, 0x46, 0x4c, 0x33, 0x00, 0x00, 0x00, 0x00,
  0x00, 0x00, 0x00, 0x00, 0x00, 0x00, 0x12, 0x00, 0x1c, 0x00, 0x04, 0x00,
  0x08, 0x00, 0x0c, 0x00, 0x10, 0x00, 0x14, 0x00, 0x00, 0x00, 0x18, 0x00,
  0x12, 0x00, 0x00, 0x00, 0x03, 0x00, 0x00, 0x00, 0x90, 0x1c, 0x00, 0x00,
  0xf8, 0x15, 0x00, 0x00, 0xe0, 0x15, 0x00, 0x00, 0x3c, 0x00, 0x00, 0x00,
  0x04, 0x00, 0x00, 0x00, 0x01, 0x00, 0x00, 0x00, 0x0c, 0x00, 0x00, 0x00,
  0x08, 0x00, 0x0c, 0x00, 0x04, 0x00, 0x08, 0x00, 0x08, 0x00, 0x00, 0x00,
  0x08, 0x00, 0x00, 0x00, 0x0e, 0x00, 0x00, 0x00, 0x13, 0x00, 0x00, 0x00,
  0x6d, 0x69, 0x6e, 0x5f, 0x72, 0x75, 0x6e, 0x74, 0x69, 0x6d, 0x65, 0x5f,
  0x76, 0x65, 0x72, 0x73, 0x69, 0x6f, 0x6e, 0x00, 0x0f, 0x00, 0x00, 0x00,
  0x94, 0x15, 0x00, 0x00, 0x80, 0x15, 0x00, 0x00, 0x24, 0x15, 0x00, 0x00,
  0xd0, 0x14, 0x00, 0x00, 0xac, 0x14, 0x00, 0x00, 0x88, 0x14, 0x00, 0x00,
  0x74, 0x05, 0x00, 0x00, 0x60, 0x01, 0x00, 0x00, 0x8c, 0x00, 0x00, 0x00,
  0x80, 0x00, 0x00, 0x00, 0x6c, 0x00, 0x00, 0x00, 0x58, 0x00, 0x00, 0x00,
  0x44, 0x00, 0x00, 0x00, 0x30, 0x00, 0x00, 0x00, 0x04, 0x00, 0x00, 0x00,
  0x0e, 0xea, 0xff, 0xff, 0x04, 0x00, 0x00, 0x00, 0x10, 0x00, 0x00, 0x00,
  0x31, 0x2e, 0x35, 0x2e, 0x30, 0x00, 0x00, 0x00, 0x00, 0x00, 0x00, 0x00,
  0x00, 0x00, 0x00, 0x00, 0x00, 0x00, 0x00, 0x00, 0x00, 0x00, 0x00, 0x00,
  0x00, 0x00, 0x00, 0x00, 0x4c, 0xe4, 0xff, 0xff, 0x00, 0x00, 0x00, 0x00,
  0x00, 0x00, 0x00, 0x00, 0x00, 0x00, 0x00, 0x00, 0x5c, 0xe4, 0xff, 0xff,
  0x00, 0x00, 0x00, 0x00, 0x00, 0x00, 0x00, 0x00, 0x00, 0x00, 0x00, 0x00,
  0x6c, 0xe4, 0xff, 0xff, 0x00, 0x00, 0x00, 0x00, 0x00, 0x00, 0x00, 0x00,
  0x00, 0x00, 0x00, 0x00, 0x7c, 0xe4, 0xff, 0xff, 0x00, 0x00, 0x00, 0x00,
  0x00, 0x00, 0x00, 0x00, 0x00, 0x00, 0x00, 0x00, 0x8c, 0xe4, 0xff, 0xff,
  0x00, 0x00, 0x00, 0x00, 0x7e, 0xea, 0xff, 0xff, 0x04, 0x00, 0x00, 0x00,
  0xc0, 0x00, 0x00, 0x00, 0xed, 0x3e, 0x1a, 0xbf, 0xeb, 0x44, 0xf6, 0x3e,
  0xd2, 0x2c, 0xef, 0x3e, 0xe7, 0x97, 0x62, 0xbe, 0x6c, 0x4a, 0x96, 0x3f,
  0xde, 0x0b, 0x1f, 0xbf, 0xf4, 0x4c, 0x9b, 0xbd, 0xaf, 0x9c, 0x29, 0xbf,
  0xb2, 0x87, 0x83, 0xbc, 0xcf, 0xed, 0x49, 0xbf, 0x97, 0xb4, 0xeb, 0xbe,
  0x7d, 0x6e, 0x10, 0x3f, 0xa9, 0xe5, 0x49, 0xbf, 0xfb, 0x55, 0x96, 0x3e,
  0xfa, 0x93, 0xfc, 0x3e, 0x4d, 0xcf, 0x4b, 0x3d, 0x77, 0x98, 0xea, 0xbd,
  0x3f, 0xe8, 0x99, 0x3e, 0x76, 0xc8, 0xbd, 0x3e, 0x7c, 0xed, 0x92, 0x3d,
  0x73, 0xb8, 0xd3, 0xbe, 0xfb, 0x3b, 0x26, 0xbc, 0x7b, 0x59, 0xa3, 0xbe,
  0x3d, 0x4c, 0xea, 0xbc, 0xf7, 0x02, 0xbf, 0x3c, 0xfc, 0x1e, 0x3c, 0x3d,
  0xf6, 0xfa, 0xb5, 0x3e, 0x31, 0x80, 0x03, 0x3f, 0x9f, 0x89, 0x85, 0x3e,
  0xc8, 0x53, 0x5e, 0xbf, 0x52, 0x08, 0x01, 0x3e, 0xd0, 0x15, 0x9e, 0x3d,
  0xc2, 0x1d, 0x5b, 0x3d, 0x03, 0x7b, 0xf2, 0xbf, 0xd0, 0x6c, 0x8a, 0xbf,
  0x7f, 0x85, 0xf6, 0x3e, 0xf9, 0x32, 0x5c, 0xc0, 0xcc, 0x16, 0xbe, 0x3d,
  0xaa, 0xf0, 0x75, 0x3e, 0xcc, 0x6b, 0x81, 0x3d, 0x24, 0x41, 0xed, 0x3e,
  0x65, 0x6e, 0x9d, 0x3d, 0xa2, 0x37, 0x0f, 0x3f, 0xfd, 0xb6, 0x6d, 0xbf,
  0x2b, 0xa8, 0x9c, 0x3e, 0x77, 0x3a, 0x84, 0xbe, 0x12, 0xac, 0x13, 0x3f,
  0x90, 0x7b, 0x13, 0x3f, 0x00, 0x00, 0x00, 0x00, 0x4e, 0xeb, 0xff, 0xff,
  0x04, 0x00, 0x00, 0x00, 0x00, 0x04, 0x00, 0x00, 0x1b, 0x8f, 0xb6, 0x3e,
  0x36, 0xcd, 0x41, 0x3e, 0x77, 0x37, 0x86, 0xbd, 0x2d, 0x3f, 0x48, 0xbe,
  0xbe, 0x45, 0x81, 0x3e, 0xd4, 0xef, 0xc6, 0x3e, 0xed, 0xf9, 0x9b, 0x3e,
  0x41, 0xfd, 0x75, 0x3e, 0xa8, 0xfc, 0x26, 0x3d, 0x97, 0xff, 0xcb, 0x3e,
  0xf1, 0xfb, 0x84, 0xbe, 0x99, 0x7a, 0x89, 0xbd, 0x70, 0x4d, 0x85, 0x3e,
  0xe5, 0xdf, 0x8a, 0x3e, 0xdd, 0x0f, 0x9c, 0x3e, 0x0d, 0x07, 0x86, 0x3e,
  0x90, 0xac, 0x66, 0xbe, 0xb4, 0x8b, 0x9e, 0xbe, 0xf6, 0x2c, 0x89, 0xbe,
  0x17, 0x01, 0x93, 0x3e, 0xab, 0xeb, 0x7c, 0xbe, 0x15, 0x44, 0x74, 0xbf,
  0x6a, 0x31, 0x4c, 0xbf, 0xe3, 0x6e, 0x51, 0xbe, 0x72, 0x15, 0x40, 0xbe,
  0xef, 0x1c, 0x10, 0xbf, 0xda, 0x28, 0x83, 0x3e, 0x50, 0xa7, 0xf1, 0x3c,
  0xf2, 0x66, 0xfb, 0xbe, 0x9a, 0xd0, 0xf4, 0xbe, 0x99, 0x22, 0x64, 0xbe,
  0xe6, 0x06, 0x72, 0xbf, 0x23, 0xf5, 0x23, 0xbe, 0x0c, 0x15, 0x54, 0xbe,
  0x52, 0xdc, 0x29, 0xbe, 0xdf, 0x38, 0xa1, 0x3e, 0x70, 0xdf, 0x2f, 0xbe,
  0x75, 0xf0, 0xc6, 0xbe, 0xf7, 0xce, 0xec, 0xbe, 0xed, 0x6b, 0x0a, 0xbe,
  0xb6, 0x4e, 0xed, 0xbd, 0x75, 0xd9, 0xb8, 0xbe, 0x71, 0x51, 0x91, 0x3e,
  0x47, 0xf2, 0x05, 0xbe, 0x54, 0x53, 0x74, 0xbe, 0xdf, 0xce, 0xaa, 0xbe,
  0xab, 0xad, 0x22, 0xbe, 0x1e, 0x42, 0x04, 0xbf, 0xb3, 0x2f, 0x73, 0x3e,
  0x5f, 0x68, 0x8b, 0x3e, 0x0d, 0xc6, 0x92, 0x3e, 0xde, 0x6f, 0xdc, 0xbe,
  0x62, 0xae, 0x49, 0x3c, 0x71, 0xff, 0xad, 0x3e, 0xe8, 0xdf, 0xc5, 0x3e,
  0xd1, 0x93, 0x2c, 0x3e, 0xe8, 0x62, 0x2f, 0xbd, 0x44, 0xbc, 0x5c, 0x3d,
  0x86, 0x32, 0xb3, 0xbe, 0x98, 0x0f, 0x00, 0x3e, 0x01, 0x21, 0xbc, 0x3e,
  0x43, 0x1e, 0xcb, 0x3e, 0xb5, 0x93, 0xfb, 0xbd, 0x23, 0x2d, 0x09, 0x3f,
  0xa3, 0xfc, 0x12, 0xc0, 0x4a, 0xc2, 0x36, 0xc0, 0x38, 0x4a, 0x85, 0x3b,
  0x64, 0xe9, 0x82, 0x3d, 0x68, 0xce, 0x49, 0xc0, 0x69, 0x95, 0xdb, 0xbf,
  0x1e, 0x3c, 0x04, 0xc0, 0xf1, 0xf9, 0x34, 0xc0, 0x60, 0x4f, 0xe0, 0xbf,
  0xd3, 0xc6, 0x13, 0xc0, 0x22, 0x45, 0x4e, 0x3d, 0x89, 0x28, 0x1e, 0xbd,
  0x3e, 0x63, 0x14, 0xc0, 0x52, 0x2c, 0x91, 0xc0, 0x36, 0x13, 0x17, 0xc0,
  0x84, 0xba, 0xee, 0xbf, 0x8c, 0x04, 0xce, 0x3e, 0x59, 0x60, 0xa3, 0x3e,
  0xfb, 0xa9, 0xa3, 0xbe, 0x1b, 0x3e, 0x4d, 0xbd, 0x55, 0x35, 0x9b, 0x3e,
  0xab, 0xd3, 0x16, 0x3e, 0xd6, 0x0d, 0xe7, 0x3d, 0x7b, 0x58, 0xb7, 0x3e,
  0x8f, 0x6f, 0xcb, 0x3e, 0x2d, 0x9c, 0x92, 0x3e, 0xe4, 0x1c, 0x4c, 0xbd,
  0xd9, 0x1b, 0x57, 0xbe, 0xee, 0xd1, 0x66, 0x3e, 0x94, 0x39, 0x8c, 0x3e,
  0x60, 0x86, 0x9e, 0x3e, 0x5a, 0x72, 0xca, 0x3d, 0x2e, 0xe0, 0x3a, 0x3d,
  0x6a, 0xe3, 0x3d, 0x3e, 0xb7, 0xe9, 0xee, 0x3e, 0x55, 0xd6, 0xb9, 0xbe,
  0xe0, 0xfd, 0xe6, 0x3c, 0xe8, 0x72, 0x8b, 0x3e, 0x35, 0xe6, 0xf4, 0x3e,
  0xfd, 0xee, 0x85, 0x3c, 0xcf, 0x84, 0xcf, 0x3b, 0xeb, 0xc2, 0x97, 0x3e,
  0xc8, 0x05, 0xae, 0xbe, 0xc8, 0xf6, 0xf7, 0x3e, 0xcf, 0x9e, 0x81, 0x3e,
  0xe6, 0x33, 0xa2, 0x3e, 0x1a, 0x5d, 0x3f, 0xbc, 0x95, 0x3b, 0xec, 0x3e,
  0x25, 0x54, 0xd0, 0x3e, 0xc3, 0x50, 0xbd, 0x3e, 0x93, 0x19, 0xa5, 0xbe,
  0x6c, 0x91, 0x85, 0xbd, 0x50, 0x20, 0x7a, 0x3e, 0x59, 0x2a, 0x83, 0xbd,
  0x14, 0x1b, 0xd9, 0xbe, 0xb0, 0xa2, 0xe9, 0x3e, 0xe3, 0x40, 0x00, 0x3f,
  0x81, 0x02, 0xb5, 0x3e, 0x7c, 0x19, 0x0b, 0xbd, 0x78, 0x82, 0x59, 0xbe,
  0x72, 0x2c, 0x6e, 0xbd, 0x3f, 0x8d, 0xd8, 0x3d, 0xf3, 0x7b, 0xbc, 0x3e,
  0xe8, 0x8d, 0x69, 0x3e, 0x63, 0xce, 0xbc, 0x3d, 0x85, 0x9f, 0x9b, 0x3d,
  0xb3, 0xd5, 0x06, 0x3f, 0x8a, 0xcc, 0xd7, 0xbe, 0x94, 0x22, 0x87, 0x3c,
  0x32, 0xeb, 0x82, 0x3e, 0xcd, 0x1b, 0x3c, 0x3f, 0xaa, 0x39, 0x88, 0xbe,
  0xec, 0x3b, 0x39, 0x3e, 0x27, 0x06, 0x57, 0x3e, 0xf6, 0x9c, 0xd0, 0xbe,
  0xe5, 0xb1, 0x90, 0x3e, 0x72, 0x8b, 0x97, 0xbe, 0xbd, 0x2a, 0xaa, 0x3e,
  0xe4, 0x39, 0x88, 0x3e, 0xd6, 0x3b, 0xcb, 0x3e, 0x71, 0x3f, 0xb2, 0x3e,
  0xab, 0x67, 0xa5, 0xbe, 0x95, 0x0a, 0x94, 0xbe, 0x9c, 0x35, 0x4c, 0xbc,
  0x86, 0x8d, 0x0f, 0x3f, 0xe4, 0xfa, 0xb1, 0xbd, 0xb0, 0x12, 0xd6, 0x3e,
  0x89, 0xfb, 0x96, 0xbf, 0x82, 0xbc, 0x80, 0xbf, 0x2d, 0x02, 0xc8, 0xbd,
  0x50, 0x39, 0xf2, 0xbc, 0xac, 0x4e, 0x1e, 0xbe, 0x9b, 0x32, 0xa5, 0x3e,
  0x81, 0x38, 0xd1, 0x3e, 0xda, 0xcf, 0x0f, 0x3f, 0x35, 0x90, 0x4f, 0xbe,
  0xa9, 0xf1, 0xb1, 0xbe, 0x56, 0x9f, 0x0e, 0x3e, 0x14, 0x7f, 0x8b, 0x3d,
  0x0b, 0xde, 0x66, 0xbd, 0x41, 0xda, 0x93, 0x3e, 0x1d, 0x53, 0xa9, 0x3e,
  0xe6, 0x1c, 0xa4, 0x3e, 0xd2, 0xd0, 0x88, 0x3e, 0x47, 0x9e, 0x9b, 0x3e,
  0x58, 0xe4, 0x0c, 0x3e, 0xeb, 0x27, 0x4a, 0xbd, 0x7c, 0xda, 0x6c, 0x3c,
  0x16, 0xee, 0xe1, 0x3c, 0x7a, 0x0d, 0x90, 0x3e, 0xb9, 0xd5, 0x6c, 0x3e,
  0x3a, 0x5b, 0x0c, 0x3e, 0xf1, 0x1e, 0xec, 0xbd, 0xed, 0x2a, 0x29, 0xbe,
  0x9d, 0x37, 0x1c, 0xbe, 0xca, 0xdc, 0xc0, 0x3e, 0x1a, 0x90, 0xc4, 0xbd,
  0x55, 0x92, 0x7b, 0xbe, 0x77, 0xda, 0xb8, 0xbe, 0x71, 0xfa, 0x72, 0xbd,
  0x59, 0x4d, 0xba, 0xbd, 0xbb, 0xd5, 0x87, 0xbe, 0x67, 0xc9, 0xb0, 0x3e,
  0x90, 0x6e, 0xa8, 0xbe, 0x33, 0xc0, 0x4b, 0xbe, 0xcd, 0xd6, 0x65, 0xbe,
  0x71, 0xfd, 0x82, 0xbd, 0x73, 0xab, 0xbe, 0xbe, 0x20, 0x82, 0xb1, 0x3e,
  0x4f, 0x50, 0x21, 0x3e, 0xfb, 0xf0, 0x52, 0xbf, 0xa4, 0x04, 0x3f, 0x3c,
  0x9a, 0xf8, 0x97, 0x3e, 0x44, 0x6e, 0xd7, 0xbe, 0x48, 0xaa, 0x3a, 0xbf,
  0x0c, 0xd0, 0xc5, 0x3e, 0x7f, 0x40, 0xe6, 0x3e, 0xf9, 0x97, 0xae, 0xbe,
  0x71, 0x4c, 0x24, 0xbd, 0xe8, 0xd9, 0x48, 0xbf, 0x81, 0x1c, 0xda, 0xbd,
  0x32, 0x9a, 0x28, 0xbe, 0xa6, 0xf8, 0xa5, 0x3e, 0xa2, 0x53, 0x5c, 0xbf,
  0x0f, 0x0c, 0x86, 0xbf, 0xef, 0x23, 0x64, 0xbf, 0x2c, 0x95, 0x2a, 0x3f,
  0xcc, 0x9c, 0x02, 0x3e, 0xff, 0x24, 0x94, 0xbf, 0xdc, 0x36, 0xb9, 0x3d,
  0x8e, 0x67, 0x02, 0xbf, 0x44, 0xf4, 0x80, 0xbf, 0xf2, 0x16, 0x78, 0xbf,
  0x08, 0x89, 0x3b, 0xbf, 0xd8, 0x60, 0xe2, 0x3d, 0x08, 0xf6, 0xc5, 0x3e,
  0xbd, 0x0d, 0x21, 0xbf, 0xd5, 0x78, 0x93, 0xbf, 0x23, 0x8c, 0x87, 0xbf,
  0xe8, 0x80, 0xa2, 0xbe, 0x5d, 0x59, 0x0f, 0xbe, 0x9a, 0x27, 0x3f, 0xbd,
  0xb8, 0xe0, 0x2b, 0x3f, 0x13, 0xda, 0x60, 0xbe, 0xe4, 0xac, 0x83, 0x3c,
  0x23, 0xef, 0x33, 0x3e, 0x71, 0x4d, 0xfe, 0x3e, 0xf8, 0xec, 0x87, 0xbd,
  0x4e, 0xbe, 0xd4, 0xbd, 0xaa, 0x78, 0x9d, 0x3e, 0x4b, 0xc1, 0xc2, 0xbe,
  0xd6, 0x96, 0x57, 0x3f, 0x41, 0x74, 0x88, 0x3e, 0x13, 0x58, 0xa1, 0x3e,
  0xc7, 0xb8, 0x80, 0xbe, 0xf4, 0x7c, 0x07, 0x3f, 0xd5, 0xfc, 0xbc, 0xbd,
  0x05, 0x8a, 0x56, 0x3e, 0xa6, 0xd2, 0xe2, 0x3e, 0xf6, 0x1e, 0xb6, 0xbe,
  0x74, 0x10, 0xe0, 0x3d, 0xb9, 0xfa, 0xf2, 0x3e, 0x30, 0x1a, 0xe7, 0xbe,
  0x29, 0x94, 0x66, 0x3d, 0xb9, 0x67, 0xc6, 0xbd, 0x19, 0xdf, 0x09, 0x3f,
  0xc7, 0xee, 0x57, 0xbe, 0xb0, 0x03, 0x71, 0x3e, 0xfa, 0xbd, 0x07, 0x3f,
  0xbf, 0x75, 0x4b, 0xbe, 0xc4, 0x11, 0x81, 0xbd, 0x34, 0xbf, 0x5d, 0x3e,
  0x00, 0x00, 0x00, 0x00, 0x5e, 0xef, 0xff, 0xff, 0x04, 0x00, 0x00, 0x00,
  0x00, 0x0f, 0x00, 0x00, 0x05, 0xf7, 0xfe, 0xd5, 0xe8, 0xb2, 0x22, 0x14,
  0x38, 0x43, 0x07, 0x40, 0xac, 0xfd, 0x92, 0x02, 0xc7, 0x3e, 0x14, 0x45,
  0xfc, 0x20, 0x15, 0x11, 0xec, 0xaf, 0xc7, 0xfa, 0x38, 0x0a, 0xeb, 0xd9,
  0x16, 0xf8, 0x01, 0xf1, 0x11, 0x04, 0x0d, 0x05, 0x14, 0x00, 0x10, 0x0d,
  0x0e, 0xf9, 0x06, 0xfb, 0xf7, 0xff, 0x03, 0xf8, 0x00, 0xfa, 0xfc, 0xfa,
  0xf9, 0x00, 0xfa, 0xf7, 0x00, 0xfa, 0xfd, 0x02, 0xfb, 0xfa, 0x00, 0xf8,
  0xfd, 0xff, 0xfe, 0xfd, 0xfd, 0xff, 0xfe, 0xf9, 0x01, 0xfd, 0xff, 0x06,
  0x02, 0x01, 0x01, 0x02, 0x05, 0x00, 0x00, 0xff, 0xff, 0x03, 0x01, 0xff,
  0x00, 0x01, 0x01, 0x01, 0x02, 0x02, 0x03, 0x06, 0x06, 0x03, 0x07, 0x08,
  0x01, 0x05, 0x08, 0x00, 0x04, 0x05, 0xff, 0xfe, 0x05, 0xff, 0xfe, 0x04,
  0xff, 0xfd, 0x01, 0x00, 0x01, 0x01, 0x01, 0x03, 0xfe, 0x04, 0x04, 0xff,
  0x02, 0x03, 0x00, 0x04, 0x00, 0xfd, 0x03, 0xff, 0xf9, 0x02, 0xfe, 0xfb,
  0x03, 0xfe, 0xfc, 0x03, 0x03, 0xff, 0x04, 0x03, 0x02, 0x04, 0x09, 0x06,
  0x04, 0x09, 0x04, 0x04, 0x09, 0x06, 0x03, 0x07, 0x07, 0x00, 0x03, 0x07,
  0x02, 0x01, 0x04, 0x03, 0x02, 0x02, 0x03, 0x04, 0xff, 0x02, 0x02, 0xfd,
  0xfe, 0xff, 0xf9, 0xfe, 0xfc, 0xf7, 0x00, 0xfb, 0xf5, 0xff, 0xfa, 0xf7,
  0xff, 0xfc, 0xf8, 0xfe, 0xfd, 0xfd, 0xfe, 0xfe, 0xfe, 0xfe, 0x01, 0x02,
  0xff, 0x00, 0x03, 0x03, 0x00, 0x04, 0x02, 0xff, 0x03, 0x03, 0x04, 0x04,
  0x02, 0x02, 0x01, 0x01, 0x01, 0x05, 0x04, 0xfe, 0xff, 0x00, 0x02, 0xfc,
  0x02, 0x01, 0xfc, 0xff, 0x02, 0x01, 0x02, 0xfa, 0x02, 0xff, 0xff, 0x01,
  0x04, 0xfe, 0xff, 0xff, 0x10, 0x06, 0xff, 0x34, 0x45, 0x46, 0xff, 0x00,
  0x04, 0xe7, 0xf9, 0xde, 0xee, 0x0b, 0xfc, 0x32, 0xd5, 0x14, 0xd5, 0xef,
  0x07, 0xee, 0x15, 0xcf, 0xdb, 0xb2, 0x08, 0x03, 0xe8, 0xd2, 0x61, 0x65,
  0x42, 0xc3, 0xd0, 0xec, 0x12, 0x23, 0x08, 0xe8, 0xe4, 0xf6, 0xfe, 0x06,
  0xf7, 0xfe, 0xf9, 0xfa, 0x02, 0x0a, 0xfe, 0x05, 0x02, 0x04, 0x04, 0x07,
  0x04, 0x05, 0x02, 0x05, 0x05, 0x02, 0x04, 0xff, 0x01, 0x02, 0x00, 0xfb,
  0xfc, 0x01, 0xfb, 0xfe, 0xfb, 0xfb, 0xfb, 0xf8, 0xff, 0xfe, 0xfb, 0xfe,
  0x00, 0xfa, 0xfd, 0xff, 0xf9, 0xfc, 0xff, 0xfc, 0xfc, 0xfe, 0xfe, 0xfd,
  0xff, 0xff, 0xfa, 0x00, 0xff, 0xfc, 0xfc, 0x01, 0xfd, 0xfd, 0x00, 0xff,
  0xfe, 0x00, 0x01, 0xfc, 0x06, 0xff, 0xff, 0x03, 0xfe, 0x00, 0x03, 0xfb,
  0x01, 0x04, 0xfa, 0x00, 0x01, 0xf7, 0x00, 0xff, 0xf8, 0xff, 0xfa, 0xf5,
  0xfb, 0xfa, 0xf9, 0xfd, 0xfa, 0xfc, 0xfe, 0xff, 0xfd, 0xff, 0x02, 0xfb,
  0xfe, 0x06, 0x01, 0xfc, 0x05, 0x02, 0xfd, 0x07, 0x01, 0x01, 0x05, 0xfe,
  0x00, 0x01, 0x01, 0x01, 0xff, 0x03, 0x00, 0xff, 0x04, 0x02, 0x01, 0xfd,
  0x02, 0x02, 0xfc, 0x03, 0x00, 0xff, 0x04, 0x02, 0x03, 0x02, 0x05, 0x01,
  0x04, 0x05, 0x05, 0x05, 0x04, 0x03, 0x03, 0x05, 0x01, 0x03, 0x03, 0xff,
  0x01, 0x02, 0x01, 0x00, 0xfe, 0x02, 0xff, 0x03, 0x04, 0xff, 0x02, 0x00,
  0xfe, 0x01, 0x02, 0xff, 0xfc, 0x00, 0xfc, 0xfc, 0x02, 0xfc, 0xfd, 0x01,
  0xfa, 0xfd, 0x04, 0xfe, 0xfb, 0x03, 0xfd, 0xfe, 0x03, 0x03, 0x00, 0xfc,
  0xff, 0x03, 0x00, 0x04, 0xff, 0x01, 0xfc, 0xfb, 0x07, 0x02, 0xfd, 0xff,
  0xfe, 0xff, 0x01, 0x03, 0x54, 0x50, 0x00, 0xf5, 0xee, 0x01, 0xe3, 0x10,
  0xfa, 0x00, 0xe6, 0xfd, 0xee, 0x0e, 0x04, 0xfe, 0xd6, 0xfc, 0xef, 0xef,
  0x0a, 0x2c, 0xe4, 0x0b, 0xdf, 0xf3, 0x08, 0x20, 0x09, 0x0d, 0x06, 0xe8,
  0x0b, 0x13, 0x1b, 0x03, 0x09, 0xf7, 0x0a, 0xf5, 0x17, 0xfa, 0xf2, 0xf1,
  0xf9, 0xe7, 0x04, 0xe6, 0xe5, 0xed, 0xe8, 0xe1, 0xf1, 0xe1, 0xea, 0xeb,
  0xe2, 0xf2, 0xf1, 0xe8, 0xf6, 0xf2, 0xef, 0xfc, 0xf5, 0xf8, 0x05, 0xf7,
  0x02, 0x06, 0xfb, 0x0a, 0x0e, 0x03, 0x0f, 0x0b, 0x04, 0x14, 0x0f, 0x08,
  0x14, 0x0f, 0x06, 0x12, 0x0d, 0x06, 0x0a, 0x08, 0x04, 0x04, 0x03, 0x03,
  0x00, 0xfe, 0x00, 0xf9, 0xfa, 0xfe, 0xf3, 0xf6, 0xfb, 0xf5, 0xf6, 0xfa,
  0xf0, 0xf1, 0xf8, 0xf0, 0xf3, 0xf5, 0xef, 0xf2, 0xf6, 0xf4, 0xf3, 0xf2,
  0xf8, 0xf2, 0xf6, 0xfb, 0xf3, 0xf5, 0xfe, 0xf6, 0xf7, 0x00, 0xf5, 0xf5,
  0x06, 0xf7, 0xfd, 0x06, 0xf7, 0xfc, 0x07, 0xf9, 0xfb, 0x08, 0xfb, 0xfc,
  0x0c, 0xfb, 0xfe, 0x09, 0xfd, 0x04, 0x0a, 0xfc, 0x02, 0x09, 0xfd, 0x03,
  0x09, 0xfb, 0x02, 0x08, 0x00, 0x06, 0x07, 0x01, 0x01, 0x06, 0x02, 0x00,
  0x04, 0x02, 0xfd, 0x02, 0xff, 0xfa, 0x03, 0x00, 0xf9, 0x03, 0x04, 0xf9,
  0x00, 0x00, 0xf6, 0xfe, 0xfd, 0xf8, 0x01, 0xff, 0xf6, 0xfe, 0x00, 0xf9,
  0x00, 0xfb, 0xf4, 0xff, 0xfd, 0xfc, 0xfe, 0xfe, 0xf9, 0x01, 0xff, 0xfc,
  0xff, 0xfe, 0xfc, 0x01, 0x00, 0xff, 0xff, 0xfe, 0xfe, 0x00, 0x07, 0x04,
  0x00, 0x00, 0x04, 0x00, 0x02, 0x08, 0x00, 0x02, 0x00, 0xfe, 0x06, 0x05,
  0xff, 0x0b, 0xfe, 0x01, 0x0c, 0x0e, 0xfa, 0xfa, 0x0a, 0x00, 0x08, 0x0b,
  0x00, 0xff, 0xf3, 0x00, 0x02, 0x01, 0x00, 0x01, 0xfe, 0xfb, 0xff, 0x01,
  0xfe, 0xfe, 0x02, 0xfc, 0x01, 0x01, 0xfc, 0x03, 0x04, 0xfc, 0x04, 0x04,
  0xfa, 0xfd, 0xfe, 0xfb, 0x04, 0x02, 0xfb, 0x01, 0x03, 0xf9, 0x05, 0x03,
  0xf7, 0x02, 0x01, 0xf7, 0x01, 0x06, 0xf8, 0x09, 0x06, 0xf5, 0x08, 0x03,
  0xf2, 0x07, 0x03, 0xf6, 0x05, 0x02, 0xf5, 0x08, 0x01, 0xf5, 0x05, 0x03,
  0xf4, 0x05, 0x03, 0xf3, 0x08, 0x07, 0xf6, 0x01, 0x09, 0xf9, 0x01, 0x07,
  0xf5, 0x0a, 0x01, 0xf7, 0x06, 0xfb, 0xf8, 0x02, 0x01, 0xf9, 0xf8, 0x0c,
  0xfa, 0x01, 0x0c, 0xf8, 0x07, 0xfd, 0xfa, 0xfe, 0xfd, 0xff, 0xfe, 0x03,
  0x00, 0xfe, 0xff, 0x02, 0x01, 0xff, 0xfd, 0x04, 0x01, 0xff, 0xfc, 0x07,
  0x00, 0xf7, 0xfd, 0x01, 0x04, 0xf4, 0x06, 0x07, 0xf8, 0x04, 0xfb, 0xfe,
  0x05, 0xf8, 0x00, 0x05, 0x02, 0xf3, 0x09, 0x0a, 0xea, 0x07, 0x08, 0xf1,
  0x08, 0xfb, 0x02, 0x06, 0xf9, 0x03, 0x08, 0x01, 0xf5, 0x0e, 0x00, 0xee,
  0x0a, 0x03, 0xf1, 0x09, 0x01, 0xf5, 0x0e, 0x02, 0xf7, 0x0a, 0x05, 0xf5,
  0x08, 0x00, 0xf6, 0x07, 0xf8, 0xfb, 0x08, 0x01, 0xfa, 0x09, 0x0b, 0xf1,
  0x08, 0xfa, 0xf6, 0x08, 0xf3, 0xfb, 0x0a, 0x05, 0xfd, 0x02, 0x0f, 0xf4,
  0x02, 0x02, 0xf3, 0x05, 0xfc, 0xfb, 0x03, 0x00, 0xff, 0x03, 0x0a, 0xfc,
  0x01, 0x02, 0xf7, 0x02, 0xf8, 0x01, 0x00, 0xff, 0x01, 0xff, 0x07, 0xfe,
  0x00, 0x0c, 0xfd, 0x00, 0xfc, 0x00, 0x00, 0xee, 0x06, 0xfe, 0x07, 0x01,
  0xfc, 0x0d, 0x06, 0xfb, 0xee, 0x14, 0xff, 0xdb, 0x0b, 0x05, 0xf7, 0xfb,
  0x05, 0x2c, 0xf1, 0xfc, 0x20, 0xf3, 0xfb, 0xc6, 0x1f, 0x05, 0xc2, 0x37,
  0x04, 0xfd, 0x12, 0xff, 0x0b, 0x01, 0x0b, 0x1f, 0xe3, 0xe5, 0xdc, 0xfb,
  0xe0, 0xd1, 0x2c, 0x22, 0x57, 0x12, 0x00, 0xeb, 0x05, 0x23, 0xc0, 0xaf,
  0x8a, 0x46, 0x17, 0x40, 0xfb, 0x24, 0x4c, 0xf8, 0xce, 0xa9, 0xe6, 0x0e,
  0x0a, 0x0a, 0x0a, 0x04, 0x08, 0x04, 0x14, 0x0c, 0x11, 0x0a, 0x0e, 0x08,
  0x0e, 0xfa, 0x02, 0xff, 0x02, 0xfd, 0x01, 0xf7, 0xf5, 0xf7, 0xfc, 0xf5,
  0x02, 0xfa, 0xf3, 0xf9, 0x03, 0xfe, 0x01, 0xff, 0xff, 0xfd, 0x04, 0x07,
  0x08, 0x09, 0x01, 0x02, 0x07, 0x09, 0x08, 0x08, 0x05, 0x04, 0x06, 0x05,
  0x07, 0x05, 0x00, 0x05, 0x02, 0x04, 0x04, 0x02, 0x00, 0x04, 0xff, 0x01,
  0x04, 0xfe, 0x01, 0x01, 0x01, 0x00, 0xff, 0xff, 0x00, 0xfd, 0xfd, 0xfe,
  0xfc, 0xf9, 0xfe, 0xfc, 0xfa, 0xfe, 0xfb, 0xf9, 0xff, 0xfe, 0xfa, 0x02,
  0xff, 0xff, 0x01, 0xfc, 0x00, 0x03, 0xfe, 0x01, 0x02, 0x00, 0x01, 0x01,
  0xff, 0x01, 0x05, 0x01, 0x00, 0x01, 0xff, 0x04, 0xfe, 0x02, 0x06, 0xff,
  0x00, 0x01, 0xfe, 0x01, 0xfe, 0xfc, 0xfe, 0xf9, 0xfa, 0xff, 0xf9, 0xf7,
  0xfc, 0xf9, 0xfd, 0x01, 0xf9, 0xfe, 0xff, 0xfb, 0x02, 0x00, 0x00, 0x00,
  0x00, 0x06, 0x01, 0x04, 0x07, 0x00, 0x01, 0x07, 0x00, 0x02, 0x07, 0xfe,
  0x00, 0x05, 0x03, 0x03, 0x03, 0x02, 0x02, 0x04, 0x04, 0x01, 0x03, 0x03,
  0x00, 0x03, 0x04, 0x00, 0x00, 0x06, 0x00, 0x00, 0x06, 0xff, 0x01, 0x04,
  0xff, 0x00, 0x04, 0xfe, 0xfe, 0x01, 0xfc, 0xfc, 0x00, 0xfe, 0xfd, 0xff,
  0xfd, 0xff, 0x00, 0xff, 0xfe, 0x01, 0xff, 0xfe, 0xfd, 0xff, 0xff, 0xfa,
  0x00, 0x03, 0xfe, 0xfd, 0x01, 0x03, 0xfd, 0xff, 0x03, 0xfe, 0xff, 0x01,
  0x03, 0x02, 0xff, 0xfe, 0x14, 0x34, 0x39, 0x2a, 0x02, 0x2c, 0xd2, 0xe0,
  0x05, 0x1e, 0x0b, 0x0d, 0xcd, 0xd3, 0xdc, 0xc5, 0xfb, 0xe7, 0x22, 0xcd,
  0xda, 0xf0, 0x4c, 0xfc, 0x59, 0xfa, 0xf3, 0xd9, 0x38, 0xff, 0x17, 0x03,
  0xf1, 0xe7, 0x09, 0xfc, 0xe9, 0xf5, 0xf8, 0xf2, 0xea, 0x04, 0xec, 0xf4,
  0xff, 0x02, 0xed, 0x04, 0xfe, 0x00, 0xfe, 0x12, 0x02, 0x08, 0x0b, 0x0c,
  0x00, 0x1a, 0x07, 0x02, 0x0f, 0x11, 0xfa, 0x0c, 0x05, 0xfb, 0x02, 0x0a,
  0xf7, 0x02, 0x00, 0xfb, 0xf7, 0x00, 0xf7, 0xf8, 0xf9, 0xfa, 0xf5, 0xfe,
  0xfd, 0xf9, 0xfa, 0xfc, 0xf8, 0xfa, 0xfd, 0xfb, 0xfc, 0x01, 0xf9, 0xff,
  0xfe, 0xff, 0xfb, 0xff, 0x00, 0xfb, 0x01, 0x03, 0xff, 0xfb, 0x02, 0xff,
  0xfc, 0x00, 0x01, 0xfe, 0xfe, 0x00, 0xff, 0x01, 0xff, 0xfe, 0x01, 0x01,
  0xff, 0x00, 0x01, 0x01, 0x03, 0xfe, 0x01, 0x00, 0xfc, 0xfe, 0x01, 0xfd,
  0xfe, 0xfd, 0xfd, 0xff, 0xff, 0xff, 0xfd, 0x01, 0xfb, 0xfe, 0x01, 0xfb,
  0xff, 0x01, 0xfe, 0xfe, 0xff, 0x02, 0x00, 0x02, 0xfb, 0x00, 0x00, 0xf9,
  0x01, 0xff, 0xfc, 0xff, 0xfc, 0xfc, 0x02, 0x00, 0xfc, 0xff, 0xfe, 0xfc,
  0x00, 0xff, 0xfd, 0xff, 0xfe, 0xfa, 0xfe, 0x03, 0xfd, 0xff, 0x00, 0xfa,
  0x00, 0xff, 0xfb, 0x00, 0xfc, 0xfa, 0xfe, 0xfd, 0xfd, 0xff, 0xfd, 0xfc,
  0xfe, 0xfb, 0xfb, 0xfb, 0xfc, 0xfc, 0xfd, 0xfd, 0xfb, 0xfb, 0xfd, 0xfc,
  0xfe, 0xfe, 0xfe, 0xfc, 0xfd, 0xfe, 0xfe, 0xfe, 0xff, 0xfc, 0x00, 0x02,
  0x02, 0x02, 0x01, 0xfe, 0xfb, 0x04, 0x00, 0x00, 0xff, 0xff, 0x04, 0xfe,
  0x01, 0x09, 0xfe, 0xff, 0x02, 0x0b, 0x02, 0xfd, 0x06, 0xfe, 0xfd, 0x0a,
  0x09, 0x03, 0xf8, 0x00, 0xe5, 0x05, 0xfe, 0x14, 0x18, 0x04, 0xf8, 0x06,
  0x12, 0x2e, 0x5c, 0x20, 0x54, 0x09, 0x25, 0xed, 0xf0, 0x14, 0x38, 0x3e,
  0x07, 0xc9, 0x9b, 0xfc, 0x0a, 0x0f, 0xfa, 0xd8, 0x13, 0xf1, 0x0f, 0xea,
  0xf1, 0xdd, 0xe3, 0xeb, 0x03, 0xef, 0xe7, 0xf2, 0xf4, 0xe9, 0x06, 0x00,
  0xf3, 0x01, 0x01, 0xfe, 0x0c, 0x0f, 0x04, 0x02, 0x07, 0x08, 0x09, 0x04,
  0x07, 0xff, 0xff, 0x0a, 0x05, 0x02, 0x04, 0x00, 0xfa, 0x06, 0x03, 0xfc,
  0x01, 0x02, 0xf9, 0x01, 0x03, 0xfe, 0xfa, 0xff, 0xfb, 0xf9, 0xfd, 0xfb,
  0xfa, 0xfd, 0xfa, 0xf8, 0xfc, 0xfb, 0xf9, 0xf9, 0xfa, 0xfc, 0xfa, 0xfa,
  0xfc, 0xfb, 0xfb, 0xfe, 0xfc, 0xff, 0x03, 0xfd, 0xfc, 0x02, 0x00, 0x02,
  0x02, 0xfe, 0x00, 0x00, 0x01, 0xff, 0x01, 0x03, 0xfd, 0x00, 0xfe, 0x00,
  0xfe, 0x01, 0xff, 0xff, 0x00, 0xfe, 0xfe, 0x04, 0xfe, 0x00, 0x03, 0xfe,
  0x01, 0x03, 0x01, 0x03, 0x01, 0x01, 0x01, 0x04, 0xff, 0x02, 0xfe, 0xff,
  0xff, 0x03, 0xff, 0xfc, 0xfb, 0xfe, 0xff, 0x02, 0xfe, 0xfd, 0xfe, 0xfb,
  0x00, 0xfe, 0xff, 0xfe, 0xff, 0xff, 0xff, 0xfe, 0x02, 0xfe, 0xff, 0x00,
  0xfc, 0xfc, 0xff, 0xfe, 0xf9, 0xff, 0xfb, 0xf8, 0xfe, 0xfc, 0xfa, 0xfd,
  0xf9, 0xf9, 0xff, 0xfc, 0xf8, 0xfd, 0xfe, 0xfd, 0xfe, 0xfc, 0xfb, 0xfe,
  0x00, 0xff, 0xfe, 0xff, 0xfe, 0xfc, 0x00, 0x01, 0x00, 0x01, 0xff, 0xfe,
  0x01, 0x01, 0xfe, 0x00, 0x02, 0xfe, 0x01, 0x06, 0xff, 0x01, 0x03, 0xfd,
  0x04, 0x04, 0x04, 0x03, 0xfc, 0x02, 0x04, 0x01, 0x04, 0x04, 0x01, 0xfb,
  0x06, 0x08, 0x00, 0x02, 0xff, 0x04, 0xff, 0xff, 0x07, 0xff, 0xfa, 0x00,
  0x02, 0x0a, 0xff, 0x02, 0x01, 0x02, 0x0c, 0xd6, 0xeb, 0x0d, 0xff, 0xe7,
  0xa4, 0x22, 0x2c, 0x18, 0x03, 0xd4, 0x36, 0x0f, 0x0b, 0x9b, 0xdb, 0x50,
  0x60, 0x41, 0xd0, 0x42, 0xc9, 0x16, 0xa3, 0xba, 0xc2, 0xef, 0x33, 0xf4,
  0x16, 0x1a, 0x27, 0x18, 0x05, 0xf7, 0x05, 0x03, 0x0f, 0x04, 0xfe, 0xf8,
  0xff, 0xfc, 0x00, 0xfd, 0xff, 0xfd, 0xfe, 0xf9, 0x01, 0xfc, 0xfd, 0x04,
  0xfe, 0xfb, 0x07, 0xff, 0xfc, 0x01, 0x00, 0xfe, 0x00, 0xfd, 0x02, 0x00,
  0x01, 0x00, 0x02, 0x00, 0x00, 0x01, 0x01, 0xff, 0xff, 0xff, 0xff, 0x02,
  0x03, 0xfe, 0x00, 0xfe, 0x02, 0xfe, 0x03, 0x00, 0xfe, 0x01, 0xfe, 0x00,
  0x01, 0x00, 0xfb, 0xfe, 0xff, 0xfa, 0x00, 0x00, 0xf9, 0xfe, 0x02, 0xfb,
  0x00, 0x00, 0x00, 0xfe, 0x03, 0xfe, 0xfd, 0x02, 0x00, 0xff, 0xff, 0x00,
  0xfd, 0xfd, 0xff, 0xfe, 0xff, 0x01, 0xfe, 0xfc, 0x01, 0xff, 0xff, 0x04,
  0xfe, 0xfd, 0x05, 0x01, 0xfe, 0x03, 0x01, 0xff, 0x01, 0x01, 0xfe, 0x02,
  0x00, 0xfd, 0x03, 0x00, 0x00, 0x05, 0x01, 0xfd, 0x05, 0x00, 0xff, 0x05,
  0x01, 0xff, 0x03, 0xff, 0x00, 0x01, 0x01, 0x02, 0xff, 0xff, 0x04, 0x00,
  0x00, 0x02, 0x03, 0xfe, 0x03, 0x03, 0xff, 0x03, 0x04, 0x01, 0x05, 0x06,
  0xfc, 0x04, 0x06, 0xff, 0x07, 0x04, 0x00, 0x09, 0x04, 0x00, 0x09, 0x04,
  0x00, 0x05, 0x04, 0x01, 0x04, 0x03, 0x02, 0x02, 0xff, 0x00, 0x01, 0xfd,
  0xff, 0xfe, 0xfe, 0xfe, 0x00, 0xfc, 0xff, 0xfd, 0xff, 0xff, 0xff, 0xff,
  0xff, 0xfc, 0xfe, 0xfe, 0xfb, 0x01, 0xff, 0xfd, 0x00, 0xff, 0xff, 0xfd,
  0x00, 0x01, 0x01, 0xfe, 0xff, 0x02, 0x00, 0xfc, 0x05, 0x02, 0xff, 0x01,
  0x00, 0x01, 0xff, 0x00, 0x0c, 0xfc, 0x04, 0x13, 0x1c, 0x28, 0xda, 0x19,
  0xe5, 0x21, 0xd2, 0x27, 0xff, 0x25, 0xd6, 0xda, 0xf8, 0xdb, 0x23, 0xd1,
  0x58, 0xd0, 0xee, 0x89, 0x2a, 0x1a, 0x76, 0x29, 0x02, 0x0b, 0xb8, 0xce,
  0xae, 0x20, 0x2c, 0x16, 0x0a, 0x02, 0x0e, 0x07, 0x13, 0x14, 0x0e, 0xf8,
  0x02, 0xfb, 0xfb, 0x06, 0xfe, 0xf8, 0xf8, 0xf7, 0xfa, 0xfc, 0xfc, 0xfd,
  0xf3, 0xf7, 0x01, 0xfb, 0xfa, 0xfc, 0xf6, 0xf5, 0xfc, 0xfc, 0xf9, 0xfa,
  0xf7, 0xf7, 0xf8, 0xfe, 0xfb, 0xf8, 0xfd, 0xfc, 0xfb, 0x00, 0x04, 0xfa,
  0x00, 0x04, 0xfd, 0x06, 0x0a, 0x01, 0x01, 0x09, 0x05, 0x06, 0x08, 0x07,
  0x02, 0x07, 0x05, 0x01, 0x02, 0x04, 0x00, 0xff, 0x00, 0xfe, 0xfe, 0xfd,
  0xfc, 0xfb, 0xf9, 0xfc, 0xfb, 0xf9, 0xfb, 0xfd, 0xf8, 0xfa, 0xfb, 0xf8,
  0xfd, 0xfb, 0xfc, 0xfa, 0xfe, 0xfc, 0xfb, 0x00, 0xfd, 0xfe, 0x03, 0x02,
  0xff, 0x03, 0x01, 0xfd, 0x02, 0x05, 0x01, 0x01, 0x06, 0x01, 0x00, 0x05,
  0xff, 0xff, 0x05, 0xfe, 0xff, 0x00, 0x00, 0xfc, 0xfe, 0x00, 0xfd, 0xff,
  0xff, 0xfb, 0xfb, 0x00, 0xfb, 0xfd, 0x00, 0xfb, 0x01, 0xff, 0xff, 0x02,
  0x00, 0x00, 0x03, 0x00, 0xff, 0x04, 0x02, 0x00, 0x02, 0x01, 0xff, 0x00,
  0x00, 0xfc, 0xfe, 0x01, 0xfb, 0xfd, 0x00, 0xfd, 0xfb, 0x00, 0xfc, 0xfb,
  0xff, 0xfe, 0xfa, 0x01, 0xfd, 0xfb, 0x00, 0x00, 0xfa, 0xff, 0xfe, 0xfb,
  0xfd, 0x01, 0xfe, 0x00, 0x01, 0x01, 0x01, 0x03, 0x02, 0x03, 0x03, 0x04,
  0x01, 0x03, 0x03, 0x03, 0x01, 0x04, 0x02, 0x00, 0x02, 0x03, 0x02, 0x02,
  0x01, 0x04, 0x02, 0x04, 0x03, 0x03, 0xff, 0xff, 0x02, 0x01, 0xff, 0x00,
  0xfe, 0x00, 0xfe, 0x02, 0xd8, 0xfa, 0xe4, 0xe0, 0xbb, 0xed, 0x5c, 0x32,
  0x2c, 0xe9, 0x22, 0x09, 0x25, 0xed, 0x15, 0xc6, 0x43, 0xf4, 0xec, 0xd1,
  0x05, 0xf8, 0x16, 0xe1, 0xcd, 0xb8, 0xf4, 0x31, 0x1d, 0xfd, 0x01, 0x11,
  0x04, 0x11, 0xff, 0x10, 0xff, 0x0a, 0x00, 0x03, 0xfb, 0xfd, 0xfb, 0xf8,
  0xfa, 0xfd, 0xee, 0xfd, 0xf3, 0xf5, 0xf5, 0xfd, 0xf4, 0xfa, 0xfc, 0xfa,
  0xfd, 0x06, 0x02, 0x06, 0x07, 0x0a, 0x05, 0x0e, 0x0b, 0x0b, 0x04, 0x07,
  0x05, 0x06, 0x06, 0x05, 0xfd, 0x01, 0x02, 0xfc, 0x00, 0xfd, 0xf6, 0xfe,
  0xfb, 0xfe, 0xfa, 0xfa, 0xfb, 0xfb, 0xf4, 0xfd, 0xfe, 0xf5, 0xfc, 0xfd,
  0xf2, 0xff, 0xfe, 0xf6, 0xff, 0xfa, 0xfa, 0xff, 0xfb, 0xfb, 0x01, 0xfc,
  0xfb, 0x01, 0xf9, 0xfd, 0x00, 0xfd, 0xfe, 0x01, 0xfd, 0x02, 0x03, 0x02,
  0x02, 0x03, 0x05, 0x05, 0x09, 0x07, 0x05, 0x07, 0x05, 0x03, 0x07, 0x05,
  0x08, 0x02, 0x07, 0x06, 0xfe, 0x02, 0x03, 0xfb, 0xff, 0xfc, 0xf9, 0xf9,
  0xfa, 0xf7, 0xfe, 0xf9, 0xf3, 0xfc, 0xfa, 0xf5, 0xfd, 0xfd, 0xf8, 0xfc,
  0xfc, 0xf7, 0xfa, 0xfe, 0xf8, 0xfd, 0xfc, 0xfb, 0xff, 0xfb, 0xfc, 0xfb,
  0xfb, 0xf7, 0xfb, 0xfc, 0xfc, 0xfb, 0xfb, 0xfc, 0xfd, 0xfd, 0x00, 0xfe,
  0xfc, 0xfe, 0xfd, 0x00, 0x02, 0x01, 0xff, 0x01, 0x04, 0x04, 0x05, 0x02,
  0x06, 0x04, 0x03, 0x06, 0x03, 0x05, 0x03, 0x02, 0x03, 0x04, 0x04, 0x01,
  0x04, 0x03, 0x01, 0x06, 0x04, 0x02, 0x05, 0x04, 0x00, 0x05, 0x07, 0x03,
  0x01, 0x05, 0x00, 0x01, 0x02, 0x07, 0xff, 0x02, 0x01, 0x00, 0x04, 0xfd,
  0xfd, 0x04, 0xfe, 0x00, 0xff, 0x08, 0xfc, 0xfb, 0x07, 0xfe, 0xfa, 0x05,
  0xfe, 0x05, 0xfd, 0x04, 0x01, 0x03, 0x03, 0xff, 0xff, 0x01, 0x02, 0x00,
  0x05, 0x02, 0x01, 0x01, 0x02, 0xfd, 0x03, 0xff, 0xfd, 0x04, 0x00, 0xfe,
  0x03, 0xfb, 0xfc, 0x06, 0x01, 0xff, 0x06, 0xfd, 0x00, 0x06, 0xfe, 0xfb,
  0x03, 0xfd, 0xfa, 0x06, 0xfe, 0xfe, 0x06, 0xfe, 0xfb, 0x0a, 0xfc, 0xfb,
  0x07, 0xff, 0xfe, 0x06, 0xff, 0x03, 0x01, 0xfe, 0xfd, 0x05, 0xfc, 0xfd,
  0x05, 0xfe, 0xff, 0x02, 0xf9, 0x08, 0xfd, 0x00, 0x05, 0xff, 0x06, 0xf9,
  0x03, 0x03, 0xfc, 0x00, 0xfc, 0x09, 0xfa, 0xf6, 0x0d, 0x00, 0x00, 0x00,
  0x05, 0x06, 0xf6, 0x00, 0x04, 0xfe, 0xfa, 0xfb, 0x0e, 0xfa, 0xfc, 0x06,
  0xfe, 0x06, 0x03, 0xf9, 0x04, 0x05, 0xf9, 0x03, 0x01, 0xfa, 0x04, 0x05,
  0xf8, 0x03, 0x07, 0xf8, 0x02, 0x08, 0xf7, 0xfe, 0xff, 0xfb, 0xfe, 0x01,
  0xfb, 0x03, 0x02, 0xfc, 0x08, 0x05, 0xf6, 0x02, 0x0a, 0xf2, 0xf8, 0x0e,
  0xfd, 0xf8, 0x10, 0xff, 0xfd, 0x07, 0xfb, 0x06, 0xf9, 0xfa, 0x05, 0xfd,
  0xfc, 0xfc, 0x0f, 0xfa, 0xfb, 0x14, 0xf7, 0x00, 0x01, 0x00, 0xff, 0xf6,
  0x02, 0xfc, 0x01, 0xff, 0xfd, 0x14, 0x01, 0xfd, 0x11, 0xfd, 0xfe, 0xff,
  0xfe, 0x03, 0xf9, 0x01, 0x00, 0xf9, 0x04, 0xfc, 0x00, 0xff, 0xfe, 0xfd,
  0x01, 0xfb, 0x04, 0x03, 0x01, 0x06, 0x07, 0x01, 0xfd, 0x04, 0xff, 0xf7,
  0x06, 0x00, 0xf8, 0x01, 0x00, 0x03, 0x02, 0x04, 0x02, 0x09, 0xfe, 0xfb,
  0x05, 0xf8, 0xfc, 0x06, 0x02, 0xf8, 0x01, 0x13, 0xf3, 0x00, 0x09, 0xfc,
  0x04, 0xed, 0x06, 0x08, 0xed, 0x0d, 0x04, 0x13, 0xeb, 0x04, 0x1e, 0xc7,
  0x0a, 0x01, 0xf9, 0x02, 0xe1, 0x44, 0xf9, 0xf2, 0x2b, 0xfa, 0x12, 0xc7,
  0x0c, 0x0d, 0xcd, 0x0e, 0xde, 0xaf, 0xe0, 0x25, 0x20, 0xfb, 0xe6, 0xe7,
  0xeb, 0x1d, 0xf7, 0xef, 0xe0, 0x0b, 0xee, 0xf4, 0xf0, 0xee, 0xdd, 0xf5,
  0xf8, 0x12, 0xfb, 0x05, 0xd2, 0xed, 0x05, 0x03, 0x0d, 0x11, 0xfb, 0xf4,
  0x15, 0x1a, 0x20, 0x1e, 0x25, 0x26, 0x29, 0x1f, 0x28, 0x23, 0x2b, 0x1e,
  0x1e, 0x15, 0x19, 0x15, 0x13, 0x0d, 0x12, 0x01, 0x05, 0x05, 0x00, 0xfe,
  0xfd, 0xef, 0xf5, 0xf0, 0xf0, 0xf6, 0xed, 0xe9, 0xf4, 0xeb, 0xef, 0xf6,
  0xe6, 0xed, 0xf9, 0xeb, 0xf5, 0xfa, 0xed, 0xf8, 0xfc, 0xef, 0xfd, 0xfe,
  0xf1, 0xfe, 0xff, 0xf8, 0x06, 0x02, 0xff, 0x05, 0x05, 0x00, 0x0a, 0x07,
  0x04, 0x0a, 0x06, 0x04, 0x0a, 0x0b, 0x05, 0x08, 0x08, 0x09, 0x07, 0x0b,
  0x05, 0x06, 0x0a, 0x0a, 0x07, 0x07, 0x07, 0x04, 0x04, 0x05, 0x05, 0x06,
  0x06, 0x02, 0x05, 0x02, 0x01, 0x05, 0x02, 0x05, 0x02, 0x01, 0x03, 0x04,
  0xff, 0x01, 0x03, 0x01, 0x02, 0x06, 0x01, 0x03, 0xfe, 0x02, 0x02, 0x04,
  0x02, 0x03, 0x04, 0x06, 0x05, 0x04, 0x04, 0x06, 0x07, 0x06, 0x06, 0x06,
  0x03, 0x08, 0x04, 0x05, 0x09, 0x08, 0x08, 0x06, 0x07, 0x08, 0x0a, 0x06,
  0x0d, 0x08, 0x05, 0x08, 0x04, 0x08, 0x0b, 0x08, 0x05, 0x08, 0x06, 0x07,
  0x07, 0x05, 0x04, 0x06, 0x07, 0x06, 0x03, 0x03, 0x02, 0x02, 0x03, 0x03,
  0xff, 0x02, 0x02, 0x03, 0x00, 0x04, 0xfe, 0x00, 0xff, 0x03, 0xff, 0x02,
  0xfc, 0xfd, 0xff, 0x02, 0xfb, 0x00, 0xfd, 0xfb, 0xff, 0xff, 0xfd, 0xfe,
  0xfc, 0xf7, 0xfe, 0xfc, 0xf8, 0xfe, 0xff, 0xfa, 0xff, 0xfb, 0xfb, 0xf3,
  0xfc, 0xfb, 0xfe, 0xf9, 0xfe, 0xfb, 0xfa, 0xf4, 0x04, 0xfb, 0xf5, 0xf3,
  0xfd, 0x05, 0x09, 0xfe, 0x0c, 0x0e, 0x04, 0xb6, 0xf4, 0xc6, 0xde, 0x8a,
  0xec, 0x06, 0x24, 0xed, 0xef, 0xdb, 0x00, 0x35, 0x16, 0x1d, 0x0e, 0x1f,
  0xff, 0xe2, 0xeb, 0xfa, 0x08, 0x3b, 0x1b, 0x43, 0xc5, 0x36, 0xd9, 0x34,
  0xec, 0x19, 0xd8, 0x08, 0xdc, 0x15, 0xe7, 0xff, 0xf3, 0x00, 0xe9, 0x0d,
  0xf6, 0x09, 0x08, 0x0c, 0xfe, 0x04, 0xfe, 0x02, 0x08, 0x06, 0x00, 0x03,
  0x02, 0x01, 0x00, 0x05, 0x04, 0xfe, 0x03, 0x06, 0xf9, 0x07, 0x04, 0xf5,
  0x00, 0x04, 0xf7, 0x03, 0x02, 0xf9, 0xff, 0x04, 0xff, 0x02, 0x02, 0x02,
  0x00, 0x00, 0x05, 0x03, 0xff, 0x05, 0x02, 0xfd, 0x0a, 0x02, 0x00, 0x07,
  0x05, 0xfc, 0x08, 0x04, 0xfd, 0x02, 0x04, 0xff, 0x02, 0x05, 0x03, 0x01,
  0x07, 0x06, 0xfe, 0x02, 0x05, 0xf9, 0x04, 0x04, 0xfa, 0x03, 0x03, 0xfb,
  0x04, 0x00, 0xfd, 0xfc, 0x01, 0xfc, 0xfd, 0xff, 0xfe, 0xfa, 0xfe, 0x00,
  0xfd, 0xfd, 0x07, 0xfc, 0xfc, 0x04, 0x01, 0xff, 0x03, 0xff, 0x04, 0x01,
  0x03, 0x04, 0x04, 0x00, 0x03, 0xff, 0x00, 0xff, 0xfd, 0x01, 0x00, 0xf9,
  0x01, 0xfc, 0xfb, 0x01, 0xfc, 0xf9, 0xfe, 0xfb, 0xfc, 0xfe, 0xfc, 0xf8,
  0xff, 0xf9, 0xf8, 0xfe, 0xf9, 0xf8, 0xff, 0xfb, 0xfd, 0xfe, 0xfc, 0xf9,
  0xff, 0xfe, 0xfe, 0xfc, 0xff, 0xfe, 0xff, 0x00, 0xff, 0xff, 0x01, 0xfd,
  0xff, 0x01, 0x01, 0xfd, 0x01, 0x03, 0xff, 0x03, 0x05, 0x01, 0x07, 0x02,
  0x00, 0x04, 0x06, 0xfe, 0x04, 0x01, 0x01, 0x02, 0x03, 0xfe, 0x02, 0xfe,
  0xff, 0xff, 0x04, 0xfe, 0x00, 0x01, 0x01, 0xfe, 0xfe, 0x00, 0x05, 0xf7,
  0x03, 0x02, 0xff, 0x00, 0x05, 0x00, 0x02, 0xf9, 0x06, 0x00, 0x03, 0x00,
  0x05, 0xff, 0xfe, 0x02, 0xf9, 0xed, 0xf3, 0xfd, 0x01, 0xf5, 0x2a, 0x59,
  0x1b, 0xea, 0xc0, 0xe3, 0xc6, 0xb7, 0xff, 0x59, 0x4b, 0x0e, 0xbe, 0xec,
  0x0a, 0xdf, 0xf6, 0x0c, 0x43, 0x3a, 0xfd, 0xd4, 0xea, 0xe7, 0xf2, 0xe3,
  0xdf, 0xe5, 0xe7, 0xe7, 0x0a, 0xeb, 0xf4, 0x08, 0xfc, 0x05, 0x14, 0xf9,
  0x07, 0x12, 0x01, 0x12, 0x16, 0x0a, 0x15, 0x0c, 0x0a, 0x17, 0x01, 0x03,
  0x0c, 0xf9, 0x03, 0x07, 0xfa, 0xfc, 0xfe, 0xf2, 0xff, 0xfb, 0xfb, 0xfc,
  0xf6, 0xf7, 0x03, 0xf5, 0x00, 0x03, 0xf5, 0xff, 0x08, 0xf8, 0x02, 0x09,
  0xf9, 0x04, 0x08, 0xfa, 0x09, 0x05, 0xf9, 0x03, 0x02, 0x00, 0xff, 0xfe,
  0x00, 0xfd, 0xfb, 0x06, 0x02, 0xfb, 0xfe, 0xfe, 0xfb, 0x05, 0xff, 0xfc,
  0x02, 0x00, 0xfe, 0x05, 0x00, 0xff, 0x06, 0x02, 0x01, 0x04, 0x01, 0x02,
  0x03, 0xfe, 0x01, 0x00, 0xfc, 0x02, 0x03, 0xfd, 0x04, 0xff, 0xfc, 0x04,
  0x01, 0xfb, 0x09, 0x02, 0x00, 0x07, 0xff, 0x02, 0x04, 0xfe, 0x04, 0x03,
  0x01, 0x03, 0x05, 0x02, 0x00, 0x08, 0xff, 0x03, 0x02, 0xfe, 0x01, 0x02,
  0x01, 0x00, 0x00, 0x00, 0x00, 0x04, 0x01, 0x01, 0x01, 0x00, 0x01, 0xff,
  0x00, 0xfe, 0xff, 0x02, 0xfc, 0xfc, 0x00, 0xfd, 0xfc, 0xfe, 0xfe, 0xfc,
  0xfe, 0xfd, 0xfe, 0xff, 0xfd, 0xfe, 0xfe, 0xff, 0xf9, 0xff, 0xff, 0xfd,
  0xfd, 0x00, 0xfc, 0xff, 0x00, 0xfe, 0xff, 0x02, 0xfd, 0xfd, 0x02, 0xfc,
  0x00, 0x05, 0xfd, 0xfe, 0x03, 0xfd, 0xfe, 0x04, 0xfc, 0x01, 0x04, 0xfd,
  0x02, 0x05, 0xfe, 0x03, 0xff, 0x00, 0x02, 0x00, 0xfd, 0x01, 0x01, 0xfb,
  0x01, 0x05, 0xfd, 0x01, 0xff, 0x04, 0x00, 0xfb, 0x07, 0x01, 0xfe, 0x00,
  0x00, 0x05, 0x01, 0x06, 0x0d, 0x04, 0xef, 0x22, 0x1d, 0x19, 0xe3, 0xdc,
  0x26, 0xf4, 0xc4, 0x81, 0xf3, 0x46, 0x5c, 0xe5, 0xf5, 0xfe, 0x29, 0xf1,
  0xc6, 0xf8, 0xe9, 0x1d, 0xcd, 0x06, 0xc2, 0x25, 0x3e, 0x69, 0x0e, 0xeb,
  0x08, 0x00, 0xfe, 0xfe, 0xff, 0xf2, 0xf8, 0x00, 0x04, 0xf8, 0x07, 0x05,
  0xf7, 0x05, 0x09, 0xf9, 0x02, 0xff, 0xfd, 0xfa, 0xfc, 0xfb, 0xf9, 0xf9,
  0xf9, 0xf1, 0xfc, 0xf9, 0xf3, 0xfd, 0xfc, 0xf3, 0xfd, 0xfe, 0xf9, 0xff,
  0x00, 0xff, 0x02, 0x00, 0x05, 0x02, 0xff, 0x04, 0x02, 0x01, 0x06, 0xfe,
  0xff, 0x03, 0x00, 0xfe, 0x02, 0xfc, 0xfd, 0x01, 0x00, 0xfe, 0xff, 0x01,
  0xfe, 0xfe, 0x05, 0xfc, 0xfc, 0x02, 0xfa, 0xff, 0x06, 0xfd, 0xfd, 0x06,
  0xfd, 0xfc, 0x06, 0xfc, 0xfd, 0x00, 0xfc, 0xfc, 0xff, 0xfb, 0xfd, 0xff,
  0xfb, 0x01, 0xfe, 0xfd, 0x03, 0xff, 0xfd, 0x02, 0xff, 0xfc, 0x02, 0xff,
  0xfe, 0x00, 0xfe, 0xff, 0x02, 0xfd, 0xff, 0x02, 0xfb, 0x01, 0x02, 0xfe,
  0x00, 0x01, 0x00, 0x02, 0x05, 0x04, 0x04, 0x02, 0x05, 0x05, 0x04, 0x07,
  0x07, 0x05, 0x06, 0x03, 0x02, 0x08, 0x06, 0x01, 0x02, 0x03, 0xff, 0xff,
  0x01, 0xfc, 0xfe, 0xff, 0xfb, 0xfc, 0x01, 0xfa, 0xfc, 0xff, 0xfd, 0xff,
  0x02, 0x00, 0xff, 0x01, 0x02, 0x02, 0x04, 0x02, 0x04, 0x02, 0x01, 0x03,
  0x02, 0x01, 0x01, 0xff, 0xfe, 0x01, 0xff, 0xfe, 0x00, 0x00, 0x00, 0x00,
  0xff, 0xfe, 0xfc, 0x00, 0xff, 0xfc, 0x02, 0xfe, 0xf9, 0x02, 0x00, 0xfa,
  0x02, 0xff, 0xfb, 0xfb, 0xff, 0xfd, 0xfd, 0x00, 0xfd, 0xfd, 0x03, 0xfa,
  0x00, 0x05, 0xfe, 0xfd, 0x01, 0x03, 0xff, 0xfe, 0x05, 0xff, 0xfe, 0x00,
  0x02, 0x00, 0x00, 0x04, 0xe4, 0xd9, 0x07, 0xfb, 0xfa, 0x00, 0x1d, 0x06,
  0xf0, 0xab, 0xb7, 0xf5, 0x31, 0x4f, 0xfc, 0x03, 0xe1, 0x08, 0x48, 0x41,
  0x10, 0x0a, 0x37, 0x0e, 0x1c, 0x20, 0x08, 0xdd, 0xe8, 0x07, 0xd9, 0xfd,
  0xfd, 0x0f, 0x09, 0xfc, 0xdb, 0xee, 0xf1, 0x08, 0xf2, 0xea, 0xea, 0xf1,
  0xf0, 0x03, 0xf4, 0xed, 0xf8, 0xf6, 0xf3, 0x0b, 0xfc, 0xfb, 0x03, 0x03,
  0x01, 0x0e, 0x10, 0x03, 0x05, 0x0a, 0x07, 0x0b, 0x13, 0x07, 0xfe, 0x06,
  0x0b, 0x05, 0x08, 0x08, 0x00, 0x02, 0x0a, 0xff, 0x02, 0x03, 0xf6, 0xfc,
  0xfd, 0xfb, 0x00, 0xfb, 0xfb, 0x00, 0xfa, 0xfb, 0x05, 0xfc, 0xfc, 0x02,
  0x00, 0x03, 0x03, 0x00, 0x02, 0x06, 0xfe, 0x08, 0x08, 0xfe, 0x06, 0x0a,
  0x01, 0x09, 0x08, 0xff, 0x0b, 0x05, 0x02, 0x05, 0x06, 0x01, 0x05, 0x01,
  0x00, 0x00, 0x05, 0x00, 0x03, 0xfb, 0xfc, 0xfe, 0xfb, 0xfa, 0xfc, 0xf9,
  0xfc, 0xfa, 0xfb, 0xfc, 0xf9, 0xfd, 0xfe, 0xfa, 0xfa, 0xfc, 0xf8, 0xf9,
  0xfb, 0xf4, 0xfc, 0xf8, 0xf9, 0xfe, 0xfb, 0xf8, 0xfd, 0xfd, 0xfb, 0xfd,
  0xfd, 0xf9, 0xff, 0xfd, 0xff, 0xff, 0xfa, 0x02, 0x04, 0xfe, 0x01, 0xfe,
  0xfd, 0x01, 0xff, 0xff, 0x03, 0x01, 0xff, 0x05, 0x02, 0x05, 0x07, 0x00,
  0x06, 0x05, 0x02, 0x05, 0x04, 0x03, 0x06, 0x04, 0x01, 0x06, 0x00, 0xff,
  0x05, 0x00, 0xfd, 0x03, 0x01, 0x01, 0x05, 0x03, 0xfe, 0x00, 0x02, 0xfd,
  0xff, 0x02, 0x00, 0x00, 0x02, 0xfc, 0xfe, 0x03, 0xfd, 0x00, 0x03, 0xfc,
  0x00, 0x02, 0xfd, 0x01, 0xfe, 0xff, 0x02, 0x01, 0xff, 0x02, 0x05, 0xf6,
  0x00, 0x09, 0x00, 0x01, 0x03, 0x02, 0x02, 0xfd, 0x0b, 0xfe, 0xfc, 0xfe,
  0x03, 0x0a, 0x09, 0x02, 0x00, 0x00, 0x00, 0x00, 0x6e, 0xfe, 0xff, 0xff,
  0x04, 0x00, 0x00, 0x00, 0x08, 0x00, 0x00, 0x00, 0xff, 0xff, 0xff, 0xff,
  0xf0, 0x00, 0x00, 0x00, 0x00, 0x00, 0x00, 0x00, 0x00, 0x00, 0x00, 0x00,
  0x00, 0x00, 0x00, 0x00, 0x8e, 0xfe, 0xff, 0xff, 0x04, 0x00, 0x00, 0x00,
  0x0c, 0x00, 0x00, 0x00, 0x4f, 0x2a, 0x82, 0x3e, 0x4c, 0xc8, 0xb7, 0x3c,
  0xe0, 0xfd, 0xc1, 0xbe, 0x00, 0x00, 0x00, 0x00, 0x00, 0x00, 0x00, 0x00,
  0xae, 0xfe, 0xff, 0xff, 0x04, 0x00, 0x00, 0x00, 0x40, 0x00, 0x00, 0x00,
  0x2f, 0x4e, 0x78, 0xbb, 0xa6, 0xaf, 0x1c, 0x3f, 0xf2, 0x5b, 0x3f, 0x3f,
  0xec, 0x88, 0xab, 0xbe, 0xfa, 0x14, 0xc7, 0x3e, 0x74, 0xdc, 0x7f, 0x3b,
  0x1c, 0x3d, 0xe6, 0xbe, 0x32, 0xd2, 0x69, 0x3a, 0x27, 0x5a, 0xd9, 0xbe,
  0x07, 0xfe, 0x00, 0xbc, 0x61, 0x1e, 0x87, 0xbe, 0x56, 0x6b, 0x1f, 0x3f,
  0x26, 0x35, 0x5a, 0x3d, 0x04, 0x2f, 0x84, 0x3e, 0x36, 0x31, 0xba, 0xbd,
  0x1f, 0xc2, 0xc4, 0xbe, 0x00, 0x00, 0x00, 0x00, 0xfe, 0xfe, 0xff, 0xff,
  0x04, 0x00, 0x00, 0x00, 0x40, 0x00, 0x00, 0x00, 0xe5, 0x17, 0x81, 0xbe,
  0x09, 0x3a, 0x8e, 0xbe, 0x8a, 0xee, 0x9b, 0xbe, 0x0a, 0x39, 0x46, 0xbe,
  0x12, 0x54, 0x78, 0xbe, 0xc6, 0x3e, 0xf6, 0xbe, 0xcd, 0xaa, 0x1e, 0xbf,
  0xef, 0xcc, 0x2a, 0xbe, 0xcc, 0x4c, 0x1f, 0xbe, 0x78, 0x96, 0xef, 0xbe,
  0x4a, 0x20, 0x97, 0xbe, 0xf9, 0xa7, 0x93, 0xbe, 0x69, 0xab, 0xb4, 0xbe,
  0x01, 0xa8, 0xe8, 0xbe, 0xc4, 0xb1, 0x74, 0xbe, 0x65, 0xab, 0x2a, 0xbf,
  0x00, 0x00, 0x00, 0x00, 0x00, 0x00, 0x00, 0x00, 0x00, 0x00, 0x00, 0x00,
  0x6c, 0xf9, 0xff, 0xff, 0x00, 0x00, 0x00, 0x00, 0x00, 0x00, 0x00, 0x00,
  0x00, 0x00, 0x00, 0x00, 0x7c, 0xf9, 0xff, 0xff, 0x00, 0x00, 0x00, 0x00,
  0x0f, 0x00, 0x00, 0x00, 0x4d, 0x4c, 0x49, 0x52, 0x20, 0x43, 0x6f, 0x6e,
  0x76, 0x65, 0x72, 0x74, 0x65, 0x64, 0x2e, 0x00, 0x01, 0x00, 0x00, 0x00,
  0x14, 0x00, 0x00, 0x00, 0x00, 0x00, 0x0e, 0x00, 0x18, 0x00, 0x04, 0x00,
  0x08, 0x00, 0x0c, 0x00, 0x10, 0x00, 0x14, 0x00, 0x0e, 0x00, 0x00, 0x00,
  0x70, 0x01, 0x00, 0x00, 0x64, 0x01, 0x00, 0x00, 0x58, 0x01, 0x00, 0x00,
  0x14, 0x00, 0x00, 0x00, 0x04, 0x00, 0x00, 0x00, 0x04, 0x00, 0x00, 0x00,
  0x6d, 0x61, 0x69, 0x6e, 0x00, 0x00, 0x00, 0x00, 0x05, 0x00, 0x00, 0x00,
  0x1c, 0x01, 0x00, 0x00, 0xd4, 0x00, 0x00, 0x00, 0x88, 0x00, 0x00, 0x00,
  0x50, 0x00, 0x00, 0x00, 0x14, 0x00, 0x00, 0x00, 0x00, 0x00, 0x0e, 0x00,
  0x1a, 0x00, 0x08, 0x00, 0x0c, 0x00, 0x10, 0x00, 0x07, 0x00, 0x14, 0x00,
  0x0e, 0x00, 0x00, 0x00, 0x00, 0x00, 0x00, 0x09, 0x02, 0x00, 0x00, 0x00,
  0x24, 0x00, 0x00, 0x00, 0x18, 0x00, 0x00, 0x00, 0x0c, 0x00, 0x00, 0x00,
  0x00, 0x00, 0x06, 0x00, 0x08, 0x00, 0x04, 0x00, 0x06, 0x00, 0x00, 0x00,
  0x00, 0x00, 0x80, 0x3f, 0x01, 0x00, 0x00, 0x00, 0x0c, 0x00, 0x00, 0x00,
  0x01, 0x00, 0x00, 0x00, 0x0b, 0x00, 0x00, 0x00, 0x92, 0xff, 0xff, 0xff,
  0x00, 0x00, 0x00, 0x08, 0x01, 0x00, 0x00, 0x00, 0x18, 0x00, 0x00, 0x00,
  0x0c, 0x00, 0x00, 0x00, 0x04, 0x00, 0x00, 0x00, 0x4c, 0xfa, 0xff, 0xff,
  0x01, 0x00, 0x00, 0x00, 0x0b, 0x00, 0x00, 0x00, 0x03, 0x00, 0x00, 0x00,
  0x0a, 0x00, 0x00, 0x00, 0x07, 0x00, 0x00, 0x00, 0x03, 0x00, 0x00, 0x00,
  0xc6, 0xff, 0xff, 0xff, 0x00, 0x00, 0x00, 0x08, 0x01, 0x00, 0x00, 0x00,
  0x1c, 0x00, 0x00, 0x00, 0x10, 0x00, 0x00, 0x00, 0x04, 0x00, 0x00, 0x00,
  0x1e, 0xfa, 0xff, 0xff, 0x00, 0x00, 0x00, 0x01, 0x01, 0x00, 0x00, 0x00,
  0x0a, 0x00, 0x00, 0x00, 0x03, 0x00, 0x00, 0x00, 0x09, 0x00, 0x00, 0x00,
  0x06, 0x00, 0x00, 0x00, 0x02, 0x00, 0x00, 0x00, 0x00, 0x00, 0x0e, 0x00,
  0x18, 0x00, 0x08, 0x00, 0x0c, 0x00, 0x10, 0x00, 0x07, 0x00, 0x14, 0x00,
  0x0e, 0x00, 0x00, 0x00, 0x00, 0x00, 0x00, 0x08, 0x01, 0x00, 0x00, 0x00,
  0x1c, 0x00, 0x00, 0x00, 0x10, 0x00, 0x00, 0x00, 0x04, 0x00, 0x00, 0x00,
  0x66, 0xfa, 0xff, 0xff, 0x00, 0x00, 0x00, 0x01, 0x01, 0x00, 0x00, 0x00,
  0x09, 0x00, 0x00, 0x00, 0x03, 0x00, 0x00, 0x00, 0x08, 0x00, 0x00, 0x00,
  0x05, 0x00, 0x00, 0x00, 0x01, 0x00, 0x00, 0x00, 0x00, 0x00, 0x0a, 0x00,
  0x0c, 0x00, 0x00, 0x00, 0x04, 0x00, 0x08, 0x00, 0x0a, 0x00, 0x00, 0x00,
  0x10, 0x00, 0x00, 0x00, 0x04, 0x00, 0x00, 0x00, 0x01, 0x00, 0x00, 0x00,
  0x08, 0x00, 0x00, 0x00, 0x02, 0x00, 0x00, 0x00, 0x00, 0x00, 0x00, 0x00,
  0x04, 0x00, 0x00, 0x00, 0x01, 0x00, 0x00, 0x00, 0x0c, 0x00, 0x00, 0x00,
  0x01, 0x00, 0x00, 0x00, 0x00, 0x00, 0x00, 0x00, 0x0d, 0x00, 0x00, 0x00,
  0xac, 0x04, 0x00, 0x00, 0x38, 0x04, 0x00, 0x00, 0xc8, 0x03, 0x00, 0x00,
  0x68, 0x03, 0x00, 0x00, 0x1c, 0x03, 0x00, 0x00, 0x90, 0x02, 0x00, 0x00,
  0x44, 0x02, 0x00, 0x00, 0xf8, 0x01, 0x00, 0x00, 0x98, 0x01, 0x00, 0x00,
  0x20, 0x01, 0x00, 0x00, 0xa8, 0x00, 0x00, 0x00, 0x4c, 0x00, 0x00, 0x00,
  0x04, 0x00, 0x00, 0x00, 0x9c, 0xfb, 0xff, 0xff, 0x34, 0x00, 0x00, 0x00,
  0x0d, 0x00, 0x00, 0x00, 0x1c, 0x00, 0x00, 0x00, 0x14, 0x00, 0x00, 0x00,
  0x04, 0x00, 0x00, 0x00, 0x02, 0x00, 0x00, 0x00, 0xff, 0xff, 0xff, 0xff,
  0x03, 0x00, 0x00, 0x00, 0x80, 0xfb, 0xff, 0xff, 0x08, 0x00, 0x00, 0x00,
  0x49, 0x64, 0x65, 0x6e, 0x74, 0x69, 0x74, 0x79, 0x00, 0x00, 0x00, 0x00,
  0x02, 0x00, 0x00, 0x00, 0x01, 0x00, 0x00, 0x00, 0x03, 0x00, 0x00, 0x00,
  0xe0, 0xfb, 0xff, 0xff, 0x48, 0x00, 0x00, 0x00, 0x0c, 0x00, 0x00, 0x00,
  0x1c, 0x00, 0x00, 0x00, 0x14, 0x00, 0x00, 0x00, 0x04, 0x00, 0x00, 0x00,
  0x02, 0x00, 0x00, 0x00, 0xff, 0xff, 0xff, 0xff, 0x03, 0x00, 0x00, 0x00,
  0xc4, 0xfb, 0xff, 0xff, 0x1e, 0x00, 0x00, 0x00, 0x73, 0x65, 0x71, 0x75,
  0x65, 0x6e, 0x74, 0x69, 0x61, 0x6c, 0x5f, 0x31, 0x33, 0x2f, 0x64, 0x65,
  0x6e, 0x73, 0x65, 0x5f, 0x33, 0x38, 0x2f, 0x42, 0x69, 0x61, 0x73, 0x41,
  0x64, 0x64, 0x00, 0x00, 0x02, 0x00, 0x00, 0x00, 0x01, 0x00, 0x00, 0x00,
  0x03, 0x00, 0x00, 0x00, 0x38, 0xfc, 0xff, 0xff, 0x64, 0x00, 0x00, 0x00,
  0x0b, 0x00, 0x00, 0x00, 0x1c, 0x00, 0x00, 0x00, 0x14, 0x00, 0x00, 0x00,
  0x04, 0x00, 0x00, 0x00, 0x02, 0x00, 0x00, 0x00, 0xff, 0xff, 0xff, 0xff,
  0x10, 0x00, 0x00, 0x00, 0x1c, 0xfc, 0xff, 0xff, 0x3a, 0x00, 0x00, 0x00,
  0x73, 0x65, 0x71, 0x75, 0x65, 0x6e, 0x74, 0x69, 0x61, 0x6c, 0x5f, 0x31,
  0x33, 0x2f, 0x64, 0x65, 0x6e, 0x73, 0x65, 0x5f, 0x33, 0x37, 0x2f, 0x52,
  0x65, 0x6c, 0x75, 0x3b, 0x73, 0x65, 0x71, 0x75, 0x65, 0x6e, 0x74, 0x69,
  0x61, 0x6c, 0x5f, 0x31, 0x33, 0x2f, 0x64, 0x65, 0x6e, 0x73, 0x65, 0x5f,
  0x33, 0x37, 0x2f, 0x42, 0x69, 0x61, 0x73, 0x41, 0x64, 0x64, 0x00, 0x00,
  0x02, 0x00, 0x00, 0x00, 0x01, 0x00, 0x00, 0x00, 0x10, 0x00, 0x00, 0x00,
  0xac, 0xfc, 0xff, 0xff, 0x64, 0x00, 0x00, 0x00, 0x0a, 0x00, 0x00, 0x00,
  0x1c, 0x00, 0x00, 0x00, 0x14, 0x00, 0x00, 0x00, 0x04, 0x00, 0x00, 0x00,
  0x02, 0x00, 0x00, 0x00, 0xff, 0xff, 0xff, 0xff, 0x10, 0x00, 0x00, 0x00,
  0x90, 0xfc, 0xff, 0xff, 0x3a, 0x00, 0x00, 0x00, 0x73, 0x65, 0x71, 0x75,
  0x65, 0x6e, 0x74, 0x69, 0x61, 0x6c, 0x5f, 0x31, 0x33, 0x2f, 0x64, 0x65,
  0x6e, 0x73, 0x65, 0x5f, 0x33, 0x36, 0x2f, 0x52, 0x65, 0x6c, 0x75, 0x3b,
  0x73, 0x65, 0x71, 0x75, 0x65, 0x6e, 0x74, 0x69, 0x61, 0x6c, 0x5f, 0x31,
  0x33, 0x2f, 0x64, 0x65, 0x6e, 0x73, 0x65, 0x5f, 0x33, 0x36, 0x2f, 0x42,
  0x69, 0x61, 0x73, 0x41, 0x64, 0x64, 0x00, 0x00, 0x02, 0x00, 0x00, 0x00,
  0x01, 0x00, 0x00, 0x00, 0x10, 0x00, 0x00, 0x00, 0x20, 0xfd, 0xff, 0xff,
  0x4c, 0x00, 0x00, 0x00, 0x09, 0x00, 0x00, 0x00, 0x1c, 0x00, 0x00, 0x00,
  0x14, 0x00, 0x00, 0x00, 0x04, 0x00, 0x00, 0x00, 0x02, 0x00, 0x00, 0x00,
  0xff, 0xff, 0xff, 0xff, 0xf0, 0x00, 0x00, 0x00, 0x04, 0xfd, 0xff, 0xff,
  0x20, 0x00, 0x00, 0x00, 0x73, 0x65, 0x71, 0x75, 0x65, 0x6e, 0x74, 0x69,
  0x61, 0x6c, 0x5f, 0x31, 0x33, 0x2f, 0x66, 0x6c, 0x61, 0x74, 0x74, 0x65,
  0x6e, 0x5f, 0x31, 0x33, 0x2f, 0x52, 0x65, 0x73, 0x68, 0x61, 0x70, 0x65,
  0x00, 0x00, 0x00, 0x00, 0x02, 0x00, 0x00, 0x00, 0x01, 0x00, 0x00, 0x00,
  0xf0, 0x00, 0x00, 0x00, 0xe6, 0xfd, 0xff, 0xff, 0x38, 0x00, 0x00, 0x00,
  0x08, 0x00, 0x00, 0x00, 0x0c, 0x00, 0x00, 0x00, 0x04, 0x00, 0x00, 0x00,
  0x50, 0xfd, 0xff, 0xff, 0x1d, 0x00, 0x00, 0x00, 0x73, 0x65, 0x71, 0x75,
  0x65, 0x6e, 0x74, 0x69, 0x61, 0x6c, 0x5f, 0x31, 0x33, 0x2f, 0x64, 0x65,
  0x6e, 0x73, 0x65, 0x5f, 0x33, 0x38, 0x2f, 0x4d, 0x61, 0x74, 0x4d, 0x75,
  0x6c, 0x00, 0x00, 0x00, 0x02, 0x00, 0x00, 0x00, 0x03, 0x00, 0x00, 0x00,
  0x10, 0x00, 0x00, 0x00, 0x2e, 0xfe, 0xff, 0xff, 0x38, 0x00, 0x00, 0x00,
  0x07, 0x00, 0x00, 0x00, 0x0c, 0x00, 0x00, 0x00, 0x04, 0x00, 0x00, 0x00,
  0x98, 0xfd, 0xff, 0xff, 0x1d, 0x00, 0x00, 0x00, 0x73, 0x65, 0x71, 0x75,
  0x65, 0x6e, 0x74, 0x69, 0x61, 0x6c, 0x5f, 0x31, 0x33, 0x2f, 0x64, 0x65,
  0x6e, 0x73, 0x65, 0x5f, 0x33, 0x37, 0x2f, 0x4d, 0x61, 0x74, 0x4d, 0x75,
  0x6c, 0x00, 0x00, 0x00, 0x02, 0x00, 0x00, 0x00, 0x10, 0x00, 0x00, 0x00,
  0x10, 0x00, 0x00, 0x00, 0x86, 0xff, 0xff, 0xff, 0x00, 0x00, 0x00, 0x09,
  0x64, 0x00, 0x00, 0x00, 0x06, 0x00, 0x00, 0x00, 0x38, 0x00, 0x00, 0x00,
  0x10, 0x00, 0x00, 0x00, 0x0c, 0x00, 0x0c, 0x00, 0x00, 0x00, 0x00, 0x00,
  0x04, 0x00, 0x08, 0x00, 0x0c, 0x00, 0x00, 0x00, 0x18, 0x00, 0x00, 0x00,
  0x04, 0x00, 0x00, 0x00, 0x01, 0x00, 0x00, 0x00, 0x00, 0x00, 0x00, 0x00,
  0x00, 0x00, 0x00, 0x00, 0x00, 0x00, 0x00, 0x00, 0x01, 0x00, 0x00, 0x00,
  0x79, 0xad, 0x9e, 0x3c, 0x1d, 0x00, 0x00, 0x00, 0x73, 0x65, 0x71, 0x75,
  0x65, 0x6e, 0x74, 0x69, 0x61, 0x6c, 0x5f, 0x31, 0x33, 0x2f, 0x64, 0x65,
  0x6e, 0x73, 0x65, 0x5f, 0x33, 0x36, 0x2f, 0x4d, 0x61, 0x74, 0x4d, 0x75,
  0x6c, 0x00, 0x00, 0x00, 0x02, 0x00, 0x00, 0x00, 0x10, 0x00, 0x00, 0x00,
  0xf0, 0x00, 0x00, 0x00, 0x00, 0x00, 0x0e, 0x00, 0x18, 0x00, 0x08, 0x00,
  0x07, 0x00, 0x0c, 0x00, 0x10, 0x00, 0x14, 0x00, 0x0e, 0x00, 0x00, 0x00,
  0x00, 0x00, 0x00, 0x02, 0x38, 0x00, 0x00, 0x00, 0x05, 0x00, 0x00, 0x00,
  0x0c, 0x00, 0x00, 0x00, 0x04, 0x00, 0x00, 0x00, 0x6c, 0xfe, 0xff, 0xff,
  0x1e, 0x00, 0x00, 0x00, 0x73, 0x65, 0x71, 0x75, 0x65, 0x6e, 0x74, 0x69,
  0x61, 0x6c, 0x5f, 0x31, 0x33, 0x2f, 0x66, 0x6c, 0x61, 0x74, 0x74, 0x65,
  0x6e, 0x5f, 0x31, 0x33, 0x2f, 0x43, 0x6f, 0x6e, 0x73, 0x74, 0x00, 0x00,
  0x01, 0x00, 0x00, 0x00, 0x02, 0x00, 0x00, 0x00, 0x46, 0xff, 0xff, 0xff,
  0x50, 0x00, 0x00, 0x00, 0x04, 0x00, 0x00, 0x00, 0x0c, 0x00, 0x00, 0x00,
  0x04, 0x00, 0x00, 0x00, 0xb0, 0xfe, 0xff, 0xff, 0x36, 0x00, 0x00, 0x00,
  0x73, 0x65, 0x71, 0x75, 0x65, 0x6e, 0x74, 0x69, 0x61, 0x6c, 0x5f, 0x31,
  0x33, 0x2f, 0x64, 0x65, 0x6e, 0x73, 0x65, 0x5f, 0x33, 0x38, 0x2f, 0x42,
  0x69, 0x61, 0x73, 0x41, 0x64, 0x64, 0x2f, 0x52, 0x65, 0x61, 0x64, 0x56,
  0x61, 0x72, 0x69, 0x61, 0x62, 0x6c, 0x65, 0x4f, 0x70, 0x2f, 0x72, 0x65,
  0x73, 0x6f, 0x75, 0x72, 0x63, 0x65, 0x00, 0x00, 0x01, 0x00, 0x00, 0x00,
  0x03, 0x00, 0x00, 0x00, 0xa2, 0xff, 0xff, 0xff, 0x50, 0x00, 0x00, 0x00,
  0x03, 0x00, 0x00, 0x00, 0x0c, 0x00, 0x00, 0x00, 0x04, 0x00, 0x00, 0x00,
  0x0c, 0xff, 0xff, 0xff, 0x36, 0x00, 0x00, 0x00, 0x73, 0x65, 0x71, 0x75,
  0x65, 0x6e, 0x74, 0x69, 0x61, 0x6c, 0x5f, 0x31, 0x33, 0x2f, 0x64, 0x65,
  0x6e, 0x73, 0x65, 0x5f, 0x33, 0x37, 0x2f, 0x42, 0x69, 0x61, 0x73, 0x41,
  0x64, 0x64, 0x2f, 0x52, 0x65, 0x61, 0x64, 0x56, 0x61, 0x72, 0x69, 0x61,
  0x62, 0x6c, 0x65, 0x4f, 0x70, 0x2f, 0x72, 0x65, 0x73, 0x6f, 0x75, 0x72,
  0x63, 0x65, 0x00, 0x00, 0x01, 0x00, 0x00, 0x00, 0x10, 0x00, 0x00, 0x00,
  0x00, 0x00, 0x0e, 0x00, 0x14, 0x00, 0x04, 0x00, 0x00, 0x00, 0x08, 0x00,
  0x0c, 0x00, 0x10, 0x00, 0x0e, 0x00, 0x00, 0x00, 0x50, 0x00, 0x00, 0x00,
  0x02, 0x00, 0x00, 0x00, 0x0c, 0x00, 0x00, 0x00, 0x04, 0x00, 0x00, 0x00,
  0x78, 0xff, 0xff, 0xff, 0x36, 0x00, 0x00, 0x00, 0x73, 0x65, 0x71, 0x75,
  0x65, 0x6e, 0x74, 0x69, 0x61, 0x6c, 0x5f, 0x31, 0x33, 0x2f, 0x64, 0x65,
  0x6e, 0x73, 0x65, 0x5f, 0x33, 0x36, 0x2f, 0x42, 0x69, 0x61, 0x73, 0x41,
  0x64, 0x64, 0x2f, 0x52, 0x65, 0x61, 0x64, 0x56, 0x61, 0x72, 0x69, 0x61,
  0x62, 0x6c, 0x65, 0x4f, 0x70, 0x2f, 0x72, 0x65, 0x73, 0x6f, 0x75, 0x72,
  0x63, 0x65, 0x00, 0x00, 0x01, 0x00, 0x00, 0x00, 0x10, 0x00, 0x00, 0x00,
  0x14, 0x00, 0x18, 0x00, 0x04, 0x00, 0x00, 0x00, 0x08, 0x00, 0x0c, 0x00,
  0x10, 0x00, 0x00, 0x00, 0x00, 0x00, 0x14, 0x00, 0x14, 0x00, 0x00, 0x00,
  0x40, 0x00, 0x00, 0x00, 0x01, 0x00, 0x00, 0x00, 0x28, 0x00, 0x00, 0x00,
  0x20, 0x00, 0x00, 0x00, 0x04, 0x00, 0x00, 0x00, 0x04, 0x00, 0x00, 0x00,
  0xff, 0xff, 0xff, 0xff, 0x50, 0x00, 0x00, 0x00, 0x03, 0x00, 0x00, 0x00,
  0x01, 0x00, 0x00, 0x00, 0x04, 0x00, 0x04, 0x00, 0x04, 0x00, 0x00, 0x00,
  0x08, 0x00, 0x00, 0x00, 0x69, 0x6e, 0x70, 0x75, 0x74, 0x5f, 0x31, 0x33,
  0x00, 0x00, 0x00, 0x00, 0x04, 0x00, 0x00, 0x00, 0x01, 0x00, 0x00, 0x00,
  0x50, 0x00, 0x00, 0x00, 0x03, 0x00, 0x00, 0x00, 0x01, 0x00, 0x00, 0x00,
  0x03, 0x00, 0x00, 0x00, 0x38, 0x00, 0x00, 0x00, 0x20, 0x00, 0x00, 0x00,
  0x0c, 0x00, 0x00, 0x00, 0x00, 0x00, 0x06, 0x00, 0x06, 0x00, 0x05, 0x00,
  0x06, 0x00, 0x00, 0x00, 0x00, 0x19, 0x0a, 0x00, 0x0e, 0x00, 0x07, 0x00,
  0x00, 0x00, 0x08, 0x00, 0x0a, 0x00, 0x00, 0x00, 0x00, 0x00, 0x00, 0x09,
  0x03, 0x00, 0x00, 0x00, 0x00, 0x00, 0x06, 0x00, 0x08, 0x00, 0x07, 0x00,
  0x06, 0x00, 0x00, 0x00, 0x00, 0x00, 0x00, 0x16
};
